000000D2
FFFFFF03
000000F4
FFFFFE0E
FFFFFFF6
FFFFFEE2
FFFFFE3B
00000221
000001F6
FFFFFFAF
FFFFFE3E
0000023D
FFFFFF59
000000F9
FFFFFFC9
0000003C
FFFFFDD5
FFFFFE9D
FFFFFE80
0000016E
FFFFFE9C
00000146
FFFFFE79
FFFFFDF2
FFFFFE6D
FFFFFDCB
FFFFFFB0
000000F9
FFFFFDBC
FFFFFFB4
FFFFFE56
0000019F
00000047
0000009C
FFFFFFD2
FFFFFFDA
00000156
FFFFFDFB
FFFFFEB8
FFFFFDFA
FFFFFF88
00000168
00000475
00000764
0000063F
000004BA
FFFFFB53
FFFFFFAC
FFFFFD2C
FFFFFDD1
FFFFFE55
00000118
000000B6
00000029
0000017A
FFFFFFAC
000000A6
FFFFFDD7
FFFFFFB0
0000017A
FFFFFEC7
FFFFFED5
FFFFFBE4
FFFFFBE4
FFFFF836
FFFFF998
0000021B
0000003A
FFFFF8E0
FFFFFF58
FFFFFD92
FFFFFE4E
00000390
0000020E
0000073D
000007DE
000004B4
FFFFFD17
FFFFFF0E
FFFFFA7C
FFFFFDB8
000003CA
00000079
FFFFFE43
0000013B
FFFFFFFE
00000836
00000280
000002EE
FFFFFF66
FFFFFFEC
00000425
0000054B
FFFFF835
00000605
FFFFFCA9
00000348
00000152
FFFFFED3
00000153
FFFFFD17
FFFFF9F3
FFFFFF5A
FFFFFEC5
00000339
FFFFFF03
FFFFF7A1
FFFFFFAA
0000002C
00000202
FFFFFC15
FFFFFF48
FFFFFFE8
FFFFFEE7
00000614
00000B71
00000270
FFFFFD08
FFFFFA91
000000EC
00000640
00000480
0000055C
00000D64
00000CB7
000006B9
00000906
00000942
00000658
000006ED
000006E0
00000519
0000034E
00000202
FFFFFD10
000001D8
FFFFFE75
FFFFFE9B
000003B2
FFFFF795
FFFFFE70
FFFFFFCE
0000046A
0000036C
FFFFF9DA
FFFFFF78
000000B5
000003BE
00000292
00000825
00000994
00000F26
00000D46
000006A0
00000112
00000596
0000038E
0000045B
00000243
00000493
00000805
000005C9
0000024E
00000100
FFFFFFF4
00000B03
00000207
FFFFFB22
FFFFFDEF
FFFFFFE4
0000008B
FFFFFEBF
FFFFFFEA
FFFFF85F
FFFFFD25
0000056E
00000A4F
000009AA
00000A69
00000D9E
00000A00
000007A9
00000662
000004C5
0000056F
000009B0
00000299
00000415
0000023A
0000037C
00000772
00000568
000004F5
00000B76
000003DA
FFFFFCED
FFFFFE30
FFFFFE2E
FFFFF7C4
00000001
00000101
FFFFF6B1
FFFFFF13
000000A0
00000922
000006FB
000008AF
00000612
000007EC
000002AE
0000011B
000005B4
0000056D
FFFFFC04
FFFFFC4F
FFFFFBF9
FFFFFFA9
FFFFFCC5
0000025E
00000714
0000012D
00000632
FFFFFF2C
FFFFFA61
FFFFFC09
FFFFFE92
FFFFF900
000008AB
FFFFFEFF
00000024
00000B9C
00000774
00000577
000000DF
000001E4
00000150
00000070
FFFFFF34
00000081
FFFFFB1B
FFFFFE89
FFFFFC67
FFFFFF56
0000010F
FFFFFDC0
FFFFFC3C
000004DC
000004E7
00000393
00000743
0000090B
00000896
00000139
FFFFFE92
00000264
00000930
0000014F
FFFFFFB5
00000B69
0000057C
0000070A
000004EF
00000163
FFFFFFA0
FFFFFF0F
000000A2
000002D2
FFFFFE03
FFFFFE17
FFFFFE39
FFFFFD7A
FFFFFC19
FFFFFCF9
FFFFFF0E
000005AA
000005BD
0000029E
0000172D
000009A7
FFFFF849
000001D2
0000020B
FFFFF9FA
00000344
00000BAF
0000018D
000003CF
000003D9
00000442
000000E0
000002B8
000001BC
FFFFFDE6
0000001F
00000803
FFFFFEC6
000000AF
000000B6
000001CF
FFFFFE25
0000034D
000002C5
0000052A
00000217
0000034D
000005E8
00000A63
FFFFF82D
FFFFFF45
FFFFF674
FFFFFD88
000009B7
00000C90
000000BA
0000036F
00000443
00000377
FFFFFCCF
FFFFFF89
FFFFFF64
00000337
000004E9
000007FB
0000030A
000000E1
000003EB
00000040
FFFFFBC2
FFFFFED6
FFFFFB87
FFFFFE55
0000002D
00000618
00000A22
00001207
00000003
FFFFFBD4
FFFFFF3C
000001EA
00000F75
00000CFB
000003BA
00000072
00000200
FFFFFEE0
FFFFFB9C
FFFFFD2A
FFFFFDD3
FFFFFE12
FFFFFF7D
0000031E
00000473
FFFFFD50
000001F0
000001F2
FFFFFE9B
FFFFFCF8
FFFFFD05
FFFFF855
FFFFFF1D
FFFFF864
FFFFFDE0
00000841
FFFFF9B8
000003F8
00000119
0000075B
00000F86
000000F6
00000043
FFFFF97A
000001B0
FFFFFC6E
00000010
FFFFFEA7
00000177
0000020F
0000020E
000001A2
0000039F
000000A9
000000B4
FFFFFC38
00000155
000000E7
FFFFFEB7
FFFFFB39
FFFFF51B
FFFFF5E3
FFFFF944
000003CE
000003CC
0000028A
00000232
FFFFFEB4
00000273
FFFFFD54
FFFFF399
FFFFFC9B
FFFFFF9D
FFFFF946
FFFFFB3E
FFFFFC08
000000F6
FFFFFFA2
00000112
000002E6
0000034F
0000011E
00000074
FFFFFE25
FFFFFCA2
FFFFFC81
FFFFFBCA
FFFFFBAE
FFFFFD8B
FFFFFD8F
000003A9
000005A0
FFFFFBEB
000003CE
0000015A
FFFFF8CF
FFFFFD36
FFFFFBAD
FFFFF840
FFFFFA7F
FFFFFA2B
FFFFFB88
FFFFFAC5
FFFFFACB
FFFFFBDA
FFFFFF40
000002E7
00000262
FFFFFDC4
000003B6
00000053
0000012E
FFFFF748
FFFFF9D9
FFFFF783
FFFFFABC
FFFFFC3A
00000106
000003D0
FFFFF91D
FFFFFE6A
0000020C
0000041A
0000034F
FFFFFEB8
00000451
FFFFF84C
FFFFF97E
FFFFF485
FFFFFD14
FFFFFB51
FFFFF932
FFFFFA60
00000145
0000045E
00000072
FFFFFF66
FFFFFDD7
000001D8
000002E6
FFFFF616
FFFFF8EC
FFFFF7FE
FFFFF7FD
000000FA
00000476
FFFFFDCB
FFFFFDC1
FFFFFCB1
000000FF
0000001F
000003BB
0000012F
00000470
FFFFFC32
FFFFFBEF
FFFFFB42
FFFFFF0C
FFFFFBB0
FFFFF385
FFFFFA31
00000194
000001A9
000000AE
FFFFFCB4
FFFFFF11
0000002F
FFFFF980
FFFFF9EC
FFFFFFB3
FFFFF52F
FFFFF4A1
0000024B
00000375
FFFFF725
000004E8
0000049A
00000E6D
00000084
0000023B
FFFFFA59
00000170
000007B7
0000034F
FFFFFB99
FFFFFE3E
FFFFFA75
FFFFFB7F
FFFFFA52
FFFFF7FD
FFFFF91F
00000128
FFFFFBE7
FFFFFD3C
FFFFFBA8
FFFFF662
FFFFFE6F
FFFFFF27
FFFFF491
FFFFF8C5
FFFFFD47
00000004
FFFFF8DF
0000011A
FFFFFB44
000000E2
FFFFF9BB
FFFFFFC5
FFFFFB7B
FFFFFCC1
00000784
00000474
FFFFFEE4
0000024F
000001BD
00000081
FFFFF67B
FFFFF975
FFFFFAA0
FFFFFD15
FFFFFC88
FFFFFAD9
FFFFFAAA
FFFFFE73
00000271
00000185
FFFFFA7E
FFFFFD86
0000029A
000000F2
00000254
000002BA
FFFFF54D
FFFFFE4A
000002AA
FFFFF8A7
FFFFF93D
00000385
000006C4
00000168
FFFFFE4E
0000067E
000005AE
0000042E
FFFFFCB0
FFFFFEEA
000000D1
FFFFFDF3
FFFFFE84
FFFFFD2F
FFFFFB54
FFFFFF2B
0000042E
000005E7
000001F0
00000317
00000792
FFFFFE1C
00000108
FFFFFFD1
00000194
000003CC
00000475
FFFFFBB9
FFFFF8E8
000004B1
00000298
000009AB
00000259
000002E0
00000756
00000604
0000030C
0000017F
FFFFFFCB
000001E2
00000214
00000109
000000A7
00000140
000000F0
0000082D
00000609
0000010B
FFFFFFBB
00000058
0000025A
00000006
000000DF
000000F6
000004D1
FFFFFD94
000004E7
0000033F
000000EF
000004EA
00000722
00000002
000003B4
00000259
0000054E
00000368
00000337
0000035C
FFFFFF16
FFFFFBC9
00000111
000001A4
FFFFFF55
000004E9
FFFFFCD3
FFFFFF7B
0000077D
00000ABB
00000027
00000823
FFFFFDD2
FFFFFF4F
FFFFFF1B
00000BEB
00000843
00000482
00000056
FFFFFBF2
FFFFFCCB
FFFFFF7F
FFFFFF77
000001A1
00000008
00000027
FFFFFE8B
FFFFFDD1
FFFFFE92
000001CA
000001F5
00000185
000001AE
00000741
00000785
00000790
00000784
00000EFD
000009C7
000006AA
FFFFFE90
00000246
000001AB
000004A3
000006EC
0000020F
FFFFFE69
0000040B
0000010B
FFFFFEC1
FFFFFE16
00000187
FFFFFE15
FFFFFFC9
FFFFFC55
FFFFF8F1
FFFFFEE4
000003E6
FFFFFB78
000001D9
00000797
000009E7
0000038B
FFFFFD55
00000312
FFFFFC6A
FFFFF82B
FFFFFC9F
FFFFFF3A
000000E7
000001C5
00000376
FFFFFCEF
FFFFF2D2
FFFFFCF5
00000165
00000627
00000625
FFFFFE51
0000045A
000000B5
00000450
000003EE
00000431
00000A25
00000990
0000096A
00000A09
00000F4E
00000D50
0000033B
FFFFFE47
FFFFFED8
00000956
FFFFFB72
FFFFFC75
00000041
FFFFFEE8
00000176
000000A8
000005F1
FFFFFD58
FFFFFD98
FFFFFBE7
000005E7
00000406
00000710
00000B21
0000080A
0000032D
0000098D
00001322
000011BC
00000D2B
00001117
00000DFC
00000A13
00000C0A
000008EF
00000A2B
000000B9
0000016D
FFFFFE85
FFFFFE82
000000D3
FFFFFE2E
FFFFFE5B
FFFFFEA3
FFFFFF3E
FFFFFAD3
FFFFF824
000004FA
000006FC
0000056F
FFFFFF5D
000000A0
00000576
000007CE
00000292
00000E1E
00000B35
000001D4
FFFFFC0C
0000095A
0000004A
FFFFF750
FFFFFB08
FFFFFFE7
FFFFFD1E
FFFFFE01
FFFFFDE0
000000AE
FFFFFF9F
0000013E
0000002B
000001DB
FFFFFE5A
0000008B
00000021
000000E1
00000025
FFFFFF59
000001FB
000001BE
000000ED
00000B07
00000A3C
000004F7
0000061B
FFFFFE0A
00000224
0000007E
00000075
000001AA
0000009F
FFFFFDC0
00000205
FFFFFEA2
0000015E
00000091
FFFFFDD3
FFFFFDC7
0000001B
000001D2
FFFFFF76
00000177
000002C3
000006B4
000006C5
000008F7
0000074D
000008A2
FFFFFED8
FFFFFF5D
FFFFFE7F
FFFFF61A
00000429
000006DB
00000BDC
000011D6
00000A65
00000EAD
00000802
00000649
000005A1
FFFFFF36
00000107
FFFFFDC7
FFFFFEBB
0000002B
000000CC
0000016F
00000FC6
00000F8E
000008C3
00001111
00000569
000011AB
00000CFF
00000694
00000171
FFFFFB02
FFFFF7EF
000003F1
000000CC
000002E7
00000557
00000C12
00000887
00000402
000001CA
0000042B
00000D30
000004B1
0000015A
FFFFFDD1
FFFFFE9A
FFFFFF97
FFFFFDBF
FFFFF5F9
00000CF1
00000BE0
00000953
000011E4
000007D9
00000E37
00000997
00000645
000007F5
000000F9
00000784
000007C9
000003F8
0000021A
FFFFFE2B
FFFFF5CE
FFFFFB0D
FFFFFC01
00000664
00000562
00000A02
00000C7C
00000457
00000936
00000077
FFFFFEC0
FFFFFEC7
FFFFF27E
FFFFF735
0000032E
00000C9B
000009DC
000006B5
0000079F
000004D6
00000AC2
0000054A
0000039D
00000B09
00000C1B
FFFFFE94
FFFFFA29
000002F8
FFFFF5EC
FFFFFAEB
FFFFFAE9
FFFFF0E1
FFFFF428
00000DA5
00000CC2
0000039F
000004C4
000009D7
00000060
FFFFFFE9
FFFFF6A3
00000693
00000BAD
00000424
0000093B
00000A1D
00000579
00000346
00000693
FFFFFB3D
FFFFFEC9
FFFFF8BF
FFFFFD58
FFFFF4F5
FFFFF344
FFFFEB77
FFFFF23A
FFFFF356
FFFFFFDA
FFFFF88B
FFFFF846
000001B9
00000355
FFFFFDD2
00000897
000009A3
000001A5
00000143
000001FA
00000607
00000B00
00001285
00000B39
00000637
0000061B
00000084
FFFFFA08
FFFFFFB9
FFFFF722
FFFFF1F6
FFFFED2F
FFFFEE00
FFFFF19B
FFFFED12
FFFFED18
FFFFF912
00000260
FFFFF54D
FFFFFB52
0000027D
000000C0
000000C0
0000007E
000001DB
FFFFFEA2
000003E2
FFFFFAA2
FFFFFC85
00000F22
0000118F
00000781
00000889
00000728
FFFFFFBA
00000187
000001EA
FFFFF7B4
FFFFF140
FFFFF170
FFFFF2C2
FFFFF40D
FFFFF871
FFFFF521
FFFFEECB
FFFFF1B7
FFFFF851
FFFFF790
FFFFF965
0000081C
00000A81
FFFFFDFD
00000098
00000DC4
FFFFF97C
FFFFFB43
FFFFF7A2
00000B58
00000584
FFFFFD6D
000001F9
00000041
00000248
00000275
000000C3
FFFFF906
FFFFF04C
FFFFED2A
FFFFF442
FFFFF955
FFFFFAF1
FFFFFA35
FFFFF589
000003C0
000003EF
FFFFFBF9
00000598
000004D6
00000961
FFFFF3F4
FFFFFF0A
FFFFF9F1
FFFFF1E7
0000069D
000001B6
0000049C
00000273
FFFFF98A
000000B5
00000541
000002FD
0000010B
000002ED
FFFFFD6C
FFFFF667
FFFFF1B7
FFFFF79C
00000534
000000B0
FFFFFF6C
00000084
000005E2
0000062C
00000093
00000577
000008CA
FFFFFDA2
FFFFF5D6
FFFFF519
FFFFFA2E
FFFFFA3A
000008D4
00000698
FFFFFDBA
FFFFFC8D
FFFFFCA5
0000039C
0000030F
FFFFFE4D
00000301
000001A6
FFFFFCD7
FFFFF7EE
FFFFF912
000006B1
00000671
000003BD
FFFFFEED
000002AC
0000049E
00000B8C
FFFFFF20
0000067A
00000BF4
00000348
00000129
FFFFF04E
FFFFFCCA
000012B3
FFFFF82D
FFFFFDB0
FFFFF9EC
FFFFFF89
FFFFFAC9
FFFFFF1B
00000326
0000021F
0000019E
000001DE
FFFFF942
FFFFF6AF
000005D6
0000099B
00000BC8
000006EA
00000567
000006B7
000007A4
00000EDF
0000083A
00000F87
00001032
000004D7
FFFFFD5E
FFFFF3BF
FFFFFF85
FFFFFF2B
FFFFF563
000000A0
FFFFF146
FFFFFA14
FFFFFDD8
00000390
00000335
00000823
00000659
00000383
FFFFFBBF
0000038F
000008C0
00000901
000006EF
000007D1
00000692
00000658
00000923
00000AE9
00000D41
0000003C
00001541
000008F6
000004F4
FFFFEED5
000004A7
00000297
FFFFFA1E
FFFFFC31
FFFFED78
FFFFFDB7
FFFFFE8A
FFFFFCE1
000003A1
000002A1
00000450
000002F1
FFFFFD7C
000000B5
FFFFF95C
0000026D
000004FF
000002B4
00000815
000008CF
000001DE
000004A9
0000091C
00000E37
00000A94
00000118
000008B7
FFFFFD94
FFFFFE81
00000018
FFFFF930
FFFFFE97
FFFFF288
000000A5
FFFFFDF3
FFFFFF6E
000003C5
00000641
0000022D
00000608
00000319
000003E0
FFFFFF96
00000670
000005BF
0000043B
0000071B
00000664
000001A5
00000553
00000C1F
0000075D
00000358
FFFFFEFD
FFFFFDF9
FFFFFF2E
FFFFFA2D
000002B5
0000026D
0000063F
FFFFF3D8
FFFFF8B3
FFFFFF90
00000107
00000584
0000022D
FFFFFF89
0000016C
00000577
000008F0
00000B18
00000661
FFFFFE36
000000C0
00000201
0000081A
00000854
000007BA
000005BB
FFFFFFFF
FFFFFC56
FFFFFF3D
FFFFF723
00000A39
FFFFFC99
FFFFFFB4
FFFFFE77
00000635
FFFFEF13
FFFFF3DC
FFFFFBA4
00000158
0000017E
FFFFFD6D
FFFFFC74
FFFFFFCF
00000385
0000034F
0000069F
00000415
FFFFFCF4
FFFFFD94
000002F3
0000064D
0000001D
0000054F
0000036D
FFFFFD40
FFFFF7ED
0000059D
FFFFFA14
FFFFFC93
0000021B
000000A6
FFFFF6C3
FFFFF814
FFFFF5F3
FFFFFB7D
FFFFF71B
FFFFFAB0
FFFFFF02
FFFFFAC9
FFFFF776
FFFFFFBD
FFFFFFF7
00000567
0000017D
00000233
000004DC
FFFFFE71
0000048D
FFFFFC5C
FFFFFBFD
FFFFFEB0
FFFFFA22
FFFFF9F5
FFFFF06A
0000024B
FFFFEE91
FFFFFB39
FFFFFD63
FFFFFB72
FFFFF04A
FFFFF82F
FFFFFD7F
00000137
FFFFFC9C
00000468
000002AF
00000004
00000025
00000434
00000F6D
00000D88
00000836
00000369
0000007F
FFFFFB7D
000000C0
FFFFF342
FFFFEC6A
FFFFF4A9
FFFFFD4E
00000798
FFFFF942
000004ED
FFFFF19E
FFFFFA52
FFFFFABB
000008C9
00000625
FFFFFC0C
000009AD
0000045D
000004E4
00000367
FFFFFF7F
FFFFFD18
000008D6
0000099C
00000BD0
00000B37
00000D4F
000002F7
FFFFFA84
FFFFFDF3
FFFFFB30
FFFFEB3C
FFFFF0AA
FFFFF37E
FFFFFB47
FFFFFF8A
FFFFF9DC
FFFFFFC8
FFFFFFF2
FFFFF5E0
FFFFFF3E
00000860
000009B3
FFFFFE66
FFFFF71B
FFFFFB1B
FFFFF867
FFFFFC6F
FFFFF8D8
FFFFFFEF
00000A0B
000009C2
0000058B
00000511
00000A49
FFFFFD93
FFFFF848
FFFFF9D3
FFFFFCA7
FFFFEEBF
FFFFF25F
FFFFF6BF
FFFFF9D5
FFFFF8A3
FFFFF4B9
FFFFFA3A
00000354
FFFFF20B
FFFFFD9F
FFFFFE07
000004FA
00000330
FFFFEF51
FFFFF3BB
FFFFF93B
000000C8
000002CD
FFFFFF06
000005FC
00000898
00000564
000006D4
000003A5
FFFFF977
FFFFFC46
0000068C
000003BF
FFFFFCDD
FFFFFA52
FFFFF453
FFFFFDDE
FFFFFE67
FFFFFC25
00000185
00001069
FFFFFDF5
000000A1
FFFFFD13
00000731
FFFFFDB9
FFFFE906
FFFFE73F
FFFFF435
0000032C
FFFFFDFA
00000705
000005D9
000002D5
FFFFFF20
00000415
FFFFFDBD
FFFFFD8E
0000032A
00000319
FFFFFCE2
FFFFFDB4
FFFFF664
FFFFF316
FFFFFB2E
FFFFF6B4
FFFFFEEC
000004C4
00001054
FFFFFE86
FFFFFEBA
00000145
000000FD
FFFFFD7B
FFFFEC77
FFFFDC94
FFFFEAEC
FFFFEFE2
FFFFEDB1
FFFFF065
FFFFF11B
FFFFF095
FFFFFDFC
FFFFFEB4
00000091
0000020B
FFFFFB33
FFFFFBBC
FFFFF4FE
FFFFF278
FFFFFD9F
000001A6
FFFFFC32
FFFFF7BE
FFFFF2B9
FFFFFDE4
000007EC
0000003D
FFFFFED8
000001FF
00000238
0000051F
FFFFEC6B
FFFFE4BE
FFFFDB1A
FFFFDEE1
FFFFE1AD
FFFFE7CA
FFFFEC85
FFFFEE37
FFFFF732
FFFFF994
000007A9
00000102
FFFFFE3E
FFFFFAED
FFFFFA54
FFFFFF87
FFFFFF8D
00000A0B
00000849
000001B5
00000104
0000013A
FFFFFEF6
00000067
00000020
000000C6
FFFFFF05
00000112
FFFFF0E6
FFFFEA9D
FFFFED1B
FFFFE923
FFFFE200
FFFFE68E
FFFFF897
FFFFF52E
FFFFF6FA
FFFFFC18
FFFFF77E
FFFFFE0A
00000025
00000243
00000295
00000447
FFFFFD36
000008B8
00000694
00000900
0000076F
FFFFF884
0000005F
FFFFFDD7
0000023C
0000004E
FFFFFEF3
FFFFFDC2
FFFFF89F
FFFFF772
FFFFEFC5
FFFFE6F9
FFFFE75D
FFFFEB68
FFFFEAB5
FFFFEFE3
FFFFF6BD
FFFFEE17
FFFFD99A
FFFFE3B4
FFFFEA0B
FFFFFAE6
FFFFF473
FFFFE90B
FFFFE59C
FFFFF378
FFFFF371
FFFFFA17
FFFFFA1A
000000AB
0000018A
0000010F
0000006F
0000018C
FFFFFF3E
FFFFFFBF
00000160
FFFFFFC3
FFFFFC50
FFFFFB89
FFFFF868
FFFFFD0E
FFFFF4E7
FFFFF7A8
FFFFFBEC
FFFFF4FD
FFFFEE3E
FFFFF40A
FFFFFB6D
FFFFFB41
FFFFF4FD
FFFFF99F
0000026E
000005C5
0000006C
00000068
FFFFFFB8
FFFFFED3
000000A8
FFFFFDFC
FFFFFF53
0000015D
FFFFFE52
000001BD
FFFFFE48
000000D5
FFFFFDF2
FFFFFE28
000000FA
FFFFFE8A
FFFFFE49
000001EF
FFFFFE36
00000113
FFFFFF09
FFFFFDFB
00000127
00000154
FFFFFE8E
00000236
000001AD
FFFFFF47
0000005D
000000FD
00000093
000000D2
FFFFFE6B
FFFFFE6E
FFFFFF9C
000001B8
0000008E
FFFFFE63
000000F7
FFFFFF92
00000177
0000004E
000001FB
00000116
0000020A
000002BC
00000503
0000041A
FFFFFDA3
00000078
FFFFFF7F
0000032A
00000263
FFFFFFFE
00000055
FFFFFFA0
00000331
FFFFFE31
00000017
FFFFFFC7
FFFFFE1A
0000008D
00000038
FFFFFE4F
FFFFFF73
FFFFFEDB
0000013C
FFFFFF0D
00000072
FFFFFFC7
000001F1
000004B2
000003FE
FFFFFFE2
00000255
FFFFFC15
FFFFFC2D
FFFFF682
FFFFF740
FFFFF8C9
FFFFFBDA
FFFFFE3F
FFFFFE28
FFFFFF71
000001B1
000001AD
00000560
000000F5
FFFFFE1A
0000000F
0000004D
000000FC
00000195
0000016F
000001AC
FFFFFE90
FFFFFB60
FFFFF9AE
FFFFFCED
00000649
0000058E
00000C17
00000E66
00000147
FFFFF60F
FFFFF648
FFFFF579
00000458
00001007
00000AC8
FFFFFE5E
FFFFFFEB
FFFFF9CE
FFFFF3CD
00000031
00000F54
00000B97
FFFFFEB4
0000019B
FFFFFD59
0000004E
FFFFFFE0
FFFFFF21
FFFFFEFA
FFFFFECE
FFFFF9A4
FFFFF35D
FFFFFE1C
FFFFFD7D
00000047
FFFFFE5D
FFFFF7C3
FFFFF898
FFFFFF69
FFFFFE71
000008F5
0000100D
00000AD8
00000C88
0000115D
00000754
00000546
0000042F
000001A2
00000681
00000592
000000C7
FFFFFEAB
0000008A
0000017F
FFFFF71F
FFFFEED0
FFFFF6BD
FFFFFF91
00000573
FFFFFF49
FFFFFC15
FFFFFD09
FFFFF975
FFFFF9D8
FFFFFE58
FFFFFDBC
FFFFFCEA
FFFFFBF4
FFFFFDDB
FFFFFE44
00000365
00000F41
000009F7
000005B5
0000061C
00000522
00000461
00000321
FFFFFE6E
00000405
000005AC
FFFFFF27
FFFFF69F
FFFFF854
FFFFFF06
00000512
000005CA
00000762
000007B0
00000173
FFFFFF65
FFFFFC72
FFFFFDC0
FFFFF915
FFFFF7DC
000000B8
FFFFFF0F
00000408
0000028F
00000A96
000003A7
00000250
00000837
FFFFFFF3
000000E2
0000066D
FFFFFE69
00000896
00000B68
00000400
00000478
00000009
00000222
00000921
00000742
000008B2
0000095B
0000067B
000003BC
00000728
00000123
000000D1
000006F7
00000554
00000692
00000339
00000476
0000077C
000009E2
00000681
000004C2
FFFFFC09
00000E06
000007ED
0000009D
000004AE
00000FA0
00000255
000009B9
FFFFFDFC
FFFFF8F8
00000604
000001C1
FFFFFFE4
000003A6
00000A53
00000B49
000009C6
000006B6
000006E1
000009C8
00000559
00000258
0000038F
00000619
00000AB9
00000929
00000F60
00000A8C
FFFFF961
000004F3
0000024D
000001AC
0000046A
00000804
FFFFFBAC
0000001E
FFFFFDCD
0000011B
0000050A
0000009F
FFFFFEAC
0000035E
0000033D
00000760
00000835
000007B6
00000672
0000054B
0000045D
000008A7
00000668
0000083B
0000012D
00000463
00000E53
00001065
00000BE0
FFFFFD38
00000955
00000236
000002BA
00000A5E
FFFFFF9C
FFFFF81E
0000093A
00000104
FFFFFE9D
FFFFFD39
FFFFFC0B
00000463
00000178
00000371
00000509
FFFFFE42
0000023E
FFFFFF7D
00000097
00000749
0000066F
0000077A
FFFFFF61
FFFFFD5E
00000901
00000DA9
0000080B
00000BFC
00000170
000000DD
000002F7
FFFFFBC1
FFFFFBB6
00000114
000000C1
FFFFFF9E
FFFFFBFA
FFFFF65A
FFFFFBFB
FFFFFC0F
00000044
00000111
FFFFF5A9
FFFFEF99
FFFFF92B
FFFFF9E4
FFFFFE63
FFFFFCC6
FFFFFD43
0000020D
FFFFFC05
FFFFF78E
00000005
FFFFFFA8
000001C5
00000ADB
FFFFFE90
00000038
00000344
0000020B
00000005
FFFFFF6E
FFFFF926
FFFFFC02
FFFFFFE7
FFFFFF94
FFFFFE2A
FFFFFF62
FFFFFE89
0000023F
FFFFEDCD
FFFFEA6B
FFFFF33E
FFFFF49C
FFFFFB52
FFFFFA59
FFFFFA4B
FFFFF6E5
FFFFF72B
FFFFF967
FFFFF9C6
FFFFFCD4
FFFFFFD8
00000972
FFFFFBFC
000001F2
0000041C
000008D8
000002C9
FFFFF62B
FFFFF44B
FFFFFCEC
FFFFFE5D
FFFFFF36
FFFFFE0A
000004CB
000007E5
FFFFFB77
FFFFF486
FFFFF905
FFFFF487
FFFFF82E
FFFFF977
FFFFFAF8
FFFFF951
FFFFFA4D
FFFFF4D0
FFFFF941
FFFFFE54
0000010C
000002CD
00000BFC
FFFFFF6B
000003FE
00000152
00000978
00000167
FFFFF780
FFFFF96D
FFFFFCC5
FFFFFE68
FFFFFD33
FFFFFE5B
0000083A
00000168
FFFFF2E4
FFFFF019
FFFFF8DE
FFFFFB67
FFFFF593
FFFFFBEE
FFFFF39F
FFFFF4E6
FFFFF46A
FFFFFC6C
FFFFFE8B
0000040F
FFFFFAE2
000001E7
00000776
00000456
000001E0
FFFFFDFA
00000489
FFFFFE1F
FFFFFF6D
000002B7
FFFFF64F
0000007E
FFFFFD88
00000272
0000061F
FFFFFCE4
FFFFF915
FFFFF341
FFFFF2D7
FFFFF65C
FFFFF529
FFFFF805
FFFFF6D5
FFFFF0EC
FFFFF1EE
FFFFF8E7
FFFFFEF1
000004AC
000003E1
00000183
000005FC
000004CF
000001B8
FFFFFCC4
FFFFFE90
0000034C
00000333
000002B9
FFFFF4CE
FFFFF975
00000394
000005BB
00000327
FFFFFCEA
FFFFF7D0
FFFFFAD8
FFFFFA13
FFFFF8EE
FFFFFD17
FFFFFCEA
FFFFF718
FFFFF607
FFFFEE21
FFFFFC7D
FFFFFFE2
00000BA0
00000261
00000527
000006C2
000005ED
FFFFFE2D
FFFFFF90
FFFFFB79
00000321
00000509
000006F3
FFFFF4B0
FFFFF85F
FFFFFF09
00000090
00000259
FFFFFD24
FFFFFA7D
FFFFFCD1
FFFFF833
FFFFF7A1
FFFFFB07
FFFFFFE0
FFFFFC61
FFFFF61E
FFFFF1A9
FFFFFA68
00000398
00000680
FFFFF875
00000479
000003B8
000007C2
000003BC
0000007D
00000132
FFFFFDB3
00000A12
000002F1
FFFFFBA5
FFFFF877
FFFFF58D
FFFFFDCC
FFFFFBEC
FFFFFC50
FFFFFA3C
FFFFF830
FFFFF214
FFFFF964
FFFFFE99
FFFFFB35
FFFFFB2A
FFFFF128
FFFFF1A4
FFFFFDEA
000003BF
FFFFFB65
FFFFF2A8
FFFFFE73
00000AEC
000007E8
FFFFFF15
000000B7
00000B6E
FFFFF529
0000063F
00000621
0000029B
FFFFF8DC
FFFFFB9D
FFFFFE2A
00000074
0000006E
000003C2
FFFFFDB5
FFFFFA97
FFFFFA04
FFFFFC68
FFFFFE03
FFFFF852
FFFFF8D4
FFFFFF74
FFFFFE0E
FFFFFCA4
FFFFF2E0
FFFFF298
FFFFFDFA
0000099C
000006D7
000001EB
FFFFFF4F
00000D37
0000008D
000008CA
00000C76
00000A0A
000000D0
000003D9
000006CC
00000250
00000780
0000071D
FFFFFF7E
000003AC
000003E3
0000013D
FFFFFB60
FFFFFD90
FFFFFED5
FFFFFFF3
FFFFF8BA
FFFFF827
FFFFF7CA
FFFFF320
FFFFF899
000000EF
FFFFFF81
00000146
FFFFF951
0000130C
000006D2
000006C8
000007C1
00000662
0000004D
000005C6
000003B0
000006EF
00000BF6
000008C4
00000445
000007E1
0000081E
00000755
FFFFFF25
FFFFFE55
0000049C
FFFFFF9C
FFFFF6A9
FFFFFD85
00000024
000003FB
00000155
000003C0
0000016F
000001B3
FFFFF93C
00000E30
00000AFF
FFFFFD78
00000C1E
00000B91
000007F4
00000417
00000301
0000014A
00000B46
000005CF
000002C0
000001B9
0000051A
000000BB
0000036B
000005A8
00000798
FFFFFDC1
FFFFF7A5
000005E6
000005AF
FFFFFA67
FFFFFFCC
FFFFFFEA
0000002D
FFFFFE59
00000078
FFFFF947
00001123
00000768
00000A94
00000EA7
00000E44
000003EE
00000500
000002BA
0000072E
000005C3
FFFFFF34
FFFFFD09
000002F5
0000077E
00000BB2
00000C80
00000B13
00000607
0000087E
000006B7
0000042A
00000592
0000072B
00000049
FFFFFFF5
00000060
FFFFFED3
000002DF
0000036E
00000623
000006B7
000006BA
000006E7
FFFFFDC8
00000210
00000565
00000299
00000529
000004D3
00000394
00000629
00000B93
000010F8
000012EF
0000165C
00000CAF
00001214
00000249
FFFFFA57
00000E5B
0000048D
FFFFFD79
000001AE
FFFFFE46
FFFFFE5D
FFFFF422
000001FF
00000AA8
FFFFFD61
000005D6
00000AC5
000008E0
000009AE
000008B4
00000942
00000A04
00000A9A
000005D2
00000C1A
0000093D
00000CE5
00000DB7
00001477
000008B6
00000840
00000423
FFFFFEC9
000005BD
00000047
000000A4
00000071
FFFFFE06
00000121
00000138
FFFFFF56
FFFFEE1E
FFFFECF0
FFFFEE28
FFFFFAEE
FFFFFA3C
FFFFF81B
000002AA
00000067
0000000B
000007B7
00000545
00001363
00000B2E
FFFFF85B
FFFFFFBB
0000168E
0000038A
0000031E
000000C7
000002FF
0000009F
0000001D
FFFFFF3B
000000F0
0000013C
0000013D
0000011A
FFFFFF51
00000154
00000061
000007F7
00000208
00000241
00000119
000008AC
0000092A
00000466
00000B1A
00000728
FFFFFEC5
FFFFFE91
000000EF
FFFFF553
FFFFFE3D
FFFFFCB6
FFFFFC70
FFFFFCB5
FFFFFF37
00000056
000000E4
0000007E
00000175
00000203
00000195
00000063
FFFFFED4
FFFFFEEF
FFFFFFEE
00000212
FFFFFF64
00000016
FFFFFDD4
00000049
FFFFFF36
00000152
FFFFFF3F
FFFFFDD3
FFFFFFE2
0000017D
000000D5
00000239
FFFFFFC0
FFFFFE57
FFFFFED1
0000013A
00000209
00000086
00000089
FFFFFE52
00000188
FFFFFF22
FFFFFFCB
00000045
FFFFFF86
FFFFFE08
FFFFFD28
FFFFF82D
FFFFFA21
FFFFF7A5
FFFFFD2E
FFFFFE00
FFFFFD5B
FFFFFB12
FFFFF799
FFFFF804
FFFFFB34
FFFFF877
FFFFFB69
FFFFFD28
FFFFFF10
FFFFFC4A
FFFFFCD9
FFFFFDFB
FFFFFD2F
000000D0
FFFFFDE6
FFFFFF59
FFFFFDCD
FFFFFE44
0000022E
FFFFFFDB
FFFFFBD4
FFFFFC1C
FFFFFEAA
FFFFF940
FFFFF75D
FFFFF7B8
FFFFF3A5
FFFFEF5F
FFFFFF2C
FFFFF6FD
FFFFEC49
FFFFEAB8
FFFFF93D
FFFFF90A
FFFFF84C
FFFFF478
FFFFFF98
0000018E
00000506
000003A9
FFFFFC9E
00000088
000001EC
00000199
FFFFFF56
00000106
FFFFFF7F
000000FC
FFFFFA17
FFFFEF08
FFFFF932
FFFFFAC5
FFFFF237
FFFFE587
FFFFE8E7
FFFFF27D
FFFFFC98
FFFFF42A
FFFFDF88
FFFFE28C
FFFFE85B
FFFFFB8E
FFFFFD74
FFFFE682
FFFFF682
FFFFF846
FFFFFE82
00000EE8
00000983
00000820
FFFFFF3E
0000028C
000001B9
0000019A
00000132
FFFFFE99
FFFFF7F0
0000011C
FFFFF8DE
0000001A
FFFFFE10
FFFFEAB8
FFFFEEB3
FFFFFDE7
0000020A
00001328
00000C32
FFFFF80A
FFFFFA1C
FFFFFC46
FFFFFA1F
00000152
00000660
0000019A
00000378
00000DF7
0000025C
FFFFFBCC
FFFFFB06
FFFFFD66
FFFFFE69
000000FF
0000001B
00000002
FFFFF339
FFFFF3D7
FFFFF799
FFFFFA97
FFFFFAF8
FFFFFB69
000002C3
000006B8
FFFFFEF3
0000046F
FFFFF5BA
FFFFEA1F
FFFFE23C
FFFFF647
00000771
00000AF4
00000E55
000007A5
FFFFFD2D
FFFFF9D2
FFFFFDD2
FFFFFD75
FFFFFE5D
FFFFF569
FFFFFEA9
FFFFFF54
FFFFFF48
00000A42
00000314
FFFFFD7F
000005C1
00000598
FFFFFA5C
00000180
00000585
FFFFFDE6
00000315
000006F5
FFFFF8D9
FFFFEB72
FFFFE7D8
FFFFF965
000002F9
00000CDF
00000BE1
00000625
00000597
FFFFFD3F
00000561
FFFFFCB5
0000001D
FFFFFD5F
FFFFFFD9
0000021F
000004B1
00000FA3
00000EF0
00000680
000003FA
000003FF
FFFFFF23
0000044F
0000073C
000005B8
00000422
0000084E
FFFFF9A0
FFFFEB3D
FFFFF1DB
FFFFFD8B
00000DDC
00000CE5
00000B4A
000002A4
0000025E
00000726
00000180
FFFFFDB3
FFFFFE32
FFFFFB3B
FFFFFCC4
FFFFFAD4
00000678
00001105
00000BE5
00000DF1
00000675
FFFFFDD6
0000003D
00000450
00000FBA
00000AB8
000005CD
00000336
FFFFF5CE
FFFFED4B
FFFFF446
00000332
00000C66
00000FD1
FFFFFD95
00000234
00000359
0000047C
0000034B
FFFFFEB1
FFFFFEE3
FFFFF305
FFFFF9C5
0000046D
000009E6
000001A6
000007FF
0000100F
000008BB
FFFFFD2A
FFFFFD64
000007FE
00000BE7
00000905
000005C7
000004FA
FFFFF294
FFFFE812
FFFFF34C
00000499
00000476
000002A4
FFFFFC02
000002C1
00000376
000002B8
00000884
0000006A
00000322
FFFFF449
FFFFFE7E
000005B7
0000075E
00000C68
000004EB
000009F8
00000251
FFFFFAE0
FFFFFFC1
00000560
00000962
0000075C
00000764
00000690
FFFFF1CC
FFFFE910
FFFFFA6B
000003AD
00000321
FFFFFF42
FFFFFD25
FFFFF9EB
FFFFFBF3
FFFFFE6C
FFFFFD27
000002C6
FFFFFF2F
FFFFF815
FFFFFE3B
00000CC2
00000798
00000F46
00000675
00000299
00000025
00000269
00000268
0000018E
00000389
000005E7
00000624
FFFFFEFB
FFFFEADC
FFFFEDE9
FFFFF87D
00000328
00000296
000000AC
FFFFFFAD
FFFFFDE1
FFFFFB0F
FFFFF47B
FFFFF29E
FFFFEECA
FFFFFD24
FFFFFF54
00000111
000009B0
000008B5
00000D9D
FFFFFE37
FFFFF9B8
FFFFFFB3
000001A6
00000091
FFFFFBEF
FFFFF95D
00000192
000004F9
0000008C
FFFFF2CF
FFFFED31
000002A3
00000656
0000026C
000007A0
0000030B
00000094
FFFFFB27
FFFFFC08
FFFFEF5C
FFFFF653
0000000C
00000959
FFFFFDFE
FFFFFED2
00000785
0000087A
FFFFFA64
0000040F
00000126
000004BC
00000421
000000EF
FFFFF96A
00000482
000005AB
FFFFFE71
FFFFEC3F
FFFFF215
FFFFFDD0
FFFFFD49
00000438
000006D8
FFFFFE50
FFFFFCF8
FFFFFEB6
FFFFFD3F
FFFFF9C7
FFFFFC51
FFFFFAA3
FFFFFD7E
FFFFFDB4
FFFFFC76
0000081D
00000C70
00000096
0000033D
00000C78
000001BE
FFFFFFB5
FFFFFD0D
00000081
0000086C
00000870
00000347
FFFFF6E1
FFFFF8A2
00000163
000000B1
00000660
000005CD
00000A2D
0000024D
FFFFFFB0
00000091
FFFFFDB1
FFFFFBBA
FFFFF5BF
FFFFFE9E
FFFFFFB2
000002EA
00000477
0000054E
00000A32
00000275
00000204
FFFFFA48
FFFFFEE1
FFFFFC02
FFFFFE40
00000837
00000344
FFFFFCC5
FFFFFC73
FFFFFE45
00000363
FFFFFC82
000004E0
000004D5
00000985
00000369
000002ED
000005D9
FFFFF8E0
FFFFEA1A
FFFFF174
FFFFFB69
FFFFFF5D
00000529
0000036C
FFFFFF0D
00000BB3
000000FA
FFFFF5A1
FFFFF953
0000014D
FFFFFD30
FFFFFE73
00000222
FFFFFCB0
FFFFFB32
FFFFF8F2
00000264
0000069D
0000003B
00000308
00000511
00000697
00000538
0000079C
0000038A
FFFFFAE9
FFFFF3D1
FFFFF96E
FFFFF4CC
FFFFFDCE
00000242
FFFFFFD6
0000037D
FFFFFD90
00000964
FFFFF3D0
FFFFFB99
FFFFFC29
FFFFFA23
FFFFFE92
FFFFFDA9
FFFFFA10
FFFFF0D4
FFFFF8D4
0000009D
000001DF
0000029A
000002AF
000006D0
FFFFFFCD
000002CD
000009D1
000006EA
000000CD
FFFFFB35
00000574
FFFFF75E
FFFFFA2A
0000010E
FFFFFFBA
000001AD
0000088E
000008C9
FFFFFA29
FFFFFFA4
00000549
000000A5
FFFFFF7F
FFFFF2AC
FFFFED65
FFFFEFAA
FFFFFFB8
00000844
00000469
0000000B
000004AC
00000316
FFFFF8DB
FFFFFCC1
00000267
FFFFFF75
FFFFFAA9
00000118
000003C2
FFFFFF85
0000027F
FFFFFE51
000002EB
00000663
00000DA8
0000013F
0000006A
0000065B
FFFFF72F
FFFFF690
FFFFFA0C
FFFFED5A
FFFFEA6A
FFFFEEE1
000003A4
00000B9D
00000607
FFFFFB8B
FFFFFE04
FFFFFDB5
FFFFFDCD
FFFFF97B
FFFFFBC6
FFFFF6FE
FFFFFA9C
00000216
FFFFFF90
0000006D
FFFFFFA0
FFFFFFCE
FFFFFE7D
00000285
FFFFFBC4
FFFFEF4F
FFFFF9F2
00000058
FFFFF9B5
FFFFEF0F
FFFFEF2A
FFFFF346
FFFFF24B
FFFFFA25
0000062C
0000072B
0000026E
FFFFFED9
000003FA
00000185
FFFFFDBE
FFFFFCBD
FFFFFF1F
FFFFFAD5
FFFFFC03
000002D7
FFFFF9C9
FFFFFE2F
0000006D
FFFFFF80
000001D2
FFFFFFBE
FFFFF412
FFFFF285
FFFFFE84
0000033F
FFFFFA76
FFFFF684
FFFFF0D2
FFFFF7EA
FFFFFD51
FFFFFB08
00000994
000004F8
000003E6
000000C2
00000287
FFFFFBAF
FFFFFBAF
FFFFFBF7
FFFFF7FB
0000002C
000001E8
00000B83
00000304
FFFFFBD5
00000214
000000F5
00000097
FFFFFC2C
FFFFF5B5
FFFFF27C
00000155
000004C8
000001CF
FFFFFDAE
FFFFFFC5
FFFFF815
FFFFF3EE
FFFFF81F
000004E7
00000019
0000060F
0000050F
FFFFFD32
FFFFF747
FFFFFC1E
FFFFF3BE
FFFFF56A
FFFFFA18
00000486
000005F8
000008A6
000007F6
00000137
00000005
000001F9
FFFFFB55
FFFFFB91
FFFFFC64
FFFFFF40
00000139
FFFFFFDF
FFFFF766
FFFFFAE0
FFFFF9F1
FFFFF74E
FFFFF984
0000045D
000001F8
000005DC
0000064F
FFFFFC9D
FFFFF724
FFFFF867
FFFFF196
FFFFF9C0
FFFFFA21
FFFFFF6A
FFFFFD57
00000DDB
00000B4A
FFFFFE1B
FFFFFF6E
FFFFFF33
00000127
00000097
00000245
00000142
FFFFF988
FFFFF3FB
FFFFF4F2
FFFFF8E2
FFFFFBDA
FFFFF914
FFFFF883
00000530
FFFFFE2C
0000009B
000009D2
000004D2
FFFFFF10
FFFFF7C7
FFFFF598
FFFFFAE1
0000039C
000000B5
FFFFF762
FFFFFFB9
FFFFFD79
FFFFFFE1
00000001
0000023B
FFFFF98B
FFFFFBDE
FFFFFE2B
FFFFFE04
FFFFF53B
FFFFF245
FFFFFB15
FFFFFA67
FFFFF72E
FFFFFDDD
00000297
0000006F
0000042B
00000482
00000BF0
00000A04
000009FF
FFFFF86F
FFFFF7B8
FFFFF9D3
FFFFF8EC
FFFFFBC9
FFFFF4F5
FFFFFF89
FFFFFFE3
FFFFFEE5
000001A6
00000197
000000C3
000000DE
FFFFFF2C
FFFFF8EF
FFFFF76F
FFFFF8D7
FFFFFDCF
0000033A
FFFFFADC
FFFFF911
FFFFFF4E
FFFFFF5D
FFFFF905
FFFFFA8E
00000435
00000323
00000409
FFFFFE02
FFFFF4E6
FFFFFAE0
FFFFF807
FFFFF859
00000E27
000000F6
FFFFFEA6
FFFFFEA9
000000EE
FFFFFEF5
FFFFFED7
FFFFFE82
000000DA
00000787
00000147
00000102
FFFFFDBF
000007F6
00000693
FFFFFF64
FFFFFEF9
000004E7
FFFFF613
FFFFF8AC
0000080D
00001BA7
00000C28
000000A7
0000039B
00000D4F
00000923
0000095D
0000013A
0000007C
00000005
00000011
000004A0
FFFFE16A
FFFFFD9C
00000054
FFFFF023
00000161
000004C8
00000162
000000A0
FFFFF7BD
0000077B
FFFFF525
00000BAB
00000A61
00000DD9
FFFFFEBB
0000067E
00000438
000000D0
000007BE
0000021D
000000F1
00000734
FFFFFC02
00000090
000006EC
00000300
00000F8B
00000204
FFFFFB2A
00000291
0000072D
FFFFF138
FFFFFF09
0000032E
FFFFEC46
0000025C
FFFFF5C2
FFFFF206
FFFFFF80
0000081E
FFFFF21A
FFFFEFC1
000003FA
00000445
FFFFECDB
00000AB4
FFFFF8A6
FFFFFAE1
0000075F
FFFFE4C7
000001BF
00000728
FFFFF22C
0000028C
FFFFFD54
000001A7
00000386
000009CF
FFFFF187
FFFFE6EC
000002CE
FFFFFAE0
FFFFFB78
00000254
000006DE
FFFFF99B
FFFFFC3F
000000D8
FFFFFE47
000006BB
FFFFFB80
00000601
FFFFF753
FFFFF254
000007FA
00000277
00000878
FFFFF952
000003BD
0000017C
000004AF
000000F2
00000679
000008CD
000006DC
00000AFC
00000151
FFFFFED6
FFFFF734
FFFFFDBC
000004E4
000005F2
00000030
FFFFFBAC
0000077C
FFFFFC6B
FFFFFE50
FFFFFDEB
00000A1C
FFFFFA58
FFFFFFE8
0000098F
0000067B
0000068C
0000023E
FFFFFD25
000000DE
00000707
00000923
000001D0
0000048C
FFFFF155
FFFFF735
000004B8
00000E4F
FFFFFF06
FFFFFDEC
FFFFFF22
00000716
FFFFFB9F
FFFFF8A0
FFFFE95E
0000029A
FFFFF8B8
00000AAF
FFFFFBBE
FFFFF7AE
00000077
FFFFFAA4
FFFFFD26
FFFFFCC0
000010E8
000009AF
FFFFFBDD
00000116
000003EF
00000288
0000068E
FFFFF3B7
000002D9
FFFFFF0F
FFFFF5E1
FFFFFFB7
00000873
0000048C
FFFFFED4
FFFFF6EE
00000271
000001C2
00000305
000001B2
000007F0
00000A4E
00000279
FFFFF5DA
FFFFFFA1
0000085B
00000083
000008C0
00000B63
0000011E
FFFFFEA1
0000159E
FFFFFD5D
FFFFFDBA
FFFFFD9B
FFFFFB5A
00000D21
FFFFEA87
0000022B
000006B3
FFFFF33C
FFFFF890
FFFFF940
000002B8
FFFFE9D8
000013FC
000004AD
00000262
FFFFFE2F
00000835
FFFFFEE0
000000E5
FFFFFC3A
FFFFFEF3
FFFFF5AC
00000FD2
FFFFE7F6
FFFFF967
FFFFF001
000001E0
00000384
0000123F
000005F8
0000025B
00000174
FFFFFB63
00000417
000006F2
0000033F
FFFFF5D2
FFFFE359
000005CF
000007B1
FFFFF44D
FFFFFEB9
FFFFFBD9
FFFFF5E5
000004C8
000011D4
FFFFFFF6
FFFFFDDA
FFFFFCE8
00000C10
FFFFFCA6
000000FA
FFFFFE1B
FFFFFA10
FFFFF436
000005D4
00000194
00000138
00000390
00001303
000002C8
FFFFFC07
000008AC
FFFFE795
00000328
00000896
00000A0B
000003BA
000008A6
FFFFFFEF
00000B88
00000D0E
FFFFFB15
FFFFFCE4
FFFFFE15
000005A2
00000F04
00000497
00000076
00000EA6
00000183
0000089C
000001D6
FFFFFF58
FFFFFB10
FFFFFEA1
000003F5
FFFFFCCE
FFFFFD52
00000173
FFFFF8DE
000002EA
0000045D
000000E6
000000B6
FFFFF547
FFFFFB41
FFFFF895
00000188
FFFFFD47
FFFFFB6B
00000C13
0000039C
00000080
0000097E
0000049E
FFFFFBA3
FFFFFE45
00000EA6
00000862
FFFFFBB4
000001CD
00000BA7
00000B5A
00000A73
00001810
0000030E
00000265
FFFFFFF1
000003C9
FFFFFFFE
FFFFFEDD
FFFFFEE7
00000761
00000BF4
FFFFFBC6
FFFFF23B
0000030C
FFFFF6D5
00000462
0000022F
FFFFFB47
FFFFFAB4
00000C2B
FFFFFD33
FFFFF92B
00000F57
000003AE
00000858
FFFFFFF6
FFFFF0D6
FFFFFF3F
FFFFF3F8
FFFFF8F9
FFFFF5CE
FFFFFE2D
0000069A
0000070B
FFFFFE2D
0000025A
FFFFFBCC
00000742
FFFFFDBA
FFFFFE7A
FFFFFF59
00000000
00000000
00000000
00000000
00000000
00000000
00000000
00000000
00000000
00000000
00000000
00000000
00000000
00000000
00000000
00000000
00000000
00000000
00000000
00000000
00000000
00000000
00000000
00000000
00000000
00000000
00000000
00000000
00000000
00000000
00000000
00000000
