000000E5
FFFFFDE2
00000139
FFFFFDEC
00000013
000001D6
0000014E
000000C1
FFFFFFE1
00000196
FFFFFF76
FFFFFF06
FFFFFE21
00000177
00000223
0000014E
0000016F
0000003C
FFFFFEFC
FFFFFF57
FFFFFE1B
0000023D
FFFFFE20
FFFFFF29
0000023F
FFFFFDD5
000000A5
FFFFFDE8
0000000F
FFFFFF59
FFFFFFFD
000000CE
00000096
FFFFFD58
0000002D
FFFFFF9A
FFFFFE51
FFFFFFB3
FFFFFF89
FFFFFD16
FFFFFAA3
FFFFFC3F
0000001B
FFFFFDB9
FFFFFDB9
FFFFFA2E
FFFFFE7F
FFFFFC71
FFFFFC9B
FFFFFC42
FFFFFD99
FFFFFD16
00000014
0000001C
FFFFFDE8
FFFFFEA8
FFFFFE8C
000001BF
000000D2
FFFFFD40
0000000E
00000088
FFFFFB2D
FFFFFBB5
FFFFFB69
FFFFFB6A
0000025C
00000491
FFFFF881
FFFFF4A6
FFFFF3F3
FFFFF8C7
FFFFF76E
FFFFF9A1
FFFFFCE5
FFFFFB60
FFFFFDDF
FFFFF9B9
FFFFFD5C
FFFFFA4A
FFFFFBF8
FFFFFCD5
00000193
FFFFFE06
0000019B
FFFFFED9
000001EC
00000015
FFFFFEAE
FFFFFCE7
FFFFF887
FFFFFB11
FFFFEEC6
FFFFEFA2
FFFFF1A5
FFFFFBCE
FFFFFE21
FFFFFD2E
0000023A
000000B4
FFFFFABA
FFFFFD97
0000114B
00000058
FFFFF1A4
FFFFF1D2
FFFFF97D
000004C8
FFFFF8D1
FFFFFBB1
FFFFFC93
000001B8
000001DF
000000D7
00000815
00000DC7
000003E4
FFFFFE12
FFFFF9C4
FFFFF2FA
FFFFF351
FFFFF24B
FFFFF5FB
00000478
FFFFFFE4
00000105
FFFFFC3E
000002A0
0000042E
00000390
000000F3
0000065B
FFFFFF04
FFFFFB18
00000646
000000DB
FFFFFAAF
00000130
000005A0
FFFFFE7F
00000045
FFFFFFFC
00000238
FFFFF964
00000238
00000DC4
00000611
FFFFFEA8
FFFFF978
FFFFFF1F
FFFFFDBF
FFFFFE95
0000015F
FFFFFEE4
FFFFFC1D
FFFFFEE8
FFFFFE88
00000083
FFFFFF17
000003D8
FFFFFBCB
0000018D
00000392
FFFFFFA5
FFFFFB1B
FFFFFD18
0000014B
FFFFFD31
FFFFFE54
00000200
00000295
FFFFFE7A
0000083E
000004E6
0000031F
000003F8
0000023D
FFFFFE3B
00000483
000005D3
000004B1
00000387
000002E1
FFFFFD66
0000028A
000004F7
FFFFFC01
00000425
0000000C
000005E9
00000388
FFFFFC3A
FFFFF425
FFFFF71E
FFFFFFAB
FFFFFC74
FFFFFE0A
000004C1
000005E1
000007A6
FFFFFD92
FFFFF798
0000054C
00000399
FFFFFB18
00000284
0000017E
000005C6
000005BE
000003FC
000000DE
FFFFFC3A
000000AB
0000028D
FFFFFFB7
0000019E
0000028E
00000361
FFFFFE56
FFFFF118
FFFFF2A9
FFFFFA67
FFFFF77E
FFFFF840
FFFFFD3E
FFFFFC28
00000CF9
000004A9
FFFFF827
00000132
000008E8
000002A8
FFFFFFC8
0000037C
FFFFFC8C
0000012D
FFFFFBDE
FFFFFB86
FFFFFCCE
00000061
FFFFFE77
000001D2
00000327
000005D7
00000600
0000051F
000005F9
FFFFED7A
FFFFED3F
FFFFFE32
FFFFFFC1
FFFFFF8B
FFFFFF83
00000001
00000C03
00000DCA
00000426
FFFFFF18
00000545
00000092
000002BF
000002B8
00000069
FFFFFB1E
FFFFFBC3
FFFFFB03
FFFFFAF1
00000136
00000018
00000ADD
00000645
00000597
0000089A
000006C8
00000950
FFFFFD4D
FFFFECBA
FFFFF959
000006F4
0000053D
FFFFFBDF
000000EA
00000316
000006D9
00000670
FFFFFD76
FFFFFCFB
FFFFFC4F
FFFFFE22
FFFFFC6B
FFFFF446
FFFFF8BC
FFFFF422
FFFFF35A
FFFFF90D
FFFFFA34
0000026F
00000537
000008AE
000004E1
00000C39
000002AC
00000EF5
00000C7E
FFFFFA50
000003FF
FFFFFAD9
FFFFFE61
FFFFFF85
FFFFFED9
FFFFF8D7
FFFFFC61
FFFFFDB8
FFFFFFD4
0000015B
0000016D
FFFFFEA7
FFFFFEB1
FFFFFC04
FFFFF91C
FFFFF452
FFFFF8EC
FFFFFB50
FFFFFEB8
000006DF
00000A81
0000088E
00000446
00000807
000001DE
0000069F
0000089E
00000801
FFFFFE58
FFFFFCCE
FFFFFF95
FFFFFFCA
FFFFFDB6
FFFFFF64
FFFFF45A
00000380
FFFFFD22
000003DA
00000199
FFFFFC89
FFFFFD2D
00000010
FFFFF7A7
FFFFF671
FFFFFAEE
0000007A
0000071D
000006EA
00000030
000005A2
0000009F
FFFFFE8E
000000DA
FFFFFE8C
00000B90
FFFFFD64
FFFFF2CB
FFFFF929
0000043F
FFFFFB0A
FFFFFE43
FFFFFD94
FFFFF401
000001AD
FFFFFB8C
FFFFFD0C
000005C6
00000016
0000068A
00000E06
0000067F
FFFFFEF6
0000009A
0000031D
000007BF
00000136
FFFFFE01
FFFFFE80
FFFFFE5A
FFFFFEEE
00000224
00000262
FFFFFB13
FFFFF7D6
FFFFF774
FFFFF4DC
000001C9
FFFFFE06
0000046C
FFFFF667
FFFFF76A
FFFFFE28
FFFFF625
FFFFFB57
00000430
00000626
00000C14
00000C7A
000008EE
00000A57
0000089A
000007C9
000003E5
FFFFFDE4
FFFFFCF8
000001BE
FFFFFBF6
FFFFFEE0
00000434
000005F9
FFFFF46B
FFFFEC0D
FFFFF4E9
FFFFF730
00000121
00000073
000001A8
FFFFFD73
FFFFFF48
FFFFFFFE
FFFFF390
FFFFF55A
FFFFF942
FFFFFE8A
00000A1C
00000C65
00000F22
00000F01
00000BE1
00000716
00000079
000000F6
00000295
FFFFFD4B
FFFFF9EB
FFFFFF73
000003B5
00000AB4
FFFFF7F5
FFFFF21F
FFFFFAD9
000006C3
FFFFFF7A
000001BB
000003A6
FFFFFF05
FFFFF98A
000006EE
FFFFFAC7
FFFFF81D
FFFFF4D0
FFFFF58D
FFFFFC26
00000430
00000829
00001055
00000FC9
000009F2
0000014D
0000026A
00000695
000001D9
FFFFFAD2
FFFFFE42
000000FB
FFFFFF49
FFFFF995
FFFFF5BA
FFFFF454
FFFFF08D
000001D9
FFFFFFD0
00000363
FFFFFF46
FFFFF8BE
FFFFFD70
FFFFF9FE
FFFFEEDC
FFFFED44
FFFFE720
FFFFEC25
FFFFEB1A
FFFFFC09
000001E3
00000B5A
00000702
000000EE
FFFFFE6E
000000D3
FFFFFEF7
FFFFFB47
FFFFFE27
000000F1
FFFFFFBF
FFFFFC7B
000006E3
00000C95
00000C8A
FFFFF7BB
FFFFFE2E
000004F2
000004C4
FFFFF892
FFFFF90D
FFFFF916
FFFFE964
FFFFE8EE
FFFFE040
FFFFE05A
FFFFEA58
FFFFF313
FFFFF75C
0000007D
FFFFFA2D
0000005F
000001E3
FFFFFD19
FFFFFA06
FFFFF71D
FFFFFDAF
FFFFFAD1
FFFFFA89
FFFFF5D2
FFFFF487
00000CD1
0000184A
FFFFFEEF
000007DD
FFFFFA28
000004A1
000002DB
FFFFFE9C
00000267
FFFFF802
FFFFF0E2
FFFFE78A
FFFFED83
FFFFEBD5
FFFFEAD3
FFFFF150
FFFFF787
FFFFFB54
0000002C
00000180
0000019D
0000008A
FFFFFF9A
FFFFF537
FFFFFC95
FFFFFB6E
FFFFFA26
FFFFEBCE
00000E51
FFFFFEF5
FFFFFFFA
000001A9
00000323
000003CA
000008B5
00000B3C
00000662
0000014A
FFFFFB94
FFFFF75F
FFFFFBB6
FFFFF787
FFFFF5A6
FFFFF463
FFFFFBAB
0000038E
FFFFFDEF
FFFFFC0F
000000D8
00000732
FFFFFF2B
FFFFFAC3
FFFFFCEA
0000000A
FFFFF9F1
FFFFF2D6
FFFFFF14
00000005
000007E8
0000003D
000006C4
00000906
000001CC
0000121C
00000F37
00000EFB
00000815
00000536
000002F0
00000184
FFFFFC76
00000094
FFFFFF8D
00000308
FFFFFB44
0000008E
000000F4
00000225
00000010
FFFFFDF7
FFFFFF8F
FFFFF4A2
FFFFF5F2
FFFFF752
FFFFFE36
FFFFFE27
FFFFFFCA
00000191
000006F9
FFFFFF5F
FFFFFC99
00000CF2
00000E43
0000127B
00000D58
00000A26
0000050E
000004BB
FFFFFFD2
0000027C
0000033E
00000175
0000024F
00000178
000000BE
FFFFFF46
0000028D
FFFFFC4D
FFFFF578
FFFFF9ED
FFFFFA51
FFFFFBCE
FFFFFA3C
FFFFF798
0000010D
FFFFFF55
00000176
00000E6B
FFFFFAA7
0000013C
000008B9
0000046F
00000837
000002BD
FFFFFE13
00000262
0000022E
FFFFF993
FFFFFE20
FFFFFB1A
FFFFFC0D
FFFFFA45
FFFFF673
00000317
000003C0
FFFFFABA
FFFFFB51
FFFFF96E
FFFFFA27
FFFFFD06
FFFFF9F1
FFFFF965
00000184
0000002E
00000164
00000583
000007D0
00000E54
00000B90
FFFFFECF
00000327
0000032A
00000134
00000391
FFFFFF5F
FFFFF8BB
FFFFFB22
FFFFF4CD
FFFFF8A0
FFFFF89F
FFFFF673
FFFFF84C
FFFFF919
0000012B
FFFFFE88
FFFFFD00
000001C4
FFFFF96A
FFFFFBBB
FFFFFF44
000000C4
000001C9
000001E9
00000013
FFFFFD1A
FFFFFA69
000003DE
FFFFF42B
FFFFFBDB
00000219
000003A9
00000025
FFFFFBA3
0000007F
0000013D
FFFFF75A
FFFFECD9
FFFFF188
FFFFF1BD
FFFFFAEB
0000015F
000005E1
FFFFFB63
FFFFFDFC
FFFFF8C5
FFFFF89D
FFFFFDF0
FFFFFE9E
000000D9
000000F6
FFFFFE72
00000010
00000659
FFFFFF3E
FFFFFD90
FFFFFF57
0000063B
0000042B
00000A17
00000A93
FFFFFE30
00000073
000004DF
000008DC
FFFFFC2A
000003AC
00000271
FFFFFF0D
FFFFFC70
0000040C
00000DFB
00000CB6
00000689
00000189
00000144
FFFFFE0E
000001E1
FFFFFF3F
000000BC
FFFFFFAE
FFFFFDF6
0000027F
000006A5
000006CD
00000712
000008EF
0000040B
000005F1
000009D1
000008AD
00000B21
00000FA7
00000069
FFFFF91B
FFFFFA35
00000218
00000A22
00000381
00000401
00000214
000001F1
00000224
0000022D
00000033
FFFFFE1A
000001B3
FFFFFF83
FFFFFFB9
FFFFFF75
000000D0
0000016D
00000183
FFFFFECB
FFFFFEF6
FFFFFEF2
FFFFFF8F
00000034
FFFFFEB5
FFFFFFD5
000000A0
0000016F
FFFFFE56
FFFFFDF7
FFFFFDE1
00000012
0000003B
FFFFFEC7
FFFFFDBE
000001AC
FFFFFFC0
FFFFFDD1
FFFFFE61
00000130
000001FE
FFFFFFD2
000001CD
FFFFFE88
0000009A
000001D8
00000480
0000038D
000000A5
00000102
0000038A
FFFFFE26
FFFFFD88
FFFFF539
FFFFFECE
000004D7
00000227
00000213
000005AC
00000799
0000034F
FFFFFD55
000002B7
000006AE
00000176
FFFFFEBE
00000099
00000137
FFFFFE43
00000238
00000599
0000059F
FFFFFFB9
000002F0
00000C9B
0000043A
00001106
00001582
00001B73
000015B6
00001620
000018F5
000010C2
0000089D
0000072B
00000170
00000B3B
00000E15
00000E47
00000EC2
00000987
000009AD
000008F5
000005C0
000000D4
000001ED
00000128
00000046
00000DEC
000000BA
FFFFF878
000008B1
00000D77
00000A5F
000003F8
00000E0A
000004F2
00001404
00000ED3
00000742
00000283
0000016D
000004D9
00000752
00000844
00000D53
FFFFFD2F
FFFFF7A2
FFFFF8DA
FFFFF82F
0000058A
FFFFFBD8
00000420
00000191
0000003C
000001EB
00000E62
FFFFFC84
FFFFFF9F
00000E1F
00000D09
0000007D
0000012F
FFFFFE31
00000608
FFFFFFCA
FFFFFF4A
00000038
FFFFFE94
00000129
FFFFFC55
FFFFFB3E
FFFFFDC8
00000386
00000384
FFFFFA56
FFFFF64A
FFFFF701
FFFFF4E2
FFFFF84C
FFFFF160
FFFFFAF6
FFFFFF43
0000005B
000013A9
FFFFFACA
0000082E
00000652
FFFFFD0A
FFFFFB25
FFFFF7B1
FFFFF88F
FFFFFBE8
FFFFF6AE
FFFFF8FD
00000021
FFFFFFED
000007C7
00000A45
FFFFFFDF
00000144
FFFFFCE4
FFFFFAFD
0000007D
FFFFFC52
0000053B
FFFFFEDD
FFFFFF31
FFFFFC94
FFFFFFB0
FFFFFF74
000003DB
FFFFFB88
000009C2
000004FB
00000303
FFFFF9AB
FFFFF8C7
FFFFF3E9
FFFFF8F0
FFFFFE50
FFFFFC0A
FFFFF318
FFFFF82B
FFFFFE27
0000088F
0000077D
00000045
FFFFFF92
FFFFFB78
FFFFF165
FFFFFECA
FFFFFF00
FFFFFA8E
FFFFFD9A
FFFFF95B
00000220
00000598
FFFFFDD9
00000B8C
0000032B
00000296
00000F88
000002DF
FFFFFD65
0000037A
FFFFF7FE
FFFFFB7D
0000050E
00000112
FFFFF864
FFFFF933
00000671
00000653
00000A03
00000285
FFFFF9F6
FFFFF875
FFFFFE6F
00000094
00000506
FFFFFED9
FFFFFCD1
FFFFF467
000007F8
000003D7
FFFFFE18
00000A53
FFFFF4A8
FFFFF956
000009F4
000009DF
FFFFFAE2
00000336
FFFFF6F1
FFFFFDD3
FFFFFF66
FFFFFAB7
FFFFFCAB
FFFFFC85
0000046A
00000BF3
000005C6
0000045B
FFFFF3E6
FFFFFBF6
FFFFFB96
FFFFFF2C
00000243
FFFFFF49
FFFFE9F1
FFFFE282
FFFFF9FA
FFFFFADA
00000171
000001F0
0000026C
00000610
00000662
0000059A
0000055C
00000C2B
0000026C
000001A5
FFFFFB13
FFFFF636
FFFFF526
FFFFF79C
000004E6
00000D32
0000087B
000000F2
FFFFF83A
FFFFF7E6
FFFFF9A9
FFFFFD99
000004FC
FFFFFF35
FFFFEA04
FFFFE83F
FFFFF9C2
0000079F
000001EF
000003B1
000007C2
FFFFFBF3
FFFFFE47
000001E0
000007AF
00000A4A
FFFFFF7C
FFFFFDBE
FFFFF920
FFFFF1D5
FFFFEEDC
FFFFFD24
000007A6
0000118E
00000671
000003CB
FFFFFB08
00000212
000001A4
0000034E
FFFFFE0E
FFFFF8EA
FFFFF0E6
FFFFEDE5
FFFFFF59
00000A37
00000159
00000B38
FFFFEFF4
FFFFF267
FFFFFFF0
FFFFFDE2
FFFFFF1A
FFFFFE06
FFFFFCEA
FFFFFD83
FFFFF73B
FFFFF19A
FFFFEEB3
000001B0
0000142E
00000BE0
0000021F
FFFFF8B1
FFFFFF51
00000512
000008B7
00000870
0000050C
FFFFF8C4
FFFFF0AE
FFFFF90E
FFFFEAE1
00000793
FFFFFDDD
FFFFFB7C
FFFFF746
FFFFF066
FFFFF883
FFFFF148
FFFFECB8
FFFFEBB5
FFFFF34C
FFFFF293
FFFFF5FD
FFFFEF6F
FFFFF9E7
00000710
00001135
0000068D
FFFFFD51
FFFFF88C
FFFFF946
00000309
0000077E
000003DB
000006E2
FFFFF78C
FFFFF6EC
00000978
FFFFFBBE
00001256
000006BE
FFFFFBA4
000000E5
FFFFF640
FFFFF219
FFFFF0C8
FFFFE440
FFFFE66E
FFFFF110
FFFFF4A3
FFFFFB75
FFFFF792
FFFFFDB7
00000C6F
000008AC
FFFFFF51
FFFFFE72
FFFFF9C8
FFFFFEC6
000005A5
0000062C
000009C7
00000178
FFFFFC1F
000000E3
00000614
0000053A
000004F3
FFFFFF53
FFFFFEEE
FFFFFB6A
000001D7
FFFFF38B
FFFFF7A6
FFFFEF94
FFFFED7C
FFFFFD2B
FFFFFE29
FFFFFCA3
0000056A
0000113B
00000BB3
00000AA8
000001CB
00000220
FFFFFBD0
FFFFFF05
FFFFFE13
FFFFFB3E
00000813
000002AF
00000010
000003DD
000002D1
00000F12
00000AA6
FFFFFCA2
00000490
0000031F
000007FE
FFFFF75D
FFFFFB07
FFFFFEF7
FFFFF9FA
000001E8
000006AE
00000082
00000AFB
000010FB
00000F03
0000025D
FFFFFE00
FFFFFAB6
FFFFFAD2
FFFFFF05
00000134
FFFFF6F8
0000007D
000000FA
000001F6
0000094C
00000003
00000B1C
00000A3F
FFFFFF9C
000008FE
00000850
00000A31
00000026
0000083F
00000421
0000095E
0000053D
00000CF4
00000736
00000F33
00000D60
000007F5
00000278
FFFFFD8A
00000389
FFFFFFA1
FFFFFFFF
00000557
FFFFF809
000000DD
000008E0
00000B3C
000010C6
00000505
00000DE9
000006F4
FFFFFDEB
00000239
00000667
000006C1
0000086F
000004F8
000003B7
000003E8
000005FF
00000517
0000043F
00000C4B
0000084A
00000577
000001D5
000001B4
000000B4
0000005D
0000020B
00000417
FFFFF91C
00000535
00000C23
00000DD0
0000065A
000011CA
000007D7
000002A3
FFFFFD46
000001AB
00000109
00000C0F
0000078C
00000479
FFFFFBD3
00000274
000004A6
0000054C
00000182
FFFFFFED
00000032
00000584
FFFFFF1E
0000028D
000004E3
00000620
00000732
000004C0
FFFFFA9D
000005DE
00000661
000009A1
00000BF8
00001258
FFFFFB25
00000AD4
00000621
FFFFF481
FFFFFA57
00000381
000005CC
000003CB
00000390
00000ACD
0000014E
000008A4
0000066F
000003CA
FFFFFE6F
000003D9
FFFFFCE5
00000204
00000634
00000B2B
000002B2
FFFFFB5E
FFFFFC1F
FFFFFF79
00000134
000007F9
00000644
000011B2
000005EC
00000B2A
00000020
FFFFF5EA
000000D8
00000D67
0000073B
0000022C
00000944
00000828
00000372
00000864
000001A0
FFFFFF0D
000002DF
FFFFFEF7
000002E9
000002C2
00000676
00000445
0000074C
FFFFFD8A
FFFFFE20
FFFFFC74
FFFFFD81
00000252
FFFFFD56
000006ED
000008B6
00000CD0
00000413
0000049B
00001364
00001161
FFFFFBE2
00000323
00000585
000006CC
000001CF
FFFFFDD4
000000E7
FFFFF965
FFFFFD90
FFFFFFA8
00000203
FFFFFF94
00000675
FFFFFE83
FFFFFDCC
FFFFFE1E
FFFFFF34
FFFFF84F
0000028E
00000011
FFFFF6AF
0000050C
00000D48
FFFFFE73
00000148
000005B5
00000EFB
00000163
FFFFFAC1
0000017D
00000153
000002FF
00000298
FFFFFE9D
0000017E
FFFFFF17
FFFFFC05
FFFFFE8A
FFFFFD4F
FFFFFE00
000000C7
FFFFFBCA
FFFFF80C
FFFFFFF2
FFFFFB56
FFFFF88F
0000066C
000001C4
FFFFF540
00000065
FFFFFF8A
FFFFFCCE
000001C3
00000065
00000887
FFFFFCD6
00000359
FFFFFCE7
00000075
000005F1
00000193
00000437
000005D9
FFFFFFF3
00000083
000000D3
00000455
FFFFF8D6
FFFFFCB8
FFFFF74A
FFFFF3FA
FFFFF91C
FFFFFB28
FFFFF64D
00000005
FFFFFD80
FFFFEF3B
FFFFF8EE
00000158
FFFFFF44
0000007C
000000E2
00000544
00000693
00000401
00000421
00000438
FFFFFCAA
FFFFFBC2
FFFFFBBA
FFFFFF3A
000000C5
FFFFFD86
FFFFFF6B
00000326
FFFFFA9A
FFFFFA86
0000008A
FFFFF351
FFFFF6EA
FFFFFDFB
FFFFFA66
FFFFFEFB
FFFFF2C5
FFFFF474
00000322
0000023D
0000023F
0000023A
000001FA
FFFFFE95
000007C2
00000F85
000005B9
0000087C
FFFFFDD7
FFFFF8BD
FFFFF73C
0000043A
FFFFFE59
FFFFFB21
FFFFF5CD
FFFFEFD5
FFFFF328
FFFFF0DB
FFFFF8A6
FFFFF431
FFFFF81E
00000188
FFFFEC7C
FFFFF3F6
FFFFFF87
FFFFFA32
000001EA
0000052F
0000007C
00000249
FFFFFE0F
FFFFFFB1
FFFFF998
FFFFF7F4
FFFFF1B0
FFFFF4A3
FFFFFE8F
FFFFFE20
FFFFFD43
00000B6E
000005A5
FFFFF89B
FFFFF85E
FFFFEC41
FFFFEE65
FFFFF484
FFFFFA3F
FFFFFA25
FFFFFF5B
FFFFF8C7
FFFFF517
FFFFF664
FFFFF64E
FFFFFB2E
FFFFFF3E
FFFFFFCC
FFFFFE8D
FFFFFE14
00000234
FFFFFF1B
00000141
000000E0
00000732
FFFFF833
FFFFF885
FFFFFB76
000006AC
0000087B
00000754
FFFFF665
FFFFF16F
FFFFF9AB
FFFFFD93
00000659
FFFFFC74
FFFFF72A
FFFFF63E
FFFFFEC4
FFFFFCF5
FFFFFC6B
FFFFFED4
FFFFFFDA
00000199
0000020F
00000170
000000AE
FFFFFFB9
000001F6
0000007A
FFFFFF7C
00000061
000000CA
FFFFFF95
FFFFFE11
000001D3
FFFFFF39
FFFFFDD5
FFFFF7DA
FFFFF60C
FFFFFFF7
FFFFFFBC
00000196
FFFFFE25
00000068
FFFFFFB9
00000236
0000001F
FFFFFF1F
000001FA
000000A8
FFFFFE5A
00000016
000001E7
00000179
000001E3
FFFFFF78
FFFFFE8C
0000000F
00000158
FFFFFAE9
FFFFF719
FFFFFEC4
0000010D
FFFFF5EA
FFFFF3AC
FFFFF792
FFFFF898
FFFFFF10
000000AE
0000034A
00000468
FFFFFAA5
000002CD
00000044
000000B8
FFFFFC60
FFFFFE65
FFFFFEF8
FFFFFDD9
FFFFFEAD
FFFFFE97
00000183
00000236
00000209
FFFFFD85
0000002D
FFFFFA76
FFFFF6A1
FFFFF527
00000724
00000D5C
0000115C
00000C10
FFFFF799
FFFFE7B9
FFFFEC29
FFFFF644
FFFFF58D
FFFFF7A4
FFFFFD8E
FFFFFC88
FFFFFE27
00000191
FFFFFF91
FFFFFFDD
00000402
000004DB
FFFFFF74
0000019E
00000146
FFFFFFBE
FFFFFCA1
FFFFFAB5
FFFFFD5F
00000435
FFFFFC78
000006AC
00000882
000002F9
FFFFFDBB
FFFFFF7F
FFFFF38B
FFFFF0B9
FFFFF5B1
FFFFEF7F
FFFFED9A
FFFFF964
00000838
000008A6
00000842
00000291
00000141
00000527
000005BA
000008A1
00000056
00000014
000001F4
FFFFFF92
000002AA
FFFFFC75
FFFFF25B
FFFFFD67
00000092
FFFFFC9F
FFFFFF51
FFFFF7D6
0000028F
00000A6E
FFFFFE73
FFFFF109
FFFFE949
FFFFF019
FFFFF36B
FFFFEEBB
FFFFF369
FFFFEEB3
FFFFF4AC
000005A2
00000139
FFFFFCA3
00000161
0000028D
00000199
FFFFFEDD
000001D5
FFFFFEEC
000001E8
00000419
00000574
000003D2
0000003C
000003D0
0000032B
00000810
00000350
FFFFFFAD
FFFFFAAF
FFFFFB24
FFFFF708
FFFFFB24
FFFFF1B5
FFFFF826
FFFFEAA4
FFFFE968
FFFFF12A
FFFFF9D1
FFFFF344
FFFFF274
FFFFF996
000001EF
FFFFFE1B
FFFFFFBB
0000010F
000004FA
0000025B
000014B2
0000066E
FFFFFC24
000006CE
000008BD
00000DD9
00000E06
00000651
00000177
FFFFFD11
00000242
00000149
FFFFFFB9
FFFFF9D1
FFFFFA13
FFFFEEB8
FFFFE8D8
FFFFEBF0
FFFFF84C
FFFFF192
FFFFEC41
FFFFF203
FFFFF857
FFFFFE70
FFFFFC06
FFFFFF95
00000529
00000A55
0000164A
00000B56
00000138
000008FD
000009A7
000009EC
00000836
FFFFFAF2
FFFFFAFA
00000599
00000C55
00000625
FFFFFEEB
FFFFF815
FFFFFE76
FFFFF002
FFFFE642
FFFFE651
FFFFF9CB
FFFFEE68
FFFFEB8F
FFFFEF39
FFFFEDDE
FFFFF947
FFFFFBC0
0000025D
000007BB
00000330
0000038A
000009F4
0000050D
FFFFFA00
FFFFFFB9
00000A2A
00000B99
000008CD
000009E4
000008F8
00000C91
000007BD
FFFFFE90
FFFFFC8F
FFFFFF6F
FFFFF480
FFFFEB8C
FFFFE209
FFFFF2AC
FFFFF6FE
FFFFF09D
FFFFE9C3
FFFFEF6B
FFFFFB67
FFFFFF6A
00000199
0000051A
000007BE
00000750
00000CAF
00000B09
0000030B
00000464
000004E1
00000A2A
0000086F
000009C1
000010FA
00000A91
00000732
0000024B
FFFFFCDF
000001C1
FFFFF8A4
FFFFF491
FFFFED70
FFFFF49B
FFFFF59B
FFFFF253
FFFFF200
FFFFF94D
000005A7
00000B3F
00000111
000004D0
00000729
000003C2
00000386
00001045
0000084F
000004CF
000002E5
00000363
0000034E
00000411
FFFFFC51
000002AE
00000286
FFFFFEBF
FFFFFFD7
FFFFFD22
FFFFFA36
FFFFF6F6
FFFFF290
FFFFF38F
FFFFF5F4
FFFFFCB3
0000005C
000001E6
00000AE5
000007FA
000002F7
00000360
FFFFFD98
FFFFFF1B
0000060D
00001112
00000449
FFFFFFCA
FFFFFBA6
FFFFFB27
FFFFF763
FFFFFC6D
FFFFF750
FFFFF70E
FFFFFDE2
00000239
FFFFFBA1
FFFFFF12
0000066C
000001B7
FFFFFBA4
FFFFFAC9
000000CC
FFFFFE2B
FFFFFB9A
FFFFF9A6
FFFFF03D
FFFFF8E5
0000013C
000004FA
FFFFFD4A
0000073F
0000061B
00000790
FFFFFF4D
FFFFF5C1
FFFFF71F
FFFFF234
FFFFF618
FFFFF79A
FFFFF693
FFFFFDEB
000001A5
000004AB
0000076B
00000140
00000E29
00000979
FFFFF9E6
FFFFFF29
000001FE
FFFFF4B2
FFFFFA8A
00000718
FFFFFEBC
00000956
FFFFF76E
00000130
00000463
000008BB
00000413
FFFFFEFE
FFFFFA68
FFFFEC8D
FFFFF2A4
FFFFFBB2
000002C1
000005F9
00000528
0000041C
0000004E
00000253
FFFFFFAB
000002B2
0000080D
00000159
FFFFF884
FFFFFD76
FFFFFE03
0000076C
00000C9B
0000089F
0000007F
000009E1
FFFFFDAF
FFFFFFF4
000004F1
000009FB
000003B4
FFFFF08E
FFFFE71F
FFFFE696
FFFFF25E
00000039
0000070F
00000754
00000A5C
00000347
FFFFFCB0
FFFFFAB9
FFFFF94D
FFFFFC42
00000721
00000986
FFFFFA7B
0000006C
000000E0
00000CDE
000006BE
0000068B
00000AB7
00000A7C
FFFFFC44
FFFFFFED
000006C8
00000A1E
FFFFF9AC
FFFFE992
FFFFEFE2
FFFFF16C
FFFFFA54
FFFFFF4A
000005D1
00000329
000003DD
00000393
FFFFFFB0
000002E6
FFFFF88F
00000806
00000971
00000D7B
00000382
00000934
00000B4D
00000B31
0000117A
00000074
00000496
00000A7B
00000090
0000030C
000004CD
000005DA
FFFFFB4E
FFFFF407
FFFFFFBE
FFFFFEA5
FFFFFB9D
FFFFF9B0
FFFFFF5C
FFFFFFA2
FFFFFF2B
FFFFFE11
FFFFFED3
0000027F
000002CD
000008A9
00000811
000009CA
00000595
00000ABA
00000D05
00000AB0
00000A22
000002BA
00000F51
00000D52
FFFFFF25
FFFFFFD3
000004D3
000001FC
00000440
FFFFFE70
00000339
0000076F
0000039E
FFFFFA9A
FFFFF50D
FFFFFA70
00000008
FFFFFDF9
FFFFF622
FFFFFDE4
00000318
00000C0B
0000045B
00000567
000003B6
0000084F
000008CD
0000069E
00000A13
000013D5
0000069C
00000528
0000038A
FFFFFF01
00000404
00000709
0000000A
FFFFFF8A
FFFFFC21
00000100
0000007A
FFFFF4A1
FFFFF666
FFFFFD17
FFFFFD00
FFFFF623
FFFFF720
0000006E
00000898
00000EAE
0000071A
0000019C
FFFFFF8E
000006A7
00000345
00000494
FFFFFC44
00000A6F
00001619
000001EF
00000102
00000D7E
0000009F
00000703
FFFFFB95
000001B2
FFFFEB80
FFFFEDE5
FFFFF49E
FFFFF0B2
FFFFFB80
FFFFFD97
FFFFFA3F
FFFFF5C8
FFFFFF83
0000059C
0000095C
000002E6
00000606
0000028C
FFFFFE63
00000507
000002C6
FFFFFA50
FFFFEF77
FFFFFA86
00001174
FFFFFF34
00000051
FFFFF969
FFFFFC56
00000D26
00000623
00000016
FFFFF8EE
FFFFFEE1
FFFFFBDA
FFFFFB75
00000140
FFFFFC9C
FFFFFC13
FFFFFBD8
00000115
0000035D
FFFFFDE9
FFFFFEAA
FFFFFF3A
00000037
00000129
000002C0
FFFFFFD1
00000123
FFFFF93F
FFFFFD8D
00000DCB
FFFFFFB1
000001D0
00000454
000003CC
00000E81
000002F3
0000073A
00000356
0000059E
FFFFFF6D
FFFFFE57
FFFFFD42
FFFFFE30
0000011C
FFFFFD87
00000015
0000027D
00000571
FFFFFC6A
FFFFFA91
FFFFFFB6
FFFFFC21
FFFFFBAC
FFFFF8EE
FFFFFA90
FFFFF465
FFFFF2A2
000004C1
00000158
FFFFFEDE
0000041F
000005B6
00000922
00000203
FFFFFEA8
0000087D
FFFFFD77
FFFFFFB6
FFFFFC01
FFFFF8B1
FFFFF7DC
00000264
00000508
000004CB
00000435
000000A6
FFFFFBBB
FFFFF691
FFFFFC2A
FFFFFD1A
FFFFF9CE
FFFFFA24
FFFFED3B
FFFFF32A
FFFFF58A
FFFFFB4F
FFFFFE64
0000018B
00000099
000004EC
FFFFFF8B
FFFFF8E2
FFFFF670
00000351
00000634
000001A1
00000236
FFFFFFEB
FFFFFD81
FFFFFDDC
00000690
000001C2
0000014A
FFFFF8E6
FFFFF418
FFFFF1E3
FFFFFC15
FFFFF8FF
FFFFF484
FFFFEFF0
FFFFED2C
0000032A
FFFFFE5C
FFFFFF54
FFFFFF43
0000018C
FFFFFE52
0000059E
00000360
FFFFFD62
FFFFFE29
00000352
00000187
FFFFFBEB
FFFFFECB
FFFFFFE7
00000222
00000145
00000368
000001AF
000002E6
FFFFF784
FFFFFD87
FFFFF57F
FFFFFEDD
FFFFFC33
FFFFFA25
FFFFF570
FFFFF39E
000005D6
000004C8
0000042B
00000047
FFFFFF22
0000015C
FFFFFC18
FFFFF8E8
0000060C
000003F1
00000418
00000C9E
00000FE8
FFFFFC81
00000407
00000555
00000609
0000013B
FFFFFD0C
FFFFFCEC
0000078F
FFFFFE95
000002CC
000004F7
0000004B
FFFFF245
FFFFF0E3
FFFFEC23
FFFFF482
00000519
00000349
0000014E
FFFFFEE2
FFFFFF63
FFFFFE3B
FFFFFE1E
FFFFFD57
FFFFF8A2
FFFFF8EB
0000091E
0000029A
FFFFFEDC
0000074C
000000BF
FFFFFE31
0000074A
000005E4
00000046
00000650
0000057C
00000F32
00001164
00000B7D
FFFFFDEC
FFFFF88F
0000016A
FFFFFFEF
000000CF
FFFFFFB8
FFFFFFBF
000001B6
0000020A
FFFFFF00
FFFFFF70
FFFFFFEB
000004D3
000005CB
FFFFFF5A
000002F3
00000BED
00001260
00000A11
00000557
00000D4E
00000801
0000037E
000000C3
000015A5
0000109A
0000011F
FFFFFE94
FFFFF4A3
FFFFF90F
00000056
FFFFFDEB
FFFFFE6B
00000055
FFFFFE72
FFFFFEA2
FFFFFFAE
000001C9
FFFFFFA0
FFFFFE3B
FFFFFF59
0000017D
FFFFFEB0
00000229
000000F2
0000014D
000001F4
00000111
FFFFFE6D
00000185
FFFFFDC6
00000017
FFFFFE82
FFFFFE69
0000004C
0000007F
00000033
00000086
0000007A
FFFFFF66
FFFFFE8C
00000156
000001BE
0000012A
FFFFFF7A
0000019F
00000112
FFFFFD5C
FFFFFEA8
0000004E
0000013F
000001B6
FFFFFF29
FFFFFFCD
00000476
000001E5
0000099F
0000076A
00000721
000006E1
FFFFFF91
FFFFF539
FFFFFAF7
FFFFF5F9
FFFFFB5B
FFFFFD64
FFFFFAFE
FFFFFEAC
000000E6
00000080
00000134
000001F2
FFFFFEE4
0000003E
000008F5
00000A51
FFFFFE84
FFFFFCA9
0000039A
00000068
FFFFFE33
FFFFFB9C
FFFFFD21
FFFFFE23
00000714
FFFFFE77
FFFFF4F2
FFFFFE8B
000003C6
000000C7
FFFFEB08
FFFFEFFA
FFFFEBFE
FFFFEF16
FFFFF43F
00000481
00000414
000001E2
FFFFFF0E
0000013A
FFFFFEB7
000004C8
00000999
00000906
FFFFF724
FFFFF61A
FFFFFD17
FFFFF6CF
FFFFF8C5
FFFFEF77
FFFFEC92
FFFFF318
FFFFFB8C
FFFFED98
FFFFE5D8
FFFFE906
FFFFF5EA
0000004C
FFFFF6CF
FFFFFAC8
0000016B
000009D5
FFFFFDC1
FFFFFE76
000010AF
FFFFFDF7
0000007D
000000C6
FFFFFF30
000005E3
00000376
FFFFF935
FFFFEB1F
FFFFEBCF
FFFFEC01
FFFFF276
FFFFF18E
FFFFEB16
FFFFE702
FFFFE9BD
FFFFE86A
FFFFE702
FFFFE683
FFFFE92D
FFFFF242
FFFFF2B0
FFFFE835
FFFFECFA
FFFFF4C5
FFFFFE16
FFFFF8A5
FFFFF922
000003FB
00000518
FFFFFC7E
000000DE
00000176
FFFFFD68
FFFFF0AA
FFFFEC1C
FFFFEF38
FFFFE893
FFFFF100
FFFFF270
FFFFEAD9
FFFFE845
FFFFF1A0
FFFFF4CA
FFFFF4D4
FFFFF025
FFFFEC0C
FFFFEC4D
FFFFF066
FFFFF4D6
FFFFF87C
FFFFF839
FFFFF932
FFFFF916
FFFFED99
FFFFF1DB
FFFFFAEF
FFFFFBDF
FFFFFD90
0000014F
FFFFFBBE
FFFFFCA0
FFFFF99C
FFFFF432
FFFFE9AF
FFFFEE23
FFFFECA9
FFFFECF2
FFFFEC60
FFFFEE4D
FFFFEE08
FFFFF1A7
FFFFFD70
00000050
FFFFFE3F
FFFFFBC1
0000074E
00000EB8
00000492
00000165
00000226
FFFFF271
FFFFF296
FFFFF4E3
00000A76
FFFFFFA3
FFFFFC29
00000210
0000004D
000001DC
00000087
FFFFF10C
FFFFEB9B
FFFFF4CD
FFFFEDB6
FFFFF034
FFFFF179
FFFFF629
FFFFF5B5
FFFFFF67
00000448
FFFFFDB1
FFFFFE5A
00000631
00000852
00000D4F
000006B2
00000190
00000154
FFFFFF70
00000051
FFFFFC55
00000276
FFFFF853
FFFFFABC
FFFFF117
00000885
FFFFFCD5
0000011E
FFFFF464
FFFFF982
FFFFFE1A
FFFFF7D8
FFFFFF4B
FFFFFC74
00000239
000000FD
FFFFFF69
000003CB
00000146
FFFFFDFB
0000053A
000005AC
0000075F
000005D7
00000455
0000001F
0000050E
00000B4C
000000D2
FFFFFDDD
FFFFFCA0
0000058C
00000577
00000721
FFFFFD5A
00000129
FFFFF6F0
FFFFFDE9
FFFFFEBC
FFFFF78C
0000000A
000007F3
00000590
000001B8
000007DC
000008F3
00000551
00000538
FFFFFB31
FFFFFCAF
FFFFFF99
00000501
0000004A
FFFFFC9E
00000853
000004D1
000007A9
000009E3
00000AF7
00000FB4
00000560
000005DF
000000AC
FFFFF49B
00000086
FFFFFC4C
FFFFFF89
FFFFFE14
00000505
0000093B
00000697
00000686
0000073E
00000DD2
00000A34
000001E2
000000DC
FFFFF8F8
0000004D
00000229
00000591
0000020F
FFFFFFF9
000002F9
00000736
00000AA8
00000C79
00000959
000005AD
FFFFF53B
00000A78
FFFFFF17
0000077F
000002AE
FFFFFEB8
0000054F
00000887
000007CB
000008CB
00000ACA
00000854
00000F24
00001023
000009C9
FFFFFCF8
FFFFFFFF
000003BE
0000050A
00000EDA
00000269
000008FA
000009C2
00000C50
00000A23
00000610
00000B2E
00000501
000001FD
00000BA8
00000BD5
000010D5
000005E7
00000326
FFFFFE07
0000013B
0000057A
000004DE
000003CB
FFFFFBC5
FFFFFE04
000003DB
00000129
FFFFFEB5
FFFFFDA4
000004C9
00000472
0000025A
0000015A
00000444
00000747
00000032
00000880
00001538
000013EB
FFFFFDAC
00000241
00000E48
00000C21
00000A01
00000630
000002F7
FFFFFE62
FFFFFE34
FFFFFFE3
00000014
FFFFFB05
FFFFFA7B
FFFFFFED
00000299
FFFFFE61
00000273
00000262
FFFFFC9C
FFFFFB4D
FFFFFD59
000006B4
00000417
FFFFFEFA
FFFFFF6B
00000539
00000A86
000005F5
FFFFFC83
000000A9
00000918
000007C6
000002B5
00000004
FFFFFEFF
FFFFFC4F
FFFFFEB3
FFFFF998
FFFFFEE4
FFFFFBA5
FFFFF70C
FFFFFDC7
FFFFFF9C
0000006E
0000026F
00000150
0000011F
00000557
00000692
FFFFFFC5
FFFFFFEC
FFFFFCEF
FFFFFFAB
FFFFEC51
0000117B
0000057A
FFFFFC93
00000075
FFFFF561
FFFFFC8E
00000340
000000D5
00000067
FFFFF863
FFFFFE15
FFFFFEF3
FFFFFCCF
FFFFFB01
FFFFF73E
FFFFF9B5
FFFFFC5D
00000057
00000387
00000401
00000405
00000500
000004DC
FFFFFECE
FFFFFAEA
FFFFFA8E
0000037A
FFFFF0CA
00000549
FFFFFA9A
0000005A
000000FB
FFFFF4F2
FFFFEE2C
FFFFFACB
0000013C
FFFFFB2C
FFFFFCE9
00000032
000000BA
000004ED
0000001F
FFFFFAE4
FFFFF9E4
FFFFF9F9
FFFFF9D3
000002B1
000003AE
00000319
FFFFFB7A
FFFFFFCB
FFFFFD8C
FFFFFEF6
FFFFF6FB
FFFFF7C4
FFFFF161
000002FC
FFFFFE8C
000001CF
0000002E
FFFFF8E6
FFFFFD9C
FFFFF2D5
FFFFFDFD
FFFFFEE3
0000035F
00000362
000003AA
00000474
000006DB
00000177
000002F9
FFFFFF7A
FFFFFEF3
FFFFFB15
FFFFFD11
FFFFFDFA
00000027
0000046F
FFFFFA33
FFFFFDA3
FFFFF654
000002D2
00000397
FFFFF0B4
000003D2
00000BE7
0000019E
000000CD
FFFFFA91
FFFFFA1A
FFFFF8E5
0000036F
00000601
000005C0
000004A5
000004B6
000001E5
000005D2
00000762
00000360
FFFFFA40
FFFFF46A
FFFFFF9C
000003BD
000001E7
000000F0
FFFFFD23
000004D2
0000050C
FFFFFFB3
00000620
00000A9A
00000B57
000002FB
000010DA
00000520
FFFFF1DF
FFFFF4F5
FFFFEC42
FFFFF975
FFFFFFBB
000006B5
00000308
FFFFFEF8
FFFFFF82
00000D08
00000BF2
00000259
FFFFFB25
FFFFF647
FFFFFF77
0000061B
00000389
FFFFFD6C
FFFFFC31
00000685
0000088C
00000893
0000028A
000009A9
0000047C
00000045
FFFFFA11
FFFFFF5B
FFFFF848
FFFFF66C
FFFFF50B
FFFFF73F
FFFFF9BD
0000054B
00000517
00000276
000000CC
000002E7
0000068D
FFFFFCF7
FFFFFE13
FFFFF7BE
00000039
FFFFFE5E
FFFFF797
FFFFF824
0000004C
000009D3
00000A5F
00000F3B
00000C0C
00000454
000001C4
000000AC
FFFFFF80
FFFFFF5D
FFFFF9A6
00000616
FFFFFF8B
FFFFFCFF
FFFFF8C1
FFFFF444
FFFFFA5B
FFFFFBA2
FFFFF88F
FFFFFA16
FFFFFCDC
FFFFFF31
FFFFFCF3
FFFFF765
FFFFFAA9
FFFFFCD1
FFFFF9F9
FFFFF785
00000453
FFFFFB48
FFFFFE27
00000ACE
00000055
FFFFEF56
FFFFFE44
0000025A
0000003B
FFFFFB55
FFFFF549
00000DD5
000005F9
FFFFFC87
FFFFF871
FFFFF647
FFFFF8E4
FFFFF1A1
FFFFF15D
FFFFFA50
FFFFF949
00000383
FFFFFA5F
FFFFF8D0
FFFFFD30
FFFFFCEE
FFFFF65D
FFFFFAA7
FFFFFE9B
FFFFFA36
00000048
00000757
0000035D
FFFFF5AC
FFFFFE8A
FFFFFFBC
000000F3
FFFFF393
FFFFEF89
000008B7
0000075C
00000103
0000008C
FFFFFBF5
FFFFF7EF
FFFFF176
FFFFF4B6
FFFFF96D
FFFFF906
FFFFF8AD
FFFFF996
FFFFFF98
000000D0
FFFFF997
FFFFF9B4
FFFFFC8D
FFFFFC40
0000011A
00000222
00000C3B
0000010B
FFFFFFA3
FFFFFDD5
FFFFFF9C
FFFFFE62
FFFFF8FA
FFFFF9A3
0000050A
000005DA
FFFFFF89
000001ED
FFFFFF5E
FFFFF9FA
FFFFFDC2
FFFFFD56
FFFFFF4C
00000095
FFFFFE43
000000CA
FFFFF9A9
0000004A
FFFFFBF1
0000029F
00000152
FFFFFC54
000002CB
000006EC
00000338
FFFFFE15
000000C2
FFFFFEE2
000001D4
00000241
000005F2
000009D9
FFFFF964
FFFFFBAB
FFFFFDEE
00000B68
000007CC
00000548
00000358
00000028
0000039F
FFFFFEE3
00000A1D
000002D7
0000065C
000001A2
FFFFFE76
00000A56
000010B2
00000F74
000003C9
FFFFF43E
FFFFF69D
000001ED
00000081
00000177
FFFFFFCA
000001CF
000001B1
00000677
FFFFF43E
FFFFF5E2
FFFFFB0D
00000F0A
00001306
000013E7
0000086F
0000032D
000009D3
0000109E
00001A04
0000067F
00000712
000008A0
0000086D
00000DCF
00001650
000014BC
00000FA7
00000185
00000177
00000356
000001F0
FFFFFF4D
FFFFFE2C
000000CD
FFFFFE80
00000194
0000037B
00000C24
000008D8
00000752
00000ADC
000004AA
000009D8
00000967
00000A9E
00000DC1
000017F3
000006D7
00000AC7
000013AF
00001463
000007C4
00000388
000008EB
00000D81
00000636
FFFFFFE1
00000187
00000222
FFFFFE86
FFFFFF2E
FFFFFF76
FFFFFFD6
FFFFFF90
0000018B
000000BC
FFFFFA37
FFFFFA14
FFFFFE84
FFFFFD0C
000002E2
000001B8
FFFFFCB6
FFFFFF24
FFFFFBD5
000001C3
FFFFFBC4
0000033F
00000328
FFFFFA08
FFFFFCA6
FFFFFEE4
FFFFFF6C
FFFFFEFD
FFFFF992
FFFFFD58
FFFFFC3B
00000057
00000203
00000293
0000002B
00000083
000001FF
FFFFFAF0
FFFFFBC9
0000014A
FFFFFCDF
FFFFFEEF
FFFFFB30
FFFFFF80
000002CA
0000019F
000003A3
FFFFFA24
000003F4
FFFFFC19
FFFFF945
FFFFFF96
0000020B
00000343
FFFFFDD2
FFFFFD01
FFFFFF13
0000011A
000003E5
FFFFFB81
FFFFFB1D
FFFFFE1C
FFFFFB80
0000037C
000000B4
FFFFFDD1
00000184
00000063
FFFFFDC2
0000020B
0000029F
FFFFFF9B
FFFFFDEF
FFFFFB97
FFFFFA98
FFFFFFD1
FFFFF8BA
00000238
00000158
FFFFFDDB
FFFFFF6B
FFFFFF81
FFFFFF20
FFFFFB1E
0000016D
FFFFFE94
FFFFFA69
0000005D
FFFFFC0A
0000012B
FFFFFC2F
FFFFF911
00000420
FFFFFE09
FFFFFECB
FFFFF9D0
FFFFF8D8
0000013B
FFFFFAD7
FFFFFFC3
FFFFFC25
000004E9
FFFFFFF9
00000169
00000491
000002BE
FFFFFBEA
0000009B
FFFFFE30
0000032C
000003F0
FFFFFB68
00000128
FFFFFEF9
FFFFFAFE
FFFFFF01
0000028D
00000153
0000043E
0000003B
00000055
FFFFFC0A
FFFFFD9E
FFFFFC15
00000148
000001D4
FFFFFD5F
FFFFFA8C
FFFFFB5D
0000042B
FFFFFB0A
FFFFFD52
FFFFFBA3
000002B7
00000312
0000024E
0000068E
000004F3
0000010A
00000018
FFFFFF70
00000C0A
FFFFFE67
00001173
000002C2
00000901
FFFFFB63
FFFFFFD0
000001C9
000006D9
00000065
FFFFF62F
FFFFFA8D
00000219
000001E4
0000046B
0000060B
FFFFF672
FFFFF766
FFFFFE45
00000281
FFFFFFFB
FFFFF868
000002EE
00000AD7
FFFFF04C
0000022D
00000D17
000006E8
FFFFF2BB
FFFFF566
FFFFF30A
00000436
FFFFEB7D
00000C21
FFFFFDEE
FFFFF29C
00000B97
FFFFE409
00000D69
FFFFEE7B
00001163
FFFFFDA1
FFFFF8BB
FFFFFF96
00000EC5
FFFFF6AC
FFFFFC4B
00000AC8
FFFFDCCB
FFFFFE3E
FFFFFB04
FFFFF6DC
FFFFFAA5
FFFFEA1B
00000F3E
000000CF
FFFFFD77
00000CA0
FFFFEA68
FFFFFB0B
00000282
0000070D
000009B4
00000683
00001367
FFFFE734
FFFFF7EE
FFFFF0F7
000015CE
FFFFFC3C
FFFFFED3
FFFFEE82
FFFFFD9F
FFFFF0AA
00000A66
FFFFFCCB
00000049
000002F8
000000F7
00000BAD
FFFFEBE8
FFFFF7E9
FFFFFAA1
000009A3
00000116
FFFFF5EC
00001436
00001304
FFFFFE7F
00001AAF
FFFFFE53
00000473
000002B3
FFFFF75E
000004D2
000006ED
00000F85
FFFFFD2B
00000765
FFFFFDF2
FFFFFBBA
FFFFFBBC
FFFFFFDE
FFFFF64C
00000DC4
FFFFFA12
00000217
FFFFE947
FFFFFB76
FFFFFE09
00000243
00000437
00000394
000002CE
FFFFF6F8
000009CA
FFFFEEA4
000012A1
00000687
FFFFFC19
000006B6
00000281
FFFFFFE0
00000456
00001B52
000015D7
FFFFFF39
00000399
000008D1
0000114A
FFFFED87
000005AB
FFFFF48A
0000039B
000002CB
00000A00
FFFFF7EE
0000057A
000008D8
FFFFFDF1
00000E8E
FFFFFE0A
FFFFF620
FFFFEBCD
FFFFEF17
000003F5
00000BEF
FFFFFF12
000016B5
FFFFF64D
FFFFF8C6
FFFFFC43
00000B4D
FFFFFEAB
00000100
0000055D
FFFFEFA0
0000186B
FFFFFB16
00000232
00000AF5
00000259
00000111
000000A3
FFFFFF0C
00000749
0000011A
00000942
00001041
00000CB8
FFFFF8BC
FFFFFB54
00000057
000001CF
FFFFF570
00000E3A
00000F4D
00000280
FFFFFB9E
0000105E
FFFFFB9C
FFFFFD2E
00000F34
00000873
FFFFFCC3
FFFFFB61
000001B3
FFFFFB45
FFFFF6AE
00000F0C
00001267
FFFFEB3C
00000C65
FFFFEB7B
FFFFF8DF
000009E0
00000925
000011F8
00000633
FFFFFBEF
FFFFF7DE
FFFFFA94
FFFFECAD
FFFFF8C2
0000016B
0000112C
FFFFF7DE
FFFFEEC7
FFFFECA5
FFFFF7F2
FFFFEBBD
00000A39
00000099
FFFFF4E6
FFFFD6CC
