FFFFFEBF
FFFFFFCA
FFFFFF60
FFFFFE42
FFFFFE12
FFFFFEB4
FFFFFFDA
000001F2
00000111
FFFFFFC8
0000012A
000001EC
00000669
00000778
000000B6
FFFFFD67
000000B0
0000003C
000000B8
FFFFFEAB
FFFFFF4A
0000006A
00000046
0000005A
000001D7
00000180
0000022A
FFFFFE37
000001A1
FFFFFF3A
00000239
FFFFFFA4
0000002D
FFFFFFAC
000007E9
000005C9
000007BC
00000546
0000058B
00000782
0000057C
00000945
000003E2
FFFFFAB3
FFFFF9D5
FFFFFF38
00001085
00001079
00000C91
000003EF
00000042
FFFFFE82
FFFFFF8D
FFFFFFB5
0000002E
FFFFFEFA
FFFFFEF5
00000215
0000047B
FFFFFEFB
00000098
00000233
0000054F
00000615
00000B99
00000A66
FFFFFC50
FFFFFC5A
00000614
00000513
00000A32
0000084E
000008F3
000009A7
00000264
0000030B
000006EF
00001074
0000104C
0000069C
FFFFFE9F
FFFFFC6A
000000E9
000000DD
00000060
00000109
FFFFF209
FFFFFA37
FFFFFE91
FFFFFD3F
FFFFFE00
FFFFFDC2
FFFFFAD7
00000EF5
000007A4
00000002
FFFFEE5C
FFFFEC35
FFFFF5F8
FFFFFEB1
00000862
000001F5
00000106
00000902
FFFFFCEB
0000039C
FFFFFE1C
00000582
FFFFFF39
FFFFF670
FFFFFD05
FFFFFF0F
FFFFFDB9
0000010D
FFFFF3D4
FFFFED3C
FFFFFF48
00000407
0000012E
00000562
00000655
00000A51
00000220
FFFFF94C
FFFFFA1D
FFFFF4E3
FFFFFA8B
FFFFF97B
000006E1
000009E5
FFFFFF48
0000069D
FFFFFD82
FFFFFF2E
FFFFF6BB
FFFFF1D5
FFFFFA19
FFFFF844
00000050
00000C82
000001BA
0000003F
FFFFF5A5
FFFFEBD8
FFFFF7A0
FFFFFFAA
000004A3
000009A2
00000ED0
00000623
FFFFFFFC
FFFFFAC8
00000714
000001FF
00000253
FFFFFBE4
FFFFFC41
0000031B
FFFFFD32
FFFFFD7D
FFFFF71B
FFFFF5F5
FFFFF5DE
FFFFFFAC
000003C7
000000D4
000008BA
00000BFB
000000DB
FFFFFCC8
FFFFFCA8
FFFFEBCE
FFFFFA58
000005AE
00000A08
00000BBE
0000038B
000004DE
FFFFF8A3
FFFFFC6C
000001F7
FFFFFD58
FFFFFABA
FFFFFBF7
FFFFFE2C
00000031
FFFFFB6D
FFFFFE45
FFFFFAC7
000006F9
00000BA3
00000E61
000000D9
FFFFF79A
FFFFFC15
000006FE
FFFFFF5B
FFFFFF22
000004C0
FFFFF926
FFFFFDFD
0000012B
00000508
000003F3
00000235
00000654
FFFFFCCF
FFFFFF33
FFFFFE8C
FFFFFDEA
FFFFFB78
FFFFFDE0
FFFFF77C
FFFFFC4C
000000E7
00000181
000000C1
000004D3
00000C44
00000D7A
FFFFF9FA
FFFFF230
FFFFFE52
00000532
0000060B
000001F6
00000B60
00000408
0000052D
00000719
00000BF3
00000835
00000A69
0000079D
FFFFFE9D
000000C7
0000016D
0000044D
0000046B
00000213
FFFFFABA
FFFFF791
00000162
00000241
FFFFFFC3
000000E7
FFFFFEF4
FFFFFB2E
FFFFF62C
FFFFFF34
00000701
FFFFFCF7
000007D4
000008A3
00000154
0000038A
0000060B
00000557
00000A8E
00000589
00000394
000004F4
FFFFFDA2
FFFFFF7A
FFFFFCD3
0000050C
000005C3
00000250
FFFFFB07
FFFFFCC5
FFFFFE25
FFFFFE81
00000044
00000986
00000005
FFFFFF17
FFFFF662
FFFFF8EB
FFFFFFA6
00000285
00000981
000002A0
000006CE
FFFFF5FD
0000036B
000001DE
000007AC
0000068E
00000052
00000650
FFFFFE34
FFFFFA08
FFFFF8D1
0000008E
FFFFFD2A
FFFFFC3E
FFFFF901
FFFFFB19
FFFFFE5D
FFFFFDD8
FFFFFDAF
000005AA
00000825
FFFFFB8E
FFFFFC76
FFFFF801
FFFFEF5E
000000A4
000007BD
FFFFFB4F
00000414
00000612
0000042D
FFFFFEF4
000007F3
00000948
0000048D
00000723
000000F8
FFFFFE8A
00000362
000005AA
000002BD
FFFFFD11
FFFFF847
FFFFF7D2
FFFFFA6F
FFFFFEF1
000003B3
00000BD2
000009B3
FFFFF72E
FFFFF5FC
FFFFEABA
FFFFF6DA
FFFFFF58
00000531
0000015E
00000055
000012A7
0000070C
0000031E
000000B3
00000707
000003AD
000000A1
FFFFF7A6
FFFFFE43
FFFFFD8A
0000046E
000000BD
00000157
FFFFFE48
FFFFF9CC
FFFFFE53
00000324
00000929
0000107A
000007EF
FFFFFFFF
FFFFFA3C
FFFFEB09
FFFFEE79
FFFFFF20
FFFFF680
000000BB
000003A4
00001049
000003DD
000000A9
FFFFFE49
0000039B
000006EB
00000076
0000011B
FFFFFD80
FFFFFB86
00000122
FFFFFD3F
000005B7
FFFFFC9C
FFFFF7D0
000003AE
0000012F
0000091F
00000F62
00001072
00000A25
FFFFF6F6
FFFFF345
FFFFEFE6
FFFFF7B7
FFFFFCAB
000002C4
FFFFF82B
00000103
FFFFFB61
FFFFFCBC
FFFFFB6A
000000EA
0000006C
FFFFFBC2
FFFFFE7B
00000262
00000394
00000428
000000CD
FFFFFE98
FFFFF831
FFFFFC3D
00000259
000009D5
000001E2
000006A0
0000078E
000004C2
FFFFF749
00000007
FFFFF155
FFFFFC18
FFFFFC61
0000032E
FFFFF3D4
FFFFFE20
FFFFF3E9
FFFFECD1
FFFFF740
FFFFFBBC
FFFFFBB2
FFFFF8B1
FFFFF860
0000088F
000004BE
000005E4
00000632
000003B5
FFFFFBEE
00000332
000004F7
00000152
FFFFFED0
FFFFFCA8
FFFFFFCC
000003E4
FFFFF6D4
0000012A
FFFFF778
FFFFFB5A
00000A58
FFFFFEBC
FFFFF581
000001D5
FFFFF794
FFFFF2D4
FFFFFA3A
FFFFFA41
FFFFFF7A
FFFFF4D2
FFFFFCFE
000006EC
00000B44
000003BE
00000906
000003C8
000007E8
0000089B
00000166
FFFFFEF2
FFFFFBD7
FFFFF42E
FFFFF424
FFFFF850
FFFFFB30
00000324
FFFFF656
FFFFF2ED
FFFFFFFC
FFFFFC3E
FFFFF889
FFFFF96D
FFFFF784
FFFFEF66
FFFFF368
FFFFF674
FFFFF3E8
FFFFF1B8
000001FE
00000B97
00000D77
0000086D
0000048F
00000330
00000A2E
00000335
00000117
000000AE
FFFFFDD2
FFFFF77C
FFFFFF4E
FFFFFCE9
FFFFFA3C
FFFFFCB3
FFFFFE5F
FFFFEF1D
FFFFFBEC
FFFFFDCD
FFFFF506
FFFFF8DA
FFFFF276
FFFFF32B
FFFFEDA6
FFFFF2E5
FFFFEB31
FFFFF492
FFFFFF79
00000B58
00001192
00000E49
000004EA
0000037A
FFFFFB21
FFFFFC31
FFFFFDDC
FFFFFD9E
FFFFFDB3
FFFFF573
FFFFF781
FFFFF29C
FFFFF4BF
000002EC
00000B9F
FFFFF67A
FFFFFA6D
FFFFFA9A
FFFFF791
FFFFF0DB
FFFFE8E8
FFFFF13D
FFFFEFBF
FFFFF0F3
FFFFEC1F
FFFFF566
000005BB
00000C9A
00000BEE
00000929
00000219
FFFFFD13
FFFFF7B9
FFFFFDB0
FFFFFEEE
0000031B
FFFFFF51
FFFFF450
FFFFF4BB
FFFFF405
FFFFF834
FFFFFA9E
FFFFF4DE
FFFFF4FE
FFFFFE65
000005BB
FFFFFDB9
FFFFF2EC
FFFFE477
FFFFE707
FFFFE990
FFFFE7C5
FFFFE5CE
FFFFF09B
0000065A
00000E9E
000010D3
0000011B
00000225
000000D4
FFFFFF1E
FFFFFBB1
FFFFFFE4
00000494
FFFFFD16
FFFFF36F
FFFFF401
FFFFF6AA
FFFFFF81
FFFFFE21
FFFFF563
FFFFF84B
FFFFFE9D
FFFFFCB2
FFFFF74A
FFFFEB46
FFFFE66B
FFFFEA50
FFFFE59C
FFFFE754
FFFFF408
FFFFF74E
00000092
00000B60
0000090F
00000294
00000378
FFFFFE3F
FFFFFCFF
000000D9
000000F8
0000002A
FFFFFAE4
FFFFF8A0
FFFFFB22
FFFFFA69
FFFFF4DB
FFFFF8CF
FFFFFC4F
000001C8
FFFFFE05
FFFFFC66
FFFFF83A
FFFFEB40
FFFFEE2E
FFFFEC39
FFFFED9E
FFFFEE32
FFFFF052
FFFFFA51
00000322
FFFFFFFC
00000492
000002DD
000001A7
0000040B
00000561
00000136
00000018
00000191
FFFFFD19
00000148
FFFFFF0C
FFFFF671
FFFFF693
FFFFF870
FFFFF9EE
00000112
FFFFFEB6
FFFFFE44
FFFFF94D
FFFFEDEF
FFFFF735
FFFFF1F6
FFFFF246
FFFFEB62
FFFFF089
FFFFFC06
FFFFFC68
FFFFFBC6
FFFFFEE6
00000090
00000150
000001A4
0000052D
00000706
00000701
0000095B
00000392
0000020C
0000034F
FFFFFC20
FFFFF4E1
FFFFFC61
FFFFF03E
00000127
FFFFFF35
FFFFFF89
000004A2
FFFFFDA3
0000036D
FFFFFEE6
FFFFF5F8
FFFFEA3F
FFFFEAE9
FFFFEEA4
FFFFFB92
FFFFFD83
FFFFFF9C
FFFFFFBC
FFFFFE3A
0000035D
00000398
FFFFF05A
FFFFF6D7
0000039E
0000055A
0000003C
00000272
0000023B
FFFFF829
FFFFFE34
FFFFFD3E
FFFFFE7C
0000016D
FFFFFE1B
000001CE
0000068F
00000E0D
000004F2
FFFFF65B
FFFFEDE7
FFFFEE37
FFFFF9EF
FFFFFF82
0000042B
FFFFF3FD
FFFFF664
FFFFFFAF
FFFFFBC1
FFFFFA7E
00000095
000009F1
FFFFFBB4
FFFFFBD6
FFFFFFAC
00000223
0000061A
FFFFFF35
FFFFFFD2
FFFFFD9A
000000BA
0000016D
FFFFFFD0
0000004C
FFFFFD59
000010A6
00000A74
00000AE1
000001D3
000009A1
00000612
FFFFF2D2
FFFFF87B
00000336
FFFFFB62
FFFFFF2A
FFFFF20C
FFFFF74F
000006A3
00000959
FFFFFC8C
0000007B
000003E8
0000041C
000008A9
000004FD
0000032C
FFFFFEFE
0000015B
00000058
00000232
FFFFFEDC
FFFFFF69
000004AF
00000DA6
00000CE4
000004D4
000004AF
0000054B
00000745
0000034C
0000038A
00000091
FFFFFED7
FFFFFD27
FFFFFD55
FFFFFE6E
000001C1
00000B4B
000002D3
FFFFFD66
0000069A
00000134
0000000F
00000009
FFFFFFF6
FFFFFFD0
FFFFFF9E
FFFFFE18
FFFFFDE0
FFFFFE49
000001E7
000001A9
FFFFFF7C
FFFFFE33
FFFFFF18
00000111
FFFFFE3D
FFFFFE53
FFFFFCBE
0000045D
000008C6
0000058F
FFFFFE64
FFFFFF59
000001FB
FFFFFDE6
FFFFFFFC
FFFFFE29
FFFFFE5F
00000115
FFFFFF45
FFFFFFFA
FFFFFF17
000001D1
000000DB
00000165
FFFFFDDC
FFFFFE03
000000EB
FFFFFF9C
0000070E
000002EB
FFFFFECA
00000215
000003F9
00000502
00000426
0000015D
FFFFF50B
FFFFF552
00000E11
000013E4
FFFFFF26
00000166
FFFFFC9E
FFFFFB09
0000019C
00000473
00000058
0000016B
FFFFFFEE
00000224
FFFFFF92
FFFFFEFF
FFFFFFDA
0000015B
FFFFFE06
000003D1
000007D1
00000C87
00000DBF
000009D8
00000A15
00000753
00000282
FFFFF2EB
00000528
00000188
00000176
FFFFFE16
0000040C
FFFFF681
FFFFFAA1
FFFFFBA4
FFFFF888
000004CA
00000531
000001B7
00000071
00000137
FFFFFE1E
FFFFFE1A
FFFFF533
FFFFFCCC
000008BC
00000BC9
00001207
000007A5
00000F69
000004B5
0000028B
00000961
000008F7
000004F2
0000045A
000008E1
00000643
FFFFFDDC
000001AA
00000337
00000260
00000609
FFFFFB83
00000227
00000084
FFFFFCF7
FFFFFA8D
00000113
0000007D
FFFFFE01
FFFFF4A8
FFFFFA4E
FFFFFD25
000007E3
00000E9D
00000EC1
00000C88
00000881
00001034
00000C33
000005ED
FFFFFF56
000004A9
000005D8
00000989
000009BC
0000043B
00000509
000009B6
FFFFFD2D
FFFFF7C4
FFFFFEC0
00000759
00000883
00001144
00000C82
00000084
FFFFFE40
FFFFFD3C
00001541
00000A12
FFFFF8A5
FFFFFC22
00000329
FFFFFAD0
FFFFFCA6
00000D4E
00000A5D
000004F7
FFFFFB40
000003B9
000001F8
00000B99
00000685
000001C3
000002F7
00000A5A
00000569
0000052B
000006FC
000005C1
000011A7
000014B1
00000E1C
FFFFFFB3
00000485
000000B8
000002FF
00000424
FFFFF7DE
FFFFFAD1
FFFFFDDF
FFFFFF5A
000004BC
000000F7
FFFFFF5E
FFFFFE57
FFFFFDAE
000001E6
000003D8
00000706
FFFFFFBD
FFFFF89A
FFFFFF3A
FFFFFF6D
FFFFF8E9
0000002A
000004C0
000005F5
00000D5C
00000F3A
0000049B
000000E7
00000044
FFFFFC54
FFFFFFC7
000007B1
000001D9
FFFFFD78
FFFFF65A
000004C7
FFFFF88D
FFFFFC10
FFFFFF36
FFFFFC1D
FFFFFD9C
FFFFFC72
FFFFFAF6
FFFFFED0
FFFFFCFC
FFFFF697
FFFFFBE2
FFFFFD0B
FFFFF71E
FFFFF84A
FFFFF738
FFFFFFF0
00000DF5
00000544
00000569
000002FE
FFFFF956
FFFFFB09
00000287
00000303
FFFFFE32
00000004
FFFFFC6B
FFFFFF2D
FFFFFDD3
FFFFFB1D
FFFFFF7E
FFFFFD0D
FFFFFF0F
FFFFF985
FFFFF66A
FFFFFE5E
FFFFFCAC
FFFFFE82
0000040B
FFFFFFBC
FFFFFB6A
FFFFFC55
FFFFF8C9
FFFFFBD6
00000B3C
00000C87
00000898
FFFFFDCB
FFFFF399
0000013D
FFFFFF73
FFFFF87F
FFFFFFBA
FFFFFF7D
FFFFFE05
0000023C
FFFFFF96
FFFFFD63
FFFFFCD2
00000210
FFFFFF44
FFFFFA4E
FFFFF925
00000033
000000FC
FFFFFE4D
000000C4
0000028B
00000036
FFFFFE55
FFFFF90B
FFFFF558
00000C34
0000054B
FFFFFA51
FFFFFEEF
FFFFF9B6
FFFFF808
00000609
FFFFFEE8
00000453
00000456
00000355
000002FC
FFFFFCE7
FFFFFAE1
FFFFFAB2
00000187
FFFFF7B8
FFFFF7E6
FFFFF33B
FFFFFFEC
000001E4
00000333
FFFFFFDB
00000020
FFFFFDBB
FFFFF7C6
FFFFFC6E
0000004C
000004B0
000003B7
FFFFFA50
FFFFF8E6
FFFFFA8A
FFFFF0FA
FFFFF7B5
0000001E
FFFFFE3B
000000FD
FFFFFC1B
000003DD
FFFFFDB8
FFFFF81F
FFFFFEF2
0000044C
FFFFF4B2
FFFFF618
FFFFFBDE
000001F4
0000001E
0000052F
FFFFFF4D
FFFFFBD7
FFFFF97D
FFFFFBDE
FFFFFEA7
0000105E
000016B5
00000C95
FFFFF025
FFFFFBFC
FFFFF9C6
FFFFF8A6
FFFFF7FB
FFFFFCEA
FFFFFE09
000001AE
FFFFFA77
FFFFF8A9
FFFFFEE3
00000692
000002B2
000003A8
FFFFFBD7
FFFFFE8E
FFFFF8DF
FFFFFF30
00000019
FFFFFF9C
00000429
FFFFFF7D
FFFFFA44
FFFFF884
000001A3
00000E26
00000033
FFFFF5C2
FFFFF200
0000093F
FFFFFE4E
FFFFF6CA
FFFFF989
FFFFF560
FFFFFD28
FFFFFD73
FFFFFF41
00000072
FFFFFFD3
000002F9
00000436
000005B1
00000872
00000297
000002F7
000004BB
000003B7
FFFFFF82
000004DF
FFFFFFF8
FFFFF6FB
FFFFFE06
000007AD
000004D9
FFFFFCE4
00000AB6
0000049D
000003F6
FFFFFD01
FFFFF407
FFFFFB33
FFFFF6CE
FFFFFCFE
000008BA
000002D8
FFFFFCC7
FFFFFD8B
FFFFFE4B
00000105
000003EF
00000ADD
00000F1B
00000B4D
00000956
000003A8
FFFFFF9A
FFFFFAC7
FFFFFF23
FFFFFBCC
FFFFFC59
FFFFFA11
00000393
00000C84
00000ED6
00000557
00000118
0000015A
FFFFFEDB
FFFFFF67
FFFFFEA4
000005BD
000005F8
FFFFFEAA
FFFFFD40
FFFFF5F6
FFFFF562
FFFFFECE
000003D1
00000D67
00000DCF
000006E2
00000DA3
00000085
FFFFFEB6
00000322
FFFFFB98
FFFFF919
FFFFF7B0
FFFFF80C
000000F2
000009BA
000006E2
00000314
FFFFFF7C
FFFFFFEE
00000379
000006CF
00000097
0000013C
0000074C
00000325
FFFFF344
FFFFF3AC
FFFFFBD9
0000041B
000009C2
00000AC6
00000653
000002AE
00000355
0000068C
000007D2
0000013F
FFFFFE60
FFFFFF03
FFFFFEE4
00000118
0000066D
00001388
00000A01
0000049D
FFFFFF2D
FFFFFF39
00000538
0000057A
00000453
000005D4
00000431
000005C2
FFFFFFD0
FFFFF769
FFFFF734
FFFFFB44
FFFFFB25
000000AD
FFFFFA5E
FFFFFDBA
00000308
00000367
00000567
000003CE
FFFFFED7
000002BA
FFFFFDBB
FFFFFCA6
FFFFFD2D
000004CB
FFFFF976
00000ABE
FFFFFBDE
00000254
000003B0
00000CDC
00000389
0000066F
00000A9D
0000067B
FFFFFF42
FFFFFB0F
FFFFFC81
FFFFFD4C
FFFFFB07
FFFFF97C
FFFFFB59
FFFFFECC
000008A2
FFFFFF9F
00000031
000005F3
0000000F
FFFFFD7A
FFFFFFEC
0000001C
FFFFFEA0
000000F9
FFFFF0E1
000004C7
FFFFFF37
FFFFF2D0
FFFFFB5A
00000768
00000527
00000C7D
000004C8
0000066A
00000137
FFFFFF17
00000380
FFFFF90F
FFFFF5ED
FFFFFC77
0000023B
00000542
000008CD
00000949
000009AC
0000050D
FFFFFC65
FFFFFF63
000005E0
00000655
FFFFF47D
FFFFFD9C
00000C0F
0000044F
000001F2
FFFFFD91
0000036A
00001008
00000628
00000B34
000002A8
0000047A
00000473
00000166
0000010D
FFFFFFFA
FFFFFD63
0000017E
00000461
000005AF
00000946
00000953
000008CB
FFFFFDBA
00000401
000006FB
00000675
00000428
FFFFF20D
00000023
00000308
FFFFF8CE
FFFFFE1B
00000565
000007D9
00001472
000006AD
FFFFFF46
FFFFFFE2
000003B5
0000016A
FFFFFFF8
FFFFFD0E
00000059
FFFFFF3F
000001E4
000002D9
000004AF
00000630
00000730
000004F6
FFFFFFF1
000000F1
FFFFFC3A
000002A5
0000084A
FFFFF4DC
00000823
FFFFFBF7
00000023
FFFFFDFC
00000307
00000DE6
00001C81
00000675
FFFFFD6A
00000115
0000021A
FFFFFFAE
FFFFFC34
0000031D
000007C4
0000043E
00000313
FFFFFC3B
FFFFFC50
FFFFFE8D
FFFFFF3E
0000011D
FFFFFDF8
00000594
00000260
0000013E
000000A7
00000009
FFFFFD69
FFFFF72F
FFFFFE6E
000000AC
FFFFFF4A
000009FA
00001D7D
000009C7
000003D6
FFFFFA5D
FFFFFACB
000005A8
00000290
000003C4
00000964
000002A0
000000D0
FFFFFE83
FFFFFDDB
00000234
00000458
00000BD3
0000003F
00000CF4
00001271
00000F7D
000006DE
FFFFFA5B
FFFFFF2C
FFFFFC05
00000132
00000156
FFFFFFC8
FFFFFC98
00000431
FFFFFDC9
FFFFFBB9
FFFFFE88
FFFFFF4F
0000052F
00000740
0000067E
00000166
0000005D
0000004D
000002BC
000000A9
0000065B
0000041B
00000C61
000002A6
0000048F
00000C09
000001E5
FFFFFA6E
0000017C
00000552
FFFFFFD1
000000E1
0000019C
FFFFFF36
00000238
FFFFF4F2
FFFFF4BF
FFFFF9CF
FFFFFFCA
FFFFFB3E
FFFFFB22
FFFFFF40
000004DA
FFFFFD5E
FFFFFA3E
00000573
FFFFFF31
FFFFFD89
FFFFFF54
00000731
000000C3
FFFFFBAC
000001F3
FFFFFD04
FFFFFBFF
00000292
00000127
00000286
FFFFFF73
00000228
FFFFFEFD
00000089
FFFFFECF
FFFFFF0C
000006CB
FFFFFAAE
FFFFFC3B
FFFFFF8A
FFFFF9CF
FFFFFBBB
FFFFFE19
000000A1
FFFFFB46
FFFFF4E2
00000068
00000111
FFFFFA54
FFFFFEF8
FFFFFBE6
FFFFF186
FFFFFBA1
00000081
FFFFFE9E
000001CE
FFFFFD75
FFFFFDD7
FFFFFE19
00000164
00000073
FFFFFFA3
FFFFFFC7
FFFFFF03
000000BC
00000129
000003BF
000003E4
00000397
FFFFFE2C
FFFFF4E0
FFFFFBB7
FFFFFE69
FFFFF861
FFFFFB14
00000397
FFFFF8DD
FFFFEB17
FFFFF506
FFFFF78F
FFFFFFCC
FFFFFD13
FFFFFAC6
FFFFF9DE
000000C4
FFFFFED0
00000176
FFFFFE04
00000037
FFFFFF27
FFFFFF73
00000148
FFFFFED4
FFFFFE75
000001D7
FFFFFED4
000000E7
000001FA
00000036
00000039
FFFFFD8A
FFFFFEAE
0000029C
00000126
FFFFFDE0
FFFFFFD1
FFFFFE50
000000A7
FFFFFF7A
000001AF
00000228
FFFFFFD3
0000018A
0000021F
00000235
00000000
000001F5
FFFFFF49
000000B3
FFFFFDE9
0000011C
0000003C
FFFFFEA0
FFFFFE0F
FFFFFCC5
FFFFFD6C
FFFFFDD4
FFFFFC98
FFFFFBCA
FFFFF66F
00000CE2
00000C15
FFFFFDE4
FFFFF52B
FFFFFBAA
FFFFFEF3
0000006E
FFFFFF82
FFFFFC64
FFFFFCC8
FFFFFDD4
FFFFFF1A
FFFFFF02
FFFFFFD8
0000001E
FFFFFE4D
FFFFFD80
0000013A
FFFFFCFA
FFFFFD6B
FFFFFC3A
0000008A
FFFFF862
FFFFFCD1
FFFFFF97
000001D8
FFFFF81E
00000247
FFFFFDA3
00000755
00000CF6
00000A1D
00000D99
00000DC3
00000AB6
FFFFFB3C
FFFFF9A7
FFFFFA9A
0000005D
FFFFFDE3
FFFFFFD9
00000099
000001C6
FFFFFF7C
00000D72
00000BF4
FFFFFDD1
FFFFFF26
FFFFFE25
00000225
FFFFFADF
FFFFFD5A
FFFFFB91
FFFFF055
FFFFF833
FFFFFAD5
FFFFF5CB
00000231
00000666
000004C5
FFFFFC3B
FFFFFE01
FFFFF7B6
FFFFF7B0
0000039A
00000C7D
000001E6
000004F4
FFFFFFD4
FFFFFFFF
000000D9
00000289
00000A81
00000916
00000BB5
00000382
FFFFFA3E
FFFFF8B9
000004A1
00000C08
0000077F
0000059F
000005B7
000000F9
000003E9
00000836
000009ED
000009DA
00000002
000004CC
FFFFFF79
FFFFFE87
000001B0
000001CA
00000058
00000774
000000F7
FFFFF813
FFFFFEE5
FFFFFEE8
00000A77
00000475
00000A35
000007B2
000003B7
FFFFFEF3
FFFFFBC5
000008F7
00000A07
000001D6
FFFFFDB5
FFFFFCA1
FFFFFC01
000003EC
000004EE
FFFFFF7A
FFFFFC6B
00000509
00000DAD
00000A02
00000B8D
FFFFFE7B
000005B3
00000D1F
FFFFFE9D
FFFFF862
000000DA
000004C3
FFFFF6C6
FFFFFBB0
FFFFF756
FFFFF8B2
FFFFFD12
00000250
0000037F
FFFFFBE2
FFFFFB67
FFFFFEE2
000000DE
FFFFFDFA
FFFFFC9A
00000430
FFFFFE12
FFFFFF61
FFFFFC99
FFFFFA0E
0000089A
FFFFFD85
FFFFFD13
FFFFFCFB
000002A3
00001037
00000556
00000058
FFFFFEF9
FFFFFBE6
FFFFF13A
FFFFEE8F
FFFFED96
FFFFF088
FFFFF592
FFFFFC31
FFFFFDF7
FFFFFB9B
FFFFFB5B
FFFFFB8B
000004C1
FFFFFF69
000003F2
00000362
000001C5
000001FE
FFFFFE1A
FFFFFC0D
000004F9
000003E3
FFFFFDEF
FFFFFF1B
FFFFFEAA
00000920
FFFFFB22
FFFFFEF2
FFFFFD15
FFFFF4AE
FFFFF30C
FFFFFA2C
FFFFEDBB
FFFFF3B4
000006EE
00000013
FFFFF697
FFFFF963
FFFFFEBC
FFFFFD77
00000391
00000238
FFFFFEF0
FFFFFF72
FFFFFEEF
00000287
00000391
00000738
00000022
00000381
00000670
00000832
000001D4
00000300
000009B1
FFFFFF59
FFFFFE1D
FFFFF9AD
FFFFF7D4
FFFFFCD8
FFFFEE16
FFFFF345
FFFFFECD
00000177
FFFFFD82
FFFFFCC9
000008CE
00000752
FFFFFEF9
FFFFFF4E
FFFFFE7F
0000076A
00000497
00000405
00000386
00000584
FFFFF818
0000058F
000003B3
00000465
FFFFF6A5
FFFFFB34
000012A1
FFFFFBE6
FFFFFCCD
FFFFFF18
FFFFF798
FFFFF288
FFFFF0AB
FFFFEF54
FFFFF4B5
00000050
00000233
FFFFFEE0
00000882
00000247
000000C3
FFFFFE49
000003DD
000006D6
00000824
0000077E
000009B1
0000045F
FFFFFC18
FFFFF7B5
FFFFFCA4
FFFFFD74
FFFFF4F6
FFFFF986
00000C17
FFFFFF42
FFFFF94D
FFFFF90B
FFFFF1F3
FFFFF15D
FFFFFD62
FFFFF78A
FFFFF2FB
FFFFFAC0
FFFFF78C
FFFFFB53
FFFFFD8D
FFFFFE5D
FFFFFCDC
0000057C
00000542
000008B6
00000D16
0000072C
00000AA4
000002DA
FFFFFA50
FFFFEE27
FFFFF340
FFFFFBCD
FFFFFC12
FFFFFBE7
00000FE6
000005E2
FFFFFB89
FFFFFA7E
FFFFF164
FFFFF72F
000002BE
FFFFFF56
FFFFFEE0
00000175
FFFFFA36
FFFFF7E5
FFFFF9F9
00000146
00000496
000007EE
00000B77
0000063E
00000549
0000039A
0000048D
FFFFF791
FFFFFB76
FFFFF675
FFFFF1A8
FFFFFC2F
FFFFF234
FFFFF332
FFFFFC72
FFFFFF17
0000071F
FFFFF85F
FFFFF56C
00000393
FFFFFEB1
FFFFFED0
000002B6
FFFFFD4D
FFFFFB50
FFFFFDE7
FFFFF4C3
00000378
000008A9
0000087C
0000074F
0000032B
FFFFFE83
FFFFFE48
FFFFFBFE
FFFFF2C4
FFFFF9DE
FFFFF580
FFFFEF7A
FFFFF353
FFFFF330
FFFFF48A
FFFFFE9C
FFFFFE4F
00000063
FFFFFCB1
FFFFFE67
00000592
FFFFF3EC
FFFFF6AD
FFFFF8E4
000001CD
000003C9
00000132
FFFFFF98
000001C9
FFFFFF2C
00000098
00000689
FFFFFD34
0000026D
FFFFF99E
FFFFF0D7
FFFFEC60
FFFFF180
FFFFF3D5
FFFFEE8F
FFFFF23E
FFFFF689
FFFFFE2A
000006B7
0000014F
FFFFFEAB
000003E0
00000AB4
FFFFFE72
FFFFF2D3
FFFFEFAA
FFFFFC03
0000089E
00000AC5
00000946
FFFFFD09
000000AE
FFFFFBEF
000002C4
00000756
FFFFFD48
FFFFFD40
FFFFF2CA
FFFFF613
FFFFEC04
FFFFEB93
FFFFF4A7
FFFFF6C2
FFFFF0D5
FFFFF831
000002F3
FFFFF8B8
FFFFFDCB
FFFFFDC7
0000040F
00001168
FFFFFE3A
FFFFEFEF
FFFFF0FD
00000899
000004A6
FFFFFC9E
0000073D
FFFFFBA9
FFFFFE73
FFFFF6B8
FFFFFEC0
00000766
00000038
FFFFF9D0
FFFFF0C3
FFFFF957
FFFFF08D
FFFFF446
FFFFF708
FFFFF6AD
FFFFFC45
FFFFFBB8
000007BA
000004FF
FFFFFAAB
FFFFFFC7
000004AC
00000539
FFFFF8B6
FFFFFC4E
00000029
000005FD
00000297
FFFFF577
FFFFFB64
FFFFF838
FFFFF887
FFFFFA16
FFFFF953
000002FF
FFFFF8FD
FFFFF5E6
FFFFF47C
FFFFF826
FFFFF9A4
FFFFFDAA
FFFFFB02
FFFFFA59
FFFFF986
000002BD
FFFFFB52
00000304
FFFFFB17
FFFFF741
000006E2
000002E4
FFFFFD0C
000005F3
0000028D
FFFFFEAB
FFFFFF12
FFFFF3CE
FFFFF6BB
FFFFF6C5
FFFFF4BF
FFFFF41E
FFFFFD91
00000031
FFFFF98A
FFFFFB41
FFFFF9F9
FFFFFE27
00000179
00000721
FFFFFEAD
FFFFF982
FFFFFCA6
0000041D
00000425
FFFFFDA1
00000424
000006A9
FFFFF592
FFFFFDE1
FFFFFDFB
000007DD
FFFFFC92
FFFFFD06
FFFFFA8A
FFFFF623
FFFFFBBA
FFFFF953
FFFFF771
FFFFF405
FFFFFB59
FFFFF85E
FFFFFA66
00000419
000003A9
00000460
000003D2
00000724
000001AC
000000C4
FFFFFD9D
FFFFF953
0000079E
FFFFFB82
FFFFFFAB
FFFFFDD5
FFFFFF46
FFFFF5EF
FFFFFEF8
000005C4
FFFFFC3B
00000285
FFFFFAE4
FFFFF6EC
FFFFF929
00000172
000000B1
0000046A
FFFFFC8E
FFFFFC31
0000025C
00000A0E
0000090D
00000C2D
000008C7
00000D72
0000049B
0000008C
FFFFFFCE
FFFFFCBC
0000011E
FFFFFDBB
00000B05
00000520
000006A0
FFFFFDE8
FFFFFADC
000004E6
000002E7
000005D2
FFFFFFD9
FFFFFC39
0000053A
000001FE
00000204
000000DD
FFFFFEF0
00000492
0000031F
00000647
000004F7
000009FF
000006CD
0000062B
FFFFFCF6
FFFFFC62
FFFFF872
00000234
FFFFFBBA
FFFFF976
00000043
00000202
000004DF
FFFFF91B
FFFFF878
FFFFFE7D
FFFFFE80
FFFFFEDE
FFFFFF32
FFFFFA6B
FFFFFC87
FFFFFED7
0000001B
FFFFFE4A
00000401
00000624
000003F0
000006E4
0000047E
00000912
000003FF
00000A27
00000958
000005B0
000006DB
000000DF
00000096
00000C29
FFFFFDD7
FFFFFF3F
00000016
00000BDB
FFFFF8D6
FFFFFA12
FFFFFBCA
FFFFF9CD
FFFFFB6C
FFFFFB7C
FFFFFF79
FFFFFA38
FFFFFDDA
00000430
0000046A
000002D2
0000088B
00000721
0000055B
000007D4
00000738
00000EB6
000009EC
0000095A
000003A7
FFFFFCD8
0000041C
000009F5
0000002C
00000136
FFFFFF13
000000C8
FFFFFA49
FFFFF5F3
0000010E
000002C6
FFFFFEE9
FFFFFFDA
000003AE
FFFFFDF2
000001FA
000001AF
FFFFF7F4
FFFFFD49
FFFFFF2A
0000004E
FFFFF953
000002B3
0000077E
000007EC
00000A28
000002A4
000005AD
0000009F
00000006
00000736
FFFFFE9B
FFFFFE7D
FFFFFF66
0000026A
0000006C
FFFFFE29
FFFFFE3F
FFFFF20D
FFFFF208
FFFFFFCB
0000014F
FFFFF55D
FFFFF378
FFFFFF1D
000001FF
000002E3
FFFFFF53
0000012F
000008B6
000008BA
00000355
00000748
0000041C
00000004
FFFFFA8E
FFFFFC9F
00000106
000005A9
00000041
FFFFFEC0
00000076
0000023B
000000F4
FFFFFF48
FFFFF508
FFFFF331
FFFFFFA0
FFFFF150
FFFFF5F8
FFFFF7B6
FFFFFB27
FFFFF6CA
FFFFEE71
FFFFFDB6
0000043A
000001C5
0000104E
00000736
FFFFF1C9
FFFFF815
000000B6
FFFFFCBC
00000465
FFFFFED4
00000147
000000D9
00000192
0000022A
00000001
FFFFFE67
FFFFFF37
FFFFFF21
00000010
FFFFFC5B
FFFFFCA5
FFFFFF8B
FFFFFCA1
FFFFF7D3
0000011C
000001A2
FFFFFC4F
000000E0
00000C1D
FFFFFE87
0000009C
000008F3
FFFFFB15
FFFFF872
FFFFF8B2
FFFFFB93
00000067
00000232
0000003B
0000011A
000000C3
FFFFFEF9
000001B4
000001D5
0000007A
FFFFFE16
FFFFFFC6
FFFFFEEB
00000086
00000150
00000163
FFFFFE83
FFFFFFEA
00000126
000001D4
00000129
0000019C
FFFFFFBB
FFFFFED6
FFFFFE3A
00000100
0000020D
FFFFFDDC
FFFFFE99
000001B4
FFFFFFC8
000001CD
FFFFFF2B
000001A7
FFFFFE6F
00000198
000000B3
000000BA
0000004B
FFFFFFD5
FFFFFDD4
FFFFFD78
FFFFFE7F
00000107
0000006A
FFFFFF6B
0000001C
00000009
FFFFFF3B
0000006B
00000196
000003A5
FFFFFE99
FFFFFF4C
000000AC
FFFFFC5F
FFFFFCBE
FFFFFDE9
FFFFFDB8
FFFFFEDF
00000093
00000004
0000010A
00000073
0000006C
000000FD
000004F1
FFFFFECC
FFFFFE48
0000018A
FFFFFC0B
FFFFF568
FFFFF90D
FFFFFC5B
FFFFFD92
000000BB
FFFFF75C
FFFFF5B4
FFFFF6B7
FFFFFD82
0000043D
000004FF
00000232
FFFFFCD3
FFFFFF7E
FFFFFDA3
FFFFFB00
FFFFFD4B
000000FC
FFFFFDD7
00000035
FFFFFFC7
0000007F
000001E3
FFFFFBCE
000003C5
00000331
0000025B
00000281
FFFFF7F6
FFFFF9D3
FFFFFC00
FFFFFB9C
FFFFF78D
FFFFF900
000002C9
FFFFF640
FFFFEFF0
FFFFF68D
FFFFF37F
00000016
000001D7
FFFFFFEE
00000333
0000045E
FFFFFEA8
0000016F
000001A4
00000142
00000132
00000482
000009CF
FFFFFB77
FFFFFA7F
FFFFF6F8
FFFFFA61
FFFFF500
FFFFFA2F
FFFFF99A
FFFFFF00
FFFFFEF3
FFFFFDE9
FFFFFDD7
00000507
000004D0
0000009B
00000005
FFFFFF48
FFFFFD0D
FFFFFDCA
0000010E
FFFFFF51
000008F2
000001EE
00000300
FFFFFF9C
FFFFFFE3
00000131
000002F3
0000032A
FFFFF8B9
FFFFFFB8
FFFFFC93
FFFFFE7F
FFFFF56F
FFFFFBFF
FFFFF7A3
0000020F
00000557
000005DA
00000233
FFFFFCD0
00000303
00000316
0000037A
FFFFFB7D
FFFFFB55
FFFFF87C
FFFFF610
FFFFFB63
0000033D
00000414
00000E22
000000C6
0000002B
000000B0
00000589
0000012B
000005BB
00000403
0000024C
00000206
00000075
000003AD
000003EE
000009C2
000003E6
00000498
0000025E
00000335
00000393
000006E5
0000038E
FFFFFE5B
FFFFFD3E
FFFFFB8A
FFFFFC03
00000282
0000053F
00000B78
00000B58
000003FD
000001B1
00000955
00000131
0000070A
000001DE
0000015F
00000760
0000030A
00000528
000005AB
0000094A
000004DC
000005C9
0000068D
000003BF
0000055B
00000776
FFFFFFFE
00000212
0000007D
FFFFFEFE
FFFFF77E
FFFFFB5C
FFFFFE7A
FFFFFE77
000002C2
000001B0
00000592
FFFFFC13
00000168
FFFFFDCB
00000514
FFFFFEB1
000003BF
00000968
00000030
00000643
00000261
00000541
0000041C
00000763
00000419
0000001E
00000323
00000632
0000043D
00000431
00000429
FFFFFFBD
FFFFFC68
000004AF
00000078
FFFFFEF2
000007FB
000005D1
0000077A
00000775
00000772
000000DD
00000647
0000030C
FFFFFF8D
000008EF
00000013
000004C7
0000060F
000006A0
00000691
00000517
00000136
00000201
FFFFFFBA
FFFFFED2
000006B7
000001CA
000002EF
FFFFFFEC
FFFFFEFF
00000414
FFFFFFDE
000009F6
00001A6B
00000BB3
0000040E
000007B4
00000477
FFFFFD16
00000C89
00000F4B
FFFFFFEA
000009A0
0000034B
0000059A
00000438
000005B9
0000028D
00000066
000001A4
000002E1
FFFFFBB3
0000017A
000000BC
0000012D
0000029C
00000979
000005F3
000009AF
00000763
00000AD4
00001359
00000E38
FFFFFF43
000001ED
FFFFFE2D
000005FF
000012C9
00001746
00000AE3
00000875
000001F2
000000FA
FFFFFCD4
FFFFFE7C
FFFFFE7E
000001C2
0000086A
0000052E
0000045E
00000129
000004ED
FFFFFFE6
FFFFFFC8
000004A8
00000222
000004DC
00000622
000004F3
00000CEB
00001290
0000021B
FFFFFF04
0000018E
00000540
00000F19
00001791
00001015
00000588
00000336
0000056D
FFFFFD31
FFFFFDC4
FFFFFCC9
FFFFFEA1
00000329
000008B7
00000469
00000323
000001B7
FFFFFD88
FFFFFF87
FFFFFFA3
FFFFFDDE
FFFFFD34
FFFFFDC7
FFFFEEA0
FFFFF908
0000059C
FFFFFC01
FFFFFF38
00000188
00000988
00000AAE
00000D18
00000621
000000C4
000004B8
000001C8
0000000E
FFFFFE2B
0000032E
0000055B
00000859
00000408
FFFFFFD3
000002ED
FFFFFDC8
FFFFFC7B
FFFFFF8C
FFFFFDAA
FFFFFDDE
FFFFF820
FFFFF2B2
FFFFED94
FFFFF360
FFFFF9F6
FFFFFC1A
000001F6
00000158
0000072F
00000392
000003B9
FFFFF57C
FFFFFD85
FFFFFECA
FFFFFFD5
FFFFFE86
000003A8
000003BA
000004BD
000004A3
00000401
00000123
FFFFFD98
FFFFFFFA
FFFFFD6F
FFFFFD05
FFFFFE00
FFFFFC37
FFFFFCA0
FFFFFFC4
FFFFF692
FFFFFCDD
FFFFF32D
FFFFFBA2
00000314
00000245
FFFFFD24
000000C4
FFFFFF32
FFFFF57A
FFFFFBB6
FFFFF899
FFFFF817
FFFFFD0D
FFFFFFAD
FFFFFFE2
000000D2
FFFFFE97
00000171
FFFFFF50
FFFFFFFF
000001F1
000000AB
FFFFFD8E
FFFFFF7B
FFFFFD09
00000256
0000017F
FFFFFDD4
FFFFFD8C
FFFFF83B
FFFFFCBC
0000025B
00000435
0000028E
0000044F
00000286
FFFFF8D7
FFFFF5C9
FFFFF0FF
FFFFF77D
FFFFF753
FFFFF73F
FFFFF82B
FFFFF685
FFFFF7D5
FFFFFBD4
FFFFFC11
FFFFFFFD
00000095
0000051C
FFFFFF43
FFFFFE24
0000004B
0000036B
000001CB
FFFFF907
FFFFF1CE
FFFFF3C5
FFFFFBAF
FFFFFF7B
0000037B
000000EA
00000A52
FFFFFF77
FFFFFBB5
FFFFF83F
FFFFF74C
FFFFF6F4
FFFFF493
FFFFF124
FFFFF33C
FFFFF699
FFFFFA00
FFFFFA2E
00000453
00000028
000004E6
FFFFFFBD
FFFFF938
FFFFFBBE
FFFFFE2F
FFFFF875
FFFFFECC
FFFFFA76
FFFFF5F7
0000081D
FFFFFCCE
00000C9E
000002D9
00000644
0000043B
000000E2
000002AC
00000257
FFFFFEEE
FFFFFBFB
FFFFF8F2
FFFFFC91
FFFFFD7D
FFFFF88C
FFFFF88E
FFFFFB90
00000193
00000165
0000038A
FFFFFC05
000000D5
000001DF
FFFFFDA9
FFFFFD4A
FFFFFB25
FFFFF91C
FFFFF786
00000EC5
FFFFF4A2
000002DF
000010F7
000001DA
FFFFFFA7
00000619
0000090F
0000083F
000001ED
FFFFFF06
00000054
FFFFFFDB
000000CC
FFFFFFEC
FFFFF89F
FFFFF9B8
FFFFFE62
000000BE
FFFFFF7F
00000351
000003EB
FFFFFE73
FFFFF8B3
FFFFFC7B
000002BF
00000743
FFFFFE8B
FFFFF4F5
FFFFF8CE
000000A7
000004AD
FFFFFA00
0000009A
000006B3
00000BBB
00000474
0000033F
00000480
FFFFFDD7
FFFFFF62
FFFFFD3B
FFFFF9FC
FFFFFBD3
FFFFFC09
00000278
FFFFFE52
FFFFFEA0
000002FA
00000214
000001C9
FFFFFE83
FFFFFF52
FFFFFF99
00000638
FFFFFB3D
FFFFFB05
00000246
FFFFFD5B
000000B0
FFFFF988
FFFFF6BD
0000066C
00000593
00000417
0000015B
FFFFFE0E
FFFFFC5A
00000093
FFFFFE58
FFFFFFBD
FFFFFF74
FFFFFEE5
000000AF
000003FE
000001C4
0000041E
0000019A
00000285
0000029B
FFFFFC62
FFFFFA00
FFFFFFF9
FFFFF88D
FFFFFA3B
FFFFFF13
0000000C
FFFFFD2A
0000001F
FFFFF934
000001F8
FFFFFA83
FFFFFB8D
FFFFF585
FFFFF611
FFFFF785
FFFFFB18
0000020D
FFFFFD9D
FFFFFC1E
00000273
000001A4
00000321
00000749
00000075
FFFFFBAB
00000150
FFFFFC88
FFFFFDA7
FFFFFE68
000006CF
FFFFFE5E
FFFFFF75
0000016C
000000CB
FFFFFF11
00000939
00000685
000004EF
00000293
FFFFF796
FFFFF603
FFFFF4E5
FFFFF59B
FFFFFAC7
00000312
FFFFFDEA
00000138
000000BA
0000049F
00000188
0000000B
FFFFFF43
000000E1
0000061F
00000191
0000001E
000001F5
00000563
00000070
FFFFFC07
00000177
FFFFFF72
FFFFFFD0
00000780
00000A48
0000015F
FFFFFE86
FFFFFE4F
FFFFFDBA
FFFFFA3A
FFFFFD09
00000170
00000082
0000008A
000001AD
FFFFFC5A
FFFFFEEC
000000CA
FFFFFBD6
00000228
0000086E
00000954
FFFFFE37
FFFFFA51
00000179
FFFFFDD0
FFFFF884
FFFFFD96
0000010B
FFFFFF6A
00000019
0000048C
FFFFFED1
FFFFF20C
FFFFFFC0
00000B39
000012D7
0000109A
00000A67
00000B7C
00000965
00001381
000011FA
00000AA6
00000935
00001043
00000EA2
00000C8D
000014B6
00000DE1
00000B6A
0000063A
00000262
00000D14
FFFFFD48
FFFFFC55
FFFFFE57
FFFFFDEE
0000000C
FFFFFDDC
00000755
FFFFF664
FFFFFF16
0000019D
00000B5E
00000950
00000E11
000016ED
00001556
0000133A
000020A7
00001A24
00000E8C
00001750
00002061
00001E21
000017CE
0000206B
00001380
000014FD
0000019D
000000D3
FFFFFD95
FFFFFF3E
FFFFFEC2
FFFFFF33
FFFFFFFB
0000023C
FFFFFE39
FFFFFAF9
FFFFF9BD
000004DE
000007FF
000007FB
0000009F
0000072D
00000949
00000CDD
00000979
000013A2
000009D0
00000862
000011E1
00001654
000007E5
000003F9
0000098B
00000E14
00000A5D
000000C4
FFFFFE53
00000237
00000008
FFFFFEF7
00001638
00001B7C
000002BD
FFFFFC68
00000466
000003B7
00000618
FFFFFC6B
00000DEA
00000196
FFFFFB97
FFFFF526
00000A64
FFFFF175
FFFFFF7F
000002A6
FFFFF7BA
FFFFFC8A
FFFFED03
00000355
FFFFFC39
000004C5
000009DE
000004FC
000001FA
000004EB
FFFFF325
000007A2
000003C7
0000069A
00000731
0000136B
000004A6
000008DD
0000056E
00000823
0000068A
000007C9
FFFFFF2E
FFFFF3FF
00000B73
000009E9
00001046
0000040E
FFFFFA06
FFFFFC15
000009D9
0000001D
FFFFF425
000028F8
FFFFF330
00000A1E
00000AB1
00000469
000007E1
00000C70
FFFFF83D
FFFFFABF
FFFFFFB9
00001BD6
FFFFF98B
FFFFFFA3
000001E0
FFFFFC7F
FFFFE49F
000004E6
FFFFF8FE
00000558
0000014E
FFFFF7C7
FFFFFD49
00000AB8
00000D47
00000301
FFFFFBFE
000006EC
FFFFF542
FFFFFA90
000001B6
FFFFFDA1
00000798
00000117
FFFFFB1B
FFFFFDD6
0000005C
FFFFFB16
00000A0A
000009D2
00000D2C
0000062C
FFFFFC62
000004FB
00000CF4
FFFFFF94
FFFFFF0D
000000B5
FFFFFEE9
0000105C
FFFFFB20
00001F77
000006CE
FFFFFCD8
FFFFFDAF
00000206
000006AB
0000022A
FFFFF970
FFFFFE2F
FFFFF781
00000699
000005A8
00001298
FFFFFFBA
000003A8
FFFFF905
FFFFF885
000005C2
00000137
00001044
FFFFFBFC
FFFFFCFE
00001668
FFFFFD09
0000057F
FFFFF9D9
000008D1
FFFFF843
000005AA
FFFFF1C8
00000A43
0000034B
000001E4
000005F9
FFFFFBF2
00000222
0000074E
00000F03
000006B5
FFFFF4FB
0000087A
00000A66
FFFFFBB9
FFFFFEA2
000006C3
00000112
000002F7
FFFFEB25
000006C8
FFFFFC90
FFFFFF13
00000313
00000CE8
0000019A
FFFFFA73
FFFFFC62
00000453
000001B4
00000A57
0000041C
00000B03
FFFFFC71
00000A9F
00000A36
00000C6E
FFFFFB25
FFFFF8D1
FFFFFB60
000004EC
FFFFF9F4
000005EB
00000195
FFFFF69A
FFFFF9A6
FFFFEBD8
00000891
FFFFDA18
00000BEC
00000803
FFFFF788
00000313
0000000B
FFFFFF83
00000BAF
00000A97
FFFFEF59
000009AD
FFFFFDAB
FFFFEAEA
FFFFFDE2
FFFFEE97
0000037B
FFFFFEF8
FFFFFD40
00001308
FFFFFA3B
0000012C
00000A1C
0000038B
FFFFFBF4
000001FD
000004CD
FFFFF4B1
FFFFFE91
FFFFF958
FFFFFB78
FFFFF1CD
00000502
FFFFF64B
000000D1
FFFFFE51
000008B8
FFFFFC1F
00000C52
0000085E
00000717
0000049C
0000063A
0000032F
FFFFF94E
0000027A
00000798
FFFFFE1F
000008D8
00000C56
FFFFFD3B
00000CD2
00000050
FFFFFFCE
0000059A
0000052E
0000086E
000000C4
000006AB
0000012C
00000461
FFFFF86A
00000090
0000026C
000001DE
FFFFFD9D
000008D9
00000364
0000011E
FFFFFE79
00000526
00000A8A
000004C3
00000145
FFFFFA1E
0000061D
00000410
FFFFFF0C
FFFFF36A
00000925
00000693
0000085A
0000038A
FFFFF8A2
FFFFFA01
00000867
FFFFF442
FFFFF4B9
FFFFF0A4
FFFFFB21
00000612
FFFFFA55
FFFFF22D
FFFFFC63
FFFFFFC6
FFFFFC53
FFFFFC17
FFFFFEF9
FFFFFB7F
FFFFF5AA
00000C18
FFFFF82B
FFFFF8C1
FFFFFEE5
000007C2
FFFFFE21
0000131F
000008FD
FFFFF2CB
FFFFFBFC
0000053D
FFFFF95C
000001C7
FFFFFBD5
FFFFFACF
000007CE
00001920
00000566
00001981
FFFFECEE
0000011D
00000531
000011F2
FFFFE7E5
FFFFFC2D
000005D0
0000088B
00000D77
FFFFFF8C
FFFFF87F
0000121A
000001BB
00001AA9
00000834
FFFFFA4F
00000DE2
00001069
FFFFF689
FFFFF9F4
FFFFFE9D
000017F3
0000080C
FFFFFE6D
0000013E
FFFFFFBC
00000000
00000000
00000000
00000000
00000000
00000000
00000000
00000000
00000000
00000000
00000000
00000000
00000000
00000000
00000000
00000000
00000000
00000000
00000000
00000000
00000000
00000000
00000000
00000000
00000000
00000000
00000000
00000000
00000000
00000000
00000000
00000000
