FFF6
0080
007F
FF9A
001D
0081
002C
FF7C
0057
FFB3
0084
0018
00AC
009E
FFA5
FF74
FFAB
006C
0007
FFF5
FFC5
003A
FFD2
FFD1
FFAD
0092
0019
FFE5
FFB8
0037
FFB2
FFA7
0004
FFC3
0002
0098
0042
0072
02CD
0175
039A
034C
011F
FCF2
FA6B
FB78
0200
0194
018B
00F0
FBF7
FBF6
001C
002A
FFAE
008D
FFB9
0024
00C4
FF8F
00AD
00D4
0074
0101
007C
FE5C
FE8A
0183
0434
0158
FEFE
FF74
FF7B
0262
FE65
01EF
010F
0549
03CB
000B
008B
FF6D
FF70
FF9D
001C
FFA5
FF48
FF33
FFEA
01CF
0138
004F
FC32
01DB
FF01
FEA6
FEAF
FDD3
FEC9
FCC7
01ED
05C5
02AB
049C
05BA
FE59
FDBD
FE9C
01D2
00E9
018B
FFD2
FFAA
FFB4
FF9F
FF9A
0076
0031
0079
FE00
023A
0616
0335
FDB2
FE7A
FA9A
F9E6
F9E3
FE55
0128
FF82
00AF
FE05
FC9D
FBE0
00AA
00CD
FC0C
FCE8
01F4
004B
006C
FE68
FE1E
FCD8
0126
FDB7
FCD0
0273
0312
0018
FF8B
0045
FC9D
FE42
FF7C
FEF6
FEA8
FCEF
FB2A
FCD5
FD5C
FF10
047A
03C6
01CA
0097
03AA
0054
FD6B
FFD2
FE56
00E7
0236
FD61
FC91
FF4F
FF84
FF09
00F6
020B
FF7E
FFE8
003F
FF60
FFF8
FE0C
FE52
FF8B
00CD
02C2
02CE
0378
0008
017A
02BB
007B
FBCC
0079
00DE
0052
FEB0
FDB8
FC55
FD42
0158
019A
0148
FFC1
0043
0123
FFF8
FE2E
FF86
FDC8
0031
000A
FE8A
FFD9
03E2
0326
00EC
0385
01CB
FF34
FB3D
00C4
0107
FEFF
FD7E
FF2F
01A0
0306
033A
00C9
0109
0250
010F
0057
FFA5
FB60
FCE4
FEC8
FDE0
FCA3
FE9D
FFEB
FFF6
01DB
0503
02AF
FA45
0159
FE1D
00F8
FD8C
FAD7
FB39
FF0C
0052
0150
FFC9
FEEE
0124
0182
0107
FFB7
FE51
FD64
FCB4
FFA3
FE17
FD69
FF41
011B
010B
0073
0064
0089
0251
0275
FED0
FDF7
FE0F
FDC0
FDE8
FDAF
FEC7
FF50
FF3A
FF4C
005C
0047
018D
0058
FFD4
FD35
FE14
FEA7
FE68
FDE8
FF55
023E
FFB4
FD69
FF42
FE94
0375
01F4
FED6
0076
FCB2
FC39
FCFF
FDB4
FF78
0289
01CB
0295
00CF
031B
012B
00B9
0029
FFDF
FFF3
FEFB
FF8C
FF33
004D
0073
FC1A
F922
F803
FD78
0048
001B
FF4D
FEF9
FA76
F947
F8BE
FB31
FEF7
014E
FF5E
00D9
0384
0535
0326
01A6
030E
02B8
00E6
01BB
007F
01F7
03E9
0191
FDA9
FC95
FAF3
FB44
0141
FEBF
FF48
FC07
FAA4
F8A5
FC3B
FD4E
0028
FEBF
00F4
0204
01F6
0306
0243
0461
0588
02BE
01D6
0070
00FA
04BA
046D
0176
FEAA
FC4F
FACD
FC61
FE18
FEEB
0030
FE99
FC3F
FF23
FD70
FC51
FFA0
FF13
0062
00BD
0145
019E
0436
05CC
0440
02D3
0008
FEAC
02F0
0326
010F
FF7D
FE31
FB7B
FE3D
F893
FEE7
FED5
006C
FD15
FE73
038B
FBAC
FDA8
FCF6
FD27
FEA2
FF2E
FF22
0134
0545
0640
03AE
010C
007C
FFDF
0097
0021
0177
FFA6
FE20
F9AE
F966
FB9A
FEBF
0035
0040
FDAA
FC67
0250
FF5E
FFEA
FDFB
FE5E
FC75
FC6F
FF59
0168
028F
030B
01B7
01FF
004F
FD79
FDA3
0049
FFA9
FE39
FE52
FA89
F6DF
F918
FED8
FF81
FFEB
FE98
FF4F
0105
FF2D
FD13
FD87
FF05
FCDA
FE45
FF46
FFAC
0037
0224
000F
005F
FCF4
FC30
FD1B
FE84
FF19
0096
FF97
FF72
0084
0076
FC91
FDE8
FF87
FCC6
0220
FF15
FB79
FBC6
FBA0
FCF2
FF18
FE77
0081
00E7
0134
00C3
FF42
FCF8
FAF4
FAF4
FA10
F8BB
FA8A
FB8E
FC29
FCCB
00EB
05A3
FE1B
0142
FC36
FAAA
0047
FC4C
F7E2
F99D
FC99
FD7A
FDB7
FEA6
0191
0321
FF95
FFD2
FDB7
FD65
FBC0
FAFB
FB02
FAD9
F976
FA97
F8D3
F9CD
FF95
01BB
0190
0069
FF3E
FC36
FB67
F989
F646
F8DE
FDF5
FDF2
FE75
0025
01D4
0190
FF25
FF44
FF17
FEED
FD8C
FC2D
FF55
FB32
FC13
FDA1
FB96
FABA
FD1D
01A5
0069
007F
FFBA
FD14
FC52
F85E
FB1F
FC43
FE0A
0053
00D5
0056
0081
00E0
FEFA
FDC7
FE82
FE63
FDA7
FEA7
0108
FD41
FF48
FF18
FF41
FFD7
FF7B
FEA4
0069
00D2
0017
FDCB
FA82
F8B7
FFCF
FF23
FFAC
00B8
FF16
00BA
FE19
FFC0
002B
FE0A
FDDA
FFA2
FE61
0143
02EA
FE06
01E4
01B3
00DE
028E
FFA7
008E
0026
FFAE
002E
FC5F
F95C
FA77
FE06
FEB2
FF4C
FED8
006A
0147
00E6
0018
FFB6
FEA3
FDBC
FF4C
FE64
00DC
00C8
FDD9
017D
03A8
0193
016E
0203
02CA
004C
FFB2
0056
FE30
FB3D
FC8C
0123
FFA9
FFBD
0010
011C
FFC9
00FC
004E
0134
015F
FF42
FF0F
FDA0
FEC4
FE99
00F0
035E
054C
0441
FFF2
00D0
0017
FF7B
0051
FFAB
0030
010B
0207
038C
009D
0020
FE44
FE43
FFBB
0088
FFBB
FFF3
006F
FD29
FB24
FCDA
FD52
FC1E
0237
023E
032D
062C
02A6
FFEF
FF14
0001
FF77
FF76
003C
009F
01C9
0326
0647
00CF
001D
FEE1
FC5E
FBCC
0053
01E0
01FD
FF06
FF07
FDCA
FD8F
FD9E
FC18
FC9D
FC9B
FE56
012A
01C5
FFEC
FFE1
FF8E
FFFF
FFAA
0059
0292
033E
03C7
02B4
0189
FEB3
FB79
FF5D
FE43
FCD6
FCB6
00FB
003E
FE98
FF88
FFE0
008E
0080
0070
009A
005C
0072
FFB7
FFD8
02AA
02C6
FFBB
FBBA
0ABC
038E
05B8
FA66
FD24
FEA2
04C9
0330
0B55
004F
FCFF
0102
0136
0199
FFC0
FB55
FC71
0472
FBB5
F8F4
0094
0536
FE21
0450
07CE
FDDF
06E2
0636
FDD1
07AE
0748
FC42
020F
FBD1
F78C
F283
FEAB
FFC4
01A8
0094
06E6
031E
0319
053E
0000
0000
0000
0000
0000
0000
0000
0000
0000
0000
0000
0000
0000
0000
0000
0000
