FFEE
FF8A
FFA1
FFAA
FF87
0068
0013
FF92
FFD0
008D
FFF0
FFF6
FF09
FF95
012F
0157
FFC9
0055
FFBF
FFC0
FFB4
0012
FFF2
FF6F
FFB8
0085
FFEC
0067
FFC6
FF7F
001B
FFD3
FEE0
FEC9
FC68
FB9D
FD31
FD19
FCCF
FC58
FAE7
FF11
0275
FC00
FDB9
FD07
FA60
FC6C
FBA1
FDA7
FC61
FC10
006D
FF9E
0057
FFD5
002C
003E
FC50
FBAA
FB78
FE8D
FD98
FB4B
FA90
F7DB
F71A
F39A
F407
F62E
FAB4
FA5F
FCF4
00D7
0141
FF29
0135
FF86
FBD2
F9F1
FE24
FF1B
005A
FFF5
FFE5
003A
FB5C
FB13
FA30
FDC4
F9E1
F8BB
F670
F688
F837
F8DC
F27B
F361
F93C
FB0D
F9AE
F804
FAAE
FE9F
0013
0179
02E2
034A
0001
FCB9
FC8E
FFBC
004B
003C
03CA
FB6E
FE24
0072
FBA1
FCD2
FE27
FD3B
00CF
FDA5
FD9E
FEA7
FDE3
FA24
FBA0
FBB3
FE79
FF09
FFBC
01CF
0261
01ED
04C4
016D
FFF7
FC4D
FFED
0010
0213
FD1D
FBF6
FF98
FCBE
FE71
FDAC
FD45
FD4A
FEB7
FFFE
FE47
FF20
FCF3
FCBE
FE40
0060
0016
020A
0235
02FE
04B5
028B
03F4
FC71
FBF1
FFB1
0212
FCEB
FB3B
F923
FCC5
FDEB
FC0B
FCF0
000D
FF95
FEF2
FE4F
FE39
FEEF
FF6D
FE7E
FF8B
00E0
020B
030D
FFBA
01AF
0613
03ED
05E0
028D
FE13
FFBD
01EA
FB11
FC38
FD3B
FB92
FBF6
FAC4
FE43
FE5D
FEA2
00EA
012C
011F
FF82
FDDF
FE9B
FFA3
FFEF
01C6
01C0
020D
0305
037E
0448
054C
043E
FDD8
FB9E
FEE3
0062
010F
FCE9
FD01
FD3B
FF2E
FEDF
FEDD
0056
00F1
009F
0149
FE93
FCCA
FC82
FFA8
00B2
FF75
00DD
015D
01AF
0268
03F9
069C
06CB
011B
FFEC
FDA5
02E1
00FC
FCA8
FC51
FE4C
002C
00A8
0189
0060
0123
018D
00DF
FD5D
FB34
FD55
FF6B
0100
00C4
019F
0296
03A1
037A
00CA
0268
02C0
FB71
FFF5
FEF5
FDF8
00DC
FE4B
FCC5
FF31
0108
00D4
00F4
FF97
0041
009A
FCCF
F6A0
F58B
F967
FDB0
01A1
029B
FFD8
0135
0153
010B
0089
01C6
FB83
FE30
FDAC
FA2E
FC9F
FDB5
FE34
01CD
02A1
00CD
0138
009B
FFE5
FD89
FE01
FA50
F605
F7B9
FCA3
FFED
0230
0258
00E1
FF79
000F
FF2E
000C
0032
FD6C
FD35
FDA8
FC6A
FFD2
FBE9
FF22
02FA
031F
0199
FEE2
FE3A
FD94
FC38
FE94
FF52
FA82
FCE4
FE18
00C4
018D
02A9
020E
0396
0134
01FF
02A8
FFB2
FDE9
FB6A
0044
FFAA
FEC0
FE3E
FED6
0126
011D
0146
0043
FF41
FDA3
002C
0251
02F1
FE41
FE1D
0011
03BB
02AF
0257
0289
0275
007F
FF24
FDD2
FE90
0215
FFC9
FDAA
FFB4
F901
0442
021B
FFA4
014E
0145
0229
0113
013B
0296
04BC
038D
0206
0079
02E0
031F
0113
00F0
FFB0
FE48
FDB5
FC68
FA8A
FFDC
FCDB
FFC1
FD3A
01D8
FE6C
058A
01DA
FF5C
00CE
00E8
02A8
01C1
02A9
039C
034C
03D6
0250
023B
049F
015E
FF61
FFAB
FD0E
FC6D
FED4
FDDC
F8EF
F8CC
0295
0022
FFE3
01BD
0260
04AB
00A4
000B
0243
00A9
00CE
017A
0348
037E
0490
03B0
027D
03C1
03CC
01C3
0103
FE99
FE68
FEB3
FFA1
FD8A
FB00
FDCF
0327
0171
FFC7
008F
025A
0384
0084
0042
0200
00FC
0171
016E
0384
0395
03A2
021B
026B
0388
02F9
0132
FF28
FDC7
FE3C
005D
FE75
FDC2
FDFF
FCD2
0201
010F
FF7F
0004
0296
0509
0082
0107
00D2
FE80
FF9F
0019
0183
0326
0231
012F
023B
01AC
011B
FE41
FFD1
FFD7
0066
01B4
FDB2
FEFF
00AA
FC6F
0052
02CA
0001
FF60
014E
03E9
00E3
005A
000C
FE76
FFB2
FF67
00D7
FFF5
FD74
FFD8
00EE
01BF
00F6
FF7E
0172
007E
FED8
00EE
FCB5
010B
FFD2
FB36
0111
FF50
FFE0
FC43
0200
FE02
020C
FEA7
0013
FF71
FFD3
FDA7
FDFC
FDB0
FB9E
FE14
FFCB
00C8
02EB
01EC
020A
009A
0034
009F
FFE7
0307
015C
FBCF
00F5
FF09
0039
FCC1
01A8
FD76
00D8
0219
01A8
00DF
0254
0136
FF87
001D
FF39
0022
FFC1
00A6
0100
0151
0048
0033
002C
02B1
0417
03D5
FEE3
F943
FA12
006D
006D
00E2
FCC2
FC6B
02DA
00FA
007C
FF4E
FFF4
0022
0030
00F1
FF84
00D9
FF5E
FF06
FFC5
FEED
002A
0198
02BD
054C
0551
04AB
00BD
FC35
FA9B
0070
004D
0057
00AB
FA58
FD0D
FE4B
FDD6
FE47
FFF1
FE9B
FF92
002F
FE41
013F
003F
0012
FFAA
FE72
007D
0178
03B6
051D
056A
07CE
0011
FC98
FDCF
0074
FFDA
002A
02CA
FED3
FDC9
FAFD
FDD2
00A7
00B9
007E
00D0
02A9
FF8E
000A
FFD6
FF86
FF35
FE55
FFA1
038E
0257
0275
0263
03DA
FD62
0274
FEF6
006A
FFFB
006F
03E7
FA6B
F968
FCCE
0035
FE8D
FED1
FD72
00DB
FF48
011B
FFC1
0173
FF98
002D
000C
002A
FE83
FF2E
FD01
FB9F
FD6B
FABA
021E
FEEA
005F
0036
0034
FF98
018B
055E
02E7
03D9
0341
00B9
00D6
012A
015F
0127
022A
03DA
FEC4
FD59
FE98
FCC1
FD0C
005B
0063
FF42
01B0
0100
FE5A
005E
007D
007E
FFEA
0086
0070
FEB2
FE2C
0097
01FD
00B6
01A4
FD72
0125
FFD6
FDE3
00A7
FED7
FBE7
F8E1
FD41
018A
03AA
FE7E
FF35
FEE2
FF99
FF7C
FFDC
FFF0
0000
0000
0000
0000
0000
0000
0000
0000
0000
0000
0000
0000
0000
0000
0000
0000
0000
0000
0000
0000
0000
0000
0000
0000
0000
0000
0000
0000
0000
0000
0000
0000
0000
0000
0000
0000
0000
0000
0000
0000
0000
0000
0000
0000
0000
0000
0000
0000
0000
0000
0000
0000
0000
0000
0000
0000
0000
0000
0000
0000
0000
0000
0000
0000
