0067
FFF1
FF88
FFB7
008E
0042
008E
002C
0010
0048
FFD1
007B
0033
0035
FF7A
FF13
0003
000C
FFF3
FF8D
003F
0069
005E
FFF4
0046
005D
006A
FFFD
FFA3
000D
005F
000B
FFFE
FF54
FF04
FEB0
FFB4
00A8
00AF
00FB
0187
021C
0321
FCDC
FB20
FC31
FF07
FDAC
FDA5
FEB1
FDD7
FDD4
0047
FF88
FF7C
FF73
0018
FFDD
FF65
FC2E
FCAF
FFDF
00D4
0011
015B
00D7
FED6
01B6
FC54
FFD8
0266
FE7D
FB55
FC60
FC4B
FF7D
FF70
003F
0251
FF17
FE5C
FF08
0060
FFB2
0038
FF9F
FE99
FC2B
FDF2
FDD5
FDF7
FF21
FBE6
FDDA
00D4
0043
FE67
FE5F
FFC6
FC3F
FBC1
FCEA
FB39
FEEC
0061
FFE4
00A0
0228
FFFE
FDB6
FBD2
0001
FF70
0057
FD50
FF76
004D
015D
0021
02D2
0045
00DD
FF08
00FF
0094
FFE5
FE9B
FDB6
FE92
FF60
FE0B
0147
0174
0190
0364
05C6
0313
FE20
FBBE
FC5C
0004
0029
FBDF
FE61
FC50
0271
0182
009D
02C4
034B
02EA
0230
0181
008C
001C
FF50
FD3C
FF66
FFBC
0042
FF8E
00C2
0112
0270
03A3
FF65
FA94
FC38
FFEA
FDD4
0002
FA6E
FE45
0126
FF06
0051
006E
007C
009E
0205
00AE
FFE4
00E4
004C
00BA
0182
0177
01E4
0341
00FB
02F4
02B3
0111
0173
0010
FDC0
FFF4
FA44
013A
FCD2
FD09
FF4D
FD92
FF3E
FF51
01EF
018E
00DA
FFF5
0040
FFFF
0299
0379
0373
01D5
02D5
02DB
0230
01EA
0543
0340
FF7D
00E7
FC82
FBC1
F99C
03D4
00DE
FDF4
FF42
0090
FF37
01CF
0285
0113
009F
FF07
FF7C
FF9F
024E
02D7
01A0
0257
00DD
0119
021D
00D3
0024
03E2
04C2
0174
FCC1
002A
FFC8
013C
0101
FE4C
FE26
FE84
0079
029E
01CF
0132
FF98
FEC7
FE45
FF35
00A0
0041
00FC
0223
014D
00D2
0017
FE77
FF44
0035
016B
010B
FB60
FFBC
FFB1
003C
007A
0035
0053
FF34
01EC
01EC
0306
00C5
FECC
0015
FCD4
FDA8
FF9D
FEF2
00B4
00C3
0004
FF28
0017
003F
FE80
FE89
01D2
FC67
FEE8
0096
FC9F
00EF
FFFD
FD85
002E
0146
027C
03F0
02AA
01B2
001C
005D
FE85
FF54
0027
0166
011B
00A4
FFB6
0033
01CA
0210
FFCE
FCC7
FD56
FF48
028C
001D
FF78
0136
01C5
FDF9
FF70
0279
0245
023A
018F
0089
00CD
0000
0185
FF30
00DF
0035
0178
011E
00CB
01B6
032A
02C1
0376
FFEC
FC8B
0005
FF09
FE72
00BD
FF42
FF58
00ED
FFA1
021E
04BD
0376
0244
01A6
01E7
01A8
017B
0156
01A8
010A
0214
027C
01D0
0287
024E
0185
01B7
FEF5
FF44
FF19
FD6B
FF25
FFE8
FE1D
FE28
0335
01AE
031C
03A9
034A
0259
0233
02D8
0213
02E3
00E7
0047
0146
02ED
01B2
0155
010B
FF3D
0123
FFDF
012F
FF37
FB96
FE10
FEC0
0061
00C0
0035
0123
FFE4
02B8
02E8
035C
030D
0353
01ED
024C
0055
FFBD
FFA2
01A2
03C9
0299
0041
FED9
FFB1
02B1
018B
FE94
01A4
FD3D
FC41
00CF
FE0E
FFDD
FDB9
FEC0
001F
01CE
0232
0447
017E
00E3
00DF
00DB
FF0A
FFAB
FFE9
02C3
0292
017A
FF6B
FF22
FD3E
FF91
FF9D
FECA
000E
FB57
FAF7
002C
0060
014B
FD20
FF45
FFE8
0097
00D8
0107
02A1
00EE
FF80
FF3B
FE0B
FF96
018D
03C6
0185
0091
FDD9
FDE3
FDB9
FF12
FFC4
0102
018B
FE2B
FB2E
FC33
005C
027B
FE80
FFFC
FE73
FF4D
FEA8
FEA7
0029
FEB2
FFF2
FDE0
FE86
0115
00C5
02AA
FFCC
FF94
FDA2
FF95
FE96
FD8D
FDA4
FF7D
FF23
FE46
FC36
01B8
FC07
FF0D
0160
FEE4
FF19
FE61
FDE6
FE01
FC7A
FCE8
FEF5
FE80
FEA0
00C9
00F3
00D0
FF03
FED8
FEFF
FEA5
FE8A
FCFD
FC37
FF4A
FE70
FAD8
0177
FFB7
0215
FF29
FC59
FE3D
FECB
FE8D
FD21
FD6E
FCB1
FCB9
FD91
FE9E
0037
0014
00EE
013D
FFE5
FEFF
FEE2
FD85
FDD8
FDC2
FCA4
01F9
006D
F91B
FFD0
0075
FF79
F808
FC96
FE8A
01D1
0004
FF60
FFBC
0050
FF3D
FEC8
00AC
FF8B
FF51
FFA0
0064
FFFE
FF19
FE8A
FFEC
FE8B
FE97
FE4F
0226
FC6E
FA2D
005C
00BF
FF48
F67C
FF2B
FF24
FEF7
00AB
00DA
0063
FED7
0087
0080
010F
015C
0070
0081
0046
FF83
FF90
FF40
FF30
001C
010A
00FA
00EB
FE1D
00C7
FFD3
0006
0059
F98B
FE96
FEC2
FD95
FE80
FF40
FFEB
FFB8
00EE
FF65
0074
016D
0102
00C1
0049
FF21
0089
0052
00A8
0297
FFFC
FF5A
FF9E
FE44
00CD
0025
008A
0044
00AC
FD0F
FDD3
00EE
FEC8
0088
0124
018D
02D1
0187
01BD
00D0
FF1D
009C
00F1
FE6D
FFB8
00EF
0165
FFEE
01DF
03F7
FC86
FBBD
FF25
0049
FFD4
005A
0201
02E0
0108
0298
FF6C
0088
016F
02EF
02CD
01E6
FF43
FE8C
FFF0
FEDA
FE45
FE8D
02CE
FF54
031D
037A
014D
029C
FD90
0209
FF76
0047
001E
FF77
0069
FF65
02C1
0460
03F5
0242
039F
058E
01C9
FFAB
0343
0162
0517
02E6
01D1
01B0
01D7
FF80
02C6
01B0
FF5F
00CC
021B
FF2B
FF95
0049
0056
0053
FFC2
FFC5
FE85
FF83
FF2C
000B
FE3E
FF89
FD2D
01EA
028D
FE11
008C
049C
0352
0124
00C8
02FB
037B
FDF4
FF1F
FC26
002C
0045
FF82
FFE6
0000
0000
0000
0000
0000
0000
0000
0000
0000
0000
0000
0000
0000
0000
0000
0000
0000
0000
0000
0000
0000
0000
0000
0000
0000
0000
0000
0000
0000
0000
0000
0000
0000
0000
0000
0000
0000
0000
0000
0000
0000
0000
0000
0000
0000
0000
0000
0000
0000
0000
0000
0000
0000
0000
0000
0000
0000
0000
0000
0000
0000
0000
0000
0000
