FFFFFE14
FFFFFEB4
00000204
FFFFFF5E
00000198
0000018F
FFFFFEF0
FFFFFE5E
000000F3
FFFFFDE3
0000010B
00000108
00000128
000003D6
00000990
000004B8
00000105
FFFFFF4E
000000E3
0000010B
FFFFFE95
FFFFFE06
FFFFFDC1
00000234
FFFFFEF4
0000009D
FFFFFF6F
FFFFFEAD
FFFFFEFC
FFFFFDB9
FFFFFEA7
FFFFFF08
FFFFFEBF
FFFFFFDE
00000290
00000269
00000681
00000492
00000470
00000555
000001BB
00000293
FFFFF7A8
FFFFF52E
FFFFFC3F
FFFFFF29
00000B05
0000081B
00000551
00000203
00000405
0000019D
00000145
FFFFFEA5
FFFFFF54
000001F2
00000002
00000237
00000118
FFFFF763
FFFFF6AD
000004C6
00000BB6
00000952
00001381
00001406
00000B05
000007F6
00000944
FFFFFBA9
00000EAD
00000858
00000677
000003F6
000007A9
FFFFFEF8
00000623
00000FC9
00000848
00000A59
000003B8
FFFFFCE2
FFFFFF28
FFFFFF09
FFFFFFC3
FFFFFE7F
FFFFF29C
FFFFFA20
FFFFFC68
00000914
00001348
00000588
00000788
0000090C
000003EA
00000D15
00000C91
00000A19
00000C80
0000071D
00000529
FFFFF961
FFFFF745
FFFFFFA7
FFFFF66B
0000097D
000009FB
00000757
000004DF
FFFFF85D
FFFFFFA7
FFFFFDDB
FFFFFF6B
00000129
FFFFF3BE
FFFFF05D
FFFFFE7E
00000B48
0000131E
0000104C
00000E3A
00000889
00000E0D
0000044C
00000635
000004A6
00000275
FFFFFD54
00000206
00000154
FFFFFF80
00000685
0000076C
00000759
000002CD
0000091B
00000367
FFFFFE40
00000510
00000A3D
FFFFFFF7
00000165
FFFFF9B7
0000051A
000010CE
FFFFFAD9
0000043E
00000299
00000051
000002B0
000009AF
000001D9
000000AD
FFFFF7BF
000001B8
00000029
000004A6
00000302
FFFFFE26
00000150
0000061D
00000AE0
00000476
0000083E
00000689
00000461
00000981
00000DC6
FFFFFF5E
000001FC
FFFFFE9B
00000271
00000C2B
00000156
00000473
00000469
000004E7
00000B01
00000278
FFFFFB3C
FFFFF735
FFFFF65E
FFFFF5B7
FFFFF9BB
FFFFFBC5
FFFFF8A1
FFFFF358
FFFFFDE4
FFFFFDDF
00000070
000004B3
000004D0
000000B3
FFFFFD9A
000001C4
000005A0
FFFFFF8F
FFFFFF95
00000407
00000196
000011E4
00000B1C
00000776
000005EE
00000C35
000001B4
0000021A
00000169
FFFFF5FF
FFFFF897
FFFFF840
FFFFF6C5
FFFFFA44
FFFFF6FC
FFFFF1EA
FFFFFB87
FFFFFE95
FFFFFCB1
00000232
FFFFF85C
00000376
00000820
0000039A
00000635
000006DA
FFFFFB45
00000941
000006AD
00000B6E
00000583
000003B2
0000055D
000002C2
00000077
FFFFFEBB
FFFFFBDC
FFFFF9AA
FFFFFED8
FFFFFADC
FFFFFC76
FFFFFBE6
FFFFF825
FFFFF895
FFFFFE69
0000026A
FFFFFA7B
FFFFF7DE
FFFFF9AD
FFFFFB1E
FFFFFEBB
000000D3
0000007F
FFFFFCB7
FFFFF39E
000005DB
000002F4
000004C6
00000747
FFFFFF3C
00000356
00000145
FFFFFC8F
FFFFFBA0
FFFFFB76
FFFFFB27
FFFFFAFD
FFFFFE7A
FFFFFF5C
00000046
FFFFF905
FFFFFCC0
000005F2
00000406
FFFFFF97
FFFFFE86
FFFFFA6A
FFFFF963
FFFFFA09
FFFFFFD6
FFFFF89F
000000B3
FFFFFCBC
FFFFFBBE
00000614
000008F3
00000AB9
00000181
0000013E
FFFFFB8B
FFFFFEF3
FFFFFB76
FFFFFC22
FFFFFA0F
FFFFF44D
FFFFFA3D
FFFFFC18
FFFFFBE3
FFFFFE30
00000104
000001E3
FFFFFFC0
FFFFFCC2
FFFFF721
FFFFFE46
00000203
FFFFF4BE
FFFFFB10
FFFFFA49
FFFFFF87
00000B4D
FFFFF4D5
FFFFFD5F
FFFFFEBB
FFFFFFD8
FFFFFEBD
FFFFFD7B
FFFFFD5B
000001B7
FFFFFE6E
0000014F
FFFFF8AD
FFFFEEEF
FFFFF0FD
FFFFF233
FFFFFDED
FFFFFB55
FFFFF99B
FFFFFE68
FFFFF98A
FFFFFAE3
FFFFF6B5
0000012C
00000206
00000097
FFFFF5B6
FFFFF497
0000009D
FFFFFEA3
FFFFFE4F
FFFFFFB2
FFFFFC1F
FFFFFA2A
00000029
FFFFFF35
FFFFFD6D
00000265
000009B0
00000B5F
000006DC
FFFFFC08
FFFFF32B
FFFFF2DF
FFFFFFC3
FFFFFB14
FFFFF260
FFFFF3A8
FFFFFB18
FFFFF8F9
FFFFFB84
FFFFF7FA
000007EF
FFFFFEC5
FFFFF1EA
FFFFF0C1
00000077
FFFFFF01
FFFFFD30
00000060
FFFFF33F
FFFFFC0D
0000037E
FFFFFDF7
0000042D
000004FA
0000056C
00000855
00000C22
00000694
FFFFFB6D
FFFFFC99
0000004D
FFFFF91B
FFFFFB28
FFFFFB8E
FFFFF81C
FFFFFB57
FFFFFA4C
000002A0
000005F2
FFFFFC55
FFFFFF4A
000001CA
0000012C
FFFFFC6D
FFFFF97C
FFFFFC86
FFFFF721
00000551
00000A65
0000029C
0000036E
000004D6
00000626
00000A21
00000BD5
00000A0A
00000900
000007D7
000006BF
00000016
FFFFFD87
FFFFFEF2
FFFFFAAC
FFFFFCA6
FFFFFBA9
FFFFFAEC
0000005B
00000A6D
00000416
00000550
0000019B
FFFFFB7C
00000208
000005C8
FFFFFB72
000006C0
00000375
000004C7
00000428
000002B9
000000CB
FFFFFF9A
00000851
000008CD
00000BB8
00000759
00000944
00000332
00000243
FFFFFFC7
FFFFFACE
FFFFFDA7
FFFFFC4E
00000030
00000066
000009C3
00000955
00000C50
00000074
FFFFFF02
FFFFFF0A
00000788
FFFFFD78
0000033F
000003BE
0000079A
000005FD
000003F9
000002A6
00000076
00000551
0000055D
000002C6
00000565
00000623
00000B8C
00000591
0000054B
FFFFFD0F
00000701
0000027D
000006D4
00000206
000015F5
000010EE
000009DD
00000073
FFFFFE1F
000007CD
FFFFFFC3
00000393
00000125
0000013A
00000484
000003D1
0000002A
FFFFFDE3
00000107
000000A6
0000018D
FFFFFF2E
000001F6
000005C0
0000068D
00000853
0000020E
FFFFFFD7
0000083E
000006CF
000001E1
FFFFF631
00000898
FFFFFDE7
000006C7
FFFFFAB3
00000115
00000206
00000156
00000502
FFFFFCA5
FFFFFEC2
000001A1
00000029
0000028C
0000045B
FFFFFEA7
00000695
000004EB
FFFFFE8C
00000316
00000324
FFFFFE76
000004B8
000001E2
00000283
000001E2
FFFFFFDF
00000075
00000333
00000CE3
FFFFF101
0000020F
FFFFFD82
FFFFF8EE
FFFFFE7A
0000065B
0000039D
FFFFFEEF
FFFFFD4E
FFFFFDE4
FFFFFE8B
00000031
000003F8
00000469
FFFFFDBB
FFFFFC55
0000015D
000003BC
0000018C
0000016D
0000012C
FFFFFBCF
00000111
FFFFFBED
FFFFFFB2
FFFFFFF9
FFFFFC42
00000F35
000006EC
0000025D
FFFFFDC1
FFFFFD83
000005B3
000006F9
FFFFF98F
FFFFFB90
FFFFF882
0000010F
FFFFFD9C
FFFFFFDC
00000703
0000036A
FFFFFF57
FFFFFF25
FFFFFDFF
00000505
0000009B
00000207
000002C5
FFFFFF1A
000000A7
000002E1
00000009
FFFFFD24
FFFFF68D
00000411
FFFFFFF4
FFFFF574
00000050
00000238
000003A0
000004BA
FFFFFC78
FFFFEFBF
FFFFF4B3
000000CD
00000300
00000568
000000DE
0000034C
000002F1
000003C9
00000125
0000059A
000001B3
00000507
00000643
00000519
000005CC
FFFFFF56
00000669
000008EA
FFFFFDD5
00000337
0000083B
FFFFFE25
FFFFFE1E
FFFFFF9A
00000A8C
00001147
00000010
FFFFF94D
FFFFFAF5
FFFFFE79
FFFFFA06
FFFFFDB6
00000371
00000492
000002F1
000001CC
00000169
00000490
FFFFFDD5
FFFFFFCD
0000055B
00000766
000003A3
00000994
000003DA
FFFFFD54
FFFFFB59
0000008A
FFFFFAAD
FFFFFF12
FFFFFE59
00000051
000007D0
00001172
0000034D
FFFFFB97
FFFFFA66
FFFFF6C4
FFFFFB1B
FFFFFCA6
FFFFF9B3
FFFFFC46
FFFFFEA4
000000B7
000005F0
000001E7
FFFFFEDF
0000002B
000006E4
00000489
000006B3
00000D95
000009EF
FFFFFD5D
FFFFEEDC
FFFFF764
FFFFF6C2
0000023C
00000184
FFFFFEAE
00000212
00000388
FFFFFBD7
FFFFFA21
FFFFF3DA
FFFFEF88
FFFFF52C
FFFFF913
FFFFF9C9
0000057F
FFFFFF0C
FFFFF9DC
00000652
FFFFFF15
0000028D
FFFFFCBB
FFFFFDAF
FFFFFFE5
FFFFFE75
FFFFFF91
FFFFFFAB
FFFFF819
FFFFFB11
000002E9
00000148
000000C1
FFFFFDEC
FFFFFF29
FFFFFD76
FFFFFB54
FFFFFB75
FFFFF529
FFFFF82A
FFFFFD87
FFFFF9FF
FFFFF2D2
FFFFF98D
FFFFFE95
FFFFF2A3
FFFFF6E8
FFFFFB9C
000001BF
FFFFFC14
FFFFF92A
FFFFF76D
FFFFF481
FFFFFB2C
FFFFF76E
FFFFF9C3
000002BF
FFFFFEFE
000002F0
0000056D
FFFFFF64
FFFFFEF6
0000006B
FFFFFDC3
FFFFFD34
FFFFFC2C
FFFFF6B2
FFFFF8D4
FFFFF6CB
FFFFF9C4
FFFFF112
FFFFEF62
FFFFF7CD
FFFFFD26
FFFFF881
FFFFEF6D
FFFFFD38
FFFFF548
FFFFF7E6
FFFFF5D2
FFFFF3ED
FFFFEC08
FFFFF8C7
FFFFF606
000001EE
FFFFFD18
000001DC
FFFFFF42
00000070
00000223
00000162
FFFFFE18
FFFFFF60
FFFFFE26
FFFFFF84
FFFFF892
FFFFFAD1
FFFFFA01
FFFFF749
FFFFF702
FFFFFDF7
FFFFFDEF
FFFFF397
FFFFEB6B
FFFFF810
FFFFF020
FFFFEBBA
FFFFED94
FFFFF8DE
00000370
FFFFFCDE
FFFFF75C
FFFFF845
000001F9
0000004C
FFFFFF13
000001A0
000000E7
000000C4
FFFFFEEA
0000019D
000000A1
00000095
00000083
FFFFFDED
FFFFFDF1
000000AA
FFFFFFB9
000001DA
00000248
000001E9
FFFFFFAE
FFFFFF3C
00000190
FFFFFF4A
00000076
FFFFFDE1
00000037
FFFFFF14
00000051
FFFFFF4E
00000189
FFFFFE81
FFFFFDC0
FFFFFDE2
00000196
00000107
FFFFFDC7
FFFFFF1D
00000119
000000EF
FFFFFE78
000002C1
000000BC
FFFFFF4C
FFFFFD6D
00000267
00000912
000008A1
00000CEC
00000CF0
FFFFFE81
0000029A
00000327
00000BD4
00000D3C
000006A1
000004A5
0000027A
00000096
FFFFFF75
00000241
00000001
00000126
FFFFFE3B
FFFFFE39
0000048D
0000088F
00000306
FFFFFD10
0000023E
00000066
FFFFFA9B
FFFFF9CD
FFFFF679
FFFFFD38
FFFFFE03
FFFFF567
FFFFF152
FFFFF3FF
FFFFF5B0
FFFFFCDB
FFFFFEB6
0000001F
FFFFFF53
FFFFFFF2
FFFFF6FF
FFFFFB58
FFFFFE5B
00000232
00000227
0000015B
FFFFFDD6
FFFFF6A8
0000094E
000010CE
FFFFFE14
FFFFF809
FFFFFE99
FFFFEC4F
FFFFF1A7
00000116
FFFFFCD2
000002A8
FFFFFD1D
00000089
FFFFFC67
0000007A
0000086D
00000835
00000222
00000B4C
00000E67
00000449
FFFFFA5D
FFFFFB7E
00000142
FFFFFB35
000001D0
0000011F
FFFFFF7D
FFFFF274
00000389
FFFFF3B7
00000786
FFFFFCFE
FFFFF5C1
FFFFE94A
FFFFEAD6
FFFFF0AE
FFFFF6E7
FFFFFC70
000000B0
FFFFFC47
FFFFFF54
FFFFFEE8
FFFFFEDD
FFFFFFCE
0000013A
000000C7
00000A41
0000050A
000006FB
0000054E
0000023F
0000132D
00000584
FFFFFFDD
FFFFFEF5
FFFFFAE6
00000EC3
FFFFF4B9
00000013
000001D8
FFFFF9D5
FFFFEC6B
FFFFF8FE
FFFFFB91
FFFFF6B4
FFFFFB51
00000042
0000004C
000002D6
FFFFFD1D
00000354
FFFFFA77
FFFFFC9A
0000011D
FFFFFBE2
FFFFFFFD
FFFFF972
FFFFFAA2
FFFFF6B1
00000E4F
00000D27
FFFFFF3A
FFFFFB35
0000071B
00000590
000001C0
FFFFF621
FFFFF318
FFFFF0C5
FFFFFA86
FFFFF987
FFFFF7B5
FFFFF672
FFFFF6A4
FFFFFEBF
FFFFFE51
FFFFFF0F
000002DA
0000019A
00000268
000003E8
00000839
FFFFFBEC
FFFFFBDA
000002E1
0000061A
000003A5
00000437
FFFFF607
00000176
FFFFF4FF
FFFFFD46
0000075C
FFFFFFDB
FFFFFCA6
FFFFF058
FFFFED9C
FFFFF14B
FFFFED19
FFFFF99B
FFFFFC32
FFFFFF52
FFFFFF01
000002F2
0000070B
00000687
0000062D
00000578
000001D0
00000384
FFFFFB1B
FFFFFBC3
000006A7
000002B7
0000072A
00000156
FFFFFCFB
0000114E
FFFFF0DE
0000017B
00000BC9
0000064B
00000067
000003F5
FFFFF968
FFFFF186
FFFFF136
FFFFF5AB
FFFFFCAE
000002B6
0000039E
00000666
00000682
000006A9
000006BC
00000527
FFFFFC6A
0000017C
000002F0
FFFFFF87
FFFFFDE9
00000E4A
0000103D
FFFFFE8E
00000E39
FFFFFECB
000001F0
00000815
000006BB
FFFFFC5B
FFFFF6F8
00000006
FFFFF7BB
FFFFF587
FFFFF824
FFFFFC1B
FFFFFFB7
00000185
000003E8
0000032B
00000184
000003C0
000005B5
FFFFFFBD
00000401
00000279
00000226
000001F1
0000033B
00001102
000011E4
000004AD
FFFFF925
FFFFFCEA
00000325
00000278
00000513
000001F2
FFFFF72F
FFFFF371
FFFFFD94
FFFFF41B
FFFFF695
FFFFFCFC
00000028
00000414
FFFFFF88
00000067
0000000C
00000336
000002E2
000006B1
0000059F
0000084A
FFFFFD56
000006D5
00000D64
00000C4C
0000127C
00000CB9
FFFFF5E3
FFFFFE79
00000807
FFFFFA52
FFFFF3FE
000002B4
0000016C
FFFFFB4B
FFFFFD0D
FFFFF2FC
FFFFF18A
FFFFFA66
FFFFFB56
FFFFFD51
0000010E
FFFFFFA2
FFFFFF39
00000488
00000A7C
00000D1C
00000664
00000180
FFFFFCCB
000000DA
0000050A
00000A75
00001446
00001B88
FFFFFF30
FFFFFBE8
FFFFFC2B
00000174
FFFFFBD1
00000C90
000004C1
FFFFFBAD
FFFFF731
FFFFF4BF
FFFFFAB0
FFFFF8DC
FFFFFF82
FFFFF8F6
00000107
0000086F
000007F9
0000031C
00000BB2
000005B8
000001F9
FFFFFDA5
FFFFF47C
FFFFF826
FFFFF4A2
FFFFEFCC
FFFFFEDD
00000B7A
FFFFFF55
0000059F
FFFFFEA1
FFFFF546
FFFFF9EF
0000037D
FFFFF50D
FFFFF816
FFFFF74C
FFFFF89F
FFFFFE8D
FFFFFDD1
00000016
000003B7
0000065D
000006E0
0000072B
00000500
00000268
FFFFFF34
0000003B
FFFFF881
FFFFF194
FFFFE6B9
FFFFE1C9
FFFFE388
FFFFF9CF
FFFFFF81
00000324
00000502
0000027C
FFFFFA6A
FFFFF582
FFFFF9C5
FFFFF508
FFFFF9CE
FFFFF692
FFFFFA8B
FFFFFAA5
FFFFFC96
000002A1
00000254
00000474
00000173
00000615
000003E3
FFFFFF61
FFFFFB5A
FFFFFBA0
000004F0
FFFFFC94
FFFFE38F
FFFFDC10
FFFFE458
FFFFFCE0
FFFFFD20
FFFFFD97
0000025D
000003AA
FFFFFC29
FFFFF1EF
00000217
000004B4
0000073E
FFFFFC5A
FFFFF8A5
FFFFF4F6
FFFFFD93
FFFFFABF
00000075
0000012D
FFFFFE7E
FFFFFEFB
00000014
FFFFFFDA
000005A2
FFFFFEB0
00000541
FFFFEADF
FFFFE0B5
FFFFDF65
FFFFEE86
FFFFF8DD
FFFFFBA3
FFFFFD73
00000161
000002CF
FFFFFC1C
FFFFFB7C
00000737
000005AE
000000A7
FFFFFB11
FFFFF879
FFFFF243
FFFFFF5B
FFFFFF5D
FFFFFDCD
00000024
FFFFFFEF
000002AA
000003E9
00000484
000007BB
FFFFFBF6
FFFFFBBA
FFFFDB85
FFFFEA11
FFFFF12E
000001C6
00000109
FFFFFDAF
00000170
000001C2
000000F0
FFFFFC9F
FFFFFB2C
00000354
00000447
FFFFFF98
00000448
FFFFFD5D
FFFFFB2F
FFFFFBFE
FFFFFE7E
FFFFFC0B
FFFFFD88
000000E6
000006D2
00000E38
000010AB
00000B6B
FFFFFAAC
FFFFEC1A
FFFFD0E4
FFFFE63A
FFFFFE9E
000007D2
0000015E
0000027B
000007A2
FFFFFCCE
0000022C
00000209
FFFFF571
0000069E
000006E6
00000233
00000542
000005AA
0000034C
000001DF
00000484
0000018B
FFFFFFC1
00000245
00000B73
00000E9E
00001061
000001EA
FFFFF233
FFFFE17A
FFFFD750
FFFFEBC7
FFFFF71C
FFFFFF34
000006A9
000006FF
FFFFF854
0000059E
FFFFFC7E
FFFFFBCE
FFFFF72B
FFFFFF80
0000053F
00000164
00000253
00000179
FFFFFEC2
0000011C
FFFFFC03
FFFFFDFD
FFFFFF2B
00000658
00000976
00000A99
0000127B
000009A8
FFFFF1EC
FFFFE64A
FFFFDEC6
FFFFEA4F
FFFFF65F
000002B6
00000B55
00000510
FFFFFB5C
00000087
000009B7
FFFFFB4A
FFFFF72E
FFFFFD97
00000340
0000058C
FFFFFF23
00000007
FFFFFFA9
000000DE
FFFFFFAD
FFFFF9CC
000003DB
000004FB
00000404
00000532
00000DD2
FFFFFB17
FFFFE6D0
FFFFD568
FFFFDA1D
FFFFEBC7
FFFFF6EF
0000050F
000007C0
0000039A
000004D2
000000BA
FFFFFE5D
FFFFF6A4
FFFFFC65
FFFFF90C
FFFFFAC5
0000049A
00000469
00000124
00000109
FFFFFEF5
00000361
0000005A
0000046A
000003AC
000001F0
FFFFFEE9
00000098
FFFFED7F
FFFFDD9B
FFFFDCD3
FFFFE22E
FFFFE8C6
FFFFF8A8
FFFFFF1E
000003A6
00000D97
FFFFFE4B
00000402
FFFFFC3E
FFFFF7A4
000000E6
FFFFFBC7
FFFFFB01
000005D7
00000219
FFFFFEEF
000001A4
000002F1
00000697
000007A3
00000531
000007C4
000003D6
FFFFF7FA
FFFFED48
FFFFE02F
FFFFE05C
FFFFDF2A
FFFFEAE7
FFFFEC26
FFFFF78D
FFFFFCDF
FFFFFCE7
FFFFFF98
0000023F
FFFFFFEA
FFFFFE82
00000212
00000069
FFFFFFA1
00000131
0000020D
00000447
000000F9
FFFFFDD0
FFFFFBE0
000003B4
00000169
000003A0
00000474
FFFFFC3E
FFFFEDE5
FFFFDF72
FFFFE2C4
FFFFE5B9
FFFFF3C2
FFFFF3B4
FFFFF27F
FFFFF697
FFFFFA3F
FFFFF3DD
FFFFF97E
FFFFFEEA
FFFFFFE0
000001D6
00000253
00000729
FFFFFE05
00000519
00000135
00000233
000003DC
000002C6
00000376
FFFFFE5F
000007D2
00000906
FFFFFE45
FFFFF6C9
FFFFF5EC
FFFFE2B8
FFFFE8D5
FFFFE794
FFFFF451
FFFFEC56
FFFFECE7
FFFFF01D
FFFFF902
FFFFFD58
000000A0
000000CA
FFFFFF69
FFFFFEAC
00000886
FFFFFA0D
FFFFEFD8
FFFFFBCA
FFFFFDE5
00000162
0000009D
00000B98
00000787
000003A4
00000A1A
000006BE
FFFFFBF3
FFFFFC48
000003E6
00000268
FFFFF6DB
FFFFFE51
FFFFFD44
00000085
00000403
FFFFFA36
FFFFF78B
0000019C
FFFFFDBF
FFFFFF18
0000021B
00000071
FFFFFFFD
000006D6
00000C67
000007AC
00000233
00000406
000000C5
000004CB
00000B10
0000101C
00000D51
0000030F
00000797
000006A2
00000886
0000097F
00000C34
00000BB9
00000695
00000781
00000827
000005B7
FFFFFE10
FFFFFA92
FFFFFEBB
000001B9
FFFFFFBD
00000054
FFFFFFF1
000001DB
FFFFF75E
FFFFF27D
FFFFFF61
0000037D
0000047E
00000034
FFFFFC69
000005C4
0000081B
000000FD
000010F0
00000BF4
FFFFFEE2
FFFFFF51
00000900
FFFFFE53
FFFFFE57
FFFFFF5D
FFFFFE61
00000137
0000003D
FFFFFF69
00000188
FFFFFE64
FFFFFE62
FFFFFDE1
00000233
0000000D
000000AB
FFFFFFF5
00000210
000001AB
000000C4
000001F4
FFFFFF60
FFFFFE87
0000033D
00000087
FFFFF6D3
FFFFFD99
FFFFFEB2
00000094
FFFFFFDE
FFFFFEFF
FFFFFEED
00000242
0000014D
0000017E
FFFFFF28
000000A9
FFFFFE7B
0000011D
0000016A
FFFFFFA4
000000BD
00000113
0000004F
00000333
00000829
000009A4
000008D8
00000496
0000055A
FFFFFEED
00000197
FFFFFEBE
00000C1B
00000B76
FFFFF822
FFFFF9EE
0000072E
000006A6
000008B1
0000056C
00000633
000001DA
FFFFFFF5
FFFFFF57
0000000D
00000134
0000007E
00000042
00000384
0000043A
00000486
00000207
0000030C
00000626
000007B0
00000131
000001FF
0000096D
FFFFFD77
00000585
00000757
0000088F
00000AF2
00000789
000000EB
00000E9F
000010E4
00000B56
000012C2
00000988
FFFFFCFC
FFFFFC6E
00000114
FFFFFE8D
00000183
00000032
00000612
00000266
00000788
00000934
000008D8
0000107A
000010FA
00000925
00000B15
000006D2
FFFFFFD9
FFFFFD57
0000014B
0000037E
0000037F
00000630
00000055
000003E4
000007DD
FFFFFEE6
FFFFFBDF
00000EFB
000004E1
000000E9
00000B59
000000C1
0000002D
000000E5
000008A3
000010FA
0000101D
00000CE7
000002A0
FFFFFD38
00000DEC
00000B55
00000A30
0000033D
FFFFFC71
FFFFFD47
FFFFFEA9
00000030
0000006B
FFFFFC0E
FFFFFFEA
000005B8
000003CA
00000855
000000AB
000004FC
00000121
00000596
00000771
FFFFFE3A
FFFFFFBE
000000F8
000009BE
00000747
0000046F
00000E01
00000B29
00000BFE
000001B3
000006C6
FFFFFA3B
FFFFF12A
FFFFFCAD
FFFFFCA7
FFFFFC72
00000141
FFFFFE6E
FFFFFE37
FFFFFF17
000002A8
FFFFFE89
00000847
00000BC4
00001897
000010C8
00001364
00000E56
00000473
000001B5
0000046C
FFFFFF11
00000085
0000074D
000005E0
0000093C
000006E8
FFFFFEAD
FFFFFF8A
FFFFFA1F
FFFFF93F
FFFFFB42
FFFFF79B
FFFFF649
FFFFFDDB
FFFFFE34
FFFFFAC5
FFFFFF0E
FFFFFE75
FFFFF959
FFFFFA0B
000001CB
00000EB4
000012BA
0000145B
00000AE5
00000AE1
FFFFFFF1
00000BAE
FFFFF850
00000377
00000A47
00000C92
00000774
00000A39
FFFFF650
FFFFFCB4
00000245
FFFFFC87
FFFFF667
FFFFF31C
FFFFFAF8
FFFFFBC8
FFFFFE77
00000530
00000238
00000046
FFFFFB1A
FFFFFCED
00000252
000008A0
000009DE
00000BD1
00000555
0000096F
00000067
FFFFFD14
FFFFFF4D
00000B02
00000CF4
000008B4
000002E2
00000750
FFFFF4DB
FFFFFF8C
00000376
FFFFF7BA
FFFFFA77
FFFFFD67
FFFFFABE
000003B3
000006D3
00000C36
00000313
FFFFFE74
FFFFFC10
FFFFFE7B
00000456
00000002
000001DF
00000BF7
00000B4B
00000426
0000013E
0000070C
00000806
000000F0
000007CE
FFFFFC7B
00000550
0000039D
FFFFFEF0
0000018D
FFFFFAB6
FFFFF95C
FFFFF913
000000E5
000005CA
000004A9
00000E66
00000D85
0000047F
FFFFFF8B
FFFFFA59
FFFFFEB4
FFFFFD8E
FFFFFBF3
FFFFFAC2
00000DCD
00000C54
FFFFFB59
0000009E
0000036B
00000723
000007A5
00000713
FFFFF6FD
FFFFFA0B
FFFFFF2E
FFFFFF2C
FFFFFFFE
00000067
FFFFFBF6
FFFFFF46
00000A93
0000048E
0000028A
00000655
00000938
00000121
FFFFFC12
FFFFF823
FFFFF419
FFFFF228
FFFFF3D0
FFFFF9A9
00000358
000004D7
FFFFFE28
000003D6
000005CC
00000491
00000EBD
00000EB1
FFFFFEEF
FFFFFBA5
FFFFF4B4
FFFFF76A
FFFFFED4
FFFFF6F7
FFFFFA74
00000507
0000096C
00000612
FFFFFD56
FFFFFF61
000000EF
FFFFFF4B
FFFFF8B0
FFFFF2F6
FFFFEB50
FFFFE75A
FFFFF20C
FFFFF3DD
FFFFFD83
0000014C
FFFFF934
00000169
0000020E
000009EA
00000B77
000007D1
0000019A
000002A9
FFFFF979
FFFFFB0C
FFFFFAC6
FFFFFADA
FFFFFDA2
0000098E
00000A54
000007A7
FFFFFE17
FFFFFBA2
FFFFFC89
FFFFFA45
FFFFF5DC
FFFFF742
FFFFF37E
FFFFF167
FFFFF616
FFFFF6B9
FFFFF6BD
FFFFEE0D
FFFFF7F1
000004A1
0000047E
00000707
0000098B
FFFFFADE
FFFFFA5B
000003A8
FFFFF7A2
0000003D
FFFFFC70
FFFFF908
FFFFFE89
00000226
00000320
0000064E
000000B9
FFFFFB9F
FFFFFF38
0000029F
FFFFFC78
00000166
FFFFFC6A
FFFFEE81
FFFFF28A
FFFFF29A
FFFFF337
FFFFEA83
FFFFF886
00000102
000002D3
00000873
000001FA
FFFFFB91
FFFFFF2A
FFFFFF17
FFFFF6E2
00000080
FFFFFB85
FFFFF998
FFFFFC03
000002A1
00000754
00000974
00000332
FFFFFD78
FFFFFE74
FFFFF9D1
0000022A
FFFFFE29
000003D5
FFFFF7A7
FFFFFC2A
0000047B
FFFFFCE0
FFFFF35F
FFFFFA40
FFFFFF63
00000242
00001156
FFFFFEB3
FFFFFD0C
000000E0
00000299
FFFFFDCA
FFFFFBBE
FFFFFA03
FFFFF89E
FFFFFF9B
0000042B
0000081C
00000BEF
00000149
FFFFFC5F
FFFFFA0F
000000E0
000005F7
0000001E
000008D5
00000A9A
000000EC
00000258
0000065F
000003BC
FFFFFE51
000002B3
000005EE
00000B9C
0000047B
FFFFFD97
00000288
000000E4
FFFFFB78
FFFFF096
FFFFF6BB
FFFFF3F2
FFFFFB5E
00000513
00000B73
000007E8
FFFFFE04
FFFFFCB4
FFFFFD85
00000442
0000077C
00000548
000008E8
000007DF
FFFFFF9B
00000A56
FFFFFD61
00000411
FFFFFC6C
0000022F
000002E6
000007B3
00000599
00000219
0000032F
FFFFFD58
FFFFFB3C
FFFFEF7A
FFFFECDB
FFFFEF11
FFFFFBB7
00000363
000006AA
000004D8
FFFFFB5F
FFFFFFC9
00000198
000001A9
00000503
0000051E
00000B4C
000008E2
0000063E
0000044D
FFFFF37F
00000B73
FFFFF6D4
FFFFF76B
00000440
000006A5
00000D73
0000031F
00000455
000000B5
FFFFFAD8
FFFFF0E2
FFFFF309
FFFFEF21
FFFFFC60
00000234
00000A5A
00000059
FFFFFDDD
FFFFFFA5
000004E2
FFFFFE72
0000046C
000006E8
000008D4
FFFFFB98
FFFFFABA
FFFFFC15
FFFFFD9C
00000AB5
00000828
00000709
FFFFFAF0
FFFFFC8E
00000A69
000001AD
00000769
0000021D
00000099
FFFFF93B
FFFFFD95
FFFFF83A
FFFFFE63
FFFFFFEF
0000090F
FFFFFFF1
FFFFFBCE
0000020D
000004BE
000004BF
0000028F
000003B9
FFFFFBC6
FFFFF5DF
FFFFF89D
00000311
0000097C
0000019A
00000284
FFFFFDED
FFFFFE00
FFFFFB18
00000194
000003D6
FFFFFF04
000007E7
00000326
FFFFFADD
00000038
FFFFFF9B
FFFFFCD8
FFFFFDCE
FFFFFF87
00000382
0000021D
00000490
00000A40
00000BEE
00000624
00000467
FFFFF93F
FFFFF7ED
FFFFF4D9
FFFFFD9C
FFFFFE02
00000326
00000705
0000026B
000003A7
FFFFFCA3
FFFFFF70
FFFFFFA1
FFFFFF1B
00000658
FFFFFE6B
FFFFFB3E
FFFFF883
FFFFFAC3
FFFFFE6F
FFFFFDCB
FFFFFEAD
00000168
0000009B
00000565
000003BB
00000263
0000043A
FFFFFDAF
FFFFF628
FFFFF52C
FFFFF1AB
FFFFFEF6
FFFFFA9B
0000018E
FFFFFE93
0000013E
00000564
000002EC
00000607
000005F2
00000374
FFFFFB4F
FFFFFA63
FFFFFB6A
FFFFF7BE
FFFFFA02
FFFFFF8F
FFFFFDB4
FFFFFDA4
FFFFFE1A
00000223
000003B8
00000241
FFFFFFC2
00000248
FFFFFAE7
FFFFF600
FFFFFE2B
FFFFF7E4
FFFFF5E8
FFFFFB71
000005D6
FFFFFF66
0000018B
00000105
00000B56
00000694
00000669
FFFFFF43
FFFFF973
00000529
FFFFFD5C
FFFFFF9C
00000050
FFFFFF7E
000000F9
000002A1
FFFFFE8C
000002F9
00000650
000001A1
FFFFFE65
000001C8
FFFFFC56
FFFFF4A9
FFFFF2D2
FFFFF0D4
FFFFFD3D
FFFFFE22
00000857
000000E8
000000D4
FFFFFDFF
00000684
00000881
0000090E
00000107
00000706
0000057F
00000215
0000051A
FFFFFE87
FFFFFC4E
FFFFFF10
00000330
00000647
0000005C
0000026F
FFFFFDF5
FFFFFA00
FFFFFDDA
0000009C
0000013F
FFFFF85E
FFFFFBFC
FFFFFD64
FFFFFF1C
FFFFFFF1
00000078
FFFFFFE3
FFFFFF79
000001D1
FFFFFDAD
000000B1
0000003F
00000B60
0000065E
000008B2
000003E1
0000043F
FFFFFDC6
00000AA1
000006F5
FFFFFEBA
FFFFFC0F
FFFFF69F
FFFFF66A
FFFFFA09
000001D7
0000032C
FFFFFD5E
FFFFFDD5
00000444
000002DF
FFFFFFEC
000002BC
000000A1
FFFFFEB5
00000185
00000216
FFFFFC3A
FFFFF828
FFFFFB27
FFFFFCD9
FFFFFC9A
FFFFFEF4
FFFFF5CB
FFFFFDCD
FFFFFCA5
FFFFEF3B
FFFFFB6C
FFFFF775
000007B0
FFFFFD24
FFFFF997
FFFFFE73
FFFFFAF8
FFFFF50C
FFFFF27D
FFFFF562
FFFFFF20
FFFFFD45
000002E5
0000003C
FFFFFFDC
000001EC
FFFFFEFF
FFFFFDBF
FFFFFEDD
00000349
00000143
FFFFFB1E
FFFFFDAC
FFFFFDFE
00000125
0000020C
000000D0
FFFFFFE8
000001F5
FFFFF511
FFFFF9D0
FFFFFEE5
FFFFFC18
FFFFF4F4
FFFFF8D0
FFFFFC09
FFFFFAB3
FFFFF7EF
FFFFFE28
000000D3
000001D6
00000184
FFFFFF1F
0000021B
FFFFFFB5
00000108
FFFFFFB2
000000E0
0000017C
FFFFFFF0
FFFFFF06
FFFFFDC6
FFFFFDFE
FFFFFF92
FFFFFE3E
FFFFF960
FFFFF56F
FFFFF8C1
FFFFFB5B
000000B2
FFFFFE6B
FFFFFF58
0000022D
00000045
FFFFFFC5
00000077
000000C6
00000072
FFFFFF0D
0000018F
FFFFFF28
FFFFFFA1
FFFFFED1
0000010F
0000006D
00000002
0000019E
FFFFFC53
FFFFFBE5
FFFFFCC0
FFFFFEFC
FFFFFB5F
FFFFFBEF
FFFFFB29
FFFFF796
00000569
0000041C
FFFFFFA3
FFFFFC6E
FFFFF8AD
FFFFFBB2
FFFFF94A
FFFFF975
FFFFFD0C
FFFFFF0F
000000E1
00000009
00000015
FFFFFEF8
FFFFFE89
FFFFFE0C
000001F4
000000AB
FFFFFCAC
0000008D
FFFFFA8F
FFFFF9D1
FFFFFAFC
FFFFFC39
FFFFFBF8
00000700
00000C1D
000011AC
00000ABE
0000048D
00000924
00000705
FFFFFF58
00000214
FFFFFC5D
FFFFF328
FFFFF94C
FFFFF8F6
FFFFFB07
00000043
000000F1
FFFFFEBC
FFFFFDFA
FFFFFF53
0000079D
FFFFF956
FFFFF201
FFFFFC54
FFFFFB36
FFFFF649
FFFFF432
FFFFF7BE
00000493
00001049
00000285
000002C4
00000F87
00001AF9
0000148B
00000F39
000009E0
00000536
0000055B
FFFFEF84
FFFFF0B9
FFFFF241
FFFFFCE0
00000A7A
0000052E
FFFFFF50
000000E3
000000FC
00000FF4
0000021A
FFFFFA55
FFFFF7CE
FFFFF786
FFFFFB75
FFFFF81A
FFFFFC28
0000050F
000005FF
000000EC
00000184
00000354
000007CB
00000D89
00000C22
000004E0
00000584
0000008E
FFFFEFAB
FFFFF8FA
FFFFE550
FFFFEDC7
FFFFEF78
FFFFF1F9
FFFFF54D
0000011E
FFFFFDD6
00000A92
FFFFF5C2
FFFFF5F0
00000757
00000468
FFFFFB0E
FFFFFDC6
FFFFFC38
FFFFF80C
FFFFF7C4
FFFFFD7F
0000007C
FFFFFD7E
00000158
0000092B
0000065C
00000856
00000829
000006C5
00000284
FFFFFE73
0000023C
FFFFEBC9
FFFFEC55
FFFFF374
FFFFF460
000000A8
00000469
FFFFF9E1
FFFFFFDA
FFFFFC9C
00000640
00000583
FFFFFE11
FFFFFEC2
00000234
00000026
FFFFFB8E
FFFFFD9E
FFFFFD12
FFFFFB52
FFFFFCCD
000001D7
00000926
00000AC9
00000CD9
000003DB
00000020
FFFFFABD
FFFFF26C
FFFFECCF
FFFFECC1
FFFFFD42
0000027F
FFFFFE2E
000012C4
000000C2
000005E4
0000023A
000006D1
00000740
00000205
FFFFFC83
00000278
00000592
FFFFFD4F
FFFFFDED
FFFFFCD5
FFFFF78C
FFFFF745
FFFFFDC0
000008EA
00000CB5
00001442
00000A4F
000003FB
FFFFF96E
FFFFEF7C
FFFFF0EF
FFFFECBB
FFFFF32A
00000065
FFFFF293
00000A47
FFFFFC73
FFFFF750
FFFFF95D
000006D2
FFFFF799
FFFFFFB1
FFFFFCB2
00000383
00000184
0000005D
FFFFFF20
FFFFFACF
FFFFF557
FFFFF8F5
0000052F
00000D57
00001210
0000141C
0000055E
FFFFFE0A
FFFFFCF5
FFFFF4AE
FFFFED98
FFFFF7AF
FFFFFC4B
000003ED
000002BC
00000CE7
FFFFFA3D
FFFFFC53
00000438
FFFFFFC6
0000036B
000004F9
0000076B
000002CD
FFFFFD97
FFFFFF90
000002B9
FFFFF8EE
FFFFF1F8
FFFFFE0D
00000E42
00000ACE
00000F28
00000C7E
000003BA
FFFFFC27
FFFFFCD3
FFFFF8F8
FFFFEC10
FFFFFD2C
000005A1
FFFFF5B1
0000044C
00000731
0000038C
00000125
FFFFFB68
FFFFF5E6
00000748
FFFFFE24
000004AE
FFFFFC2E
FFFFF71A
FFFFFAEE
FFFFFB0D
FFFFF567
FFFFF341
000001B4
00000D03
00000F64
00000EB5
00000DFB
FFFFFDCD
FFFFF53E
FFFFF743
FFFFED4B
FFFFE817
FFFFFF82
00000086
FFFFFB85
000005C2
FFFFFE05
0000033C
0000085C
FFFFF8FD
FFFFF8FD
FFFFF90E
FFFFF977
FFFFFBC8
FFFFF6C3
FFFFF918
FFFFFF92
FFFFFD5C
FFFFF704
FFFFF6A2
000003E4
000009F8
00000D55
00000825
00000527
FFFFF84B
FFFFF13E
FFFFF477
FFFFF6E8
FFFFFF84
00000C4D
0000020E
000000C0
000002C1
00000290
FFFFF994
00000158
FFFFF21A
FFFFF122
FFFFF00C
FFFFFC88
FFFFF838
FFFFF70F
00000060
FFFFFCAF
FFFFFF28
FFFFF9C7
FFFFF697
00000423
00000966
000003AD
00000188
FFFFF3D2
FFFFEDE4
FFFFE88F
FFFFF377
FFFFFFD9
000009E5
000014A6
00000C65
FFFFFB34
FFFFFEDA
FFFFFED6
00000199
FFFFFE3E
FFFFF4C7
FFFFF6BE
FFFFEFE2
FFFFF8F8
FFFFFFD8
FFFFFD3F
FFFFFA4B
FFFFFDF0
FFFFF3ED
FFFFF91F
FFFFFC00
00000153
000002D7
000001B8
FFFFFEA8
FFFFEACE
FFFFF1C2
FFFFF506
FFFFF70D
FFFFFC0A
00000147
0000089F
000007B1
00000078
FFFFFF65
00000352
0000081F
00000210
000002A3
00000052
FFFFF4B8
FFFFFE71
0000021B
0000004C
FFFFFDFC
FFFFFF2E
FFFFFAB1
FFFFF74A
FFFFFC01
00000049
0000007B
FFFFFE59
FFFFF575
FFFFF9AE
FFFFF77B
0000034F
FFFFFF50
000000ED
FFFFFF67
00000BCD
000002C3
FFFFFFCF
FFFFFE81
FFFFFFBC
00000C34
000004D3
00000900
FFFFFCB8
FFFFFA51
FFFFF974
FFFFFF57
FFFFFD7D
00000036
00000432
FFFFFAE6
FFFFFA3B
FFFFFC19
000001AE
00000161
FFFFFEB6
FFFFFED5
0000041C
00000042
0000083B
00000A4B
00000D64
00000664
FFFFFF6F
00000B11
FFFFFC90
FFFFFF43
000001A8
00001137
0000088B
0000039B
000001FC
FFFFFB47
FFFFF945
FFFFFA3F
00000426
FFFFFFEB
000000E7
000001A2
00000171
FFFFFF6D
00000029
000004C6
000004D1
00000507
000004F8
FFFFFE7D
000008FA
000000D6
000002FB
00000A88
FFFFFE45
00000B45
FFFFF443
00000218
00000460
00000F8B
0000012E
FFFFFF59
FFFFFE01
FFFFF759
FFFFFB3D
FFFFFCD5
000001F7
FFFFFFBC
00000C49
00000224
00000331
00000320
00000262
0000054A
FFFFFC27
0000078F
00000985
00000226
0000053E
000001D6
00000B46
00001959
00000513
00000C4A
FFFFF267
0000033E
00000BFD
00000E04
00000F3F
FFFFFE5A
0000043F
FFFFFF04
FFFFFFF8
00000270
00000243
000005E1
000003C6
00000092
000004A9
000000B1
000006F9
000005CC
0000057D
00000510
000006D6
000005C8
000005E2
0000054A
00000C46
00001602
00000128
00000FEE
00000A91
0000031D
FFFFFAF6
FFFFFFF6
000006EA
0000022F
00000669
00000250
0000058B
0000001A
0000049A
FFFFFDF5
FFFFFFA9
FFFFFB06
0000062A
000004D6
0000018B
000002E2
000000E3
FFFFF91F
0000001B
00000227
00000146
000006AC
000009A6
00000F49
00000BFA
FFFFFAB6
00000A7F
FFFFFDEC
FFFFF6BA
FFFFFDDD
00000ABE
0000014D
FFFFFBB2
0000011D
00000507
FFFFFF68
FFFFFE55
FFFFFDAC
FFFFFC4E
FFFFFEF5
FFFFFE60
00000055
FFFFFE94
FFFFFB56
FFFFFB2D
FFFFF95C
0000037F
000002E0
0000012E
FFFFFFE0
000006DE
00000C30
0000015E
0000015B
00000D80
000000C0
00000A0D
00000DBD
00000D65
FFFFFE44
000002EB
000002CA
000004C4
00000104
FFFFF86C
0000038D
FFFFFE93
00000181
0000038B
FFFFFF75
FFFFF8B2
FFFFFDDA
FFFFFD38
FFFFFC65
FFFFFF6A
000002FC
000002CA
0000039A
00000338
00000808
000000C6
FFFFF432
00000023
0000035D
000006C7
00000D76
00000543
0000023A
0000022A
0000053E
00000565
0000018E
FFFFFE24
000002FA
00000405
FFFFFCCC
000002D7
FFFFFE67
FFFFFA1E
FFFFFDAA
000002E0
FFFFF9B4
00000217
FFFFFF33
000007FD
00000EC6
00000031
FFFFF864
FFFFFE44
FFFFF61C
00000056
FFFFFFFA
FFFFFE05
00000999
FFFFFFD0
FFFFF80D
000001E4
FFFFFEFE
0000083F
0000041A
FFFFFFFC
00000185
000001F9
00000225
00000550
FFFFFB4B
FFFFFA82
FFFFFC64
FFFFFDB6
000000A7
FFFFFE65
00000008
000007E2
FFFFFF19
FFFFFE1E
FFFFFCCF
FFFFFCBC
FFFFFDCB
00000190
FFFFFE03
FFFFFF4A
00000BE1
00000772
0000093E
00000AA5
00000691
000003D5
00000394
0000038C
000003D4
0000031A
000001C7
000003CE
000005D6
000006FE
FFFFFF1B
00000395
FFFFF76D
FFFFF59F
FFFFF735
FFFFFB42
FFFFF9DA
FFFFFBBF
FFFFF6C1
0000017F
000002DD
0000000A
FFFFFEF4
FFFFFEB4
FFFFF85F
00000074
00000F38
00000C51
FFFFFD4D
000003F7
00000673
0000055F
FFFFFCBD
000004F2
00000C5A
00000450
00000638
00000445
FFFFFD83
00000059
FFFFF7CF
FFFFF280
FFFFEF9D
FFFFE56B
FFFFE9DF
FFFFF85C
FFFFFA6E
00000017
0000013D
FFFFFF15
00000244
00000232
0000001B
FFFFFC7D
FFFFEDC0
FFFFF513
FFFFFFA5
00000D22
00000E98
000001B6
FFFFF94F
FFFFF633
FFFFFBA6
00000358
FFFFFFEA
000006F0
00000A04
00000B84
FFFFF9A6
FFFFF373
FFFFF559
FFFFF8A0
FFFFFCAC
FFFFF7B6
FFFFF614
000006BB
FFFFFF2B
00000181
FFFFFDF9
FFFFFDBA
00000072
FFFFFE9B
000002FA
000001BA
000002FD
00000394
FFFFFFAF
FFFFFFF7
00000A04
00000329
00000B1E
00000886
FFFFFD5E
00000B58
00000CDF
000005FA
00000311
00000098
0000005D
FFFFFDEF
FFFFFC5A
00000224
0000021C
00000079
0000011B
0000019F
FFFFFB8E
FFFFFBE3
FFFFFE77
FFFFF82D
000002F5
000000EB
00000046
000001A4
00000125
0000010F
FFFFFF5F
FFFFF9DA
000003C6
FFFFFEF5
FFFFFFD2
0000005A
00000112
FFFFFE1A
FFFFF993
FFFFFD46
FFFFF8E7
FFFFFF4D
FFFFFF49
000000E3
0000024B
FFFFFE3A
FFFFF9E7
FFFFFB55
FFFFF85E
FFFFFB3E
00000096
00000016
FFFFFCD7
FFFFFED4
FFFFFEC9
FFFFF78A
FFFFFB7E
FFFFFECB
00000294
FFFFFB97
FFFFFA8D
00000193
000003CA
FFFFF93C
0000000C
FFFFFDE8
000000A9
0000014A
0000015E
00000407
000004C9
FFFFFBE3
0000002F
00000094
FFFFFA87
FFFFFDE8
FFFFF884
0000036A
FFFFFB7A
FFFFFD25
00000549
FFFFFBD7
00000066
FFFFFA66
00000359
000004C6
000001A8
FFFFFEB2
FFFFFD31
000002EA
FFFFF9E6
0000019E
FFFFFE97
00000226
000002F5
FFFFF8AE
00000479
FFFFF9E0
00000464
FFFFFC6F
FFFFFE59
FFFFF9F7
000000F7
FFFFFCC2
000000FC
FFFFFD9F
FFFFF9A3
FFFFF8D3
FFFFF8D0
000000C3
0000012B
FFFFFDA0
000001BD
FFFFF7BB
0000021A
FFFFFD4B
FFFFFB09
FFFFFB35
000000E4
0000029D
0000060E
FFFFFA5B
FFFFFACF
FFFFFD94
FFFFFE98
FFFFFD9E
000000D7
FFFFFDC4
0000005E
FFFFFB47
FFFFFF64
FFFFFEA5
00000147
FFFFFBA7
FFFFF9F5
00000060
00000338
FFFFFC6F
FFFFF932
FFFFFE54
00000169
FFFFFB17
0000026A
FFFFFA0A
FFFFFDA9
FFFFFE1B
000002C0
0000001A
FFFFFCCF
00000305
00000454
FFFFFEC7
00000197
FFFFF795
FFFFFC70
000002E0
FFFFFC9F
FFFFFA60
00000416
FFFFFF1E
FFFFFF2A
FFFFFE89
00000356
FFFFFC21
FFFFF912
0000040B
FFFFFAB2
FFFFFA3B
FFFFFC13
000000FE
0000020D
00000233
FFFFFEA8
FFFFF996
FFFFF588
FFFFFA4B
FFFFFDCB
FFFFF9B7
FFFFFFBC
0000037B
FFFFFF64
00000092
FFFFFE5F
FFFFF7EB
0000005C
FFFFFD95
0000013E
0000016A
FFFFFC58
000002EB
FFFFFDCC
FFFFF994
0000010A
FFFFFA80
FFFFF9E6
FFFFFC18
FFFFFD66
000002D0
FFFFFD41
FFFFF9E9
00000164
000003DE
FFFFF794
FFFFFCC9
FFFFFE93
FFFFFDE8
00000429
FFFFFD97
000004EE
000000E9
00000403
FFFFFA0C
FFFFFF43
FFFFFD4A
FFFFF875
FFFFF828
FFFFFC8D
FFFFFC5A
FFFFF707
FFFFFDB0
FFFFFD38
000002EC
FFFFF975
FFFFF782
FFFFFB40
FFFFFC5F
FFFFFE87
FFFFFE9C
FFFFFF72
FFFFFAE1
FFFFF844
FFFFFDDC
FFFFFFAF
FFFFFFEB
00000020
000001A2
FFFFFC0E
00000295
FFFFFB80
FFFFFF61
0000036F
FFFFFCDD
FFFFFD23
00000315
FFFFFC5A
0000044B
FFFFFF07
FFFFF934
0000010B
0000006C
FFFFFE4C
FFFFFB89
FFFFFF65
FFFFFB77
FFFFFD4C
000001EF
0000028F
000002F5
FFFFFC9C
FFFFFD73
FFFFFF51
FFFFFEB6
FFFFFC48
000001E6
FFFFF881
FFFFFFD9
FFFFFB6C
FFFFFDFF
FFFFFD63
FFFFF9E2
FFFFFB0B
FFFFF8E5
FFFFFCC4
FFFFFB3A
000002C7
FFFFFF3E
FFFFF98F
000007C0
FFFFFA54
FFFFFBA8
FFFFF8DC
00000441
FFFFF9F4
FFFFF967
000006FB
FFFFFFB8
FFFFFBD7
00000575
0000064E
FFFFFFDE
FFFFF84A
FFFFFA89
FFFFFC86
FFFFF996
FFFFFB74
FFFFFCFE
FFFFFD7B
000001E6
0000008F
FFFFFF87
FFFFF83A
FFFFF8E1
0000054E
000005EE
000005C7
00000252
FFFFFC00
FFFFFD69
000006F2
FFFFFABF
FFFFF992
FFFFFA65
000002E8
FFFFFB2B
00000637
FFFFFBD3
FFFFF991
FFFFFEFE
FFFFFAAC
FFFFFF38
FFFFF74B
FFFFFD5C
FFFFFAF5
00000374
FFFFFB36
FFFFF924
FFFFFFD7
FFFFF946
000002B6
FFFFFA96
00000168
00000274
FFFFF8E9
FFFFFE64
00000389
FFFFFD5A
00000520
00000492
FFFFFE60
FFFFF7D9
00000000
00000000
00000000
00000000
00000000
00000000
00000000
00000000
00000000
00000000
00000000
00000000
00000000
00000000
00000000
00000000
00000000
00000000
00000000
00000000
00000000
00000000
00000000
00000000
00000000
00000000
00000000
00000000
00000000
00000000
00000000
00000000
