FF9F
0041
008B
FFA8
004A
FFB9
FFD8
0068
FF9E
0005
003F
FFC3
007C
FFA6
FF88
FFCF
003E
0086
FFDD
0060
0003
0051
FFB4
0073
FFD1
0013
0071
FFDB
007D
FF94
FFA1
0080
0077
FF8B
FFEC
FF0C
FFA8
FEB9
FEB8
FD98
FDD5
FB5E
0304
FEEB
FB38
FA56
011C
0000
FFE5
FFFA
FFC0
FFD9
0051
0052
FFF7
0006
000A
0056
FCC2
0068
00FC
0113
FEE3
FE5E
FD69
FFC8
0107
FE1B
00D9
04D4
0458
06AE
015C
FD03
FBB3
FF46
029D
01D4
006C
015C
0281
026B
FFE6
0010
FF85
FFC5
02ED
0242
FCA3
FC62
FEAF
FE88
FAF6
00A0
002D
FF25
FEE6
00C9
FEE2
01E1
0290
FF16
FA87
FC66
FBCC
FC80
FD8F
03F0
038C
FE20
FBBA
0028
0031
FFB6
0293
FD70
0193
026F
0368
0237
03E7
012D
013D
001A
00D2
02A5
01D2
001D
0056
FF0B
FD0E
006B
FE8F
FD8E
FE5E
FDCF
FCEE
FC31
FDDA
FFB6
FFDE
FF90
03F2
0457
06A4
033D
028B
019B
0026
FD9F
FDD1
FEB5
010B
00C4
01F4
02E2
FF84
FEBF
FEC2
FD67
FD44
FE6E
FD56
FC82
FF80
FC01
FB4F
FD3B
0067
FFC8
FAD5
016D
00D0
FCBF
0005
FF3E
FE87
FE38
FEB0
FFE9
0088
0061
0170
0147
026F
00EF
00AD
FD57
FC2B
FDF7
F966
FA96
F80C
FA47
FE74
FF80
FFEC
0272
FC03
009E
01A1
FDAA
FF0C
FE57
FD49
FF54
FEDA
FED4
FE89
00C1
0090
0111
0217
02B9
FFE6
FE13
FDB1
FA26
F893
F7D3
F52D
FBAC
FF97
FF6E
0024
0352
FEBC
FF64
04B1
FEF6
FDF2
FEBF
FDCB
FD74
FFDE
FDF2
FEF7
00F5
0131
041D
037D
03D9
FFAC
FFCE
FB52
F692
F984
F5AD
F2F1
F805
FEF9
FC33
0037
024B
FC78
00C0
016B
000A
FCF1
001C
FE9F
FCDC
FD99
FDC9
FFBB
0205
04C1
074A
06AD
048E
00B2
FDEA
F95C
F69C
F860
F99C
F4F2
F7D2
FC0F
FC9F
FFD1
016C
FB34
FB45
FD4B
FE0D
FE85
FD5E
FC1D
FB0C
FDAB
FF66
011D
0436
06CD
0A24
07DF
043A
FDE9
FB36
F5CA
F4D8
F9EE
FBFE
F968
FDCE
FF9A
0413
FFDA
00E6
02D0
FE7A
FC55
FDCF
FD7D
FEDB
FE8B
00A4
02CD
03C1
0259
0443
067D
073E
0467
0006
FB41
F77D
F7D3
F86C
FBB3
FE1F
F96D
FE06
00DF
063F
FFA5
FFC0
036D
FF14
FE45
FD5A
00C0
02F9
0126
02A2
0105
013D
03AB
04DC
05EA
04DB
020A
FB7D
F9EC
F9B2
F92A
FBA0
FD2E
0160
03C7
03A4
FFA3
063B
02F8
FDD6
02AC
FFB4
FCCA
FDC9
031F
0138
01BD
0129
002F
00E4
03D5
04B8
0490
0386
00D8
FCDF
FC99
FCD4
FF91
FE80
FE22
01B2
0358
06A0
0409
02C2
FE39
FD08
0273
0246
FEAC
FF11
FCCF
FBE7
FF76
013E
FFB6
00E2
0361
038E
02FF
0122
FED8
FC9F
FC9B
FDE1
FDA6
FFB3
FCF8
0223
0020
062A
011D
01E1
FEAC
FFB3
02A9
FEA8
FF0B
FE8D
FB88
FCE3
00AE
00A4
FFEF
00CF
0162
02BB
0486
FFD7
FEB5
FD12
FBD4
FD82
FD02
FFE8
00DA
0057
FEFD
041E
0813
02B0
004F
0210
034B
FD0F
FEC2
FDEC
FD91
FFFE
017A
0369
00FE
0210
0133
020C
0305
FD3B
FE2B
FA23
FE53
FD75
FF33
FE75
0066
004C
0285
041F
0434
FFF9
0018
01A2
027D
FBAF
FF80
0002
0052
FFD6
0073
00AE
FFF1
FEAE
00E4
0307
023F
FB96
FBDB
FC53
FEE4
FE78
FEEE
00A9
01A1
0143
030F
0408
04ED
FE7C
0178
0293
0233
FC2C
0232
FED5
FE27
FF66
FFC7
025E
FE99
FEC7
0103
027D
FD9B
FBD5
FB7B
FF3B
FFCC
FF80
01F5
0248
017E
01D2
0134
03F3
0677
05F5
01C4
FBE2
FC92
FC84
014A
FD56
FD35
00D5
FEC9
0045
FE2C
FDA7
FF2B
FFFD
FBDC
FC65
FF31
0011
00E4
01A4
01B8
004C
FFD1
01E2
00D8
0526
043B
0431
0092
FCB7
FD8E
FFAD
0028
FAD8
FE70
00FB
FF08
FFAF
0121
007B
001C
FD10
FEDC
FF17
0253
01D3
02A5
0134
023D
FFE1
FF87
FFB9
0136
04FD
03A3
01D3
0281
FFFF
0180
04D8
001B
FFDF
FFFC
009C
0126
FEBD
017B
FEF6
FEF7
FD3F
FF51
00B1
015C
014B
020A
00CC
FF4D
00A5
FEDA
FE63
FF63
044E
009D
FF22
01AC
008F
0227
01E5
FEE5
0272
FFDE
001E
0016
000E
00DB
FE65
FDA3
FE91
0044
0006
0102
010F
031D
01DE
023D
01D8
FF3A
FDAC
FFA7
034E
02F8
FE44
0063
0013
0124
FF9E
0142
0097
FD46
FF29
FF65
013D
FF54
FFC4
0197
0074
FEED
000C
0097
031E
047D
0443
01BB
0144
FF2E
FE86
FCA2
0173
03E8
002C
FFAA
0073
010D
006E
030F
023B
FF4E
FEF8
FE23
FEE8
FF05
FF2A
FE07
FF00
00A5
FFC7
FF2D
01D4
04B3
03CC
FF37
FFEB
0188
01ED
FEBC
041D
048E
FF77
FFEB
FF73
FFF1
00BC
041C
0275
0059
0158
01CC
0103
FCEB
FA01
FA52
FC7F
FD16
FA48
F9D0
FCE7
FF14
FCAA
0119
FE3D
FFD7
FFF6
FCF9
0204
01E2
FFCA
006F
FFBE
FFA0
FF13
FF15
FE76
FA8B
F8C8
F98A
F3C8
F9C8
FD6E
F6FC
F37C
F5E6
F9F3
F644
F780
FC11
FDA2
FD8C
FB74
FB69
FB00
FFD4
FFC4
0027
001E
0065
FF9A
FFDB
0019
000E
FF19
FF2B
FF9A
FF30
0010
FFF6
FCEE
FA53
F8C7
F648
F9C8
F9B4
F9DB
FE9A
FF9F
FF8F
FEF1
009F
FFB0
FFD1
FFE0
FF9B
000C
0000
0000
0000
0000
0000
0000
0000
0000
0000
0000
0000
0000
0000
0000
0000
0000
0000
0000
0000
0000
0000
0000
0000
0000
0000
0000
0000
0000
0000
0000
0000
0000
0000
0000
0000
0000
0000
0000
0000
0000
0000
0000
0000
0000
0000
0000
0000
0000
0000
0000
0000
0000
0000
0000
0000
0000
0000
0000
0000
0000
0000
0000
0000
0000
