FF84
FF95
FFD1
FF71
FFC1
007D
FFE7
FFFD
005E
FF8D
FFCB
004A
0165
00F3
FF7D
0040
FF8E
0041
FFAC
FF8F
FFA4
008C
FFDD
007D
FF9A
001C
FFB3
0010
FFB9
FFCD
FFD3
0087
0066
00AE
0010
00DC
FFFC
0053
0167
0000
01B7
0357
FDC8
045E
02C2
055C
0673
047D
0470
028A
01D4
0095
FF94
FFA2
0074
0068
007A
004E
03C1
03FF
012B
00B8
00C4
002F
001A
FD98
FD9C
01BB
FC59
FC3A
FD36
FEDA
0164
02BC
0076
004E
FEDA
00FF
0519
02A2
FE76
FE4C
FF99
001C
0057
0044
FDDF
035B
03B5
FF62
FE6C
0095
FC81
FD92
F831
FDCC
FB7A
FDC2
01B8
0037
FE9F
FE28
FF61
0053
FFD7
01FC
00D9
00C6
0098
FC88
014E
FFC4
FF84
0034
FC56
FF72
FAF7
FE21
FC50
FA95
F452
F682
F89D
FBEA
FB80
FCE9
FD8F
FE9A
FD6D
FE15
FDF1
00F7
0092
019F
012D
0417
FFAD
FE39
FD66
0272
006B
FFDD
FE78
FC40
FD9A
FE7B
FB81
FB7A
F785
F925
FD12
FDB4
FEB0
FFE4
0074
FED0
FE09
FFEA
00F2
0044
0020
010F
0214
046A
0511
FF2F
039A
036C
0054
FDA7
025F
FB7D
FCBD
FFA4
FA8C
F785
F84E
F6E3
FC8A
FF44
0056
0123
0156
0126
FEDF
0009
FFF0
0033
012C
FF89
00D8
00A5
0388
FFA3
00BA
01FC
FFE8
FB6C
0113
FD87
FB13
FAFE
F77D
F4ED
F88E
FA3C
FE45
0147
0150
0240
01B4
0015
FEDA
0076
015C
0068
00C6
0029
FEA9
FF87
016D
FF89
0093
020A
FF9E
FEE5
0498
0157
FA0D
F8E4
FCAB
F8F7
F9B6
F8E3
FBD0
0127
0218
01B4
008E
FE2D
FDF7
FF3E
FEB9
FE9D
FF14
0156
FDBF
FEEB
0156
FDC5
FE4F
FC5E
0234
0298
0642
FBBA
FCF7
FD81
F9EC
F595
F695
F970
FB91
FF95
016C
0157
0182
FE7D
FDF2
FD95
FD83
FD22
FCAC
FE9E
FD3E
FC27
023D
FE8F
0348
03C9
023B
0188
0515
FD4B
FD94
FB56
FA46
F7D0
F7AD
FB6C
FC15
FF5F
00FD
0258
012D
003A
FE87
FE03
FE81
FBDA
FCBE
FBE6
FAAF
FAB8
0133
FFC2
02AD
0248
0132
0435
0298
FCBA
FCBE
FE7D
FF72
FD25
FA6A
FA37
FE2F
0052
01FD
0385
0090
FE79
FD5E
FBFA
FE20
FF68
FD07
FDF2
FBF0
F80D
F77B
F944
FC44
FF94
0053
03B7
0521
01C7
0151
011F
FF6D
FC31
FBCC
FACB
FF3F
0406
05BE
050A
00D2
FEEC
FD9E
FD18
FEFE
016D
FF82
FF32
FF0B
F77D
F555
F7B6
FB45
FE98
FF16
0100
02AF
041D
0421
022D
FEC4
FD4D
FC17
FE10
020F
037C
05CF
03AB
017C
FF0D
FDDD
FED4
FFE9
0188
0085
00B2
00D2
F8DB
F590
F592
F8B1
FE5F
0246
00DD
02AA
0431
01B7
FF3C
F91C
FEDB
0091
00CF
03FA
04AA
0483
02BC
FE56
FEBA
FF37
FF84
FFC3
FF89
02FE
024C
0075
F80D
F2E0
F6C3
F974
FEB0
01E2
0009
0307
0048
FB65
F959
F882
FFB9
00AF
01BB
040F
0442
03A0
00A7
FE88
FF86
FF55
01AA
012D
01A9
02B5
0337
002E
FBCB
F98F
F8D6
F8F2
FDAC
004E
FC72
FC13
FD7B
FE3B
FAB4
FBA7
FE37
0013
0003
0276
04FB
024C
FFC5
FE85
FF30
FED8
0184
01A6
02FE
018E
FF6E
FF39
FB9E
F71E
F51A
F8B8
FDA6
0026
FD84
FAC1
FFB8
FDF5
FD00
FDFD
FED9
FF8D
00AD
0336
0228
FFD6
FF34
FEBA
FEFB
FF36
02D4
0419
030D
022D
0030
FE92
FFD3
FBB8
F5CE
FEFA
FFA0
0302
FE64
FDC1
FF32
0087
FCF5
FEB2
FF63
FFDB
FF75
0017
007B
0111
0015
FF1B
00D1
0207
02ED
0251
0185
0087
005F
FCF5
FE93
FA27
F852
0253
FE63
008F
04A5
01AE
0096
0030
FF98
0194
0083
FFFD
FF7D
009A
028C
0302
FF2F
FF45
FFB7
00ED
FFC9
FFFE
016B
00D1
0149
FCDA
FE56
FB88
F9FB
FD9D
FDC8
FF87
023C
02BF
FE48
FFBF
00BD
FFB2
FF19
FF3A
00EA
0231
034B
0225
003D
006C
FF74
FF83
FEF5
FFE6
004B
009B
FFA4
0036
FFC2
FAAF
F9F5
FE9E
00D7
FF7B
FF7B
FE27
FE69
FFA6
013B
FE19
FF59
FF61
FFE9
008C
00FC
01E9
0201
005F
0008
0003
00F1
00C2
0030
0155
00E8
0405
00E0
FBAA
FCEC
006B
00D6
0027
FDCB
FC96
FFCC
FE38
FE84
FE82
FDF1
FDEE
FE97
008A
0183
02E3
01DE
0184
02C0
02F9
0140
0153
0186
0137
00DE
02C3
00C6
FA9B
FD04
00AB
00DD
0001
FF92
FCAD
00F6
FF1E
FFA9
005A
FEB6
FEBA
FF85
FF45
0088
00E7
FFCD
0064
00A1
009D
FF73
01EE
01CB
02E0
04A3
FE88
FE1A
FD10
FC76
FD65
0075
001B
FFC6
FCE7
FB09
FC77
00EE
FD97
FE5B
FE19
FFEB
005C
00A0
0064
0192
0126
019E
026D
FEE1
00F6
FEE8
0496
01DC
FF11
010E
01DF
FEEE
FF2D
000B
FFB6
002E
0039
FF4B
FD2E
FC4D
F8A4
F90F
FBA3
0034
0066
0122
0000
FEBF
FD9C
F985
F885
FB77
FD05
FD31
FD16
027C
0391
03D3
03B7
008E
0024
0036
003F
0019
FF8A
005E
FD83
FDB4
FF40
FC63
FD56
FEB1
0510
01CF
FF7A
FBC7
FC90
FF1E
0167
FB59
FD9E
02AD
00BD
0168
009E
FCD4
FFF5
007B
FFB1
005B
FFC1
FFF0
FFF8
005A
007C
008B
FD4D
FDBE
FDCC
FDD8
FCE1
FD15
FEF7
FD8E
FD19
004E
00EC
01EB
00CD
FFF3
0170
FFCA
0046
FFF9
FFDE
FF7D
0051
FFD0
019E
FFB6
046E
0285
0362
000C
FCDB
FC82
00CB
01D6
042D
012E
0A21
003A
0127
FBEB
F6B2
FBC7
0079
F94D
0BB1
02AE
F5F2
0467
02EB
FF5C
0307
038A
F41C
0031
FEB8
00B7
01C0
FBC4
0355
FD02
0785
FA0C
091A
FFEE
FACA
01EE
FFC5
02DB
FA76
0489
014F
0196
0000
0000
0000
0000
0000
0000
0000
0000
0000
0000
0000
0000
0000
0000
0000
0000
