FFC7
FF8A
FFF6
FFCE
FFBD
FFC1
FF7D
0053
0054
0062
0009
0049
FF12
FEC4
FF71
FFA6
FFD9
0081
FFF0
FF9C
FFAB
FF91
FF9A
0075
004E
FF7C
0011
FFAC
FFD9
0028
005A
FF96
FF9E
FFF4
FFD5
FED1
FF98
FEFE
FEDA
FE99
FFDD
FE6B
00D4
FFDE
FBD7
FBBA
FD50
FD1F
FDEE
FE59
FF10
FF5E
0045
FFC8
FFA4
0073
0060
FFFA
FFFD
FDE5
FDDD
FF91
FFF0
FED5
FE03
F9C4
F71D
F88D
FF08
00F9
FC0D
FA0F
F86D
F91F
FCD3
FCB2
FC4A
F8D5
FAB1
FA23
FCAA
FC7B
FF7F
FFCF
FF9A
FFB5
FEC2
FD88
01FE
FC83
FC42
005B
FCD0
F945
FA57
FD09
008B
FF96
FFB3
00FB
FDC9
FDFF
FFA6
FA95
FE0C
0206
03CF
01DB
FCF8
FFD9
FFD3
0079
005E
0174
FF21
0192
02AC
FFD2
FD88
0213
FCCD
FB67
FDFD
0017
0167
0212
02AE
01CE
0152
00CF
00C3
FF49
0167
03D6
03BD
02A8
0621
02C6
FD7B
FB1E
005E
0025
FB7E
FF43
FBBA
FF8A
FE6E
00F3
FCCA
FD18
FC92
FECA
00A2
017B
0112
008F
00CC
023C
FFCB
FFD2
FFD6
FFB1
00C7
FFA3
016F
02B2
FC11
FDC8
004E
FDC4
037A
FFBC
FEE4
FFC9
FE50
FF8C
FF09
FFD5
00C6
023C
004B
011B
001F
0048
FFC4
012A
010F
01F1
022F
0127
020A
03DE
03FC
01FC
FF8F
FDCE
002B
FBBA
FFBC
01AE
FEB4
FD76
FD57
FF49
005A
0223
0277
00E6
01B4
0133
FF6B
00A4
FF4A
0011
FFD6
026E
017C
00B9
00EF
04DD
04CC
0130
FE8C
FD81
FB39
FE82
FF27
02A5
FFBB
FD59
FF3E
FFE8
0098
01A1
00BA
018D
0220
022E
0122
00BD
004B
FEC5
02B3
01AA
0214
0258
000C
010C
08BD
062C
0335
01D2
0283
03F2
FFB2
013C
FFAD
FCD8
FF7F
FE35
FFA0
FFC5
FF71
021B
0374
0128
FF56
FF54
FFD4
019D
0230
018C
01BC
0309
0140
013C
080E
09D9
0322
FEE7
01D0
0333
0250
0114
0365
FCF1
FBC6
FCD5
FE69
FEB9
008E
011A
0357
00FD
FFC8
FFFE
FF24
00FB
01BE
0042
0311
0117
0279
03B3
0504
0421
009E
FFD3
037B
FF2E
0588
041E
037C
00AB
FE2A
FE85
FF45
0068
011B
01E1
03B8
0284
02CF
019B
0189
02AD
0244
FFFE
013F
002E
03D2
0654
043E
018A
06DF
011E
01FF
03EA
FF25
04AD
003A
FFF9
FA9C
FC4C
FE12
0014
0119
03CB
032A
02F3
0212
0278
0113
017C
00C9
FFBA
FF08
FFBF
0100
0444
0264
019A
032F
004B
FD1D
0157
01CE
0087
013D
FBE1
F855
FC91
FEE2
01C8
0446
056D
0440
0232
0231
02FA
00AD
0058
FFD8
007B
FFEB
FFE5
FF8F
FEE4
FE5C
00D2
FC28
FE58
01DA
02A0
0646
FEA7
FCCE
FBC6
F980
FBF4
FD9E
0168
03A8
0387
03EF
03F9
02C7
02A2
0056
014C
FEDD
FE33
FCFE
FEAD
FDAE
FD9E
FDAF
013E
F7A1
FE5F
01EB
0174
0158
FE22
FDA3
FD7B
FE4D
FC3A
FB75
FD6C
00E4
FFCC
022B
00E6
01D5
02E5
00A6
0256
0157
FDFB
FCD7
FD1D
FF3B
01FE
FE06
FF9E
FC49
FDEB
0313
0059
00D5
FF01
018D
FF28
FED1
FBAA
FC13
FB6D
FBE4
FCAC
FFAC
0037
00F8
0299
0180
0260
0118
FD41
FB63
FA5E
FC53
FE87
FB1C
F8D2
FA60
FDDA
0055
0151
00B1
FEB4
0011
FF56
FE34
FDC6
FC90
FD8E
FCDF
FECC
FF90
FFDD
0108
0222
0276
02E0
FE82
FC37
FBDB
FA5A
FC74
FE69
FBCA
FB7C
00D7
FCF7
04DF
015A
01E8
FCF6
FD51
FE6E
FF71
FEBD
FE7B
FE1E
FC21
FF58
FEF1
FFB3
002D
01A0
01E3
00CB
FE84
FD45
FD80
FB03
FA51
F9F8
F965
FF97
06C6
FCB6
013A
02DB
FF3B
FE26
FDEF
010C
0036
FEDD
001D
FDCE
FD3C
FDBB
FD7B
FD9F
FF7F
0162
01D8
00C6
FF98
FF9D
FDA6
F91A
F646
F789
F990
0163
016F
FCFA
0052
019A
FD39
FC6F
FEF0
0080
00D9
FFBA
FEFE
FE65
FF2C
FE1B
FF05
FF48
FECE
00D0
0151
0144
FDE1
FEC1
FB05
F865
F8F0
F818
F90B
FC52
022B
FFF0
FE8A
FFE7
FEF8
FDBE
FF4D
010E
0205
01AE
0043
FFD9
FFF0
007F
00B4
003A
FFE4
FFF3
FFC2
FEF3
FC16
FA1D
FA97
F741
F4B8
F7B9
FBAE
0001
FBFB
FF5F
FE30
00D0
FEA3
FF36
FDF9
FCD4
00C3
0100
002B
FF93
0008
00F8
0197
01EB
01C2
0106
FEF8
FF02
FADD
FA04
F6AE
F614
F563
FAB0
FCD0
FF14
FA6F
FF0F
000D
FFBF
FAB6
FF30
FEB5
FD06
FE54
FFAF
FFDB
FFDA
FFF9
003B
00AD
038C
03C1
0226
FF95
FECA
FD62
FB79
F6EF
F74C
FA43
FC14
FE57
FE71
FAA8
FFE9
FFE1
FF77
0192
023F
FBF9
0124
FF6C
00CA
0043
FF01
01B1
02A6
025E
03B5
016E
0294
0149
FC71
FCB1
FD1B
FB0F
F9EC
FD70
FE8A
FC61
FE38
FF06
0047
FFF3
FFBD
0144
02D6
FF29
0046
FE2A
FC25
FE6A
006F
02F4
0536
030D
0347
03C1
02E9
0263
02FB
03A0
02D4
00D6
FFAB
0118
064C
03C8
01F6
FF41
0034
FFF4
0051
003A
0064
0005
039F
0476
FEF4
FD68
FD56
FD1A
0223
03BA
02D3
0105
0053
03D5
0410
0198
0174
00B7
00FA
027D
00E8
0075
FD89
003B
0016
0073
0078
FF9A
0015
00DA
030A
0238
00F7
013C
FF9B
FEFF
FDB4
FDEC
FFF8
0437
016A
FEF9
FFC0
FFDD
018E
0369
0252
013C
005B
0023
0021
FFBE
001E
0000
0000
0000
0000
0000
0000
0000
0000
0000
0000
0000
0000
0000
0000
0000
0000
0000
0000
0000
0000
0000
0000
0000
0000
0000
0000
0000
0000
0000
0000
0000
0000
0000
0000
0000
0000
0000
0000
0000
0000
0000
0000
0000
0000
0000
0000
0000
0000
0000
0000
0000
0000
0000
0000
0000
0000
0000
0000
0000
0000
0000
0000
0000
0000
