FF99
FFE6
0085
0061
FF84
006C
001C
FFF0
0041
0069
0028
005F
FDAD
FE8E
FFA1
FF3C
0086
FFBD
FFEB
0084
FFEE
006F
FFF2
FFB7
007D
0025
FFDE
0059
FFF1
0080
0041
FFB8
FFF2
FFA3
0001
FFA3
0015
011C
FEA4
00E1
FF55
0248
05C4
0355
FF23
FDDA
FBC3
FC71
FBE7
FF3D
FEBD
FE6C
FFCF
0011
FFF7
FFAE
002C
000A
FFFD
FCA9
FCEC
FCD9
FDDD
FD3E
FD6C
FA0D
FB6F
FB5C
F9BC
FAC4
F8EE
FBB0
00B0
FF98
0186
00C2
00FF
FEAB
FFD9
FEBC
FC38
FE77
FFFF
006B
0065
FFDC
000B
FEDE
02D3
FE25
FC9D
FE35
FEB2
FCAD
FF87
FD65
FEFF
FE87
FE02
FDCC
FDCA
FF1E
00F8
FF15
015F
00CB
014A
FFAF
FE18
0237
00B8
FFF3
FF82
00AA
0011
05DD
FF2E
FDCF
FC0D
FEFB
FEB9
00DB
00F6
00B0
00A4
FEDA
000A
01A2
01EA
0162
008F
00FA
00C6
013D
0210
0192
04B5
042F
0510
FED6
FFF7
FFBB
0042
032C
FAA6
FE87
FEAD
FFF8
FE27
FFE7
000F
0267
01E8
01AC
00E3
0142
01A8
032B
0191
0240
034C
021B
027A
005E
00F3
01C1
02FE
FE99
003E
0114
0090
FF78
FCB5
FEA5
009F
FF54
FFF9
0123
001C
00FB
00C6
01BA
0199
020A
02EB
034A
030F
039B
046E
0149
018E
039F
03BA
0226
0157
FFCE
0084
FE55
FF57
0062
FE00
FF57
001F
FE19
0068
FE3B
00B3
FEAB
0045
0008
0131
0362
0332
0284
0295
025D
01F0
009D
015A
0350
002C
0214
009B
FFB7
FB89
FA58
0062
021C
FE51
007E
01EF
00AD
FF98
FEBC
FF79
FF3B
FF49
0163
010A
01CC
03C5
01EF
0321
02BD
0182
017E
002A
017B
029B
0153
03CF
051D
0456
FFE5
FF28
010C
FE97
FEE7
0335
FF75
0048
FF83
FF49
0019
0055
0144
0118
0145
00BE
018A
009E
0111
0125
00D1
007C
00AC
FF39
02AE
033E
FC91
03DC
FEE6
FEC6
021C
02A0
FF74
00BC
00C8
00C1
0017
0053
FF68
0196
00C4
02BA
008C
FFEC
FFB9
0150
0251
02D1
01C8
0219
0237
0095
FEE8
02BA
00AE
0159
FCAC
FCD4
03DA
061E
0394
0219
02A4
00AE
0032
FFDF
FFFD
01EC
02F3
04AE
01F1
FF86
00D6
019F
01E2
028B
0142
02A8
02AC
04E9
035D
0967
020E
0002
FD10
FDB7
0584
04FA
05D7
02E2
01B6
FEEF
FF5F
FF57
00AA
0173
03F1
04B8
033C
FF55
0094
0092
026F
0290
0205
00E9
03A7
002F
01A7
0527
FD39
019F
FE56
FB3A
04EE
02E6
028C
0004
00A3
002B
FFF9
FE2D
01E2
03E3
043B
03B4
024C
0074
FF76
0079
0223
033F
00E7
00CE
FFA4
FDBD
FE85
0140
FCD7
014F
02B2
FA89
00C6
FEE3
FF0C
0249
FEFC
FF51
FEFD
FF3B
018C
017A
031B
033F
014B
008E
FFE8
FFAA
FF48
FF6A
FE61
FD2C
FDCC
FFF2
FE07
FAEB
FCD1
FFEF
0245
FEF2
FEEE
00F7
0012
01B2
008B
00D4
0025
FF06
FFE6
01CF
01D1
0346
0043
FFB0
FEE4
FFE4
FE78
FE67
FE0A
FEDC
FE76
FEE1
007D
FC11
FC36
FE91
030A
FF3A
0067
01F7
FF9F
0102
FF89
002C
FEA6
00D5
FF8C
01BA
0240
01AB
0027
FF4A
FE98
FFF8
FDE9
FD68
FE0D
FEF8
0195
0096
FF07
FD0F
FF6A
FFF3
04B1
FD42
01F7
02DB
0066
006A
FFD7
003C
0145
0082
0113
005C
00C3
0036
FF89
010E
0072
FD28
FDFF
FE7C
FFC1
FE02
FFF8
002F
F908
F9C3
00A2
0144
02B7
FF75
00AE
003E
0046
0156
FFD2
FF63
00BE
02F8
0254
00BD
FF8D
FFE9
005A
00BA
FF81
FC7B
FDC6
FF2F
FE24
FF5F
FEF2
FF59
FAD6
FD30
FC53
01F5
FD4B
0175
00A0
FF95
0193
00C1
FF5E
0154
013E
017F
FEB6
FDF8
FF64
FE99
FEDE
FFB2
FF58
FF8D
002A
007A
FFBC
004B
00F4
009B
FE6D
FF5E
FC91
0003
035A
0041
FE3F
0176
017A
027D
0112
00FC
0155
0028
FF53
FDDF
FF97
FF04
0013
FFB2
FFF5
009B
010C
0259
01B5
01AF
00C9
FEEE
00FF
FF2B
0180
FF57
FEAC
FFC9
FCAC
0124
0103
03B3
023E
0095
017E
FF92
0048
FFBB
001D
008D
00ED
FFA4
0044
011E
0108
01CD
0201
0082
FEC0
FE30
FEAA
FC04
FF73
FF07
0077
FEA6
FF44
0092
0032
014E
029A
003C
005A
FFFF
01F4
0152
00C1
013C
0042
008D
015E
0068
FF80
013E
0002
01F0
0349
FFC9
00C9
02EC
FEDB
0071
FFDB
0370
046A
00A9
020B
00AB
005A
027C
0021
006F
00F0
0068
0252
0148
0118
016B
006D
00CB
009B
0259
FE63
00DA
03DD
014D
0146
023B
FFA7
0004
0082
FEEB
0674
FE95
FEA9
FF81
FFEB
00DA
FEF0
0165
017C
022C
01A1
008C
009C
013E
FD90
FF00
FF98
004E
FD8A
FF80
0291
FCED
F7BA
FBF1
006C
FF88
0038
03BC
FF54
FB0F
FDB2
003E
FF56
008C
01B0
01BD
004C
015A
027D
0198
0185
02F0
0356
0162
026C
0010
005D
0031
02B2
04E5
FDC3
FE23
FF79
FF77
FFB3
FFCB
01A1
0353
0219
005F
FF81
FFC6
00F6
0377
03B4
022D
0398
037F
00AB
0199
0654
031B
FF21
02FA
0119
FFA0
03DA
023C
000C
FFF7
FFC6
0091
FF7C
0086
FF94
FE7E
FF06
0214
0227
0140
0269
FEF4
0203
0373
FD66
05EA
04C3
0358
FEDB
FFAF
FDF9
FF69
FE0E
FE8D
FDE5
0069
0039
FFDB
0014
0000
0000
0000
0000
0000
0000
0000
0000
0000
0000
0000
0000
0000
0000
0000
0000
0000
0000
0000
0000
0000
0000
0000
0000
0000
0000
0000
0000
0000
0000
0000
0000
0000
0000
0000
0000
0000
0000
0000
0000
0000
0000
0000
0000
0000
0000
0000
0000
0000
0000
0000
0000
0000
0000
0000
0000
0000
0000
0000
0000
0000
0000
0000
0000
