FF88
FF6E
0027
0000
FFF1
0055
007C
FFED
FFB6
0088
006D
FFA8
FEEA
FF89
00BB
007B
0029
FFB5
FFDC
FFA0
006E
FFD3
0092
FFB6
FFA3
004F
FFC3
0016
007E
FFA7
FF77
FFF6
FFB6
FE4C
FDC9
FCFE
FD4B
FE82
FDB0
FFBA
FCE9
FFC8
02AD
019A
0259
FF2F
FA65
FBE4
FC40
FCD2
FD3A
FCE1
FFCF
FF9F
FFF8
0083
006F
FFDD
FCC0
023B
01BC
FEE6
FE21
FCDF
FACB
F928
FA7E
FB23
FCC5
FD72
FBED
FBE4
FD86
FDB9
FD6D
FD6F
FE6C
FCD1
FACC
FC3E
FCB8
FE1C
005F
FFCC
FF7C
FF88
FDE4
01B6
000F
0002
FD85
FE45
FD29
F966
FFA3
FF44
0118
00BF
003D
FFF8
FF76
012C
0125
FFA1
0294
0030
0065
0018
FEEE
024A
0017
0047
FFD1
00E5
0186
04C6
0054
FE96
FFD1
002D
0118
0169
012F
03C6
02E6
0162
01DF
026E
0126
01A2
021D
FF52
0085
0021
00F4
FFDF
05AA
0564
054C
FD48
FFE6
0041
FC22
040A
FDEB
0062
00D0
002A
FFB4
0005
FFBA
02E4
02F5
035E
0168
01E4
0197
024E
0194
012D
01B1
FFD6
00C7
FEF4
020E
04EC
FDD8
FCE3
0058
0302
00C9
0400
FF62
FFF3
00E8
FDAE
FF85
01B0
024E
014C
0212
0424
0397
0405
03DC
04B7
0408
0333
0289
020D
010D
027E
019B
028E
0017
FD58
FFAA
057D
FEB0
046C
016B
FF4D
00C6
FEAB
0220
00FE
011D
FFF7
02DB
03CB
0374
0541
0466
02BF
034C
032A
00F2
00AF
018F
0306
0182
027E
FE18
FDF7
FCA7
00BB
FECF
0376
01E7
FF1D
0096
016F
0231
0140
0066
FFE1
02F6
039E
0370
03E3
054B
024F
051F
02A1
01FC
0296
031A
01F2
0399
0289
0374
05FA
0332
021B
0016
0540
02D8
00C0
04D8
0222
0345
0179
007F
0053
03E8
03CF
0384
033F
0338
03D3
03F8
02E8
0341
02C8
036F
04C5
0229
04E2
026F
FD3A
02C6
0090
FF93
04B5
037F
01E5
04FA
033A
02B6
00F8
FFF1
02A6
040C
03DA
0248
FF6A
004E
001A
025C
02A3
0427
02A9
03E2
023B
0037
FD06
FFC3
FFEB
0133
0241
FD39
03A3
05E7
01E9
034F
02DC
01FD
009F
00FB
03C6
032D
043C
02DE
FFE6
FE5A
013A
01F9
02BD
0432
0062
02B9
017D
0045
FEBC
0731
FE9F
FDE4
040C
FB88
022F
0463
02D8
01BC
0174
FE65
FFDD
00F3
0149
0115
02BB
0293
010B
FDF2
0046
0307
057A
0403
01FE
FF30
0091
FDAF
FD35
0098
FC7B
FD4D
01CB
FD82
0155
01BD
FE9C
FE41
00DF
FD96
FEDA
FFED
0239
01E8
0439
031A
0151
FF81
FFF3
032B
0395
0337
014F
FE8F
FC59
FB8D
FE10
FE81
FC2D
FD3D
01F5
FFA3
FCF1
FD2E
FB93
FE46
FEC5
FDD8
FD1F
FFD9
01AD
028C
04C5
0360
0146
FE84
01F7
01AD
014F
FFF4
FF6A
FB8D
FCE8
FB02
FE64
FC6D
FCCF
FC9F
01B2
FCC4
F970
FFDF
FDAE
FFAF
FEBF
FF06
FDDD
FFBF
00BA
0141
01C1
01DF
00D9
FEDB
0116
0215
0164
FFE6
FDA9
FD80
FCFF
FD36
FB5D
FC3C
FD40
FD0B
02FA
01C5
FFA1
0259
FCD9
FE29
FE8D
FF14
FE73
00A2
FF60
01A5
00A9
FEEA
FD99
FE14
FFE6
00E9
006E
FF21
FBD0
FC84
FCF8
FEBB
FA14
F993
FFCE
FFE1
016F
FF26
0101
0263
FD38
FF82
0053
FF6E
FFB2
FF78
00FA
010B
FE72
FC3D
FD09
FEA3
01F5
FEE4
0120
FECA
FCCD
FD83
0048
00E1
FB78
FD8E
0306
03F5
0172
02BA
0000
FEDA
FF6E
FFC2
FF7D
FF49
00A6
019C
0247
FE4D
FC69
FB86
FD6D
FEC5
FF29
FF07
0126
0063
FFAD
00AB
FF13
FFCE
FD34
0173
FCE6
FE3D
039B
006F
FF68
FF3D
0207
FFDF
FEFE
FFE8
000C
01F4
FF3F
FF73
FD7A
FC28
FC4C
FCF7
FE7E
0027
018C
0106
FFBE
FFC8
FF73
FF17
FBB4
FBFC
FC2A
0050
039C
FDE5
FD9C
FEA3
00A5
01C2
0037
000A
0058
0001
FE12
FD6F
FFE3
FDF8
FCE7
FD3A
FD94
FE5D
0068
0193
008E
0082
00AC
FD7E
FD98
FB6C
FEC2
FE37
FDD5
0065
FD64
FEB5
FCF6
0285
0228
FF24
005E
FF47
001E
FFCF
FFB4
FE3F
FEFF
FF51
FE3F
FF53
00A1
0028
FF74
0049
FEBD
FC9A
FE42
FFAA
FF45
FD74
011F
0008
0027
FE6E
FB54
0249
0242
0190
00F4
010D
02BD
0292
0194
0163
FF6B
FFC9
00E3
FFE0
FFBE
00BB
FFAB
02BD
0209
02B3
009F
02FE
FF62
FFD3
FF76
0365
0706
019A
FE29
FFBF
0241
031E
017B
02D7
0341
01B7
0383
01E0
0074
0190
00DF
00F4
01C3
0244
00DC
0238
044F
04DD
012C
FF81
FFCE
0004
FFF8
FF38
0795
063C
01A6
0279
031F
01AD
0015
03E8
044E
046A
0555
0428
04A9
04C1
00F5
0147
04A3
0482
01BD
01A6
0517
001C
F9B2
FC9F
FFA3
FFD8
FF75
0383
FBCB
00E8
062B
0666
0372
043E
0645
0B26
0A08
06B0
04E8
0463
0471
065D
05D3
0794
0AFD
07D6
0490
FFFB
0226
02AF
FDB2
FE51
0070
FF86
0025
FF91
025E
FEC3
0158
03B1
06F0
0705
0B10
0C9F
0CE8
0D9B
0EC9
0F88
0801
0A13
0AEF
09E9
088D
0C06
084D
03D1
03AB
02F6
FFE1
FF9B
FF89
0000
FF79
002E
0011
0273
0376
04D9
044F
0534
0568
06FF
03B0
04BC
0072
0936
0759
01CE
FD55
0037
0325
FB46
FB01
FD9A
FFA2
0020
FF73
004F
0084
0366
F89E
04D5
014A
FA29
FC12
04FF
0412
0174
0360
F867
FE2F
0660
02BF
09E8
FC35
0189
FFDF
FFBE
FF17
018C
FC2F
01F4
05B8
FFE1
FD98
FF47
FEA0
F9F7
0420
FFD7
03DC
FE8B
0A1A
085F
FE0B
FEA1
FA77
0346
017D
FF71
05EF
03C0
FDB1
FD2A
FFB9
0380
0107
0245
045A
FA90
F9D7
00BC
FA93
FDAC
040A
029A
FE72
0383
F82D
012C
FF96
03BC
F72C
