0057
FFCA
FFE8
0014
0040
0060
FFA5
0088
0018
FF9D
0016
FF98
FFD7
007B
FF94
0010
FFD4
004B
FFE0
0018
FFD0
FFEA
007E
FFFB
FF86
0042
FF8A
FFB9
003A
FFE2
0079
FFB8
FF8A
FF79
0020
0046
FF55
FFF4
FF35
FF98
FFD0
FEC2
0269
026B
01CA
FFCD
FFD9
FF9A
FFDC
0025
007D
FF81
FFA8
0007
FF7A
003D
0030
0006
0072
FEBA
FFF0
0002
FFEB
FEA2
FD63
FE04
029A
018D
FBD7
F985
FF69
041A
032B
0162
027E
031C
02D7
009C
0019
008F
0033
007F
FF95
0083
0074
FF77
0010
FF36
FF4C
03C9
0341
04B6
02D9
FFB4
FF70
FD59
00F3
FF37
FEC8
FF1E
FF08
FCFD
FE1C
FD25
FCC4
FCF8
FE01
FEF1
0344
FD18
006A
008B
0007
00F9
FFF2
04C3
051B
0643
0845
0521
04D1
03E4
0345
012E
01A2
0081
FF39
0225
FE54
FDBC
0230
0161
FECE
0043
0156
FF86
0156
010C
02EB
002A
FFE0
0068
0157
0211
0380
069A
04D4
008A
FFE9
00EB
000E
007F
00F8
01EF
FF9E
003C
FFB9
FF53
FFF4
FFE1
013C
FEBC
FFBD
01C2
00C4
0426
0390
FE48
0059
02A0
020F
0582
0278
015D
018F
FFCD
009A
FF3C
FF6A
0165
0249
02F2
014E
00D2
010C
00E4
0121
FFB5
0099
FF15
FE38
FF39
0029
05F9
053C
0317
0043
047B
00C9
050B
01F6
032D
0249
FFBF
FF0C
FE28
FF6E
012C
009C
015E
0273
00D6
015A
003F
00A6
006D
02AF
01ED
FF5C
FFCD
0129
0900
035E
03B0
0099
0163
02BB
00A8
FEC8
005E
001A
FD90
FE7F
0050
020B
00AC
00EB
021C
00D9
003E
FF3F
FEDB
FF89
FF39
FDDB
FF70
0053
FEEA
FF93
035D
0109
0354
FFBF
0123
FCFD
0027
0057
FE82
00DE
002A
FFFC
010F
FF2E
FE6A
FF9B
0057
00C0
FF1D
FBE8
FA90
FCC1
FBC0
FCB0
FCDE
00A9
FD63
FAC5
031C
00BA
019B
FFD5
007B
FEDA
0561
FFA2
FED0
FFB0
FF5D
0150
FEBE
FECD
FE3C
FEE3
FF29
FF8A
FD00
FCC3
FCE0
FCF6
FCBA
FD60
FDCC
FECE
F8BF
FA2A
FF35
014E
001C
FF89
FE46
FDB2
04F8
00C3
FF07
FF40
FF57
FD6D
FD45
FDDF
FF74
018D
0270
00C3
FFC2
00D7
01F9
0075
FF53
FF79
0021
FC04
F822
F81D
FE30
010A
0274
0090
FF56
FBAA
001A
FFD9
0052
FEFE
005E
FF66
FEC8
0174
022F
01E7
018C
0341
01F2
01DA
016B
017D
FF41
0043
009C
FEEB
0067
F7AF
FBDF
033D
02AA
025D
FF30
FE20
013C
01F3
024F
FF7B
0332
FFE7
0105
017E
01D4
02F5
0385
03EB
0137
0130
FFE5
FF58
FE36
FEE6
00A2
FFFC
0201
0237
FD3F
FF22
FDD9
00BB
01E7
0013
00D3
FFE0
FE6E
00B1
0178
01F2
02A0
0266
01AB
0288
01DE
0256
017C
00B2
FDB7
FE24
FDB3
FE96
015B
008B
04BA
04F9
FFA7
FD4C
FD87
00E7
0200
0366
00B4
F88C
F95B
FC69
F963
FDCF
00DC
0259
01E1
0330
0280
014A
FF9C
FFAD
FEA8
FE95
FFC8
002C
01DB
0156
0441
05C5
0012
0126
FE54
005F
028A
039B
0072
F7E5
F829
F6C8
F5FB
F789
FC62
FF71
00F3
0287
043B
02A2
FFB8
FF8E
0013
00BC
0098
0096
01BC
0255
0312
05DE
FD23
FBB3
FDCB
0010
01AC
0060
00B3
FC51
F7C7
F7D7
F767
F42A
F332
F3D6
F73D
F80D
FAD0
FD22
005B
FE42
0024
0059
0094
006A
01E8
014A
03A6
0278
FBF6
FAF4
FF23
0324
016C
02CB
0715
0009
FBCA
FCA5
FB93
F936
F49D
F2A1
F320
F0FC
F639
FB77
FE3F
FFDA
FFDD
0066
00E6
01E2
0440
0177
01D9
0351
FC6F
FA24
FFD0
006B
02AB
04E0
094D
03BC
0114
FF88
FED0
FD86
FCC5
FD05
FD51
FCB6
FD63
FE47
FF29
006C
FF07
00F4
0111
0225
024B
FF86
0141
01BF
FDF4
FB57
FED1
0035
03CB
0074
06B1
0505
00AE
01E7
01C7
0231
0288
0166
020F
0224
0154
0136
0040
007B
FFE2
FFAA
0036
003A
005F
0123
FFFB
FE8A
FACE
FCEE
0147
FFE9
0339
FECE
0140
04AA
01D0
01C1
02E1
02C6
0295
02AA
0230
038C
0242
013F
008B
FF2D
FE72
FF11
0045
0140
FF43
FF64
FF4E
FB38
F950
FE70
0061
000C
02CE
FEC4
0065
033E
02BD
FF61
00A5
01D7
0045
0230
02F9
00D6
0079
FFFA
017A
FF55
FFC9
FF07
0135
0307
0026
FF6B
00B1
F7E3
F918
009F
0055
0051
0051
0457
07A8
087E
0575
0192
015B
0160
019B
0292
0367
01C6
01A6
005A
012F
0091
0021
FF40
FE39
006E
FDCB
FB38
FB68
FD9E
FDB9
03F9
FFCD
FF78
FF9D
FE33
06A4
0813
0348
05EB
05A1
01E9
01A1
01D5
00A3
00D2
0071
0058
FF6D
FF56
017A
FE7F
F93F
FCEB
FFCD
FE21
FEA3
FD8D
0382
03C0
FFEF
0015
FFFA
01A5
FD9D
0560
0722
06BB
091F
076B
0507
02BF
01E7
02CA
00EF
FF24
FF76
0034
FDED
FDD8
FF69
FBF8
FD79
FE01
FCF7
FECF
001C
0071
FFDB
003B
0065
0074
036C
0600
066E
06D6
02EE
03AB
0501
056A
0398
02D4
0368
02C0
02D4
0246
03D8
0458
0288
053A
05EA
0455
034E
0073
0033
FF82
0034
FFA1
0037
006E
FFC2
FFBB
0089
FFBE
FFC2
016C
0046
FF88
0092
0282
04D9
03CE
FD9D
FBFE
FB3D
FDB9
FC9F
FFF5
FF19
FF49
006C
008D
0013
FFFB
000E
FEE5
03BD
0542
FD45
0364
06CF
FE1F
07AC
01E2
019F
0541
00E1
01F1
FEEC
FA0D
FF42
0265
02F8
03D3
FA5B
0258
FF72
F4C7
0380
FC54
F6DF
060F
01DE
FCF0
FE9A
04A5
FD5B
FC6A
0207
0032
00DF
030D
FC6B
FE2C
FB63
F920
0215
0178
0213
02BB
06D0
F7DE
057E
F99C
0183
0345
00C3
00B5
0354
079D
FA31
FBD9
F8BA
03F3
FABE
032D
FDBB
FDBA
F8AE
