00000042
FFFFFFB3
FFFFFFB2
000001E5
000001BB
000001D9
FFFFFE3B
FFFFFEE7
000000FE
0000004B
000000EC
00000115
0000031C
0000056F
00000487
0000008A
FFFFFFBE
FFFFFEE8
0000014D
FFFFFF2C
FFFFFEDF
FFFFFDE7
000001C1
FFFFFE02
000000C8
FFFFFF35
00000122
FFFFFF00
FFFFFFBA
FFFFFEE9
00000028
FFFFFE98
0000025A
00000029
0000044E
000007A9
000006B6
00000746
0000062B
00000DEF
0000109D
00000AFC
FFFFF654
FFFFF79F
00000BCA
00000FBD
00000AE9
00000A57
0000090B
0000044A
00000260
00000447
FFFFFFC0
00000060
0000014D
00000227
FFFFFEB4
FFFFFEBB
000000EE
00000B5C
000008A9
00000557
00000C1E
00000D17
0000139B
0000119D
0000083E
000004C5
0000064E
FFFFF9CC
00000978
000005CA
00000A8A
00000642
000002F8
FFFFF8E1
00000106
00000D46
00000E24
00000E21
FFFFFF90
FFFFFE8D
00000107
FFFFFEA5
000001AF
0000013D
FFFFF626
000006D6
FFFFFBDD
000003B7
00000A22
00000225
0000052D
0000062E
FFFFFF1B
000007D3
FFFFFE36
0000003E
00000629
0000035C
000007CE
FFFFFACF
FFFFFDC2
0000006C
FFFFF9FD
00000367
00000052
00000ACF
00000A08
FFFFFADC
0000066A
FFFFFFB0
FFFFFF68
000000A3
FFFFF35A
FFFFF3D7
FFFFFECC
00000050
000007BB
000001ED
FFFFF586
FFFFFD0F
FFFFF9E2
00000013
000002A6
FFFFFA99
FFFFFED5
FFFFFB43
FFFFFDA2
0000045D
000000B7
00000492
00000054
00000020
FFFFFB1A
00000033
FFFFFA6C
FFFFFA60
00000563
00000CEC
FFFFFE09
FFFFFFA9
FFFFF5B4
FFFFF43F
00000A08
000002B2
00000435
FFFFFE4F
FFFFFD96
0000018F
000001BC
FFFFFFED
000004EA
0000028F
00000273
FFFFFC3C
000003BC
0000057D
00000549
0000030C
000004ED
FFFFFCF4
FFFFFC88
000001C8
00000363
000007E7
00000E33
00000B17
00000122
FFFFFC48
00000B5A
00000772
00000ED7
00000653
000005BA
00000024
FFFFFF3B
00000155
FFFFFC1D
FFFFFF9E
000004E7
000002C5
0000043A
0000053E
0000042F
00000272
FFFFFFA6
0000005F
FFFFFEB9
00000017
00000231
FFFFFFCE
000003DB
0000073D
00000051
000007A0
00000139
00000372
00000B6C
000009D9
FFFFFEE4
FFFFFA9C
000003F5
FFFFFD68
00000468
000007F3
000001B4
0000087E
00000418
000004DD
FFFFFB5C
000001D4
FFFFFF8A
00000242
00000875
FFFFFE71
FFFFFA58
FFFFFF86
FFFFFC7A
FFFFFC14
00000489
00000A8B
FFFFF89F
000007BF
00001309
00000AB2
00000088
000007C1
0000051E
FFFFF993
00000255
00000017
00000824
00000826
00000371
000007BE
00000283
FFFFFC0C
FFFFFC46
FFFFFC42
FFFFFEB2
FFFFFE2E
000001D6
000002C1
FFFFFF13
000000F4
FFFFFAC5
FFFFFDDA
FFFFFB4A
FFFFFDA9
FFFFF838
FFFFFC5D
00000548
00000826
FFFFFFE3
000008C1
000006B4
00000423
FFFFFEB8
FFFFFEF5
0000004E
000000BA
00000248
00000165
0000000E
00000081
FFFFFA7A
FFFFF2A3
FFFFF6C6
FFFFF72A
FFFFFE36
00000510
00000371
0000021B
FFFFF780
FFFFFC56
00000106
FFFFF9CE
FFFFFB55
FFFFFE54
000004A1
000002F9
00000AAD
00000472
00000455
00000591
00000371
00000017
FFFFF82B
000000BE
FFFFFB9A
FFFFFFEB
FFFFFEDA
FFFFFFDA
FFFFFB96
FFFFF350
FFFFFBED
FFFFFDAF
0000000F
FFFFFC5D
FFFFFD68
FFFFFA3D
FFFFFA44
00000066
FFFFFCDB
FFFFF153
FFFFFE4B
FFFFFEB3
000004BC
00000FD6
00000765
00000C49
00000238
FFFFFD4C
00000656
0000002C
FFFFFD28
0000034A
00000188
000005A5
00000812
0000006A
FFFFFE7B
FFFFF931
FFFFFE8D
FFFFFE7F
FFFFFEAD
FFFFFCF8
FFFFFC9A
FFFFFF08
FFFFF8B4
FFFFFCD4
FFFFFF65
FFFFF4BD
0000006E
00000486
0000056B
0000037B
00000440
00001199
0000013B
FFFFFD2D
00000007
FFFFFF85
0000008D
0000070A
0000027E
0000093E
000002D6
0000028F
FFFFFB7C
FFFFFE2A
000003FD
FFFFFF2E
FFFFFB8D
FFFFF7C4
FFFFF5E8
FFFFFABC
FFFFFDC5
FFFFFF2E
0000087F
FFFFF731
00000049
000006C9
FFFFF87A
000003B2
000006E0
00000C90
0000053C
FFFFFC19
0000006E
FFFFF899
000004C2
000005F3
000007AF
FFFFFEAE
FFFFFC9E
0000016C
FFFFFDCC
00000361
0000003B
FFFFF169
FFFFF5BB
FFFFF707
FFFFF7A0
FFFFF83B
FFFFFD08
0000081C
00000106
FFFFFF65
FFFFFF49
FFFFFDC0
0000024F
FFFFFE27
0000058E
000003C0
000004EC
000004A8
000000F6
FFFFFE5F
00000146
FFFFFE37
0000016C
000001C8
00000009
00000393
000002A0
000002E8
FFFFFC46
FFFFEEBB
FFFFF82D
FFFFFE68
FFFFFE70
FFFFFE22
0000025D
000006B0
00000384
00000673
FFFFFB79
FFFFFF04
00000282
FFFFFC56
FFFFF3A5
0000009F
FFFFFC75
00000787
00000736
000006AB
FFFFFE8F
FFFFFB1E
FFFFFF0F
FFFFFB0D
FFFFFD88
000004F5
000006DF
000003EF
FFFFF885
FFFFF8F4
FFFFFF84
0000029D
000004B8
0000002A
000001C7
000003E4
0000097C
000002DE
FFFFF099
000001C5
000000C1
FFFFFDFE
FFFFF440
FFFFFF13
FFFFFBA4
0000058A
00000782
000007BC
00000BB0
0000006D
000001CD
000002C3
00000265
0000015F
00000672
000003D4
FFFFFBFB
0000004C
0000022F
0000082D
0000075B
FFFFFE82
00000373
0000021B
00000127
000009FE
00000400
000000AA
000001C1
FFFFFB39
0000053C
00000296
00000257
000004D6
00000053
000000E1
00000641
000006CA
00000676
000003B9
0000058A
00000517
00000164
FFFFFE2D
000001D1
000003A7
0000026C
000006E7
000008D7
000009EF
00000A3A
FFFFFFD4
FFFFF789
00001698
000001CF
0000022C
000004A7
FFFFFEC4
0000090F
FFFFF9A8
FFFFFC2B
FFFFFB3F
FFFFFF87
000004A5
00000A40
0000063D
000007EE
00000201
0000075B
00000502
000004A7
0000025C
00000571
0000051D
00000B7D
00000A90
00000739
000009D1
000004A2
FFFFFAC2
FFFFF46E
000008E5
000005FF
FFFFF951
FFFFFC80
0000105D
0000103C
FFFFF8F8
0000032A
FFFFFBF6
FFFFFFAD
00000127
00000153
000002D4
00000637
000001C0
000005C7
00000428
00000977
0000089A
FFFFFE5A
00000731
00000332
00000651
0000070B
000003AB
0000020E
FFFFF80D
FFFFF221
FFFFFC9F
00000386
000000C9
00000226
00000B1C
000011F8
000007CF
FFFFFA2A
FFFFFD2D
FFFFF5BD
00000148
FFFFFEA3
FFFFFF17
000004DD
000001AA
00000583
00000615
0000076F
00000338
FFFFFA06
FFFFFA4D
FFFFFBDF
00000146
00000064
FFFFFA9E
FFFFF8D5
FFFFF3CE
FFFFF643
00000541
00000134
FFFFF799
FFFFFAF7
000001A6
000009C2
00000705
FFFFF880
FFFFEDF3
FFFFFA49
FFFFFEC1
000004A4
00000477
00000446
0000070D
0000053F
0000036F
000002AF
0000005C
FFFFFBAC
0000038A
FFFFFC14
FFFFFFC8
FFFFFC02
FFFFF678
FFFFFB52
FFFFFDA9
FFFFF6A8
FFFFFF64
00000F87
00000033
FFFFFC7A
FFFFFF98
0000089F
00000D2F
0000006A
FFFFFB18
FFFFFF35
000001DD
FFFFFE4E
00000079
000000A2
00000361
000003CE
000005DC
00000332
0000065B
00000096
FFFFFEDE
FFFFF89E
FFFFF635
FFFFF424
FFFFF2A2
FFFFF674
FFFFEFCD
FFFFF418
FFFFF775
FFFFF8A7
000000D3
0000009E
0000019E
FFFFFA4E
00000E3C
000005A9
FFFFFDDD
000000DD
FFFFFE98
FFFFFB2A
FFFFFBEF
FFFFFE54
FFFFFCBA
FFFFFEAF
FFFFFF18
FFFFFF9D
00000028
FFFFFC92
FFFFF6BD
FFFFF35E
FFFFF237
FFFFF2FC
FFFFEF03
FFFFF2E7
FFFFF2FA
FFFFF790
FFFFF846
FFFFF112
000000CA
FFFFFECD
0000002A
000003FF
000001CA
00000776
00000B51
000000DA
FFFFFD2B
0000021A
000000A6
FFFFFF86
FFFFFD80
0000013D
0000001A
FFFFFFA8
0000074F
000002EF
FFFFF634
FFFFF8B8
FFFFF6E6
FFFFFFB6
FFFFEC44
FFFFF126
FFFFEECB
00000170
00000249
00000576
FFFFFE2B
FFFFFDD5
FFFFFF9D
FFFFFDCB
000002BB
00000173
FFFFF468
FFFFF7F2
FFFFF4B3
FFFFF4CE
FFFFF796
00000679
00000E9A
000002D9
FFFFFFC0
00000111
FFFFFFC6
00000AF7
00000745
FFFFFD4B
000001AA
FFFFFF84
FFFFFE63
FFFFF847
FFFFF1E4
FFFFFF15
00000381
000003F0
0000019C
FFFFFDD1
0000023C
FFFFFF7F
00000279
FFFFFFB2
FFFFF9F5
FFFFF35D
FFFFF79B
00000057
000006D8
0000038B
000000EF
00000C15
000012B6
0000019A
FFFFF747
000007AF
00000758
00000A5D
00000531
FFFFFE70
FFFFFF87
00000016
FFFFFFED
00000347
00000151
000001E3
0000001A
FFFFFF36
0000023B
00000117
00000088
000000CA
0000066F
00000126
FFFFFFBA
FFFFFF73
FFFFFF38
00000A1A
00000122
000001B4
00000B0C
00000AE7
FFFFFDFF
000009E6
000012D8
00001085
000003E8
000001B6
00000958
000004C6
FFFFFA04
FFFFFDD7
0000019C
00000248
FFFFFFAD
FFFFFEE6
00000201
00000245
FFFFFE96
FFFFFF0C
FFFFFEAC
FFFFFEE3
FFFFFF35
FFFFFF5F
000001B3
FFFFFFA1
FFFFFE19
0000042E
000004B0
00000C3D
000005B5
FFFFFE01
0000003D
FFFFFE59
FFFFFF07
FFFFFE45
FFFFFF28
00000094
000000AF
FFFFFE25
000000AE
FFFFFE74
FFFFFDDA
00000095
FFFFFF03
00000194
FFFFFE40
000001EE
FFFFFF02
00000480
0000014D
00000432
000005D3
0000027E
0000010F
0000023E
0000026F
FFFFF64E
FFFFF6BE
00000247
0000038E
000007BB
00000358
000003E2
000001C0
000001BE
00000451
00000035
FFFFFE92
FFFFFDFB
000000B7
00000053
0000020B
FFFFFEDF
000001B5
FFFFFDFC
0000013A
00000C84
00000BB1
0000131E
000010BE
00000F87
00000F7E
00000B6D
FFFFFE0D
000002BD
00000542
000006C7
00000897
00000CA4
000000E4
000003ED
000001F4
0000017C
0000071B
0000082E
000004CE
FFFFFF62
FFFFFE84
0000022C
000001D6
FFFFF52F
FFFFFF49
0000054E
000007EE
00000FF6
00001000
00000EC5
00000477
0000043F
FFFFFE2C
000004A9
000001A2
000002EE
00000589
000003F1
00000295
00000900
000007F5
00000102
00000000
0000027A
000002E0
000006F9
FFFFFE88
FFFFF97A
0000006F
0000022C
FFFFFF0B
FFFFF7C5
FFFFF9C8
FFFFFB95
00000B50
000000E2
000000BE
000005AB
FFFFFC8C
FFFFFD7F
FFFFFDE3
0000011F
00000242
00000858
000007F7
00000A43
000004C7
000005E6
00000EF0
0000074F
0000039C
FFFFFE46
FFFFFF01
000000BE
0000043C
00000100
FFFFF7CC
FFFFFE98
FFFFFED5
000002BF
00000913
00000C0C
00000605
000005CE
FFFFFFF3
FFFFF4AA
FFFFF1DB
FFFFF776
FFFFF67B
000003C5
00000120
000005C6
00000150
00000509
00000538
0000027D
000005DE
00000497
FFFFFF9B
FFFFFCAE
FFFFFCB6
FFFFF49E
FFFFFB5E
000007E9
FFFFFBD9
FFFFFF90
0000044E
FFFFFEBD
00000B56
0000085D
00000654
000009A5
FFFFFFD3
FFFFFA57
FFFFF9E2
FFFFF7D8
FFFFFA86
00000319
FFFFFD9D
FFFFFFEA
000002B8
00000071
FFFFFD3E
00000157
FFFFFE84
FFFFFC13
FFFFF8BA
FFFFF893
FFFFFA67
FFFFF950
FFFFFC88
000008A5
FFFFFC80
00000139
000007E8
FFFFFAE3
0000029D
00000CE5
0000099A
FFFFFECB
FFFFFB62
FFFFFF0A
FFFFFB87
FFFFFACE
000000B3
0000024C
FFFFFA06
FFFFFE20
FFFFFBB5
FFFFFCBF
FFFFFE42
FFFFFBA3
FFFFFB92
FFFFFE26
FFFFFD35
FFFFF8E6
FFFFF670
FFFFF65D
00000360
00000A17
FFFFFBA5
00000374
00000082
FFFFF91D
0000025A
0000057C
FFFFFE15
FFFFFAF5
FFFFFDB4
FFFFFBE4
00000028
FFFFFE64
00000155
FFFFFD6E
FFFFF7ED
FFFFF648
FFFFF95D
FFFFFA54
FFFFFA82
FFFFFBF4
00000388
0000067A
000001D9
000000C4
FFFFFCE1
FFFFF4DA
0000095B
00000C99
00000193
FFFFFF31
FFFFFE95
00000561
000000AD
FFFFFDB2
FFFFFBD6
FFFFFF82
0000019F
0000002C
FFFFFB98
FFFFFA88
FFFFFC0B
FFFFFD92
FFFFFCE0
FFFFFA08
FFFFFB00
FFFFFCF7
FFFFFCAD
000000EF
00000951
000007E2
0000015B
00000410
FFFFF792
FFFFFB1F
00000D7C
00000BE8
FFFFF675
FFFFFF28
0000004F
00000049
00000AD4
FFFFFD30
0000027B
00000204
FFFFFFA5
FFFFFEBE
FFFFFAA7
FFFFFA7E
FFFFFC26
FFFFFFB0
000000AA
FFFFFCE0
FFFFFD64
FFFFFECA
000000A0
0000050A
000007AD
0000071D
000003A7
FFFFFFD5
000003C9
00000678
00000C82
00000DFF
FFFFF31E
FFFFFB4E
FFFFFCE7
FFFFF48C
0000048A
00000638
FFFFFB72
FFFFFDDD
FFFFFA77
FFFFFC2C
FFFFF9D4
FFFFFB35
000000D2
FFFFFB9F
FFFFFD85
FFFFFB14
00000489
0000061F
FFFFFE5F
FFFFFEE9
00000226
FFFFFE2F
FFFFFA0F
FFFFFB5C
0000036F
000006BC
000014B5
000012C1
FFFFF577
FFFFFA61
FFFFFEAB
FFFFF9AB
00000110
FFFFFF31
FFFFF764
FFFFFA7D
FFFFFA88
FFFFF305
FFFFF597
FFFFFF82
FFFFFBD5
00000119
0000065D
00000CA8
000007EC
00000417
FFFFFE01
FFFFFEAC
FFFFFA1A
FFFFF6E2
FFFFF176
FFFFF472
FFFFF3F7
FFFFFAB1
00000216
0000073A
FFFFF7C8
00000863
00000190
FFFFF63C
00000324
FFFFF3DC
FFFFFC63
FFFFFD86
FFFFF885
FFFFFACF
FFFFF9A8
FFFFFB23
0000032E
0000094A
00000E43
00000816
00000A3A
00000506
FFFFFBE6
FFFFFD7B
FFFFFCB5
FFFFFD03
FFFFF66A
FFFFF1FE
FFFFFB06
FFFFFDC4
FFFFFED9
00001185
00000A36
00000104
0000038C
FFFFFA76
0000025F
FFFFFF90
000002EC
000000DF
FFFFF8C0
FFFFFFEF
000004E0
0000062B
0000074F
00000726
000006ED
00000ACB
000008E8
000005AD
FFFFFF38
FFFFFCAF
FFFFFC41
00000084
FFFFFE41
FFFFF7FC
FFFFFDB1
FFFFFDEC
0000039F
000013B6
000000F7
00000194
00000557
00000CF0
00000267
000002CB
0000081B
000004B2
000003A7
000003F5
0000064C
000006E1
000005B3
00000007
00000641
00000B3C
0000020F
00000695
FFFFFF78
000002D5
00000472
00000195
000006FB
FFFFFB0C
FFFFFD75
00000011
00000B3F
00001314
00000D0B
FFFFFFB6
000004D8
000006AD
00000A1B
000000FC
000000B3
000009C7
0000096D
000001C6
000006B9
00000521
000003B1
0000042E
000007CA
000003C4
0000034F
FFFFFF92
00000302
0000058E
00000809
0000029E
00000BC0
00000917
000006E3
00000C51
000011EB
00000F7D
00000884
00000173
00000557
00000655
0000089D
00000491
00000471
00000B5C
00000742
00000105
00000361
FFFFFE0E
FFFFFE50
FFFFF94D
FFFFFBF8
FFFFF723
FFFFFA86
00000361
00000837
0000034B
00000425
000001DF
00000CA1
00000970
000007FE
00000087
00000451
00000264
FFFFFC75
FFFFFC64
00000244
000006CA
00001098
00000398
0000093F
00000779
00000B5D
000003FE
00000404
00000679
FFFFFFD6
FFFFFCF3
FFFFF50A
FFFFF1F8
FFFFFB16
00000682
000007CC
0000026C
000001CA
000003A6
0000078C
000005A5
00000890
00000BA3
0000084E
FFFFF1B9
000007B7
00000079
FFFFF630
000004A5
000007E1
00000ADD
000008F3
00000075
000004DD
FFFFFCA3
0000042D
0000047C
000000A6
FFFFF2FF
FFFFF7B0
FFFFF752
FFFFFED1
00000701
000008C2
000003EC
FFFFF9D8
0000042D
00000536
000000FF
00000B05
00000848
00000F7A
000009A7
00000344
FFFFFE6E
FFFFF84D
FFFFFE7D
00000523
00000BE3
000002B9
00000463
00000268
FFFFFE8C
FFFFF9A0
FFFFF61B
FFFFF753
FFFFF247
FFFFF6F8
FFFFFA85
FFFFFF47
00000553
000001D9
FFFFFFEA
FFFFFB54
000002B4
000003DD
00000352
000006E2
FFFFFDCE
00000654
000001EF
0000035C
000002FD
00000605
00000652
000004C1
0000038E
FFFFFB7E
000000D0
0000052A
FFFFFADB
FFFFF2A6
FFFFF74A
FFFFFB29
FFFFFDA7
FFFFFEE9
000000F7
0000007D
FFFFFCCB
FFFFFF28
FFFFFDD9
FFFFFFC0
00000557
FFFFFC52
FFFFFED1
FFFFFFDE
0000006E
00000752
000007D0
00000085
0000011D
00000353
0000026D
00000557
FFFFFD2C
FFFFFA3B
FFFFFCD0
00000087
0000000B
FFFFFCA6
FFFFF83C
FFFFFDEA
FFFFFC67
000003A4
FFFFFC6E
FFFFFBB7
FFFFFA85
FFFFFCE9
FFFFFAB1
00000653
000006CA
00000257
FFFFFE52
0000022A
000000EF
000002D9
000005E4
FFFFFCE1
00000087
000001A6
00000C37
0000148D
00000AE8
FFFFFD99
FFFFF71E
FFFFFD36
00000088
00000096
FFFFFDF6
000000A6
FFFFFF5B
FFFFFFA9
FFFFFD60
FFFFFC65
FFFFF8F8
FFFFFDC5
00000332
00000010
0000031A
00000045
00000065
FFFFFE6D
FFFFF776
000001DD
000005C0
000001A6
FFFFFDD9
00000148
0000020F
00000C4A
00000137
FFFFF5A7
000000E6
FFFFFECE
FFFFFC9C
FFFFFE1D
FFFFFCCC
000001BE
00000222
FFFFFB69
FFFFFF3D
FFFFF8DF
FFFFFF87
FFFFFF7A
FFFFFF8A
FFFFFBA0
FFFFFBF2
00000294
000001E1
FFFFFDAF
FFFFFF13
000003C8
FFFFFECD
FFFFFF48
00000078
0000002D
00000258
FFFFFA73
FFFFF9FB
FFFFF8EC
00000161
FFFFFD66
000002F4
00000A75
0000099B
00000407
00000915
00000874
000002AC
00000162
FFFFFD64
FFFFF9FF
FFFFF941
FFFFF3ED
FFFFF590
FFFFF8B0
FFFFFCAF
00000ABD
0000097C
FFFFFE4F
00000217
FFFFFF13
000001BE
FFFFFDD2
FFFFFE9B
00000093
FFFFF8D7
FFFFF270
FFFFF18B
FFFFF669
FFFFF64A
FFFFF7A0
FFFFF3CE
FFFFF7FB
FFFFFDF3
FFFFFE4C
FFFFF319
FFFFFAEC
FFFFFB9B
000001B2
FFFFFE6C
FFFFF8B1
FFFFF8F6
FFFFF0B4
FFFFF446
FFFFF845
FFFFF8EF
FFFFFDDA
FFFFFE08
0000017E
000001BC
FFFFFF20
000000AE
FFFFFFFE
FFFFFE9E
FFFFFF25
FFFFFA96
FFFFFC9F
FFFFFC7B
FFFFFCB3
FFFFF944
0000011E
FFFFFFEE
FFFFFEFE
FFFFEBE3
FFFFF930
FFFFF7B8
FFFFEC59
FFFFEED1
FFFFF40B
FFFFFEA5
FFFFFEBA
FFFFF783
FFFFFABD
0000016C
00000135
FFFFFECC
00000030
000001C3
0000004E
000000BA
00000111
000000A6
000001AD
00000210
000001EA
0000017B
FFFFFE1F
FFFFFF5C
FFFFFE2E
0000023D
000000DF
00000093
000000D5
00000086
FFFFFE13
0000008A
FFFFFF30
0000008E
FFFFFF06
0000011D
FFFFFE1F
0000011C
00000218
FFFFFE1D
0000002D
0000010F
00000006
FFFFFFDB
FFFFFFB3
00000272
FFFFFF59
000006B2
00000643
000005A9
000003E6
00000474
0000064E
000007A1
00000346
FFFFFBD0
00000F47
00000C02
00000E1D
00000E6D
00000AFB
00000821
000002AD
00000539
00000369
FFFFFEA1
0000001A
FFFFFEBA
FFFFFE50
000000B5
FFFFFFF3
0000018A
0000018B
0000054C
000002F9
000008B9
00000427
00000638
000009D8
000007D9
000004DD
FFFFFF02
000001DC
00000C45
0000120D
00001635
00000D6E
00000841
000006E1
00000912
00000B76
00000C9F
00000C88
FFFFFC66
FFFFFCA5
FFFFFEE4
FFFFFF12
00000176
0000003F
FFFFF4B6
0000003A
000006F8
FFFFFD1A
0000055F
000006EF
0000061E
000005BA
00000357
000008B1
0000050D
000008BD
00000435
000002D7
00000754
00000A4A
00000A4A
0000036A
FFFFFED2
00000892
0000068D
00001256
00000B97
FFFFF845
000003D1
FFFFFEEA
00000116
FFFFFE53
FFFFF00B
FFFFF9A0
FFFFFC46
FFFFFD6B
FFFFFC6A
FFFFFE49
FFFFF9BF
FFFFFB9F
0000015A
000002AF
000004B8
FFFFFA50
FFFFFE7F
FFFFFDD5
000004F0
000006D3
FFFFFE5A
00000828
0000024C
00000693
FFFFFEB3
00000A88
00000212
0000010E
00000F79
00000D12
FFFFFE05
FFFFFEAB
FFFFFAD3
FFFFFC88
FFFFFAD1
FFFFFB7B
FFFFFABC
FFFFFCE1
FFFFF7AB
00000020
000000B5
FFFFFEBD
FFFFFD01
FFFFF98A
FFFFFBD3
FFFFFB9E
000001C2
0000033C
0000004D
0000007E
FFFFFFA9
0000070D
0000075A
000007A6
000003E3
000004DE
000013A0
00000E04
FFFFFFED
000002B1
0000038F
00000397
FFFFFA90
FFFFF5E1
FFFFF9FD
FFFFFFD4
FFFFFAF2
FFFFF9C7
00000033
FFFFFFD4
FFFFFC0C
FFFFFFF2
000000BA
0000019D
FFFFFF44
FFFFFFDB
FFFFFC31
FFFFFE45
FFFFFDA2
FFFFF8A3
00000033
00000111
0000004C
000003E2
00000844
00000E08
000001B2
0000005D
FFFFFB3F
FFFFFE7B
FFFFF2FA
FFFFF612
FFFFF644
FFFFFAAB
FFFFF447
FFFFF7C2
0000001C
00000167
FFFFFE47
FFFFFFF6
FFFFFEF4
00000020
0000040F
FFFFFE0D
FFFFFE5B
FFFFFA00
FFFFF682
FFFFF7B6
FFFFFBBD
FFFFFC10
FFFFFDAF
00000254
0000010A
00000BEA
00000367
FFFFFE9C
FFFFF2B8
FFFFFE5D
FFFFEBC0
FFFFF296
FFFFF4C2
FFFFFAAF
FFFFF653
FFFFFE59
0000015B
00000223
000000C8
0000002B
FFFFF9C7
FFFFF7D5
FFFFF95F
FFFFFA90
FFFFF7F5
FFFFF23D
FFFFF327
FFFFF6D6
FFFFFC6B
FFFFFC8E
FFFFFAB4
FFFFFB87
FFFFFB3A
00000354
00000092
FFFFFC1A
FFFFF2A0
FFFFF529
FFFFF142
FFFFECE6
FFFFF7D8
FFFFFE67
FFFFFF31
00000233
00000527
0000024D
FFFFFFA2
000003FB
FFFFFD70
FFFFF48A
FFFFF44D
FFFFFB06
FFFFF38F
FFFFF445
FFFFEA39
FFFFF056
FFFFFD06
000003BE
000005D1
000001A3
FFFFFBD4
FFFFF802
FFFFFF72
000000ED
FFFFFBCF
00000250
FFFFF4C9
FFFFF0F4
FFFFF5E7
FFFFFD54
000004A4
000006FE
00000612
000000C0
000004CC
00000B46
00000395
FFFFFB3B
FFFFF90B
FFFFFD1E
FFFFFA52
FFFFF32A
FFFFF7BF
FFFFF37A
FFFFF7EF
00000312
0000027A
FFFFF8EF
FFFFFFFD
FFFFF73C
00000168
FFFFFD1F
FFFFFED0
000001C0
FFFFF67D
FFFFF760
FFFFFA6B
00000379
000003BC
00000140
0000035E
00000573
000008FA
00000EAB
00000554
000001CB
FFFFFF78
FFFFFE53
FFFFFEB6
FFFFF6EC
FFFFF5A8
FFFFF22B
FFFFFAA6
000003A3
000010AA
00000236
0000090D
FFFFF5D8
FFFFFEE4
FFFFFCF0
FFFFFCDE
000007FA
FFFFF61D
FFFFFB62
00000505
00000768
000005DF
000005B2
000006EE
000006F6
0000039C
000006ED
00000366
FFFFFD9A
FFFFF965
FFFFFEAE
FFFFFD36
FFFFF646
FFFFFCAF
FFFFF8D5
000000BD
00000CAF
00001057
0000066A
000005BE
FFFFF20E
00000513
FFFFFF6F
FFFFFD85
00000BC1
FFFFFA02
FFFFFEF5
000003FC
000000E0
000005A0
00000579
0000044F
0000057D
FFFFFE31
FFFFFD1B
000000AD
FFFFFCEE
FFFFF94B
FFFFF5DF
FFFFF86C
FFFFFFDE
FFFFFD74
FFFFFC1C
000008A7
00000AA2
000009E4
00000289
00000492
FFFFFD7A
000002AB
0000007E
00000097
FFFFFF51
FFFFFDAA
FFFFFFB6
000001BA
FFFFFD9C
0000034B
0000014B
0000009B
00000109
FFFFFA30
00000199
00000211
0000026D
FFFFFD98
FFFFFAEA
000002DC
FFFFFE16
FFFFFFAA
000009CD
00000D30
000002FA
FFFFFE4C
00000251
FFFFFBC4
FFFFFD1E
00000399
00000165
000001E6
FFFFF803
0000069F
00000157
FFFFFDE4
FFFFFF41
00000158
00000184
00000024
FFFFFFF8
FFFFFD9B
000002AB
00000278
FFFFFC30
FFFFFE3E
FFFFFFC0
00000B2C
0000014F
FFFFFE4B
0000092B
000004C2
FFFFFD28
FFFFFE53
FFFFFFF7
FFFFEEC1
FFFFFD84
FFFFFBBB
00000268
0000044B
FFFFF87D
0000016B
00000058
FFFFEEA4
FFFFF78B
FFFFFDF7
000000C7
000003DD
000003B6
0000070E
000003AC
00000283
FFFFFB46
FFFFFC4D
FFFFFAC0
00000383
0000067A
FFFFFE5E
FFFFFE57
000004F2
FFFFFE44
FFFFFD5E
000002F5
FFFFFF09
FFFFFB6B
0000019C
0000034D
0000008F
FFFFFC05
00000318
00000623
FFFFF239
FFFFF5A5
FFFFF859
FFFFF96E
FFFFFF3B
00000907
00000978
0000036A
FFFFFAD9
FFFFFCB1
FFFFFB57
FFFFFE88
00000320
0000067F
00000394
0000070F
000002A1
FFFFFD54
FFFFF40F
FFFFF5B9
FFFFFD99
FFFFF4EF
FFFFFCDC
FFFFFE04
FFFFFD5F
000001FD
000003FC
000003C0
FFFFFBE5
0000001D
FFFFFE43
FFFFFA25
000000BE
FFFFFC9A
000002A0
FFFFFA4A
FFFFF8FF
000000EC
FFFFFD0D
00000045
00000066
FFFFFE33
00000133
00000424
FFFFFB46
FFFFF760
FFFFF671
FFFFF610
FFFFF331
FFFFF9AE
00000210
0000015A
00000646
00000C34
000002D7
FFFFFD15
FFFFFC2F
FFFFFE44
00000258
FFFFFBD7
000001DC
0000013A
0000025B
00000029
0000008C
00000370
000000F3
000006D7
000002FE
000001CB
000001A8
00000122
0000029B
00000213
000005A2
000003FC
FFFFFB2F
FFFFFA36
FFFFFE22
FFFFFDD2
00000391
00000A42
000005D4
FFFFFA36
FFFFF46F
FFFFFA64
0000001F
000005E0
00000C0A
000006A8
000006A1
00000977
000003E1
000009FA
000002D0
0000037B
000002BE
0000022F
FFFFFD89
0000061F
00000B71
0000040E
000002D3
00000459
00000043
000003F9
00000338
FFFFFC1A
FFFFF9D3
FFFFFD78
00000528
FFFFF7E0
FFFFF8BB
FFFFFA6E
FFFFFF64
000003DC
00000810
00000BD5
00000664
00000709
000009D1
00000A70
0000027B
000003B6
0000034B
FFFFFCA8
FFFFFB27
00000269
0000044A
FFFFFEDE
FFFFFEEA
00000217
FFFFFEA3
FFFFFE16
000003C2
FFFFFDAD
FFFFFDF9
00000132
0000028C
FFFFF6D5
FFFFF720
FFFFF85E
FFFFF972
FFFFF9D7
FFFFFD94
00000246
00000730
000003B8
00000511
00000B31
0000007B
000000BC
FFFFFFE8
FFFFF651
FFFFF34A
FFFFF4C7
FFFFFB3E
FFFFF7E8
FFFFFABF
FFFFFF42
FFFFFF8F
000000D8
FFFFFEE5
FFFFFF98
00000229
000006AF
000006B4
FFFFFC75
FFFFF733
FFFFF6B0
FFFFF544
FFFFF519
FFFFF69F
FFFFFA99
FFFFFFE3
000000D8
000004EF
000006D2
000000ED
FFFFF87C
FFFFF60E
FFFFF10A
FFFFF7F0
FFFFF86C
FFFFF812
FFFFFB11
FFFFFDBA
00000286
00000325
0000011A
00000082
FFFFFF4E
0000027A
000000F0
00000124
0000038A
00000473
0000008F
FFFFF5F4
FFFFF9D2
FFFFFA44
FFFFF788
FFFFFFB9
FFFFFD0B
00000484
00000294
00000386
FFFFF1EF
FFFFF9E8
FFFFF48B
FFFFFC11
FFFFF334
FFFFF468
FFFFF775
FFFFFDB1
FFFFFB38
FFFFFE00
00000180
00000199
000000D3
00000216
000003CE
FFFFFEB3
FFFFFD32
0000039E
0000039E
FFFFFBE7
FFFFFE4F
00000282
FFFFFD7C
000003A7
FFFFFCBA
000000EE
00000484
00000665
00000B1D
00000A15
00000AAC
00000A9E
00000275
000004FE
FFFFFF3F
00000036
FFFFFE34
000001CD
000000AA
0000010B
0000016B
FFFFFEA1
FFFFFF59
FFFFFB9C
FFFFF742
FFFFF85D
FFFFF823
FFFFEF97
FFFFF2EC
FFFFF4E6
FFFFF486
FFFFF4CD
FFFFF950
FFFFF6EF
0000004D
FFFFFB69
00000069
FFFFFDE6
FFFFF49A
00000306
00000091
000005B8
00000391
FFFFFE77
FFFFFE31
0000022A
000000D4
FFFFFFB2
0000010E
0000004E
FFFFFF00
FFFFFF04
0000013E
FFFFFD98
0000006A
FFFFFECE
FFFFF491
FFFFF9C0
FFFFFE0A
FFFFFBF6
FFFFFDF7
FFFFF9B4
00000429
000007A1
FFFFFD71
FFFFFAA7
FFFFF819
FFFFFB83
FFFFF19C
FFFFF545
FFFFFE94
000001DA
00000106
00000066
0000021A
000001B2
FFFFFF0C
00000154
000001A2
FFFFFE48
00000194
00000027
00000101
00000018
FFFFFF0E
00000208
FFFFFEE4
FFFFFDD2
FFFFF996
FFFFF601
FFFFFAA4
000001BE
FFFFFEE2
00000191
FFFFFE53
000000F0
FFFFFE14
FFFFFFCB
FFFFFF25
0000003D
FFFFFE9F
00000055
FFFFFF4D
0000001B
FFFFFFEF
00000020
000000F3
FFFFFEA6
FFFFFF02
FFFFFD81
FFFFFF1C
FFFFFB93
000001D0
000001E8
FFFFFB9F
FFFFFE12
0000016A
00000661
FFFFF742
FFFFFB39
FFFFFDD9
FFFFFE96
FFFFF626
FFFFFA77
00000383
FFFFFFE3
00000106
FFFFFEFE
FFFFFE7A
0000009D
FFFFFFA9
00000035
000001A3
000000AF
FFFFF46D
FFFFF7D0
FFFFFED5
FFFFFAEF
FFFFF811
FFFFF65A
FFFFFA77
000000FD
0000015C
0000032C
FFFFFA54
FFFFFD61
FFFFFB4C
FFFFEFDE
FFFFF076
FFFFEEB2
FFFFF880
FFFFF97C
FFFFFA2E
FFFFFFBA
00000234
FFFFFDE2
FFFFFB1F
000001BE
000001A5
FFFFFEFE
FFFFFFD9
FFFFFF4D
FFFFF5BC
FFFFFF16
0000012D
FFFFFF9C
FFFFFD3C
FFFFF9A0
FFFFF5EE
FFFFF433
0000006A
00000727
000002F7
00000544
000008A2
FFFFF087
FFFFED7B
FFFFF850
FFFFFEDC
FFFFF894
FFFFFC94
FFFFFE6B
FFFFF1AE
FFFFF3FA
00000454
FFFFFE16
FFFFFF53
000000C6
FFFFFF16
FFFFFDBA
FFFFFE48
00000332
FFFFF46B
FFFFF2CD
FFFFF242
FFFFECD7
FFFFF12B
FFFFF2B9
FFFFFF4E
00000428
0000048C
00000632
FFFFFCBE
FFFFF9AA
FFFFF7A3
FFFFFAB4
FFFFFBCA
FFFFFD86
00000444
00000472
0000054E
0000017B
00000963
000007E8
00000A97
FFFFFDFE
00000103
FFFFFD4F
FFFFFCD7
FFFFFD4B
FFFFF61A
FFFFEEAC
FFFFE8F8
FFFFF309
FFFFF2E0
FFFFFE46
000008EC
FFFFFE68
0000046D
00000358
FFFFF809
FFFFF672
FFFFF946
FFFFF8FD
FFFFFADC
000004CA
00000630
000003CC
FFFFF83C
FFFFFB8A
FFFFFF88
000003C5
0000088B
00000077
FFFFFBC8
0000095A
FFFFFC82
FFFFFA2C
FFFFFD5C
FFFFEBEF
FFFFE6C9
FFFFEF66
FFFFF41A
000000AC
0000058F
000007DE
000002DA
FFFFFDA1
FFFFF4E6
FFFFF542
FFFFF604
FFFFFB40
00000487
00000377
000005E5
00000835
000000F1
00000494
000008C9
000002F4
00000090
FFFFFF70
FFFFF0A7
00000938
FFFFF8EA
FFFFF1B0
FFFFF8CF
FFFFEEEA
FFFFECCF
FFFFF535
00000051
00000882
00000C21
00000CE1
00000777
00000268
FFFFF668
FFFFF912
FFFFFFD5
00000539
00000818
00000724
0000050F
000002F2
00000324
000003F4
000009D4
00000D6E
0000081D
00000889
00000762
00000489
FFFFF873
FFFFED07
FFFFEFC5
FFFFF952
FFFFF6B2
FFFFF4E0
FFFFFEC9
000004B9
00000EA1
00000C7C
00000423
FFFFFFA7
FFFFFEEE
FFFFFFD4
0000050D
00000987
00000739
000005A8
00000296
FFFFFF0D
000007C1
00000E30
000010BA
0000069B
FFFFFF6E
00000060
FFFFFDCE
FFFFFD38
FFFFF218
FFFFEE76
FFFFF136
FFFFF9B0
FFFFF748
FFFFF3D4
FFFFF916
00000029
000008DB
00000681
00000469
0000010E
FFFFFA8D
FFFFFC25
0000076F
0000111C
00000BB0
00000448
000003A8
FFFFFF06
000000D2
0000120D
000011D8
FFFFFE92
000009CB
FFFFFFC7
000000C1
FFFFFDC0
FFFFF466
FFFFF40A
FFFFFF7E
FFFFF74F
FFFFF69E
FFFFF9D7
FFFFFF5E
00000846
00000A22
00000C8A
00000384
FFFFF7D8
FFFFF476
FFFFF85D
00000485
00000928
00000777
FFFFFFEF
000005BA
FFFFFB45
FFFFF74B
0000058D
00000CF7
00000B1D
000005C8
FFFFFCAE
00000483
FFFFF0CE
FFFFF177
FFFFF8D3
000003DF
00000195
FFFFFAF6
FFFFFB27
FFFFF814
00000684
000009E9
00000A16
FFFFFABF
FFFFEE2F
FFFFE97A
FFFFF176
FFFFFA01
FFFFFC11
FFFFFC5B
FFFFF175
FFFFF4C6
FFFFED9C
FFFFEB4D
FFFFF477
FFFFFE3C
000004C5
00000034
FFFFFE3D
FFFFFFA9
FFFFEF91
FFFFFE49
FFFFF872
00000972
000000F3
FFFFFF74
0000022E
FFFFFE4B
000002F7
000009F8
00000B00
FFFFFFAB
FFFFEE02
FFFFE9EF
FFFFEB82
FFFFF71D
FFFFF833
FFFFF467
FFFFF611
FFFFEB37
FFFFEAEF
FFFFEBC1
FFFFF3A0
FFFFEB36
00000095
FFFFFF67
00000010
FFFFFFA0
000001F6
FFFFFBF7
000003AB
000007BA
000000A2
00000267
FFFFFF24
00000281
00000174
000001A6
00000536
FFFFF632
FFFFF24F
FFFFEE18
FFFFF5D2
0000016C
FFFFFA01
FFFFF99C
FFFFF831
FFFFEB09
FFFFF369
FFFFFD9D
FFFFFF08
FFFFF535
FFFFFE63
00000098
000001F0
FFFFFDBA
000002FE
FFFFF8D1
00000266
00000BAF
FFFFFF7D
0000036D
FFFFFDA8
000003B4
000005DC
00000185
FFFFFDA9
FFFFF5C5
FFFFF0EB
FFFFF4FC
FFFFFFDE
000003C1
FFFFFC72
FFFFFB0B
FFFFF890
FFFFF16F
FFFFF6D8
00000447
00000908
FFFFFC9A
FFFFFC8C
FFFFFDA6
0000037A
FFFFFC79
00000680
00000180
00000519
FFFFFDEC
FFFFF9FD
000001B5
FFFFFCD7
00000630
0000051F
000002F4
000003CD
FFFFFD1C
FFFFF2AC
FFFFF92E
0000030B
00000400
FFFFFDC6
FFFFF6A5
FFFFF412
000000D8
FFFFFA2C
0000092D
FFFFFE64
FFFFFA7E
FFFFF7A8
FFFFFCAF
00000132
FFFFFB57
FFFFF7A8
FFFFFF6C
0000021A
FFFFFB77
FFFFFCF4
00000005
0000047D
FFFFFC60
FFFFFE71
00000244
FFFFFA32
FFFFF68C
FFFFF810
FFFFFD3D
000002B0
00000821
0000041E
FFFFFFB0
FFFFFAD7
00000688
FFFFFED8
00000733
0000004C
FFFFFFA1
FFFFF181
FFFFFE28
FFFFFE16
FFFFFE42
FFFFFC5D
FFFFF82B
FFFFFD96
000003F6
00000D18
00000706
0000058D
0000006B
00000094
FFFFFC8C
FFFFFC55
FFFFFD26
FFFFFC16
0000046A
000004E7
00000829
0000088F
000006AA
00000163
00000D66
00000BDB
00000867
FFFFFE33
FFFFFD01
FFFFFC83
00000333
FFFFFE32
FFFFF765
FFFFFCDB
FFFFFAED
00000425
0000049B
00000930
0000086B
0000042E
FFFFFC66
FFFFF614
FFFFFE0F
000002F5
000002B9
00000516
00000081
00000AA4
00000239
00000274
0000081C
00000A7D
00000875
00000202
00000199
FFFFFE97
FFFFFEC1
FFFFFE1E
0000010A
FFFFFEB1
00000642
00000007
FFFFFE87
0000071A
00000683
00000A27
0000036F
FFFFFEF6
FFFFF732
FFFFFCD6
FFFFFF95
FFFFFE81
0000012B
000004DF
FFFFFFCE
FFFFFEA7
FFFFFDAF
FFFFFFDD
00000251
000002F9
000003EC
0000013B
FFFFFE55
00000151
00000332
0000054C
000007B2
00000069
00000272
00000290
FFFFF9BB
00000405
000009B0
00000691
000003A5
0000062E
0000000A
FFFFFF45
FFFFFF73
000003A6
FFFFFF64
FFFFFA0B
FFFFF8A3
FFFFFC35
FFFFFC18
00000111
000005E8
000003F5
FFFFFEBE
FFFFFC3A
FFFFF876
FFFFF8B9
FFFFFCF3
000003E2
00000197
000001C1
FFFFF8C1
0000084C
FFFFFB13
000004A5
000004E5
FFFFFD36
FFFFF91E
00000737
0000078F
00000410
000001B2
FFFFFBF9
FFFFFF12
FFFFFBA8
FFFFFF0B
FFFFFA15
FFFFFDF1
000001AC
000001A9
0000045D
FFFFFFDC
FFFFFFF7
FFFFFC89
FFFFFAFD
000003E1
0000117B
000000E8
FFFFFFFC
FFFFFA26
FFFFFC63
000002D3
FFFFFE09
FFFFFE7F
00000101
0000018E
0000028E
0000030B
00000443
0000069D
000001CB
FFFFFAFE
FFFFFB9B
FFFFFE78
0000016B
FFFFFE7F
FFFFFC9E
FFFFFCCB
FFFFF81F
00000050
FFFFFDF0
FFFFFC09
FFFFFCCF
00000107
00000C18
0000011E
FFFFFFC8
FFFFFFF7
FFFFF02A
000007F6
00000B94
00000808
00000E74
00000541
000005CB
000005D1
00000565
0000082A
00000441
FFFFFB32
000001BC
FFFFFC70
FFFFFD11
FFFFFEDA
FFFFF79D
FFFFFAFB
FFFFFB0B
FFFFFEC0
FFFFF71E
FFFFF794
FFFFFF68
0000036C
00000899
FFFFFF5A
00000142
FFFFFE50
FFFFF598
FFFFFA7B
FFFFFC80
FFFFF8B8
FFFFFC6B
000005BA
0000058C
000001FB
00000400
0000029B
00000109
00000320
FFFFFB5E
FFFFFE26
000001C2
FFFFFD35
FFFFFDF9
FFFFF939
FFFFFAF2
FFFFFC89
FFFFF4C6
FFFFF967
000008B5
0000050C
0000071D
00000237
000001A8
00000063
FFFFF8B7
FFFFFFF5
00000C3E
FFFFEFA7
FFFFF89E
FFFFFCCC
FFFFF9ED
FFFFF9A7
FFFFFC3D
0000078C
00000835
FFFFFFDF
FFFFF734
0000010F
FFFFFD03
FFFFFA88
FFFFFCF5
FFFFF9A5
FFFFF1D7
0000009D
000000F6
000000AC
000008DE
00000586
000005A6
FFFFFFA6
FFFFFDCD
FFFFFE6F
FFFFFF2D
FFFFFF69
00000A7F
FFFFF922
FFFFF559
FFFFF7C9
FFFFEB68
FFFFF1F4
FFFFF1D2
FFFFF97D
00000652
FFFFFE8A
FFFFEED3
000001E8
FFFFFF36
FFFFEEB8
FFFFF7EC
00000541
FFFFFC9C
FFFFFFD4
0000087A
FFFFFF03
FFFFFE1A
000002AA
FFFFFDDA
FFFFFDD5
0000023F
000001B1
FFFFFF10
FFFFFEA7
000001D5
0000058C
FFFFF766
FFFFF487
FFFFF56B
FFFFF51C
FFFFEEA4
FFFFF410
FFFFF9A4
FFFFFEAF
FFFFF313
FFFFF0F8
FFFFF456
0000074D
FFFFFFCB
FFFFFB8F
FFFFFEF7
00000308
00000650
000001C2
000000CF
FFFFFE65
0000002A
FFFFFFD1
000003E7
000001B9
FFFFF831
FFFFF8E5
FFFFFC04
FFFFFFA0
FFFFFFCA
000001CA
FFFFFA3C
FFFFF8F9
FFFFFE78
FFFFFA39
00000152
FFFFFB2A
00000139
FFFFFF06
000001CB
FFFFFF46
00000022
FFFFFFFA
FFFFFC95
FFFFFB0F
FFFFF718
FFFFFD1B
FFFFFBA9
FFFFFC0C
FFFFFF48
FFFFFF7B
FFFFFCF0
FFFFFB50
FFFFFCC0
0000028D
FFFFFA23
FFFFFDD2
FFFFFABC
FFFFFDF4
00000213
FFFFFBC3
FFFFFC8B
FFFFFBFF
FFFFFAB8
FFFFF945
FFFFFFAE
FFFFFEF3
000005AA
FFFFF84F
FFFFFC77
00000259
00000426
FFFFFF3B
0000001B
FFFFFC5A
000003E3
FFFFFC71
FFFFFD32
FFFFFB96
FFFFF976
FFFFFAD7
00000232
00000208
00000241
000000E9
FFFFFFFD
FFFFFACC
FFFFFB9E
FFFFFDF4
00000106
FFFFF8FA
FFFFFF85
00000021
FFFFFCC8
FFFFFAC7
FFFFFD62
FFFFFD62
FFFFFF56
FFFFF95B
00000298
000003D3
FFFFF850
FFFFFDD2
00000067
FFFFFCAF
000006F6
FFFFFB59
FFFFF87E
00000270
FFFFFA18
FFFFF81C
FFFFF7D7
FFFFFD39
FFFFFA6F
FFFFFBC2
FFFFFC8D
000001D1
FFFFFC0D
000000F3
FFFFF905
FFFFFAAC
FFFFFFCC
FFFFFF7A
00000147
FFFFFE68
FFFFFF60
FFFFFF7B
00000134
FFFFFCF1
FFFFFF7F
0000017E
000003F4
FFFFFD6B
FFFFFB81
00000328
FFFFFE27
00000035
FFFFFBC8
00000204
FFFFFE7D
FFFFF8F3
FFFFFAE7
FFFFF837
00000386
FFFFFAAF
FFFFFC69
FFFFFDA9
FFFFFF6A
FFFFFDAA
0000009E
FFFFFFCC
0000023E
FFFFFA7B
FFFFF9CF
FFFFFD89
FFFFFAFB
00000086
0000005F
FFFFFB82
FFFFFEB3
000001D2
FFFFFFBE
00000495
000003BF
FFFFF961
FFFFFBC3
00000537
00000221
FFFFFBF7
FFFFFE28
FFFFFCBB
FFFFFBB8
FFFFFCC2
FFFFFE8C
000003A8
000001B8
0000034D
000000A6
FFFFFA5D
00000088
FFFFFF43
000000F2
0000022F
FFFFF957
FFFFFAB6
FFFFF98A
FFFFFDE9
0000002F
FFFFFC59
FFFFFAAF
FFFFFDAA
0000002B
FFFFFC3B
FFFFFD67
FFFFF90E
000000B3
00000071
FFFFF9F7
FFFFF944
000000E8
FFFFFEB5
000003F3
0000012B
FFFFFFD0
FFFFFD42
0000017D
FFFFFC77
FFFFFB5A
FFFFFC12
000001F1
FFFFFD52
00000493
00000500
00000253
FFFFFF12
FFFFFE22
0000041D
FFFFFF04
FFFFFD58
000002E0
00000477
00000109
FFFFFCA7
00000041
00000058
0000039D
FFFFFBEF
000001E7
FFFFF981
FFFFFD74
000002E3
000002FA
000003EF
FFFFFBA2
000001C8
FFFFFA2E
FFFFFCAB
FFFFFC24
000000D0
FFFFF975
FFFFFB5B
FFFFFBEA
FFFFFAB0
FFFFFE44
0000016F
FFFFFB9F
00000355
000002DF
FFFFFE69
FFFFFFCC
0000034D
00000380
FFFFF9C9
FFFFFC15
0000033D
FFFFFD9C
FFFFFE41
FFFFFB74
FFFFFE8B
FFFFFBB4
FFFFFD0A
FFFFFBB7
FFFFFB5E
FFFFFC97
0000035B
FFFFFBDB
FFFFFB23
FFFFFA3F
FFFFFFE5
FFFFFC53
00000033
FFFFFCEB
FFFFFC4A
00000157
00000497
00000008
FFFFFA7D
FFFFFFD5
000001F3
FFFFFF32
FFFFF8F5
000001FD
FFFFF9ED
FFFFFB95
FFFFF72C
FFFFF7CA
FFFFF89C
00000317
00000590
FFFFFE5D
FFFFF823
00000329
FFFFF9EA
00000348
000001F7
FFFFFF8D
0000031A
FFFFFAFB
FFFFFE2A
FFFFFCF2
00000452
FFFFF836
FFFFF775
000000F8
FFFFFCA9
0000061D
000001B8
00000482
FFFFFE13
000002D4
000005AE
0000006D
00000192
FFFFF7D2
0000073F
FFFFFA9B
FFFFF662
000004C0
FFFFFD97
FFFFFA0E
00000200
FFFFFF14
FFFFFDE8
00000152
00000143
FFFFFB77
FFFFFDDD
FFFFFC69
000001A4
FFFFF961
000000AB
0000068F
00000328
00000514
FFFFF6AD
00000203
0000026A
FFFFFF66
0000017B
FFFFFF12
00000339
00000341
FFFFF91F
00000000
00000000
00000000
00000000
00000000
00000000
00000000
00000000
00000000
00000000
00000000
00000000
00000000
00000000
00000000
00000000
00000000
00000000
00000000
00000000
00000000
00000000
00000000
00000000
00000000
00000000
00000000
00000000
00000000
00000000
00000000
00000000
