FFFFFECA
FFFFFEEC
FFFFFFA4
0000002A
FFFFFEDF
FFFFFE72
00000199
FFFFFEC8
00000181
FFFFFEA0
0000019B
00000082
000006FF
0000023F
FFFFF8B8
FFFFFC7F
0000014A
00000064
00000077
FFFFFE6B
000001D3
FFFFFF84
FFFFFFD7
00000173
00000221
FFFFFDD7
FFFFFF26
FFFFFF2D
FFFFFFDC
FFFFFF91
FFFFFE96
00000090
000002FC
FFFFFE8F
FFFFFDE8
FFFFFE3D
0000057B
000003C1
000003CD
00000245
000004BF
00000503
00000100
FFFFFF72
FFFFFCAA
000001B9
000009D4
000008DB
0000080C
00000621
00000240
FFFFFC58
000001B2
FFFFFF99
FFFFFEB9
FFFFFE6A
000001F9
00000004
000003A6
FFFFFFAD
0000027D
000003CC
0000027B
00000026
FFFFFE7C
FFFFFF62
FFFFF495
FFFFF9CB
FFFFFBD4
FFFFF3C6
FFFFF9B6
FFFFFF33
FFFFFE90
FFFFFE38
FFFFFDC2
FFFFF92F
FFFFFEED
00000932
00000D48
00000305
FFFFF9A9
FFFFFCC1
FFFFFF87
00000153
0000019C
0000000A
FFFFFAE9
FFFFFF5F
000004B6
000002DE
000001BC
00000338
00000220
FFFFFAB4
00000747
000004A4
FFFFF79A
FFFFF6BA
FFFFF701
FFFFF1A7
FFFFFD64
00000234
000004FA
00000C82
000009AC
00000D1D
FFFFFF13
00000834
FFFFFDF9
FFFFF8D9
000000D8
0000016F
FFFFFECD
FFFFFFB6
FFFFFCB3
00000B35
000002DD
FFFFF80F
FFFFFC44
000004EA
FFFFFF72
FFFFFEAE
000001F6
00000376
00000256
FFFFFD0F
FFFFFB33
FFFFFC78
000000E3
0000053E
000009F8
0000094C
00000B3E
00000F24
0000021E
00000A9B
FFFFFE6B
000000CF
000007C1
00000A9F
FFFFFF30
00000167
FFFFFB5B
FFFFFE75
FFFFFDA0
FFFFFCAE
000000FF
00000BB5
000007B7
00000531
000002D0
000004E3
00000610
00000249
00000433
00000081
0000010C
00000527
00000105
0000041A
000002A3
FFFFFE56
FFFFFCF2
FFFFFFE5
00000505
00000874
00000BF5
000007C4
FFFFFF70
FFFFFCD3
00000D8C
FFFFFEE5
0000070A
00000D85
0000060B
000004AF
0000034E
000002ED
00000457
00000A08
00000513
000002E8
000004ED
0000051D
FFFFFE69
FFFFFEC7
FFFFF964
FFFFFF08
00000074
00000761
0000051E
000004CF
FFFFFF0D
00000484
000007C4
000001BE
000000E4
00000317
00000FFE
0000034B
FFFFFD34
00000233
000000BE
FFFFFAB6
FFFFFFB1
0000044B
000007CC
000009E8
000002F1
00000314
0000019B
000002F7
FFFFFD40
FFFFF9A1
FFFFFBAB
FFFFFC29
FFFFFD14
FFFFFD62
00000580
000001BA
0000046E
00000A40
00000174
0000016D
00000B0C
00000532
00000FCC
000009CE
0000013C
FFFFFCDA
00000383
FFFFFBA1
00000247
00000194
00000200
000007B6
00000180
00000167
00000145
00000058
FFFFFFF0
FFFFF86A
FFFFFE9F
FFFFFB22
FFFFFF8C
00000182
FFFFF9C2
FFFFF8AD
000007BF
0000122C
00000461
00000291
00000913
00000C62
000005A1
00000407
000006E3
FFFFFE5F
00000026
FFFFFB04
00000344
00000137
000003FB
000008B1
0000043A
00000073
FFFFFF93
FFFFF9BF
FFFFF708
FFFFFBFE
FFFFFF36
00000274
00000391
FFFFFF3F
FFFFF681
0000020A
00000BF9
000011F2
000001A8
000005E6
00000A6A
0000024B
00000772
0000055B
00000B65
00000285
FFFFFF17
FFFFFDF4
00000164
00000BD5
00000476
00000859
00000129
FFFFFFC3
FFFFFC81
FFFFF9DE
FFFFF902
FFFFFF09
0000082C
000004ED
000002D3
FFFFFE37
FFFFFD7A
FFFFFEC1
FFFFFF1C
000007D0
FFFFF5A5
000001D2
00000B9F
000002BD
00001351
00001462
00000006
FFFFFFCD
0000037E
0000027C
000003AC
0000068F
00000764
00000234
0000002D
FFFFFE92
00000059
FFFFFDC5
FFFFFF86
000009EE
00000A58
00000507
00000069
00000102
FFFFFD3D
FFFFF73E
FFFFF218
FFFFECA1
FFFFFF03
0000071C
000007B1
00000447
00000CD5
0000132A
FFFFFF32
00000766
FFFFF9B7
FFFFFC25
FFFFFE93
FFFFFF99
00000241
00000446
FFFFFA9D
FFFFFC36
FFFFFBD7
000002E5
00000422
0000086D
00000901
0000018D
FFFFFDD4
0000048A
000006F9
00000035
FFFFF551
FFFFF57C
FFFFFEAE
00000678
FFFFFA6A
000005AF
00000E2E
00000128
000008BE
00000697
FFFFFBED
FFFFFF8A
FFFFFDA8
00000224
000003F1
0000044C
FFFFFC02
FFFFFC25
00000058
00000338
000004FD
0000059D
0000047D
FFFFFC31
FFFFFF77
00000384
000000EE
00000402
FFFFF5FF
FFFFFC3F
FFFFF397
FFFFF9DB
FFFFFF17
0000078F
000004C3
FFFFFB88
00000507
000001A5
FFFFFAAC
FFFFFE0D
FFFFFDF5
FFFFFF53
00000515
0000031C
FFFFFB3A
FFFFFBAB
FFFFFB60
FFFFFE7E
FFFFFF7C
000004E1
0000073E
FFFFFFF0
000009EF
000002A1
000001AC
FFFFFC6F
FFFFF89C
FFFFFAAF
FFFFEEDB
FFFFFA07
00000188
00000345
FFFFF59C
FFFFFBD8
0000042B
0000004C
000000D6
000006A1
000002E2
FFFFFFD6
000002BA
FFFFFDDD
FFFFF860
FFFFFB80
FFFFFCAE
FFFFFFDC
FFFFF9F4
0000067C
00000496
00000486
0000063C
00000733
000003F4
000003BA
FFFFF857
FFFFF634
FFFFEC9B
FFFFF7B7
00000558
0000003C
FFFFF703
FFFFFCA2
00000578
00000267
0000004F
0000041C
00000E57
000000D3
FFFFFC0A
FFFFF9BF
FFFFF74E
FFFFFE75
FFFFFF1D
FFFFF8B3
FFFFF7A5
FFFFFE14
000002C9
00000688
0000084D
FFFFFFE4
FFFFFE27
00000344
FFFFFE38
FFFFF68B
FFFFEE2E
FFFFF689
0000008E
00000219
00000086
FFFFFD3B
0000047D
000003AB
000003F9
000006C2
0000087A
000007A2
00000021
FFFFF92D
FFFFFA4F
00000677
00000236
FFFFF7E5
FFFFF610
000001A4
000003EC
0000007E
0000019A
FFFFFB38
FFFFFEF3
00000444
00000124
FFFFFAF4
FFFFF9AD
FFFFF6A4
00000B6F
FFFFFAB3
000003C0
FFFFF76D
000004CB
00000305
00000546
000003F3
00000193
FFFFFE5C
00000053
FFFFFDDA
000002BE
000008BC
0000043F
FFFFF7B2
FFFFF84E
0000018E
FFFFFF9D
0000008A
00000131
00000158
FFFFFEA3
FFFFFBCA
FFFFF362
FFFFFAE0
00000562
FFFFF559
FFFFFC07
0000163E
00000AF5
FFFFFE0F
00000891
00000424
000002D6
FFFFFEC0
000001B0
FFFFFD14
FFFFFCCE
FFFFFCB6
0000022E
00000070
00000179
FFFFF7E6
FFFFF29C
FFFFFA74
FFFFFDCF
00000504
000000BD
0000008F
FFFFFAF6
FFFFEEB9
FFFFF33D
FFFFF14E
FFFFF727
FFFFFC8C
0000019A
0000062B
00000476
FFFFF520
000004E1
FFFFFF09
FFFFF96D
FFFFFB3A
FFFFFFEE
000005AB
FFFFFB30
FFFFF81F
FFFFFFBE
000001EB
FFFFFFE8
FFFFF6B1
FFFFF86A
FFFFFA0E
FFFFF819
FFFFFC1F
FFFFFA03
FFFFFA15
FFFFF9AC
FFFFF097
FFFFFA5D
FFFFFB3C
FFFFFCA3
FFFFFB06
FFFFFD49
FFFFFD0D
FFFFFBD9
FFFFF03E
00000132
FFFFF7DD
FFFFF4CD
FFFFF712
0000041C
00000714
00000376
00000508
000004EC
FFFFFEF1
FFFFFA46
FFFFFA39
FFFFFE4D
FFFFFB7C
FFFFFB4B
FFFFFC07
FFFFFF11
FFFFFCD7
000002D9
FFFFFAD2
FFFFF7A1
FFFFF885
0000001F
FFFFFF90
FFFFFC6F
FFFFFDBF
0000022C
FFFFF79B
FFFFF648
FFFFF553
FFFFF9D8
FFFFFF27
FFFFFFE8
00000512
00000A7F
00000924
00000752
FFFFFD12
FFFFFE43
0000009E
00000274
FFFFFEC2
FFFFFBFD
00000011
FFFFFCC5
FFFFFE49
FFFFFFD8
FFFFF974
FFFFF7B7
FFFFF81F
FFFFFA96
000001C5
FFFFFE84
FFFFFE72
FFFFF827
000003BE
FFFFFBA0
FFFFFA99
FFFFFCB6
FFFFFCDC
000000FF
FFFFFE26
00000329
0000018A
FFFFFEF2
FFFFFA5E
FFFFFD1C
FFFFFF56
000001C6
0000008D
FFFFFDBB
FFFFFD85
00000352
0000000C
FFFFFA96
FFFFFE7B
000001C1
FFFFF86F
FFFFF79C
FFFFFE55
00000221
0000021F
00000488
00000692
000006CF
00000580
FFFFFB64
FFFFFE3C
000000F6
00000117
0000036D
0000030B
000002F9
000006CD
000000F7
000001B4
000009C3
FFFFFB5F
FFFFF653
FFFFF6BF
000005A3
FFFFF973
FFFFFB90
00000223
FFFFFCB4
FFFFF7CC
FFFFFC40
FFFFFEB4
FFFFFF49
FFFFFEA4
00000577
00000344
FFFFF864
FFFFFA3C
FFFFFC3B
FFFFFE6E
FFFFFCBE
000001A4
00000ECD
0000111C
00000683
FFFFFECA
FFFFFB1F
FFFFF8E8
000005D3
000000B2
000000DC
00000D8E
0000042B
00000616
000000AD
FFFFFCAC
FFFFFEEC
FFFFFAE0
FFFFFA3E
000000AC
FFFFFFF6
FFFFFF05
00000126
00000497
FFFFF6AB
FFFFF3B3
FFFFF77C
FFFFFFBE
00000962
00000EEA
00000D70
000007BF
0000150B
0000152D
00000911
FFFFFB40
00000C6B
00000D9D
00000E11
00000B32
00000818
00000AF2
00000D4D
00000813
000003FF
000004F6
0000022A
0000007A
0000003F
FFFFFDFE
FFFFFF5D
00000079
FFFFFF6E
00000386
00000609
000005A0
00000556
00000735
000004B7
000000BE
00000497
000006F6
0000131D
000004F3
00000843
00001F06
0000199C
00000E78
000012A4
000015F6
000010D6
000009FB
000000B8
000001C8
FFFFFF0C
00000188
FFFFFF88
00000099
FFFFFEC0
00000227
0000008A
00000134
00000158
FFFFFF78
FFFFFECD
FFFFFDF3
00000046
FFFFFE0B
FFFFFBA5
FFFFFFC7
0000097D
0000016C
FFFFFF48
FFFFFFA7
000000B2
FFFFFF36
FFFFFEA7
FFFFFDC1
0000022F
FFFFFE08
FFFFFE08
FFFFFE02
FFFFFEEE
FFFFFEF7
FFFFFE78
000001B2
0000015D
0000002A
FFFFFF13
FFFFFFEE
FFFFFBE8
FFFFFCD0
FFFFFEDD
000000B9
FFFFF93F
00000347
00000939
00000AE3
FFFFFCD8
FFFFFBB6
0000095E
00000BF2
00000305
FFFFFE75
FFFFFF87
FFFFFB55
FFFFFC79
FFFFFE6C
00000138
FFFFFE35
FFFFFF07
FFFFFFEA
FFFFFDEA
FFFFFFA0
000002EB
00000BC7
00000BB4
FFFFFE0E
FFFFF58F
FFFFFE74
FFFFFEF6
000004DD
FFFFFE90
FFFFFF8F
FFFFFE8C
FFFFF03E
FFFFFA79
FFFFF889
FFFFFF48
FFFFFCEF
FFFFF35B
FFFFF100
FFFFF857
0000017F
FFFFFFDC
FFFFFE07
0000059B
00000534
0000005A
FFFFFEB1
00000182
0000010F
FFFFF33D
000006F2
FFFFF4D2
00000110
FFFFFFDF
000011B4
00001462
000000ED
00000D06
000016F8
0000081D
00000B89
00000FD5
00000B95
000006D9
000000AE
FFFFF892
FFFFFDE3
000009C0
000002C5
FFFFF9B7
FFFFFFD1
000002E8
FFFFFE81
FFFFFD17
FFFFFDDC
FFFFFFC3
FFFFFE22
FFFFF90B
FFFFFE70
FFFFF9BC
FFFFFF26
FFFFFE79
00000743
000008E3
0000051C
000000D8
0000066C
0000034A
0000009E
00000364
000003A7
0000012A
00000020
FFFFFD1D
000000E4
0000014C
000001F8
FFFFFFC5
FFFFFBC2
FFFFF9AD
000002C7
FFFFFD87
0000066B
00000235
0000006B
FFFFF859
0000000D
00000863
FFFFF83C
FFFFFCFA
000006D5
000000DD
0000045C
000000E4
FFFFFDDA
000000E1
FFFFFC84
FFFFFE9C
0000013F
FFFFFFD3
FFFFFBDE
FFFFFEB6
FFFFFEF2
000002F3
0000044B
00000368
000007ED
FFFFFEE2
000003A3
00000397
000005DE
FFFFFE87
00000275
0000052E
00000B78
00000467
FFFFFEBB
000006D6
000004FE
FFFFFEBE
000001CE
FFFFFB2D
00000033
FFFFFBCA
FFFFFCD3
FFFFF994
FFFFFD88
FFFFFCB6
FFFFF541
FFFFF587
FFFFFC7D
FFFFFDE9
00000584
0000089A
0000071F
FFFFFC25
FFFFF629
FFFFFDC3
000000F0
FFFFFEC4
00000B6A
0000052B
000013B5
00000972
0000085E
00000AD5
0000067E
FFFFFDAE
FFFFFAB2
0000015B
000003DF
00000330
00000276
FFFFFDFA
FFFFF938
FFFFF851
FFFFF8F2
FFFFFA19
00000149
00000066
FFFFFD7D
000000FB
00000137
00000D83
00000336
FFFFF3EB
00000116
00001111
00000439
000006A0
00000937
00000D60
000006A9
00000789
FFFFFD8E
FFFFF805
FFFFF8EE
FFFFFECF
00000699
00000677
0000061C
000001DA
00000022
00000313
FFFFFF2B
FFFFFF15
000000D6
FFFFFDE2
FFFFFDFF
0000060F
FFFFFD11
FFFFFD8D
FFFFFF3E
FFFFEE08
FFFFFC72
00000300
00000987
00000800
00000383
000009AC
00000997
00000658
FFFFF74C
FFFFF124
FFFFF58A
FFFFF86A
000000C1
0000055E
0000082D
00000520
FFFFFEF9
00000692
0000004A
FFFFF9B5
FFFFFFDB
0000098E
000003B5
00000304
000007AE
FFFFF501
FFFFF919
FFFFF380
FFFFFAE0
00000299
00000459
00000C1B
0000095B
FFFFFE47
FFFFFD6C
FFFFFA01
FFFFF555
FFFFF240
FFFFF540
FFFFF767
FFFFFDCD
000002B1
0000066B
FFFFFFD6
FFFFF960
00000456
00000609
FFFFFEE4
FFFFFF88
00000272
FFFFFBAA
0000065F
000002B2
FFFFF31B
FFFFF40E
FFFFF06B
FFFFF6A2
000003E5
0000130A
000000B5
00000941
FFFFF952
FFFFEFCE
FFFFF1C8
FFFFF481
FFFFFB6B
FFFFFC68
FFFFFBF6
00000019
00000795
FFFFFD94
FFFFF979
FFFFFB48
00000055
00000337
FFFFFF12
FFFFFD1B
FFFFFAD0
FFFFFB62
FFFFFBF5
FFFFFB8B
FFFFF2E0
FFFFF3FA
FFFFF64C
000000FC
FFFFFEF7
00000486
FFFFFF21
00000061
FFFFF6FC
FFFFF6B4
FFFFF9E1
FFFFFC46
00000069
0000032E
00000110
FFFFFE8B
00000515
0000022F
FFFFFC8E
FFFFFDDA
FFFFFE8E
0000040B
00000263
000000CF
FFFFFE80
FFFFFA3A
FFFFFF42
FFFFFD17
FFFFFFDD
FFFFFBB4
0000006F
00000605
FFFFF903
000002CD
000002C0
0000007D
FFFFFE1D
FFFFF9FA
0000030C
FFFFFE45
00000722
0000069C
000004BD
FFFFFBF3
FFFFFD0B
FFFFFA1E
FFFFFE48
0000003F
FFFFFEC3
000002A8
00000704
00000343
00000015
FFFFFEC9
0000001C
000001B9
000001ED
0000061F
00000421
00000244
FFFFFFB1
00000176
000001E6
FFFFFBFE
FFFFFFDD
0000084F
0000096E
000005DD
00000817
00000015
FFFFFBCE
FFFFF8A0
FFFFFAD1
FFFFFAFD
FFFFFC35
FFFFFC21
FFFFFF23
000002E0
00000461
00000831
00000938
000006D2
000002C8
0000044A
00000B94
00001051
00000472
0000019B
000000C5
000002CF
FFFFFA7E
000003C0
00000801
000013E6
00000DDF
00000E40
00000A16
0000002D
FFFFFE0B
FFFFF472
FFFFF9D4
FFFFFC8E
00000270
00000146
FFFFFBFB
FFFFFD7F
0000000B
00000942
00000D20
0000030E
00000866
00000BFC
00000C51
00000C60
FFFFFE8B
000008EF
00000271
000003EC
FFFFFC18
00000A28
00000D49
00000B68
00000DDB
000010F6
00000C2A
00000109
00000047
FFFFFD67
FFFFFC9A
000001C4
0000087B
00000164
FFFFF396
FFFFF73F
FFFFF927
00000552
00000D3E
0000055E
00000682
00001039
00000D54
00000A72
0000006A
00000BFA
FFFFFE45
FFFFFF69
00000680
000003C3
00000F26
000008A0
000001D6
00000B87
000001C9
0000029E
FFFFFDCB
00000064
00000505
00000A9A
000006E5
FFFFF9E5
FFFFF6CD
FFFFF429
FFFFEF18
FFFFFB62
000000A4
0000098B
00000C72
00000D9E
00000074
000006F2
0000061E
000018FF
000002C6
FFFFFF50
0000066A
000003AF
00000600
00000521
FFFFFE8F
00000018
FFFFFEB4
0000011A
FFFFFD79
000003A1
000009D4
00000A49
0000040A
FFFFFDB1
FFFFFBE6
FFFFF944
FFFFF5A6
FFFFF748
FFFFFE10
00000B16
00000A2D
00000719
FFFFFF40
00000425
000007F9
000004CC
FFFFFB7E
00000192
FFFFFA19
00000320
00000860
00000718
FFFFFE93
FFFFF9A6
FFFFF9AC
000000BD
FFFFFFD3
000000DC
000005C1
0000066F
000009E1
00000105
FFFFF990
FFFFFF5E
FFFFF8C8
FFFFFCE8
000001E1
000009AF
00000CD5
FFFFFBC7
FFFFFC91
FFFFFEDB
000006E1
00000315
00000138
000007F1
FFFFFEEF
000003CB
FFFFFF38
00000193
FFFFFB59
FFFFFE76
FFFFFF8F
FFFFFF60
FFFFFDB5
FFFFFC58
FFFFFE48
000008BB
00000846
00000051
FFFFFBBD
FFFFFC90
FFFFF6FE
FFFFFF8B
00000918
0000076F
00000466
FFFFFE2B
FFFFF75A
FFFFF538
00000131
FFFFF3C1
FFFFFE92
00000433
000005E3
00000958
FFFFFC90
FFFFF2BE
00000029
000005C6
00000905
FFFFFE69
FFFFFC61
FFFFFB4E
FFFFFED7
FFFFFE15
FFFFFDEB
FFFFFD3F
FFFFFED1
00000164
FFFFFF90
00000516
0000016D
FFFFFDF7
000000CA
000001E5
FFFFF457
FFFFF7B6
00001239
000000BE
FFFFFBE5
000000AD
0000098B
000006D7
FFFFF528
FFFFF272
000003CF
000008C2
00000391
00000097
0000020A
000004EF
0000037A
00000047
FFFFF8A0
FFFFFCC6
FFFFF8B4
FFFFFD9F
FFFFFEBB
0000064D
FFFFFDC3
FFFFFC0B
00000223
FFFFFC5E
FFFFEFFA
FFFFF905
000002D4
FFFFFF87
00000063
00000182
000007DB
00000721
FFFFF409
FFFFEF15
FFFFF679
FFFFFE70
00000096
FFFFFDB2
00000082
00000189
FFFFFA47
FFFFFAB2
FFFFF726
FFFFF5D6
FFFFF525
FFFFFA9D
00000266
FFFFFCCC
FFFFF3B2
FFFFF746
FFFFF7D4
FFFFFA25
FFFFEFD8
FFFFFB79
FFFFF3C3
00000092
00000173
000001C2
FFFFFFFD
0000069B
00000374
FFFFFB96
FFFFFF10
FFFFFFD2
FFFFF95D
FFFFF439
FFFFF7B1
FFFFFB5E
00000258
00000778
000000EC
FFFFFAD7
FFFFFEFC
FFFFF9A7
FFFFFD46
FFFFF175
FFFFF41B
FFFFF8EC
FFFFFC2A
FFFFF4A3
FFFFF71A
FFFFFF61
FFFFFEEA
FFFFFE48
FFFFFF02
000000E5
FFFFFC41
FFFFF760
00000FDB
00000C8C
00000B61
FFFFFEB8
FFFFEFCB
FFFFF2B1
00000243
FFFFF907
FFFFFD26
FFFFFCE7
FFFFF30D
FFFFF504
0000003D
000002F2
000005CA
0000024F
FFFFF260
FFFFEF28
FFFFF56B
FFFFFC57
FFFFF510
FFFFFE3A
FFFFFF93
00000210
0000016A
000001D5
FFFFFFC3
FFFFFD23
000007E9
0000078D
0000009D
FFFFFCED
FFFFFA3F
FFFFF537
FFFFFA52
FFFFFBDB
FFFFFEA9
FFFFFC2F
FFFFF3AF
FFFFF7F3
0000014A
00000153
FFFFFC7B
FFFFF87B
FFFFF725
FFFFF843
FFFFF9DC
FFFFFEC4
00000182
000000CB
000001FE
00000146
00000017
FFFFFEF9
FFFFFEEA
0000016D
0000021F
FFFFFE29
FFFFFCD1
FFFFFE8E
FFFFFC14
00000026
FFFFFC3E
FFFFF82B
FFFFFA03
FFFFFFEA
FFFFFB84
000000FB
00000643
00000138
FFFFFC6A
00000145
00000222
0000003F
FFFFF5AC
FFFFFB0F
FFFFFDF8
FFFFFDE3
0000007E
000001CB
00000144
000001DF
0000007F
00000247
FFFFFF67
00000078
000001E4
FFFFFDF3
00000075
0000004F
000000EE
FFFFFF78
000005E7
FFFFFE94
FFFFF896
FFFFFA55
0000020C
00000039
FFFFFEC1
0000000C
000000BB
FFFFFE4E
00000172
000000A0
0000009B
0000004F
0000007B
0000016A
00000089
FFFFFDF1
FFFFFE14
FFFFFEFE
00000072
000000DE
00000240
0000024E
0000079F
00000485
0000084B
000008E4
00000C4D
00000A95
FFFFFF26
0000016F
FFFFF971
FFFFFC86
000009F1
00000D4A
00000C6D
000005D1
000007A5
0000037B
FFFFFF97
FFFFFDEA
FFFFFE64
000001DB
0000000C
0000016B
000002FC
00000779
000008B5
00000098
000004F9
00000B3F
000002FE
0000010D
FFFFF67D
0000014F
FFFFFF7E
FFFFFB8E
FFFFFFDD
0000017D
00000112
FFFFFE57
FFFFFB38
000006DB
000007D9
00000F2D
00001065
00000A70
FFFFFEC5
FFFFFFDB
000000C2
FFFFFE78
00000092
FFFFFEB2
FFFFF38E
000007CA
00000659
000000BE
FFFFFF7C
000007C8
FFFFF3D4
FFFFF564
FFFFFBDC
0000027B
FFFFF7C0
FFFFFC96
00000B59
000001B6
FFFFFB31
FFFFF89B
FFFFF6DE
FFFFFBAE
FFFFFFC1
000009C2
000001AC
000000EE
000005BA
FFFFF686
000001EF
00000084
000001F3
000002C8
FFFFF3B6
FFFFFEF7
FFFFF921
FFFFF7C2
FFFFF208
FFFFEA43
FFFFED63
FFFFF513
FFFFFC3C
FFFFFDB9
000000DF
00000351
FFFFFF90
00000191
FFFFFE3A
FFFFF998
FFFFFD4D
FFFFFC7A
00000042
00000A41
00000A46
00000A0F
0000009E
00000204
FFFFFC3C
000004EA
00000025
FFFFFE90
FFFFF5E6
FFFFFE12
FFFFF256
FFFFF98C
FFFFF28F
FFFFF439
FFFFFADD
0000032D
0000005F
00000042
FFFFFE72
FFFFFF01
00000458
00000182
FFFFFAFC
00000271
00000315
FFFFFF03
FFFFFAB1
FFFFF8F3
FFFFFD75
00000AD4
0000097C
FFFFFD8C
0000017B
000005EC
FFFFFFE2
FFFFFB2C
0000091C
FFFFFC06
FFFFF6B7
FFFFFCF3
FFFFF64B
FFFFF969
00000354
000000F8
000001A4
00000064
FFFFFF75
0000038E
00000336
FFFFFF61
00000433
00000421
FFFFFEE8
000004A1
000005CB
0000027A
000003D6
00000178
00000B4F
FFFFFFE1
00000206
00000368
00000059
FFFFFCBC
000007A9
000001ED
FFFFFC51
FFFFF58E
FFFFF026
FFFFF32B
FFFFFDA7
00000411
0000042A
000001AA
FFFFFEDE
0000012E
00000336
00000455
00000127
0000042F
00000251
FFFFFF7D
00000A22
00000681
000002A7
0000023D
00000395
0000020A
000006FB
000003F2
000011A0
FFFFFA29
00000D3D
000001FA
000001BB
FFFFF871
FFFFF8F4
FFFFF46F
000000A8
0000005D
FFFFFEB2
FFFFFD11
FFFFFE9D
FFFFFD29
00000558
0000060D
00000549
FFFFFE4B
FFFFFEF6
FFFFF536
FFFFFFB4
0000045A
FFFFFB90
FFFFEE8F
FFFFFE52
000003ED
FFFFFF36
FFFFF954
FFFFFFB5
000008CA
000004EE
FFFFFB33
0000025E
FFFFFB19
FFFFF2F3
FFFFF89D
00000311
FFFFFFCE
FFFFFA2C
FFFFFE2A
FFFFFD83
FFFFF97A
0000012E
0000019B
FFFFFE68
FFFFFD32
FFFFF9FE
FFFFF960
FFFFFC37
FFFFF8D8
FFFFF8A6
FFFFF5C5
000000A1
FFFFF234
FFFFF7F0
00000128
00000048
000003B7
00000177
FFFFFC22
00000446
FFFFF8C4
FFFFEF2C
FFFFFB36
000000EF
000004E3
FFFFFE4F
000002DA
FFFFFE9C
FFFFFCBB
FFFFFE6B
FFFFFEF2
FFFFFBD4
FFFFFA9B
FFFFFBF8
FFFFFE83
FFFFFC02
FFFFFB76
FFFFFDEC
FFFFF36A
FFFFFC02
FFFFFE3A
FFFFF1A7
FFFFFDC2
00000648
00000C4D
00000469
0000070B
FFFFF604
FFFFFF61
FFFFF1EA
FFFFF6EB
FFFFFED1
FFFFFEA6
000007DB
000000D9
000001D3
FFFFFF23
FFFFFAC4
FFFFFB63
FFFFFF32
00000129
00000583
0000034E
FFFFFD19
0000005B
FFFFFCF9
FFFFF476
FFFFEEA9
FFFFEFE4
FFFFF85C
FFFFFBE9
00000514
00000140
FFFFFE7D
FFFFF664
FFFFF475
FFFFF634
FFFFF06F
FFFFEFDE
FFFFFF87
000004AA
0000067C
00000D90
0000065A
000003D8
FFFFFD7C
0000024F
000003F3
000000B2
000004E0
FFFFFF3F
FFFFFB3C
FFFFFD08
000002F1
00000109
FFFFEE0A
FFFFEAAD
FFFFEF96
FFFFFA8D
FFFFF80E
FFFFFF28
FFFFF421
FFFFF3FE
FFFFFFB1
FFFFF960
FFFFEB8F
FFFFF578
000000DD
00000487
00000E19
000005D6
00000533
00000310
0000018C
0000040E
00000680
0000027E
00000264
00000076
FFFFFC40
FFFFFA17
FFFFFD29
FFFFF719
FFFFF377
FFFFED00
FFFFEA30
FFFFF62B
FFFFFEEB
000000B4
FFFFFCDA
FFFFF1DF
FFFFF9CA
FFFFFD6B
FFFFE669
FFFFF5C6
000003BB
00000AD3
00000DF9
00000572
00000737
00000351
FFFFF885
00000057
00000244
00000172
00000740
0000057D
00000726
00000621
FFFFFF1E
FFFFF162
FFFFF164
FFFFF6F8
FFFFEB54
FFFFF705
FFFFFDB0
FFFFFFBB
FFFFFD6C
FFFFF4CE
FFFFFC68
FFFFF7BE
FFFFF5C1
FFFFF5CD
FFFFFEB4
000006F0
00000E71
00000813
00000BEC
FFFFFF73
FFFFF897
FFFFFD6B
00000166
000009C0
000007B0
000002DC
000009C9
00000A2B
000001E9
FFFFFBAB
FFFFF185
FFFFEF82
FFFFF1F0
FFFFEFC3
0000077B
FFFFFF7E
FFFFF3C2
FFFFFACD
0000032F
FFFFF924
FFFFF450
FFFFF34F
000003ED
FFFFFE63
00000436
0000091B
000006F0
FFFFFC2C
FFFFF73C
FFFFFF22
FFFFFF7E
0000061A
00000431
000004C2
000007D9
FFFFF6C3
FFFFF841
FFFFFDBB
FFFFF6F2
FFFFE857
FFFFEAF5
FFFFF0FA
FFFFFEF8
FFFFFFEA
FFFFF852
FFFFFCD5
000001D3
FFFFF970
FFFFF673
FFFFF3FD
FFFFFB02
000003C3
0000067C
00000479
00000283
FFFFFF3A
FFFFFE5E
00000108
00000133
0000081E
000006A7
000004C1
FFFFFDC6
FFFFF157
FFFFFC2E
00000429
FFFFFB8A
FFFFE792
FFFFFEF3
FFFFF5F4
FFFFFCDB
FFFFFAFF
FFFFF9D4
FFFFF90A
FFFFFC07
FFFFF495
FFFFF640
FFFFF05E
FFFFFF1D
000003F9
000001DF
0000064D
000007E0
00000500
000005A2
00000424
00000540
000006A5
00000616
000007E2
FFFFF9B9
FFFFF56C
FFFFF9A9
0000005D
FFFFEEAC
FFFFEAD6
00000BA4
FFFFF0E4
FFFFFAC3
FFFFFE13
000001DD
000009F2
000000DB
FFFFFE6A
FFFFFBE9
FFFFF877
FFFFFD25
FFFFFE1A
FFFFFA27
000001EC
000009A7
000002A7
0000069E
000003B9
FFFFFD2C
000004C0
000007DB
00000413
FFFFF9F8
FFFFFB55
FFFFF8E7
FFFFF827
FFFFF0BE
FFFFF25F
FFFFF2F4
FFFFF663
FFFFFF7F
00000D04
00000192
0000010A
00000679
000002DA
FFFFFCF6
FFFFFDDF
FFFFFA29
FFFFFB6F
FFFFF8BC
FFFFFA43
FFFFFEDE
000004AA
00000819
FFFFFEAD
0000008F
000000B1
000000A0
000001F0
FFFFF9D1
FFFFF7C9
0000029C
FFFFF5CE
FFFFF7F2
FFFFFD0F
FFFFFAD3
FFFFF9CB
FFFFFA73
FFFFFFF6
FFFFF575
FFFFFF6E
FFFFFA5C
0000034C
FFFFF770
FFFFFB12
FFFFFC5A
FFFFF90F
FFFFF864
FFFFFB03
00000023
0000016E
FFFFFFD2
FFFFFCBD
FFFFFF47
FFFFFD73
000001BD
FFFFFC89
FFFFFBBD
00000159
FFFFFE47
FFFFF20D
FFFFFA51
000000D8
00000957
0000030F
FFFFFC7E
FFFFFCDB
FFFFF53E
000000CB
FFFFF3E3
FFFFF792
FFFFF9D8
FFFFF995
FFFFF8DB
FFFFFEE9
000001BF
FFFFFF3C
00000198
FFFFFD60
00000114
FFFFFF61
000000F4
FFFFFEBD
FFFFFFB2
00000119
FFFFF42A
FFFFFB28
FFFFF6A4
FFFFF407
FFFFF66C
FFFFF782
FFFFFFF9
0000000A
FFFFFF0E
0000011A
FFFFFB7B
00000595
FFFFF6A8
FFFFF9CD
00000206
0000055B
0000027A
000001B3
FFFFFFF4
0000023A
FFFFFD3F
FFFFFC91
00000105
FFFFFE42
FFFFF965
FFFFFB7E
00000097
FFFFFD87
FFFFF13D
FFFFF473
FFFFF916
FFFFF6B2
FFFFF7EB
FFFFF991
FFFFF605
FFFFFF5A
00000093
FFFFFE45
00000616
00000B62
00000CD3
00000C8A
000000B2
000006D2
0000064D
000007BB
00000534
00000059
FFFFFF22
00000562
0000001A
0000028D
00000555
00000010
FFFFF710
FFFFED95
FFFFFA1E
FFFFF0EB
FFFFFD14
00000B76
00000331
FFFFFA75
FFFFFCE8
FFFFFF33
00000058
FFFFFDDD
0000092C
00000562
FFFFFF66
000008D5
FFFFFB46
000003B4
00000880
000008EE
00000321
00000453
FFFFFCBA
FFFFFBDA
FFFFFAFC
FFFFF8B2
FFFFFE5C
FFFFFA11
FFFFF644
FFFFF49E
FFFFF2C4
FFFFF36F
FFFFFCBA
00000B5E
00000912
FFFFFB71
FFFFF95D
0000002B
FFFFFFC6
FFFFFF9C
FFFFFDCB
000003FC
00000CF2
FFFFFD75
00000A93
0000121C
00000C97
000010AF
000007A4
000000FC
00000783
FFFFFA91
00000576
00000061
00000666
00000A57
00000723
0000072C
00000593
FFFFFFDE
FFFFFC7D
00000873
00000271
000005AA
000000A5
FFFFFDC0
00000035
00000206
0000000D
000001E2
FFFFFFAC
00000024
00000790
00000900
00000960
00000533
000002A5
000002FE
000001DB
00000211
00000FC2
00000DB7
0000024D
00000923
00001001
00000C48
FFFFFF19
FFFFFBB9
FFFFFA7C
FFFFFFDE
FFFFFE7B
0000012A
FFFFFFC0
000001E5
FFFFFEBB
000001C3
FFFFFE88
00000080
0000020F
00000181
0000011D
FFFFFF93
FFFFFFC5
FFFFFF90
FFFFFFD6
FFFFFE83
FFFFFF75
FFFFFD6E
FFFFFF99
00000043
000000DC
0000012C
FFFFFE94
0000013A
000000D4
0000009B
FFFFFF2C
FFFFFF19
0000019E
FFFFFDE3
00000245
FFFFFE2B
FFFFFFC3
00000233
FFFFFF8B
0000006E
FFFFFEB5
00000182
FFFFFCF9
FFFFFE88
FFFFFF0B
FFFFFEDA
FFFFFDB9
FFFFFC2E
FFFFFD78
FFFFFBB4
000009C2
000007D2
FFFFF930
FFFFF830
FFFFFB4F
FFFFFDCF
FFFFFAD3
FFFFFED2
FFFFFBFC
FFFFFBDB
FFFFFF62
FFFFFE82
00000020
000000F4
FFFFFEE0
FFFFFED4
FFFFFE0C
FFFFFE2B
FFFFFA65
FFFFFF74
FFFFFCB0
FFFFFAE2
FFFFF654
FFFFF5AE
FFFFFD76
FFFFFD8A
FFFFF8DA
00000711
FFFFFB73
00000003
000002BB
00000397
00000493
000009EF
000004BF
FFFFF34D
FFFFF8BA
FFFFF74B
FFFFFC33
00000211
00000084
FFFFFF65
000000DA
00000218
0000093E
0000025C
FFFFFBD5
FFFFFE5F
FFFFFBA8
FFFFFAA4
FFFFEE2E
FFFFEE40
FFFFFA96
FFFFF4E1
FFFFFB91
FFFFFE7C
FFFFF808
000000D5
FFFFF9C0
FFFFFC3F
FFFFFE7A
FFFFFE51
0000008A
FFFFFB26
00000247
00000B08
FFFFFAEF
0000089C
FFFFFF96
FFFFFF21
00000003
FFFFFF9B
00000D3B
00000B6F
0000089C
FFFFFF28
FFFFF985
FFFFF35A
FFFFF958
FFFFFDD3
0000031C
00000637
00000850
000004C3
00000669
00000539
000002F5
000002EE
00000270
FFFFFF49
0000015D
FFFFFDEC
000005E0
00000767
000006A6
0000094E
000003EF
FFFFF5CB
000001FA
00000114
00000C71
00000133
FFFFF799
00000478
00000112
FFFFFDF0
FFFFF67A
FFFFFD77
FFFFFEA6
000003EE
00000730
0000026E
000001A5
00000272
FFFFFBBA
FFFFFBA7
FFFFFB03
FFFFFEB2
0000020C
0000064C
00000A31
0000078F
00000ACB
00000BE6
FFFFF9AF
FFFFF7CA
00000142
00000079
FFFFFCDB
FFFFF5C8
FFFFF6DE
FFFFF8FC
00000305
00000041
0000005F
FFFFFDD4
FFFFFDF1
00000354
000006C1
0000037F
000003CA
FFFFFF45
FFFFFC29
000001B5
000001E9
FFFFFE84
00000203
FFFFFD24
000001B7
0000082B
FFFFFF31
00000897
00000274
00000147
FFFFFE04
FFFFFB59
FFFFFA8E
FFFFFBAA
FFFFFF42
FFFFF96D
0000004C
FFFFFE76
FFFFFB60
FFFFFE67
00000289
FFFFFC96
0000012A
00000140
000001D6
000002BD
FFFFFF6B
FFFFFEC6
FFFFFF7F
0000026F
00000058
0000002E
00000307
000009AF
FFFFFE4D
FFFFFCC9
FFFFFE33
FFFFFD25
FFFFF276
FFFFF90E
FFFFFE48
000009B6
0000050D
00000287
00000B1E
00000173
0000021D
00000279
FFFFFF89
FFFFFD7A
FFFFFAFA
000001C0
000004DB
00000366
00000058
FFFFFF64
00000412
00000740
FFFFFDCC
FFFFFE3A
00000652
00000594
000000B4
0000084F
00000925
000002F4
FFFFFD9D
FFFFFC26
000000A7
00000AA8
00000540
0000027D
00000952
FFFFFFFB
00000163
00000338
00000009
FFFFFD8C
FFFFFCA8
00000501
00000726
00000978
000002F1
000000E7
FFFFFE65
FFFFFD8F
FFFFFC4D
00000435
000006D5
00000470
FFFFFD32
0000094B
00000A68
FFFFF616
FFFFFD16
FFFFFF44
FFFFF0A1
FFFFFCD7
00000749
FFFFFDAC
FFFFFE40
000005D8
0000043D
0000032B
FFFFFFF9
00000003
FFFFFEFA
00000564
0000051A
000000E3
00000016
00000079
00000133
0000009E
FFFFFD30
FFFFFCDC
0000029B
0000007A
FFFFF8D2
FFFFF92A
FFFFFBC6
FFFFF91E
000000BC
FFFFF011
FFFFFBE1
0000017E
000009CF
00000201
FFFFFFC0
00000434
00000081
FFFFFF3B
FFFFFBEB
FFFFFEF8
0000044C
000005F5
000005A3
0000020A
0000003E
0000010E
000002BA
000002F5
0000024B
FFFFFC3F
FFFFFD50
FFFFFF7D
00000372
FFFFFD26
00000D69
FFFFFBCE
000001CA
FFFFFCD8
FFFFFEB4
000006D7
0000098F
00000225
FFFFFD56
FFFFFF73
FFFFFC59
FFFFF6AD
FFFFF754
FFFFFCC0
00000520
000001FC
FFFFFF7C
FFFFFD42
FFFFFF3F
00000143
00000546
00000718
000001C5
00000490
FFFFFB16
00000753
00000403
0000018D
00000238
FFFFF4B9
000005C9
FFFFFFB7
FFFFF7C5
000005DE
FFFFFC92
FFFFFE10
FFFFFBF5
FFFFFB98
FFFFFD27
FFFFFDF2
FFFFF7F9
000002E7
0000034C
00000109
0000018C
0000004C
00000484
00000739
00000A24
00000441
000005FA
FFFFFF16
FFFFFCC0
FFFFFDD1
FFFFF9E5
000000ED
FFFFFF35
000001A6
FFFFFCA0
00000318
FFFFFBF4
0000027D
FFFFF31E
FFFFF880
FFFFFB2F
FFFFFBC0
FFFFFCA2
FFFFFF2C
FFFFFD7B
FFFFFEDC
FFFFFFBC
FFFFFEE1
00000661
FFFFFF20
0000075C
000009EB
00000540
000002CB
FFFFF8E4
FFFFFE7B
0000002D
FFFFFDD9
FFFFF891
00000C9C
FFFFFE79
FFFFFE27
FFFFFF0D
000004B6
000003F8
0000018D
FFFFFAC8
FFFFF245
FFFFFA04
FFFFFD6D
0000026C
000002FF
00000064
0000027E
000000B6
00000482
000009E2
000001A4
000007FE
00000750
00000069
FFFFF77D
FFFFF417
FFFFFC0A
FFFFFFC0
FFFFFF5E
FFFFF915
00000797
FFFFFC50
FFFFFA1B
000002F8
000002FE
000008C2
0000031A
FFFFFE65
FFFFF13A
FFFFFA1B
FFFFFBE6
FFFFFDFB
000001BA
0000033B
FFFFFFD3
000000C9
0000045B
0000037D
FFFFFF12
00000492
000001C9
FFFFFB52
FFFFF162
FFFFF50D
FFFFFE5F
FFFFFB0D
FFFFFEDE
FFFFFD7A
FFFFFE6F
FFFFF985
FFFFF83C
000000A0
000005ED
0000026B
FFFFFFA7
FFFFFC4B
FFFFF63D
FFFFFD32
FFFFFECA
FFFFFDD4
FFFFFFF8
FFFFFD37
000000EE
000000A3
000000B3
000000E7
0000004A
00000123
FFFFFD8D
FFFFF673
FFFFF607
FFFFF88F
FFFFFB28
FFFFFE8A
00000390
00000528
FFFFF68F
00000139
FFFFF471
FFFFFD9C
00000855
000003D6
FFFFF8E6
FFFFFB04
00000186
0000002A
FFFFF91A
FFFFF86D
FFFFF7F3
FFFFF78D
FFFFF558
FFFFF4BB
FFFFFC92
FFFFFF19
FFFFFAD8
FFFFFAD1
FFFFFAB4
FFFFF7B8
FFFFF73D
FFFFFED9
FFFFF777
00000070
0000009D
00000626
000002A1
00000860
00000314
000003C7
FFFFF18A
FFFFF5F7
FFFFF8A3
FFFFF7F9
FFFFFE63
00000072
FFFFFEF2
000002CA
FFFFFFD6
FFFFF48E
FFFFEF1A
FFFFF649
FFFFFCD5
FFFFFC70
FFFFFD1D
00000170
00000075
FFFFFF5D
0000033A
FFFFFD9F
FFFFF968
FFFFFF9F
FFFFFE3A
000001D8
0000076E
FFFFFBF9
FFFFFF7A
FFFFFEDA
FFFFFD0B
FFFFF563
FFFFF624
00000160
00000058
00000469
FFFFFF41
00000045
FFFFFE1C
FFFFF9C6
FFFFF862
00000158
FFFFFD43
FFFFFE3B
00000558
000007A2
0000040E
000001DE
00000028
0000010A
FFFFFD5F
00000158
FFFFFCFB
FFFFFC6D
00000169
000002C4
00000829
00000500
000008B0
FFFFF97C
FFFFF98B
FFFFFDE9
00000241
000005A0
0000017F
000000ED
000005AD
0000018F
00000240
FFFFFFED
FFFFFFCD
0000025A
0000023B
0000030A
FFFFFECC
0000041E
FFFFFB09
000001C3
00000005
FFFFF936
FFFFF44F
FFFFF64A
FFFFF84E
FFFFF22B
00000107
000000F4
0000062D
FFFFF5F8
FFFFF817
FFFFFFA3
000003E9
000004FC
000002ED
00000337
FFFFFEDD
0000012A
000002BE
FFFFFC96
00000160
00000328
00000352
00000393
FFFFFEE2
0000009D
FFFFFE6A
000005BB
0000036C
FFFFFE99
FFFFF7FB
FFFFF4BB
FFFFF811
FFFFF739
00000050
FFFFFFDF
FFFFFFC7
0000025E
FFFFEF31
FFFFF873
FFFFFD66
FFFFFC74
00000149
FFFFFDE1
000000F9
FFFFFFC1
FFFFFF85
0000003C
FFFFFE36
FFFFFEEF
FFFFFF92
00000645
0000022F
0000016C
000002CE
00000851
00000502
00000378
FFFFFDD1
FFFFF7D3
000000AD
000003A6
FFFFFFDB
FFFFFFC2
FFFFFEF3
00000507
FFFFF8BF
FFFFFDFF
FFFFF875
FFFFFC49
FFFFFEA4
000000D9
00000399
00000468
000000C0
FFFFFEF7
FFFFF8C6
FFFFF98D
FFFFF936
FFFFF96C
FFFFF375
FFFFF779
000002B8
000005DC
FFFFFF9D
FFFFF84E
0000003D
FFFFF379
FFFFF98C
FFFFFD27
00000163
00000066
FFFFFFC5
0000075E
00000349
FFFFF07D
FFFFF0C7
FFFFF4DE
FFFFFC0F
00000ADA
000008FA
FFFFF9BA
FFFFF652
FFFFFCF0
00000374
00000991
0000005A
000004A2
FFFFFFD9
FFFFFDBB
FFFFFD8B
FFFFFF60
FFFFFD9B
FFFFF5FF
FFFFF5DA
FFFFF71E
FFFFFC69
FFFFFB5F
000000CB
FFFFFDB8
0000005A
FFFFFEB0
0000047C
FFFFF607
FFFFF3CD
FFFFF663
00000637
0000087B
00000AB4
00000343
FFFFFC90
FFFFFAEF
FFFFFF20
00000A0F
000002C2
000004A5
00000C99
000006CB
FFFFF8B4
FFFFFC24
0000057A
00000455
000008A3
00000176
0000036C
000001B0
00000014
FFFFFE80
00000239
FFFFFF41
FFFFFF46
000004DB
000006C6
00000B3A
00000733
000007C2
0000049F
FFFFFE1D
000008C1
000007CB
FFFFFC46
000004B8
00000C0C
000001ED
FFFFFAC7
FFFFFF4A
00000217
FFFFFED4
FFFFFD82
0000004E
000002DC
00000159
00000044
FFFFFFCD
FFFFFE54
000001C0
FFFFEA08
00000CFF
00000D5B
00001074
000002B6
00000DB8
000008E8
FFFFFF60
FFFFFFC7
FFFFFD30
FFFFF440
00000018
000006D9
FFFFF84B
000009D4
FFFFFF6A
000010C8
00000BFE
FFFFFFAC
FFFFFDE8
000002C2
00000BCE
000005D8
00000C87
00000053
0000070A
00000CE6
00000444
000007EC
FFFFFBAB
000011FA
FFFFFA2A
0000030E
00000451
FFFFE30C
00000310
00000418
FFFFF281
00000356
FFFFFEEE
FFFFF765
FFFFE81E
00000745
000002C3
FFFFE39D
000008DD
00000D40
FFFFF952
FFFFECE8
FFFFF42D
00000450
00000200
FFFFED68
0000076D
0000065E
000009FA
FFFFED2C
FFFFFDFA
00000DE2
FFFFEB3C
000000C7
FFFFF50B
FFFFFD00
00000052
0000042B
FFFFFE63
000006A8
00000568
FFFFFA81
FFFFF5B8
00000DA9
0000011E
FFFFFBA9
FFFFF187
000002E1
000005A4
00000028
FFFFFE32
000008FE
0000001C
FFFFFF53
000008DC
00000549
000002E3
00000500
00000645
00000866
FFFFF9A7
FFFFE124
FFFFFB80
FFFFF835
00000AFE
00000625
00000939
00000A7B
0000052E
FFFFFCE6
000000B4
0000058D
00000B5B
000008C8
000002B8
FFFFFE29
00000E22
000006B7
0000066B
FFFFF64A
FFFFF783
FFFFEDAA
000001E2
00000421
FFFFEEC9
FFFFF20A
0000054B
000006D6
FFFFF250
000003A0
00000864
00000652
00000522
FFFFE939
00000274
000006E4
000006DE
0000069E
FFFFF42C
FFFFDA7C
FFFFFF7E
0000060E
FFFFF913
000002EB
FFFFEC2E
00000226
000008FB
FFFFFE8E
0000059D
FFFFFFB4
FFFFFF4D
000023CF
0000072F
FFFFF7A6
00000C3E
FFFFF8C6
00000748
00000013
00000099
000002BE
0000095B
FFFFFF66
FFFFEE22
00000226
FFFFFE89
00000A2D
FFFFF8A9
00000437
000003B6
00000218
00000978
FFFFF3B7
000001C9
00000002
FFFFFEB2
FFFFF4AE
00000686
FFFFF71C
FFFFF8AB
00000166
00000254
FFFFF7E7
00000E75
FFFFFAA0
FFFFFC47
00001F47
FFFFF14C
FFFFF6C6
FFFFE8DD
000012C2
FFFFE793
FFFFFCB2
FFFFF836
00000255
00000282
000006A2
0000008D
FFFFF52D
00000D13
FFFFF29C
00000B7C
FFFFFDFD
000001C6
00001E23
000002AF
FFFFF9C4
00000F3A
FFFFFA5E
000009AE
000008CF
00000F3D
000004BC
FFFFFCB8
00000482
FFFFFE7D
FFFFFB66
00000018
00000A91
0000027E
000005DF
0000000F
FFFFFE2D
FFFFFE9C
00000CCD
00000A51
FFFFFB3F
000000F3
FFFFFB62
0000105B
000008F3
000004E1
00001D43
00000AB3
FFFFFFA6
000004F6
00000ACF
FFFFF880
00000031
00000E8A
FFFFF729
FFFFFF06
000009B8
000002C9
000001E2
FFFFF8A5
0000048C
FFFFF9AD
00000BE6
FFFFFC76
0000156E
000014DF
00000050
FFFFEA39
FFFFF97E
00000785
FFFFFC56
000001A4
FFFFFD7E
00000733
FFFFEE14
FFFFFB1A
FFFFFCEF
FFFFF56C
00000434
00000C56
FFFFF84B
000018E4
0000105E
00000461
FFFFFE61
FFFFFBE8
000007AB
FFFFF7AE
FFFFF611
00000190
FFFFF973
FFFFFC3E
000003B3
000000BF
000005A1
FFFFF678
FFFFFF59
FFFFFF0E
000005FB
00000026
00000584
FFFFFF9B
FFFFF706
FFFFF923
0000006F
FFFFF92C
FFFFF873
000002B4
FFFFFAAA
FFFFFBF4
FFFFF96F
000003E2
FFFFFE30
00000272
FFFFF6D1
FFFFF819
FFFFF79C
FFFFF7D7
000002C2
FFFFF963
0000018C
00000617
FFFFFF86
FFFFF909
0000004D
0000015E
FFFFFC85
000003D9
FFFFFB74
000005C4
00000344
000004E8
FFFFFD70
FFFFFBCA
0000020A
FFFFF9B4
FFFFF85A
FFFFF673
000004A0
0000042C
0000026F
FFFFFE79
FFFFFB7D
FFFFFDFF
FFFFF9F0
00000142
00000431
0000149B
00000BEB
FFFFF220
FFFFFD02
FFFFF6A2
FFFFF8EB
FFFFDEAC
FFFFFF26
FFFFF184
FFFFF081
FFFFF7B5
00000A29
00000C1D
000008F1
FFFFE518
FFFFFFDF
FFFFFB0F
0000061D
FFFFFAE5
FFFFF5C6
FFFFFEA8
FFFFF9C6
00000CC2
FFFFDDE7
FFFFFFE0
FFFFE4A0
FFFFF92D
0000073C
FFFFFC71
00000F33
00001427
FFFFFC59
