0016
0063
FFC7
007D
FFA8
FFFA
000D
FF7D
FF85
FFC6
FFAD
FFBE
0149
016F
0122
00C7
FF97
FFA4
FF8B
0058
FF87
FFEC
FFA3
FFC5
001A
FFDB
0020
FF7F
0027
FFD3
FFB3
FF84
00C5
017D
0329
0416
0375
0331
0327
0309
05D6
027D
FD7A
011E
0771
07D2
0744
050F
041C
022F
03CD
035A
003B
FFC8
0018
FFCC
0027
0012
034A
0410
044B
01E6
0580
064B
09B9
09DA
093C
0A12
04B4
FF4D
00B2
00D6
00B4
0243
044E
02A4
0357
0457
052C
0785
0078
FE38
008A
FF75
FF74
FFC8
FE31
066A
0650
0264
0643
0426
0724
0921
0574
0550
0284
0203
0106
000B
FF3E
FD9E
024F
0389
00B9
0577
03C4
03B1
05D6
02B3
04B2
0051
FFC7
FFEC
FCC3
0028
0116
0091
0162
01BD
FFE9
01D3
0379
0283
FFB7
FD73
FE31
FEF5
0036
00E5
023D
0209
0010
FF48
FDC5
FDF2
FF49
016A
0597
04A0
0034
FFBC
03C6
01F4
01C0
FADD
FBCA
FE66
FE04
005D
0322
0193
012E
00D4
0099
FFE0
008B
0079
FFFF
0212
023E
01C3
005F
FDBF
00C1
02AA
0B2A
0556
0088
0182
0235
FE5B
0037
FB7C
FA84
FE02
FFC4
0084
00F8
018F
01D8
0168
01DC
0295
008A
FF4F
FEDC
001B
FEFD
FD53
FF4B
0018
03DF
0643
07C7
05FF
0030
FF62
0181
FD97
FE84
FDBC
FAD6
FCE1
0017
0184
02A1
02B9
0226
01CC
047B
03D8
01D1
FFFE
FE73
FE87
FE36
FF75
FF70
FC70
FEB7
03AF
02C9
065B
04E0
FD45
00AA
0006
FD9A
FD1D
FDEA
FDAD
FECA
0050
01AD
01F8
0113
02C3
03B1
0260
0257
0083
FD31
FED7
FE37
FE99
FE5F
FDD0
01EB
03A8
0190
04E2
FED1
FBFA
0215
0291
FEFA
FDF2
FE3B
FEE3
FF6C
00B9
01E3
017A
0013
0099
0120
0062
0095
FEE2
FD74
FDA0
FCB8
FD77
FD5B
FC4C
0330
0521
0290
FCCE
FEF5
FE3D
FCD4
0182
001D
FFEC
007A
0087
01D9
01A4
01E6
0070
FF93
FD97
FFD4
01D1
00FD
FEFC
FDEA
FCA3
FD0C
FD79
FCC4
005C
0501
0441
054C
FBB4
FDB9
00BF
FAC5
FE19
FEF8
0110
026D
FF81
0092
FF23
FD7D
FDA8
FD71
FF42
01B7
017D
01E1
FE6C
FD2C
FEC7
FD45
FFA3
FE7A
0163
0920
0ACF
0631
FBCA
FDC8
FDBF
FDD6
FD13
FF24
FF92
00B6
FE83
FDE5
FE64
FF34
FE82
FE9C
026C
045B
0328
0156
FF8E
FD7F
FDC6
FE1B
FE09
FDD0
00F7
01B1
03A5
0163
FCAF
029A
FEF0
FC1E
FEB2
FCBE
FFE0
FD7F
FE22
FDDD
FEF4
FF92
FF32
01B7
067B
068D
036E
00D3
FECB
FF07
FF28
FD9D
FD8B
0024
03CF
0288
FFD5
03CD
03E2
0181
FF36
F8B7
018C
FFAD
0096
0091
FF71
FFF1
01CE
0292
03DD
0282
0609
053E
0239
0121
FF8D
00D8
FE13
FF0A
0030
02B3
01E1
0505
006A
090F
0423
0165
FF18
FAEE
01F1
0039
0356
0247
00A3
0200
0300
0350
0309
04CE
060C
040E
0002
007E
00BF
0115
FED1
FE14
FF2A
FE68
0195
05F0
04FD
0073
0393
FCDE
FD6A
FCF8
02C0
FF96
0280
0356
FFCA
00A5
0173
046D
06E5
0607
0529
02B9
FFF0
0100
00B2
005B
FF7D
FE4A
011A
015B
016B
0240
0903
0253
048D
FFB0
FD2F
FE61
0158
0071
0222
04AA
0156
02FD
0335
057A
06C8
04C1
0317
01E9
0063
017F
00E9
0109
0177
005B
012B
0048
002B
FF8B
03EA
FFD9
050B
FBEF
FE20
FB8A
FFC4
0371
03C6
04EC
035E
028F
031D
041D
0379
0544
0376
027C
0174
00CE
FFBF
FF94
0195
00A2
FEB9
FF68
0219
01C2
0179
FB46
03E7
FFBC
FBC8
FC48
FE58
01DE
017B
02B1
0298
0264
0109
02DF
0379
03DA
038F
0396
01E3
FFF8
0047
0230
0080
0147
007D
0293
04F5
01BF
026F
0077
0052
000F
FE1C
FFE9
00AE
0285
0215
FFA0
0117
020B
0193
00D6
01C9
013A
0178
0140
0184
FF5A
FFF3
0077
001E
0046
00A2
02D7
031F
02DE
03A7
0000
00E6
00B8
0292
0084
01FB
016F
FDD3
FD6C
FFB9
FE21
008A
FF7C
00B1
00D2
02C3
029F
008D
0000
009F
FF82
FF17
0023
FFFA
0411
04B1
0198
0254
03CA
FF84
0072
00B6
FFF1
057A
02EB
FEAB
FC70
FDE1
FE2A
FEC5
FF0C
014E
0080
0135
FF99
FF6F
FF1F
FE8E
FEBC
FF95
00C8
0145
01F0
032B
0112
009B
0409
FF55
FFFA
FFE7
02AD
07B9
0442
00A4
FE0D
FCE4
005E
FF41
FFE7
FFFB
FFD0
000B
FF7C
FF85
003E
FDFA
0004
0202
0359
0311
0556
04D6
FEC0
017B
00DE
0070
003F
FFD3
006D
FF24
00C2
FD0F
FD7D
FE52
00BE
00A7
0048
00C0
02BB
0287
0215
01CA
02C1
008B
01F5
01D6
0257
00FA
0177
02B6
0381
0172
0030
FFD3
0055
FF72
0321
FDDB
FDB1
FDA5
0181
0248
FFDB
000E
014A
0189
00F3
02A2
0257
034E
0455
025F
004A
0235
01D3
038F
04DF
0434
0408
FE71
00C1
FF72
005A
FF87
FFF9
0130
03B5
FDB6
FE4C
0065
0111
01E2
02BB
0360
056A
02D5
0481
0355
0378
030C
020E
009E
042A
0070
FEC4
FFF4
FC2F
01BA
0072
FF92
004D
0071
FFB2
0071
FDC8
FDAD
0136
024D
00A3
0201
FEE7
0333
042C
FFDB
0395
0444
02FB
FF56
00A4
0228
014B
FBF9
FC9B
FDA9
0007
FF9C
FF75
FFA9
0000
0000
0000
0000
0000
0000
0000
0000
0000
0000
0000
0000
0000
0000
0000
0000
0000
0000
0000
0000
0000
0000
0000
0000
0000
0000
0000
0000
0000
0000
0000
0000
0000
0000
0000
0000
0000
0000
0000
0000
0000
0000
0000
0000
0000
0000
0000
0000
0000
0000
0000
0000
0000
0000
0000
0000
0000
0000
0000
0000
0000
0000
0000
0000
