0003
0084
FF8C
FFC9
FFAB
0044
0022
FF9E
FFAE
FF9A
FFAB
007E
0353
01B9
FFBF
FFEA
FFE7
0062
0048
006F
FF70
FF78
001D
0022
FF7E
FFEB
0035
FF89
0000
FF99
FFD3
FFD3
01A6
01DC
0442
0401
02BF
00FB
040A
01A8
01FA
02A6
0221
FE29
FC12
FD1A
06CD
05B2
0562
0399
0424
0411
FFFC
0065
007F
FFC8
FF85
FF81
0153
FCEE
FEFD
0419
0462
05AE
0410
0112
01BD
0460
00ED
025D
03E3
0132
000E
0145
0162
04F5
02F3
02E6
0585
0256
FE70
FE1B
005E
0053
0014
001F
FCCA
FD80
FFFF
00FC
0361
02AE
036D
045D
027F
040A
000D
014F
0243
00AA
0148
01EA
01F7
0414
00C4
01FE
0078
00A2
0092
FC25
FE85
FF9F
FFCD
0027
FCD9
FBC5
03EB
045B
0283
03CC
01D8
017E
014B
FFF3
013E
02C4
0207
0037
0055
017A
016D
01CF
00AB
00E0
FDB1
FF82
FE8D
FCBB
FA94
FDE5
FFF7
0078
0022
FC9B
0207
0142
00C7
0068
016E
0122
02B5
006C
005A
FFDF
001B
00B9
FF22
FFDD
FF5B
0009
FEAD
FE13
FD27
FFF9
0028
FED9
FA9B
FE04
0043
FD76
FE6A
F8E6
0229
FFD1
FD03
FFC9
00EA
0185
0077
021C
FFDF
0073
0264
0182
00CB
00C6
FEE8
FDA2
FD2F
FCD3
FF2D
FF76
019E
0198
001C
00A5
0017
FBF1
FCAB
FBDD
005E
0130
FD98
FF04
FF72
0125
00D6
00F4
FFEC
0041
01A8
02FE
01D0
0128
FEC8
FE75
FF23
0000
0063
FF9B
0109
FDC7
00AE
003C
0211
FBB8
01B2
00AC
00F1
024D
FF1B
FE49
FFC5
00A2
FECE
FECC
FD51
FE2E
002B
022A
0115
013B
FEAD
FE02
FE6F
013F
005E
FCE9
FDC4
FFC5
FF76
FC9A
FEBA
FD9B
01AD
00E6
008A
0075
FF42
0082
00C8
FFA8
FE7E
FF51
FD4D
FDD9
FEEF
0127
0039
0064
FF65
FE9C
FF94
0088
FE75
FEBE
FDBC
FD56
FDEE
005E
FE1B
FF39
FF6B
01B6
FF53
00BC
FEF2
002C
00C3
FF43
FE82
FE17
FDD2
FC6B
FE45
0124
0033
00BE
FF75
FDCD
FE29
FEE4
FEC3
FDE4
00E3
01CB
FC82
FE42
FEB8
FD01
FE1B
0056
FB58
FE1F
FF5C
FF73
0158
0002
0088
FE96
FD32
FD88
FDCC
FF44
0307
0257
004D
FF67
FE8C
0102
FFD5
FD12
FC93
FC61
F978
FDB6
003F
FD2D
FE54
0003
FC34
FC69
FF48
FEB7
00B8
0059
00C8
0097
FE07
FF1F
FE15
006F
01AD
017F
0163
0067
0014
00E0
FF97
FF23
000A
FD74
FBAC
FED9
0236
FF98
FD85
FEC1
FEA1
FEDD
FFED
0102
0132
00B1
0130
FEA7
FE9D
FF98
FF3F
0257
0227
0279
00D2
01C7
FF5C
017D
01A5
01FF
001F
FEBC
FDAB
0021
0138
0003
FBFD
FEF7
0233
00B2
0174
0124
00F8
0099
FFC6
FE99
FEE0
FF78
FF03
01CD
02D7
0273
01D4
0037
0291
0213
039C
00CE
00DC
FFBB
FC8F
FEA1
0134
0026
FF44
00F1
0231
00C3
0125
020A
01B0
FFDD
FF99
FFA5
00A0
FF89
FF15
FF6B
0070
015A
00ED
01D3
00AE
015E
0193
0164
0002
01A3
FCF4
FD04
FFC5
FE7C
00B1
000A
01D7
035F
01F1
011F
0155
0019
FF80
01FF
0051
FFA6
FF42
FF09
007B
FFF6
015B
01E7
00A6
FF9A
0096
FED9
FFEE
027D
FBE2
FBFB
0038
FE7D
0297
FDE8
FF15
0162
01D1
01B7
01C8
015F
0191
011E
FF6D
FE65
003E
00B8
0133
0103
02C3
0070
FFD1
FF33
0018
FFAF
FF5D
031E
02B7
FBCF
FB80
FF24
00C1
FFDE
FF89
0059
0041
0064
0017
00E8
0038
FF56
FF33
0033
0160
FFB5
00E7
0165
0285
009B
0027
FFA6
FE07
FE61
FEC0
01CA
FF38
FDAA
0244
FB72
FF18
033D
0124
012B
008A
FFAB
FF86
FFF5
003C
01AE
00B2
0024
01FF
01BB
0277
00CA
0219
00E3
003F
0008
FD2E
FE1E
FEB4
0180
FF35
FF61
003C
FE10
00CD
FFF7
0294
FF8F
FE5C
FDF5
FD54
FF0A
0039
0146
019B
01CD
01DF
0154
029E
01DE
02DE
0093
0038
FE13
FDC4
FD95
0078
0279
01F5
022D
0281
FFC8
F8E1
0064
FF91
0229
FEBD
FF23
FFE7
002E
FFD4
015F
0254
024C
01D8
01C7
0209
00F0
0106
007B
0070
FEC1
FF0D
FF34
FFB1
00D6
0028
FF2E
02E8
0063
FA7A
018C
FF56
FF92
FB3B
FD63
FF32
FF60
0193
00C9
0127
01E7
0093
001F
0112
FF81
0007
0062
0013
01CF
00BA
FFF2
FB4E
FDCE
02B6
FF52
FFC3
0025
FDCB
016B
FF31
FED3
FDAD
FCDA
FD5F
FDA5
FFB0
FFAD
0121
0031
011A
00B9
FFFF
FFAA
FF20
0038
01EF
03C0
00A6
006B
FAE7
FE0A
03FE
0085
FFB4
004C
FC68
FD72
FCD9
0120
FEB9
FF53
FE69
0005
0190
FF94
005C
FE90
FF0D
0001
00F4
0006
000C
FFE2
01B4
FFE8
0368
058D
FEF5
FFD5
0064
FFE0
0016
000E
0276
025A
02CB
0504
0325
0136
FFB4
FFCD
0145
FF74
FD16
FCCE
FEC5
FF08
FD80
FDDA
0017
FDA8
02AB
0227
0231
05B5
FE47
0233
FF85
003E
006D
FFF0
FF7C
FF5E
05FD
077D
05C3
02CC
00B5
00F3
0047
FEB0
0056
FF33
0178
01A0
00FD
0070
FF83
FE7D
01D1
00EE
FE76
0147
FDB6
FED6
FF70
FFF9
0004
FF82
0032
0070
FEA9
FE72
FEB2
FF9E
FDBD
FF62
FCCA
00D5
0258
FAFD
FDBE
02CB
02BC
FF51
003B
013D
0247
FC62
FD5A
FB24
FFCF
005B
FFB0
005E
0000
0000
0000
0000
0000
0000
0000
0000
0000
0000
0000
0000
0000
0000
0000
0000
0000
0000
0000
0000
0000
0000
0000
0000
0000
0000
0000
0000
0000
0000
0000
0000
0000
0000
0000
0000
0000
0000
0000
0000
0000
0000
0000
0000
0000
0000
0000
0000
0000
0000
0000
0000
0000
0000
0000
0000
0000
0000
0000
0000
0000
0000
0000
0000
