0066
FFDD
FFE5
FFD7
FFCE
FFB5
0071
0015
0091
FF83
000E
FF8A
00F0
01C3
018E
01AA
FF86
FFB0
FFA5
0006
0072
FFDE
002F
0061
FFD7
005A
FFC0
FFDF
002D
0045
FFBA
FFA7
00D2
0129
041F
0409
02BE
02D7
032B
0093
00E5
FF3E
FE15
04B4
051F
04C0
05A7
04B5
0352
01A0
0374
044B
FF89
0048
FFEB
FFEC
FF70
0023
025B
FEE4
FF5C
016B
05D2
065E
07D3
079D
07B4
06EF
0340
0179
02FE
0520
0369
068A
092E
0745
087E
0654
04C2
0689
01DC
008D
FFDF
0046
0069
FFE1
FEEC
0208
0558
FFA1
0224
0152
0183
0526
04BD
0373
037B
0496
FEF2
FF79
FDF9
FDA1
028A
01C4
019F
050E
06B3
0707
023E
FF04
FC60
FFA3
0048
FF93
FFEE
FF44
018F
012F
0191
02D9
0481
04A7
05D3
0492
041D
0195
02C2
01CB
0373
0310
0235
0132
0238
00E6
FF6C
FE79
FFB9
0275
060B
FFCE
FFFC
FFD0
0409
052C
040D
FC1C
0003
0351
00C0
FFD9
018F
0350
03BE
0263
0300
0181
0202
029E
FF39
0279
037A
0345
017A
FE41
01AC
03B3
02B6
FDBA
0058
02CC
FB91
FBF7
0088
FF8A
002C
00BD
002D
0159
00F3
01D2
0256
0169
016C
0228
008C
01A3
004D
0102
01A9
FEEC
00EE
041E
04F4
061E
0255
FEEA
FEC0
0099
FD8F
FCF4
0393
014D
FEC7
FE66
0096
FF87
005B
00A2
0117
022B
021A
0350
01A8
0069
013A
005C
FF49
009D
0169
0141
0189
05AB
030B
003C
03C7
FBDD
FF6A
FFC7
01B2
0101
0033
0055
FF1C
FF87
FFA7
0060
01F7
038A
01AA
00FB
01DE
01AD
0029
00A3
FECC
FFD0
FF7F
0084
0278
06D8
072D
05F4
FD31
FA3E
002E
011B
FF64
FFE4
FFCE
FFE9
FF4A
FEA9
FF32
FFCA
0123
02D4
00FA
0055
00AC
FFA3
0002
0051
FFA5
FF34
001D
006B
0233
0639
0397
FC90
FDED
FD09
FC7D
FFE3
0063
FF71
FF59
FFF3
0086
FEC4
FF65
0138
034B
0043
0124
FEC0
FE59
FFF7
011B
FECE
FE98
FE52
FF7C
01FC
01E2
FEDB
01B3
FD7D
FD1C
FE1F
FA20
FDF2
FFC8
01B9
0052
FF8A
FF1F
FEA0
FEA7
00B4
01C7
02D9
0279
0011
FEF5
FFA3
FEF3
0024
FDC6
FF78
FE58
011A
0534
05FA
080F
FE73
FCD5
FC5C
FDC9
FE43
FFD8
0185
FFB4
FF1E
FC06
FE24
FF77
0125
02D4
0481
03F3
0019
FEC1
0013
FE7D
FFDC
FF45
009B
FF50
0343
03A6
0163
023B
FCCA
029A
FED9
FBE2
FFBA
FE42
FF9D
FD36
FD10
FDCB
FE99
FFBF
022F
02C5
0437
0378
02F3
008D
FED3
FFBF
0112
FFCE
FF72
01BF
0408
0089
009D
04A3
046E
011B
FF3F
F86E
0065
FDDF
FE10
FED0
FD6A
FD71
0033
02E6
04F1
020E
04D4
061C
026F
FFEC
FF74
009A
FF21
FDA0
FF45
FFC6
FF71
0153
FEC2
08D8
03E4
FF97
FEC2
FBC0
00B4
FFB8
FEC5
FEFB
FEC7
00CB
02D7
0215
0272
02F6
04F2
05D6
00BF
00F9
FEC2
004E
0045
FD33
FD59
FDBD
FDBD
028C
023C
00C9
01F5
FCF0
FFC2
FF5B
02D8
FEE0
FDB5
FF72
FE2F
FF13
004C
02AE
0338
0307
03E2
0422
0092
01B7
0019
0058
FF32
FDFD
FEF9
FF2A
FFAA
00D4
06FE
025B
0234
0074
FDD8
FFF0
008D
0012
FD38
00CC
001B
007F
011B
00C0
017C
027A
01B4
0140
FF42
0108
FF75
FF1B
0012
FF9E
00EB
FF57
00CF
FFB3
00B0
FFD0
0169
FC29
FF02
FCF7
FFAA
0115
00BA
02B7
0017
FDED
FFA8
003F
0029
02CE
009C
0043
FFF2
FEC7
FE7D
FEB3
0086
01EE
FEB0
FF8F
0344
017F
FFFD
FCBA
02F1
0209
FBD7
FAE3
FC98
FF08
015A
0261
00E6
FEC1
FE3F
00B0
FFFA
0152
01FC
FFF9
0017
FEBD
FEDA
00F6
FF9A
0102
01A0
0467
0709
001D
0141
0264
0026
FFF1
FF22
FDB7
0121
0161
008B
0316
0386
0181
0010
011B
01F3
010D
01FC
0141
00BF
FEA0
FE74
00A8
FF4E
03D3
0434
0682
0466
FE22
FE74
0114
0115
01E8
0202
0269
071D
029D
FF2A
032A
04FE
01D7
021F
0123
0244
01C6
0350
0301
014C
FF26
0065
00A1
01B3
03BA
02E2
04EA
02A9
FCA1
FD6E
FE8B
FEA3
018E
01E5
033B
07A7
04BE
01E6
0332
02F6
01F2
02F8
0221
0504
0349
03D4
0198
0006
FFF6
0036
013F
017F
0383
03A9
02CB
01BA
FE53
FD29
016A
FF43
0066
001D
0439
0511
0299
FEE8
FEEA
0065
034A
02DC
0257
0412
04C7
04CF
02B2
0136
0232
0030
0306
02F5
042D
0406
0519
06D8
FB58
FFC0
0038
FFFA
FFE1
0048
FEB8
FD20
FDE6
FAE6
FDC6
FE7A
0008
01EF
01C2
0357
04F5
046A
02E5
01E4
01EE
FEDF
0229
02B1
0223
0085
0022
0224
0141
00AB
FE32
FFCF
FF7B
FF7F
02E6
FC11
FC1A
FD0C
013C
FF1D
FE23
FEFF
0293
00B0
FFD9
0142
00D4
0193
013B
019D
00AC
00D6
0172
009D
0105
0160
FF5F
FD1F
00D3
FFF8
FFF4
0088
0004
0158
0352
FFE7
FE6E
FDC4
FE4F
FEAC
FED7
FFC8
00CF
FF17
0042
FE88
00A1
0095
FF4A
FCC0
003E
FE7C
FB75
FE86
FCCE
FF2A
FF94
0079
FFBF
001C
0052
004A
FE87
FB67
FF58
FFD9
FFBD
0046
FD3A
FFA1
FFC0
FB0F
FE05
0095
FF60
FA6C
FC98
FFAB
FFFA
FBFD
FC07
FD73
FFDF
006C
FF90
0038
0000
0000
0000
0000
0000
0000
0000
0000
0000
0000
0000
0000
0000
0000
0000
0000
0000
0000
0000
0000
0000
0000
0000
0000
0000
0000
0000
0000
0000
0000
0000
0000
0000
0000
0000
0000
0000
0000
0000
0000
0000
0000
0000
0000
0000
0000
0000
0000
0000
0000
0000
0000
0000
0000
0000
0000
0000
0000
0000
0000
0000
0000
0000
0000
