FF7A
FF93
0066
0025
0000
0076
001A
FF82
FF92
FFEF
0028
0091
02DB
02DA
FE36
FE95
FFE8
FF9F
0088
FFE4
FF9B
0059
0007
FF71
FFF3
FFDC
FF74
004F
FFC5
006C
FF84
0008
00D1
0177
033C
02E7
013C
FFCD
031D
0008
00FE
01E6
02E2
FC9F
FD19
FFD3
0756
0568
0514
03AF
039D
0464
0060
000E
007F
003A
0075
FFE3
0090
0284
0322
0480
042C
0548
048B
0307
0278
0420
0045
03CE
0538
015F
FD4D
FFC5
FF77
0107
00A9
0346
04EF
01DA
FEEC
FD37
FFB6
003A
0032
FFED
FD9F
01DE
FE1D
FE00
007E
0167
FF78
0171
FFE5
0164
FD84
FFFB
FEE6
FDD9
FEC8
FE91
FD75
0051
FDCF
FECF
FF49
00DA
0129
FC55
FEB4
FFAE
FFC4
FFE3
FD1C
FA14
0162
023D
0364
02DD
020A
0148
019F
00F2
0226
026C
0086
FDBA
FE6B
FF2C
FEED
019B
0084
0039
FF5A
0103
FC78
FD1F
FB5D
00CA
008C
FFF0
00EC
FDBD
0117
00EA
027D
00BA
02AE
01F6
032E
00C7
FFD5
FFAB
009F
FF48
FF31
FF93
0045
0095
FFDE
0128
01F7
02B8
016D
FF2E
FDB0
0143
0031
FE20
FE06
FE00
0425
030D
0122
0347
0397
0247
013A
000A
0028
FE32
FCE6
FD17
FBF5
FBEF
FC27
FD00
FE33
FF37
016B
00FD
0240
0234
FFEB
017C
FF7E
FA6A
FDA6
FD9C
0300
02DC
0094
0453
037B
02EC
0198
00C0
FF35
FF08
FE13
FC2C
FC8A
FE68
FEE1
FE5F
FF18
00AC
016E
0003
021A
FE92
01C7
00E7
0523
FB6A
FF1E
FFC2
0367
01AF
0073
0216
017D
030F
0191
00E5
FFB2
0094
FF11
FE0E
FB83
FE3D
FE18
FDEE
FE77
FEB9
FF34
FF1F
FE9A
FF69
FF4C
FAB4
FE6F
FBCE
016A
017F
019F
0132
FD8E
0160
00B9
0167
FF6A
FF91
FE8C
FF9C
FF70
FCF7
FEA9
FF95
FF64
FFA0
001F
00F9
FE6D
0088
0094
FF09
FE23
FC22
FEE8
FF3F
009F
FFB0
FEFF
FFC6
FECC
00BC
01CE
00FB
0003
FEF7
FFCF
0005
FE3E
FE21
FEFF
01D6
01CC
013A
FECB
007C
FF48
FF9E
0202
FCF3
FE3E
FCCC
FE81
00AA
00E1
FE69
FC1D
FD28
FEEC
FF6B
FF91
00EE
0028
FF0F
0034
FDEC
FB33
FC0E
0071
0084
00B6
00AB
FE44
0079
FEF3
FE3C
FC36
FC6A
FCFE
FDC4
FEF7
001E
FFEA
FF85
F8E2
FBDD
FE20
FF6A
FFD5
012E
0168
017B
0351
FF75
FB06
FCB4
010C
001B
0002
FF38
FF0E
0109
FFF5
FD8F
0323
FF72
FBB9
FCE9
031E
014D
FFAA
FE36
F9F7
FD6F
012B
00DE
0185
02A2
02C5
01F7
0100
FE11
FB94
FF46
FFE0
00CA
0029
FF23
FE68
00F4
017A
034C
0151
0117
0134
0318
01CF
FE75
FF9A
FDC9
FF4C
01E2
0010
035C
030D
03BE
0425
02EA
01D5
FF77
FF0A
FFA4
002E
00D8
0039
FFAD
0055
0182
0414
02F9
0243
01E9
03E1
01A5
01C5
FE2A
03AF
01E1
FF84
018D
FFCB
019B
01EE
03A1
0269
0232
01CF
005C
015A
00FB
009D
005E
0082
00F9
0073
01E5
02FE
0376
0215
06AE
01E2
036D
0069
FCF1
0200
0228
FE45
00DA
0091
006F
00CF
01C4
004E
0008
FF88
004A
02A5
026F
0215
003E
00F2
020E
0215
03B6
029B
01B0
021C
097B
01E6
FF0B
0014
FBB3
0486
FFE0
FED6
0039
FECC
FEDF
FDE6
FEC7
FF37
FE29
FEB9
009E
02A6
0265
0123
0018
027B
00D6
00F7
02FB
0399
0165
0169
08D0
0659
FEA4
FA57
FE0D
01F5
01C5
028B
0163
FEE9
FF2C
FE62
FDF9
FACF
FC0D
0001
01D8
02CD
01D4
012E
FF52
0238
FF9D
FFF4
0216
FF66
FFC9
022B
051A
FF56
0303
00A8
FCBC
0076
019C
0100
FF8B
FF56
0129
FE38
FD1F
FC9D
002E
FFE9
0215
044F
039D
01C5
0036
0049
FE24
0157
002C
FE29
FD9E
FD01
FF57
032F
02A5
0001
FE9D
0233
01C0
FF86
FD13
FDC5
0066
FE49
FFB7
FF3A
01C2
02CD
00C5
0454
0495
0291
00A6
0142
FF35
00DE
0065
FED5
FE58
FC1D
FBF0
0572
0141
01A6
0148
FF8E
042F
FF62
FEDE
FD62
FEE3
0053
012C
012D
0217
0213
02CE
040E
031E
00D5
0186
00C6
0177
0128
FFC1
0003
01B3
FDE6
FE8C
05E5
FFB8
01C7
006F
0048
0172
0286
02CE
010D
003D
010B
0143
021A
0198
028D
0243
01C3
02E7
016F
0068
00BB
02EA
FED5
013E
004B
005B
FE91
FDE2
FE4C
FECD
0033
007C
FBBF
FA73
002B
FFBA
FFC5
0013
012E
0315
0246
020B
0370
01D9
0304
0291
020E
0126
0002
0226
0087
0319
0092
FE7E
FB60
FF66
FF1F
0021
0038
FF7A
FF31
F99C
FA02
FC55
FCFB
FD9F
FF20
02F2
007A
0206
01C4
022A
039E
0233
009C
0040
016B
00B7
FFAE
FFA8
0022
FD2D
00FC
0739
04F9
0034
FFB1
0031
FE07
0066
FFC5
FA13
FADA
FBED
FABC
FD20
FC84
FD56
FDF3
FF09
FDAC
0033
FD33
FD3F
FF5E
FDC4
FE94
FF3D
00E2
0077
FD60
FF7B
01FB
0079
FFE8
0014
002A
0064
FFE0
FEDD
FC16
F8EE
FB17
FA2B
F8A4
F86D
FA5C
F88D
F3F0
FB01
FB5C
F91D
FA7F
F88F
F6F2
F946
FC41
FD17
FC48
FF93
0009
0063
FFF5
0068
004B
008F
FEEF
FE9F
FC66
FB1A
FBAD
FBFC
FAD0
FA87
F9C0
FB79
F725
F9DD
FCDA
FDB2
FACD
FD2B
0113
FF34
FDF6
FCE5
FFF5
002F
0050
0037
0328
00D5
FF68
F98F
0134
0487
FE74
0362
030C
FC95
0152
04E1
FB7A
F892
0182
FC1E
02C4
0040
FA6E
020D
0054
071A
061B
07D9
FCBA
0256
FDFB
057D
0644
01DB
FDAE
0540
FE2A
0495
F857
04EB
FD3D
FAD8
083D
05C8
FC42
0624
021B
F9C1
FC98
05E6
0834
FA41
F863
FD99
FDFB
0527
02ED
01A4
F168
FF93
028D
FF6E
034F
08DC
FF45
FD5E
0093
FCB1
