00000075
FFFFFF2D
0000022B
FFFFFFC4
FFFFFF87
FFFFFE08
00000026
FFFFFDCD
0000018F
FFFFFF12
FFFFFDD3
FFFFFFEA
00000780
FFFFFFBA
FFFFF7B7
FFFFFA4E
FFFFFF30
0000006C
000001EC
0000023A
FFFFFECE
0000023C
FFFFFF4C
0000019C
0000017C
00000049
000000B7
FFFFFEBD
FFFFFE0D
000000CB
FFFFFDC5
000001E1
0000019E
0000024B
000001BA
000000C5
0000068A
000003F6
0000069C
00000AAC
00000C66
00000BA2
00000068
000000AB
FFFFF572
FFFFFBAD
00000CA5
00000B1F
00000A35
00000570
0000070A
00000020
FFFFFF56
000000BE
FFFFFDC8
000001AD
00000062
FFFFFFAC
000003E4
0000052D
00000711
000003F4
0000072F
00000ABA
00000674
00000338
FFFFFA7D
0000013F
00000219
0000012F
00000415
FFFFFE14
FFFFFEF7
FFFFFC23
FFFFF6AE
0000030B
00000543
00000986
00000F8E
0000080F
FFFFFF3B
FFFFFFDD
00000114
000001EA
000001F8
000001AD
FFFFF817
00000177
0000028A
000006DC
0000068B
00000E52
00000599
FFFFFC39
00000420
00000484
FFFFEFF9
FFFFF7B9
00000095
000000F5
FFFFFEB3
FFFFF8F6
FFFFF249
FFFFFF0D
0000021C
000007C8
FFFFFCA2
00000935
00000853
FFFFF808
00000305
000001AD
0000014B
000000D7
FFFFF532
00000BC5
000009BC
FFFFFD4A
FFFFFC24
FFFFFBF0
FFFFFC63
FFFFF794
FFFFF74A
FFFFF854
FFFFF9A6
FFFFFFA7
FFFFFE31
FFFFFF3C
FFFFFF45
FFFFFB14
FFFFFD4D
000009B3
0000076B
00000C4C
00000802
000004DF
00000237
FFFFFD51
FFFFFFC6
00000BA1
FFFFFEB3
00000054
FFFFFD84
00000031
00000846
000005C6
00000506
000004E8
0000039C
0000043B
FFFFFD5E
FFFFFCA9
000003E6
000001BF
00000306
FFFFFF79
FFFFF95A
FFFFFDC2
000002D3
0000026A
FFFFFE55
FFFFFE80
FFFFFCEB
00000A3F
00000A20
000003B4
00000742
00000C06
00000188
FFFFFFFF
0000096A
0000030B
00000C30
00000AC6
00000906
00000813
00000729
000004E5
FFFFFBDF
FFFFFF73
FFFFFEAF
FFFFFF28
FFFFFD1D
FFFFFBA7
FFFFF82A
FFFFFCF3
00000013
00000296
00000083
0000064A
00000482
000004C6
000003B6
FFFFFF4B
FFFFFCD0
000006D1
000001D0
00000511
00000C7D
000003FB
000007FB
00000335
00000848
00000C54
0000062D
00000905
FFFFFE17
FFFFFFB0
FFFFF83C
FFFFFF4C
FFFFFA15
FFFFFBC8
FFFFFB32
00000335
000007EA
000002A4
0000018B
00000561
000004D8
000000A4
00000474
FFFFFF8F
FFFFFA11
000003BB
000012C2
000001B7
00000D25
000006D9
00000968
000005FC
000001C0
000005FD
00000433
00000737
000002FB
0000002B
0000028A
FFFFFEEB
FFFFFC54
00000456
0000068D
00000398
00000242
FFFFFC04
FFFFFCF0
00000427
FFFFFA81
FFFFF32B
FFFFF456
FFFFF414
FFFFF65A
FFFFFC70
0000040E
0000071D
000001FF
0000046D
00000EC1
FFFFFF82
FFFFFEDB
00000746
0000021F
FFFFFEE8
FFFFFDDE
0000018E
0000017D
FFFFFE43
FFFFFF77
FFFFFF57
0000089B
000004D9
00000096
FFFFFF3A
00000113
0000013F
FFFFF40A
FFFFF3AC
FFFFECDB
FFFFEA2A
FFFFF089
FFFFF54B
00000433
000004DB
00000A8A
000001AF
0000062E
FFFFF78D
FFFFF5CE
FFFFFAF8
FFFFFC55
FFFFF7BC
FFFFF8C9
000000A7
FFFFFC7F
00000310
FFFFFC45
00000421
000003A5
00000166
0000000E
FFFFFE7C
FFFFFF6C
FFFFFF5F
FFFFF78E
FFFFED34
FFFFEA4E
FFFFEF01
FFFFEF0C
FFFFF9FA
000006A8
000012DD
00000AF9
00001037
FFFFFE62
FFFFFFDF
FFFFFB72
FFFFF5F7
FFFFF5EA
FFFFFBA5
FFFFFF9F
FFFFFF84
000004D7
0000048B
FFFFFF6D
00000035
FFFFFF69
0000017F
FFFFFD4E
0000008E
FFFFFEA5
000001F2
FFFFF8E3
FFFFF2C1
FFFFEA62
FFFFE4F5
FFFFF0E6
FFFFFD67
000005F6
00000301
0000033C
00000B62
FFFFFDEF
FFFFFD85
FFFFF81B
FFFFF4D4
FFFFF98A
FFFFFA1B
0000020D
00000AA2
00000C4E
00000254
000001E3
0000022C
000002AC
FFFFF79D
FFFFFF19
FFFFFB02
FFFFFB58
FFFFFC3B
000005D6
00000291
FFFFEC9A
FFFFE61B
FFFFEB70
FFFFFDB3
FFFFFD13
000006B5
000004A9
00000487
FFFFF8D4
FFFFFC76
FFFFF3C7
FFFFF19B
FFFFF8B7
00000055
00000856
00000779
00000022
FFFFFAC2
FFFFF980
FFFFF9ED
FFFFF84A
FFFFF6A7
000000A5
FFFFF9C5
FFFFF92A
FFFFFF61
0000026A
0000023A
FFFFEE36
FFFFE8FA
FFFFEBC0
FFFFF535
FFFFFFDB
0000044A
000009EC
FFFFFBA9
FFFFF4D3
FFFFFF03
FFFFF399
FFFFF281
0000024E
0000074B
0000087B
0000069B
000003E7
FFFFFC21
FFFFF1DD
FFFFF9EE
FFFFF6B3
FFFFFEA7
FFFFFFC5
00000181
FFFFFCCE
00000406
FFFFFD16
00000204
FFFFFA45
FFFFF6DD
FFFFE868
FFFFF6C3
FFFFFECC
00000164
000001EC
FFFFFEDD
FFFFF971
FFFFF264
FFFFF2E5
FFFFF898
000003FA
000007FD
0000080E
000004C3
00000216
FFFFFCEF
FFFFF857
FFFFFE47
FFFFFA79
000000DB
0000012C
000002BD
FFFFFE8C
00000414
00000947
0000002F
FFFFFC3A
FFFFF8F3
FFFFF439
FFFFF063
00000021
FFFFFE8C
00000305
FFFFFDCE
FFFFF7B5
FFFFF393
FFFFF901
FFFFFC4B
00000DD4
00000B9B
0000076B
0000045A
000005A1
FFFFFDFD
FFFFFF33
000000E8
FFFFFE0D
FFFFFE75
00000228
000006E7
FFFFFFD3
FFFFFE46
000000C2
00000186
00000275
FFFFF4D0
FFFFEFD4
FFFFF19D
FFFFFFF1
FFFFFF5D
0000023C
00000346
FFFFFC0B
FFFFF70E
FFFFFA12
000003B4
00000624
00000945
000009E2
0000053A
0000046C
000003B5
00000374
00000129
0000055C
00000246
000004D0
0000070F
00000048
00000206
00000A90
00000A4C
00000995
FFFFF527
000001DC
FFFFF236
000002C8
00000539
0000000C
000007BF
FFFFFE5D
FFFFF027
FFFFF620
FFFFFBCC
000001E7
00000543
000000CE
FFFFFE97
00000463
00000C72
000007D1
00000403
00000242
000004C4
000005C7
00000536
00000311
00000858
000003C3
00000155
FFFFFBC2
FFFFEF2D
00000F9A
FFFFED06
FFFFFEEB
00001087
000001DD
000009A1
FFFFFF3F
FFFFFAC3
FFFFF8F7
FFFFF813
FFFFFDDD
000004CC
FFFFFCE9
000001EF
00000663
00000450
0000079C
00000287
0000010D
00000021
FFFFFDBE
0000040E
000008DC
000005A1
FFFFF67C
FFFFF5B5
FFFFF96D
FFFFE3CB
FFFFEEC9
FFFFEFD2
0000007E
00000E48
00000043
00000284
00000097
FFFFF824
FFFFF86B
FFFFFD3A
FFFFF693
FFFFF9EF
FFFFFCD1
FFFFFFC3
FFFFFFA8
FFFFFF29
00000A4E
000000E5
FFFFFE3E
FFFFF9C1
FFFFFBB5
00000739
0000066C
FFFFFFE4
FFFFF16C
FFFFF119
FFFFFE58
FFFFF51C
FFFFF819
FFFFFE1D
FFFFFEF5
FFFFFF9C
FFFFFD01
FFFFFEEE
FFFFF1A7
FFFFFAF4
FFFFFB48
FFFFF947
000000FF
FFFFF4AF
FFFFF6DF
FFFFFE17
00000274
000001E9
000001F8
FFFFFF09
FFFFFEFF
FFFFFDEB
FFFFFC75
000004A2
0000022E
FFFFFE7A
FFFFFB9C
FFFFEF9A
FFFFF4A2
FFFFFB57
00000E40
FFFFFECE
FFFFFE2E
000003D1
FFFFFDA3
FFFFFC8C
FFFFF1C5
FFFFF1FD
FFFFF200
FFFFF823
FFFFFCE2
FFFFFCA5
FFFFFE9C
FFFFFBCF
FFFFFE14
FFFFFE6C
FFFFFBAA
00000699
0000051D
00000719
000001D6
00000646
FFFFF8E1
FFFFF8F0
FFFFFF76
FFFFEFBD
FFFFF68D
FFFFF99B
00000997
000000E1
FFFFFFB2
FFFFFEB7
FFFFFE8D
FFFFFAEE
FFFFF71B
FFFFF687
FFFFF8D6
FFFFFCE8
FFFFFDA1
000003CA
0000030B
000000E3
FFFFFD2A
FFFFFF4F
FFFFFF80
0000002F
000003DD
00000026
000000D9
FFFFFE3F
FFFFF68B
FFFFF0DB
FFFFEACF
FFFFEEAD
FFFFFD5C
FFFFF92C
FFFFF664
FFFFFF62
0000022E
FFFFFE49
00000AB7
00000947
00000C5A
00000D7F
FFFFFF65
FFFFFDCF
FFFFFDE2
000002E1
FFFFFF9D
FFFFFD8B
0000008C
00000580
0000059D
000003AA
000008B7
00000117
FFFFF847
FFFFF2D2
FFFFFEE0
FFFFF9F4
FFFFEDB8
FFFFF934
FFFFF6B5
FFFFFE24
FFFFFEE7
00000017
FFFFFF20
000000AA
FFFFFB5C
FFFFFD35
000003B9
FFFFFF2F
FFFFFADD
FFFFFD80
000003A8
00000179
000001A5
00000489
000006B6
0000054B
FFFFFFAE
000001A8
000000BB
FFFFF42B
FFFFF473
FFFFFC42
FFFFF84F
FFFFF8DA
FFFFF561
FFFFFB23
FFFFFC54
FFFFFF55
FFFFFDC9
000001C4
0000020E
0000017F
00000094
FFFFFC60
FFFFF9DE
FFFFF431
FFFFF57D
FFFFFA8A
00000271
FFFFFDBA
FFFFF86E
FFFFF94C
FFFFFBBD
FFFFFEF5
FFFFFD72
0000069F
00000743
FFFFFDBA
FFFFFE5B
00000292
FFFFF98F
FFFFFEA2
FFFFFB88
FFFFF9F0
FFFFFF90
FFFFFF4C
FFFFFFD6
FFFFFDE3
FFFFFEF2
000001DD
FFFFFF9C
FFFFFEF2
000000CD
00000388
FFFFFC7A
FFFFFCD8
FFFFFB7A
00000020
00000296
FFFFFB67
FFFFFB09
00000417
FFFFFF2C
FFFFFA46
00000251
00000A3C
00000357
FFFFFF2B
FFFFFDB4
00000ABB
0000050E
0000012D
000001CA
0000005A
0000008B
00000168
000001B2
FFFFFF0B
000000AA
000000F8
000001EC
00000082
000000ED
FFFFFFEC
0000016E
000001AF
000000F9
FFFFFEBC
FFFFFEE9
0000029D
00000260
FFFFFE47
0000002E
FFFFFF07
0000015B
00000109
FFFFFDE8
00000233
000000DB
000001F9
00000037
FFFFFFBC
FFFFFEDB
0000003C
FFFFFFB5
FFFFFF5B
000001DD
FFFFFDE4
FFFFFE64
FFFFFF8E
0000036B
00000020
00000663
0000043F
000004C4
000006CF
000006C6
000004F4
FFFFFCA2
00000301
00000616
00000756
000000AD
000001F2
00000053
00000150
0000005B
00000243
00000096
FFFFFE6F
00000154
0000015A
0000019E
000000F4
0000023B
000001C4
000003CD
000000CE
000003D8
0000060E
00000B27
00000DCB
00000815
000003A6
000003BA
0000024C
0000066B
00000591
00000BED
000007C1
00000453
0000026A
FFFFFDEC
FFFFFF16
FFFFFEA2
000009B4
000006B8
00000253
000000D1
FFFFFF33
FFFFFE08
000000F4
FFFFFDE6
00000321
00000549
FFFFFFEF
FFFFFE5A
FFFFFEEA
0000067B
00000C7E
0000034D
0000047F
0000034C
FFFFFE53
FFFFF2F6
FFFFF3CE
FFFFF12F
FFFFF899
FFFFFC32
FFFFFDA0
FFFFF524
FFFFF87C
FFFFF2BC
FFFFFAC8
FFFFFD01
00000078
0000025C
FFFFFF2E
FFFFFE21
00000019
FFFFFC3D
FFFFFB37
00000688
FFFFFE45
FFFFFF7A
FFFFFC12
FFFFF905
0000008B
FFFFF798
FFFFF607
FFFFF625
FFFFFE24
000005B2
000003EB
00000650
00000875
00000702
00000289
000002E8
000006CB
FFFFFC59
FFFFF62D
FFFFF3FF
FFFFF782
FFFFF6EF
FFFFFAA5
FFFFFE52
FFFFFDEA
00000042
FFFFFAE4
000003F0
FFFFF8C4
FFFFF4EB
FFFFFB26
000003A6
FFFFFDBF
FFFFF62F
FFFFF92A
FFFFFD04
000002AC
0000035B
0000053D
000003FB
FFFFFFAF
FFFFFD71
FFFFF99E
FFFFFBD1
FFFFFF5D
FFFFF95A
FFFFF3B2
FFFFF64E
FFFFFCDE
FFFFFF4B
FFFFFE7E
FFFFFF12
0000012B
0000014A
000006A2
00000603
0000081A
000002FD
000007D1
0000083F
000001D8
FFFFFED1
000002CA
0000079C
FFFFFF32
FFFFFFFE
FFFFFEFD
FFFFFC9F
FFFFFE30
FFFFF7C3
FFFFFCE9
FFFFF873
FFFFFDD6
FFFFF2C8
FFFFEE86
FFFFFA73
FFFFF860
FFFFFEEA
00000262
00000214
00000683
00000773
00000BD1
00000B16
000009F4
00000827
00000D42
00000804
0000081E
0000055C
000001E8
00000333
FFFFFEE7
FFFFFDAE
00000049
000003C7
00000021
FFFFFDED
FFFFFFDE
000003B6
0000084B
00000523
00000042
FFFFF9FB
FFFFF4F1
FFFFFE45
00000463
00000946
00000B4D
00000606
00000420
00000AF4
0000065A
FFFFFF96
00000500
00000762
00000116
0000047F
00000379
00000183
000002E6
0000087B
00000880
00000356
FFFFFF9A
FFFFF964
000001A6
00000365
000009D3
00000593
0000123B
00000172
FFFFF862
FFFFF9F9
FFFFF8D0
0000011E
00000228
00000371
000000F9
000009E1
00000A2A
0000024F
00000D0C
00000994
0000026D
00000423
000004DD
00000791
000009EE
00000D0E
00000E61
000004DA
FFFFFE50
00000599
00000706
000004FB
000001EB
00000333
000011D8
0000085C
FFFFFC50
FFFFF36E
FFFFFE08
00000400
000002FF
000002FA
000008B9
000008F7
00000988
00000293
0000076F
0000054F
000001CD
00000558
00000547
0000084A
00000A87
000000FA
00000A6F
0000016A
00000216
000006E3
00000A5D
00000808
000003D9
FFFFFA4F
0000037E
00000371
FFFFFB77
0000074C
000001E3
00000002
0000073A
FFFFFC53
0000058F
0000042E
0000011B
00000052
000002BE
00000180
000003BD
0000005E
FFFFFCE6
FFFFF83A
FFFFE74D
FFFFED1D
FFFFFD4D
FFFFFCD6
0000011E
FFFFFEBD
0000040E
0000022B
FFFFFBCC
FFFFF224
FFFFF6E3
FFFFFAFC
FFFFF68D
00000392
FFFFFFC3
00000116
000005ED
FFFFFAC3
000007CD
FFFFFF83
FFFFFA3E
FFFFFE7C
000006FC
0000071D
0000064D
FFFFFC98
FFFFF675
FFFFF263
FFFFDB5B
FFFFE6CD
FFFFFC2E
FFFFFC2F
FFFFFA9C
FFFFFA88
FFFFF703
FFFFFB59
FFFFF78E
FFFFF7C7
FFFFF52C
FFFFFFC0
00000765
00000BC2
00000300
000003B8
00000290
000009F5
00000594
FFFFFB5B
000001F2
000000D4
00000604
00000869
00000615
00000004
FFFFFFC7
FFFFE64E
FFFFE0B5
FFFFF07D
FFFFFC9C
FFFFFC37
FFFFFC92
FFFFFCCA
FFFFF364
FFFFF90A
FFFFF913
FFFFF8D6
FFFFFB5B
000002C9
0000047A
000009DA
0000058B
00000126
000002B8
00000C84
FFFFFECB
FFFFF256
00000649
00000275
00000333
0000035C
000000A5
00000447
FFFFF218
FFFFE483
FFFFEA91
FFFFF7B2
00000062
FFFFF75B
FFFFF8BE
FFFFFE93
FFFFF715
FFFFF4C9
FFFFFB39
00000398
000006EC
FFFFFE69
000003B3
00000ED0
0000079A
0000009D
FFFFFF2E
00000833
FFFFF1E6
FFFFF75A
0000066A
FFFFFF89
000001E2
FFFFFE05
FFFFF480
FFFFED52
FFFFEBC7
FFFFF2C1
FFFFF728
FFFFFD17
FFFFFF54
FFFFFC6F
FFFFF6D1
FFFFF886
FFFFF6FA
FFFFF330
FFFFFBCC
0000041E
00000F67
00000741
000001E6
0000040B
000003EA
000000CB
FFFFFEC4
00000791
FFFFEDF6
FFFFF582
00000520
000001FE
FFFFF706
FFFFFBB3
FFFFF512
FFFFE8B5
FFFFEE08
FFFFF3B0
FFFFFA86
000006F7
000004BE
000003BC
FFFFFBBE
FFFFF3C7
FFFFF488
FFFFF2B2
FFFFFB78
0000011E
00001529
000007D8
FFFFFEBE
FFFFFD98
0000096D
00000071
FFFFFD7A
0000022B
FFFFFA35
FFFFF390
000001B1
FFFFF70D
FFFFEF73
FFFFF154
FFFFF8AC
FFFFF016
FFFFF25F
FFFFFCAD
000003B1
00000724
000005F3
00000648
00000266
00000246
FFFFFD47
FFFFFBE0
00000655
000004C8
00000E7C
00000488
000016E7
000003CA
00000DEA
00000A5E
FFFFFE2A
FFFFFECF
FFFFF9BC
FFFFFAE0
FFFFFC78
00000083
FFFFFDDB
FFFFF3DF
FFFFFA38
FFFFFCF0
FFFFF8D9
00000296
00000618
00000616
000004B6
00000173
000003F3
0000015B
FFFFFA0A
FFFFFDFC
00000531
00000631
FFFFFEDE
FFFFF9ED
00000503
00000C5F
00000EB8
FFFFFD93
00000557
00000D6B
FFFFFB04
FFFFFE3C
FFFFFAD8
00000944
0000035D
FFFFFBCC
FFFFF963
FFFFFB9F
00000378
00000586
000006A9
0000053A
00000211
000000B7
FFFFFEFA
FFFFF98E
FFFFFD66
000004F8
000000C1
FFFFFF48
FFFFF6AD
FFFFEC63
FFFFFA7E
00000776
000007FC
FFFFFFF2
FFFFFF1E
00001271
0000061F
FFFFFF4F
000005BA
00000B5A
0000030B
0000063E
FFFFFEBC
FFFFFFAA
00000453
000006CB
000000C8
00000109
00000730
000000B7
FFFFFDED
FFFFFD46
00000372
FFFFFD58
000002D3
000002B3
FFFFFAC0
FFFFF20E
FFFFFD43
000002AF
FFFFFF9F
00000188
00000002
00000C60
0000042F
FFFFFAD3
FFFFFF68
00000320
FFFFFCD4
00000362
000004CE
000009F2
0000080A
0000063B
0000040A
00000AE0
00000DA5
000009A2
000004D1
00000897
000004D3
FFFFFE07
000000CF
00000354
FFFFFE0E
FFFFFAB6
000003AA
00000458
000002BF
FFFFFEC9
FFFFFD16
00000915
FFFFFF38
FFFFF7C9
000005CC
0000087C
00000760
000005C0
0000065E
000004D6
000005A4
0000062B
0000078C
000008DC
00000EAE
000001EA
0000020A
0000058C
FFFFFC07
FFFFF9BE
FFFFFB8E
0000005B
FFFFFCDB
FFFFF52D
000005D5
000007E5
000002DC
0000013C
FFFFFE1C
FFFFF639
FFFFFC0A
00000099
00000402
00000DE4
00000E93
000000AE
00000B1F
0000071D
000004E2
0000020A
000000F4
000004D0
00000555
FFFFFC8E
FFFFFF0C
FFFFFAEC
FFFFFB86
FFFFFB6D
FFFFFDDE
0000062A
000005A7
FFFFFCB1
000004F6
00000722
00000088
00000083
0000013C
000004E9
FFFFFD90
00000CB6
00000AF7
0000093B
000000F5
000000DD
FFFFF965
FFFFFE67
FFFFF8F0
FFFFFA10
FFFFF94E
000001BF
00000137
FFFFF6E9
0000043A
000000FD
00000568
0000028E
00000AE4
000006AA
000000D6
00000F7F
000005AF
0000036E
FFFFFFC6
FFFFFE91
FFFFFDD7
FFFFF529
00000782
00000993
0000000D
000004B0
00000700
00000F09
000004AC
FFFFF8A0
FFFFFC9E
000003C9
000001FA
00000998
00000547
FFFFF8B9
00000160
000004D8
000007E9
FFFFFE7C
000003FD
FFFFFE96
FFFFF896
FFFFFBC4
FFFFFAE0
0000021F
FFFFFF7E
FFFFFE35
FFFFFEED
FFFFFFF2
FFFFFCA4
FFFFECF1
FFFFF315
FFFFF3FE
0000008E
0000038C
FFFFFDCE
FFFFFBB8
FFFFFDA7
000003FD
000009C2
FFFFFF51
FFFFFADF
FFFFFE45
FFFFFF81
000006E1
00000A95
00000B71
00000A52
00000D54
FFFFFE28
FFFFF800
000004EC
00000159
00000200
FFFFFE19
FFFFFF26
000000A0
000000C7
00000714
00000B4A
00000D6F
00000958
000008EB
000000C4
000007D6
000007DB
00000341
000010B0
00000432
FFFFF9BE
FFFFFEDD
0000090C
FFFFFFD1
000002D0
00000512
00000430
000009F9
00000C24
00000183
FFFFFFA4
00000153
FFFFFFF7
FFFFFFCE
FFFFFE20
FFFFFEE9
000000A7
00000145
0000015D
FFFFFE55
FFFFFF53
FFFFFEC4
FFFFFF64
FFFFFFAF
00000224
FFFFFFF3
00000609
00000BEC
000003F6
FFFFFE9F
000000D6
00000089
00000159
00000071
000001BF
FFFFFEEF
FFFFFF53
0000011B
FFFFFF6A
00000016
00000152
FFFFFF9B
FFFFFDE0
FFFFFF83
000000FC
FFFFFF0D
FFFFFCF7
FFFFFB3D
FFFFFAB5
FFFFFC1A
FFFFFADB
FFFFFA36
FFFFFFA5
000000B3
0000015E
00000156
00000329
0000027F
0000013F
FFFFFA6E
FFFFFA86
FFFFF8FD
FFFFFB10
FFFFFBF9
FFFFFC64
0000004D
FFFFFF68
000000C2
FFFFFE89
FFFFFDEF
FFFFFF7E
FFFFFB45
000006D4
000004F1
FFFFF893
FFFFF4C3
FFFFFC94
FFFFF57A
FFFFF1C7
FFFFEFBA
FFFFF1F3
FFFFF527
FFFFF29F
FFFFECCA
FFFFEF22
FFFFEED1
FFFFEE2F
FFFFF054
FFFFEF28
FFFFEF07
FFFFF54B
FFFFF5F7
FFFFFA73
FFFFFD7B
000001BF
000000D5
000000CF
FFFFFE03
FFFFFF6D
FFFFFD7D
0000098D
000008DC
FFFFFF2B
FFFFF78A
FFFFFED4
FFFFFCDF
FFFFF179
FFFFF668
FFFFFB59
FFFFF4F6
FFFFFE76
0000022F
FFFFF55E
FFFFFECE
00000514
FFFFFBE6
FFFFF8EF
00000C5F
00000139
FFFFFE64
FFFFFFAB
000002FA
000002D9
FFFFFCED
FFFFFFA3
00000187
FFFFFEB1
FFFFFBDF
00000B7C
FFFFF9EA
FFFFF897
FFFFFFBA
00000D0B
FFFFFCA6
00000446
FFFFFCD3
0000035B
00000397
000000CD
FFFFFDD3
0000017E
000005E2
00000823
000000F4
0000006C
000002A7
000001F7
FFFFFFB4
FFFFFB84
FFFFFF8D
FFFFFC5A
00001195
0000049D
000001CC
000001D4
FFFFF9DC
000009D4
FFFFF3F3
FFFFF05C
FFFFFC58
00000313
FFFFFDC3
FFFFFF1C
00000564
00000C14
00000C50
000003DF
000005E8
00000549
00000C7B
00001132
00000596
FFFFFFAB
FFFFFE30
FFFFFAD2
FFFFFDED
FFFFF2FF
FFFFF71F
FFFFFD2B
00000794
00000229
00000154
FFFFFDD2
00000128
FFFFF521
FFFFF490
FFFFFD53
FFFFFD16
FFFFF561
FFFFFE2A
FFFFFEAA
FFFFF993
FFFFFE29
FFFFFE4B
00000124
000002B3
000005C6
000004A2
000002D4
00000473
000005E9
FFFFFCBD
FFFFFFF7
00000901
00000B20
00000114
000001E0
00000542
FFFFF925
FFFFFFDD
FFFFF931
FFFFFED6
FFFFF79F
FFFFFA31
FFFFFEB2
FFFFFBD9
FFFFF67A
0000022B
FFFFFD78
FFFFF9E0
FFFFFE3B
FFFFFB75
0000036A
FFFFFD17
00000596
00000544
000002B7
0000027A
000006A6
000000E1
00000027
00000365
00000C58
00000E77
00000BAB
FFFFFB8C
000000A9
0000058C
FFFFF939
0000059B
00000620
00000244
FFFFF8CD
FFFFFFE2
FFFFF998
FFFFFEBB
0000001C
FFFFFD77
FFFFFE80
FFFFFD04
FFFFFFC1
000002D4
0000017C
000007EA
000004FC
000006ED
00000698
000006FE
00000648
00000103
0000074E
00001195
00001817
000003FC
000006A3
FFFFFDEC
FFFFF78F
00000CB8
000004DF
FFFFF7DE
FFFFFB04
FFFFF97E
FFFFF61C
FFFFFCD8
000002F3
FFFFFEA3
0000011B
00000111
FFFFFA91
FFFFF588
FFFFF7FD
FFFFFEC2
00000900
00000394
00000125
00000EDA
00000746
00000997
00000C52
000010EB
00001F39
00000AB0
FFFFFE45
FFFFFE7F
FFFFFBF8
00000224
FFFFFBBD
FFFFFF5E
FFFFFD23
FFFFFC2E
0000009A
00000388
000004B0
000002D6
000001C3
FFFFFC61
FFFFEF30
FFFFF3CF
FFFFF6F7
FFFFFFF3
000004A0
0000027D
FFFFF8E2
00000320
000009A6
0000115D
00000F96
00001066
00000E0A
00000CF3
FFFFFFD3
FFFFFA71
00000202
FFFFF70C
FFFFF66B
FFFFF4C7
FFFFFE80
000005AB
000001B8
00000810
0000023F
00000301
00000582
FFFFFAF1
FFFFF6AB
FFFFFBEA
FFFFFB7D
FFFFFD82
FFFFFDDC
FFFFFAB7
FFFFFDB2
FFFFFD1D
000000B0
000004C9
00000422
00000CDD
00000A64
000014E6
FFFFFE5E
FFFFFD5F
FFFFFA9A
FFFFFD7C
FFFFFC2D
FFFFFA7B
FFFFFEEF
000007B1
00000045
FFFFFC15
00000031
00000589
00000627
FFFFFEBC
0000019E
00000025
FFFFFA4F
FFFFF8E2
FFFFF6CA
FFFFFE95
000002FA
000002F1
00000592
000000AC
00000637
00000E04
000004B1
000009D2
FFFFF796
FFFFFFFD
FFFFFF0C
FFFFFAEE
FFFFFDF5
0000032B
00000168
000002C8
00000297
FFFFFE32
0000026B
000003D0
000003AC
000003D9
000006C2
00000294
FFFFFE06
FFFFF80B
FFFFF6C7
000002D5
000005F6
00000140
FFFFFF27
0000082C
00000D81
00000686
000007DA
00000727
00000012
000000BC
00000118
FFFFF6E7
FFFFF7A9
0000081B
000009EC
00000C9B
00000528
000000FB
FFFFFFEE
0000005F
000005D7
000005AA
000009C4
00000535
FFFFFE83
FFFFF614
FFFFFE19
000000A2
FFFFFD72
00000560
00000909
000005BF
000008B5
00000FD1
00000912
00000215
FFFFFC4E
000001E2
0000042A
0000004B
FFFFFEAE
00000BD2
00000E9F
00001068
00000C16
000002FE
FFFFFE8D
FFFFFF1B
FFFFFBC7
00000410
0000023E
00000102
FFFFFC6D
FFFFF9A1
FFFFFCF7
FFFFFEBD
0000004A
FFFFFFE5
FFFFF9D7
FFFFFC07
00000974
00001261
0000074D
FFFFF667
FFFFFC22
FFFFFD0D
00000322
FFFFFFCB
0000092A
00000D18
00000459
0000035D
00000BC5
00000575
FFFFFBAD
FFFFF840
FFFFFA87
000001E7
0000014C
000001B6
FFFFFC05
FFFFF939
000001CC
000000D4
FFFFFDB3
FFFFFFCB
FFFFFA48
FFFFFBCB
00000723
00000341
00000358
FFFFF5BD
FFFFFB37
000000A6
0000002C
0000022D
0000016F
00000F6E
00000837
00000489
0000088E
0000087C
000001F1
FFFFFAFD
FFFFF87C
00000030
0000011D
FFFFFB9A
FFFFFAE2
0000043A
0000051C
00000069
00000127
000000AA
FFFFFD67
FFFFFFA0
00000687
FFFFFFF1
FFFFF3D2
FFFFEAB8
000002CC
FFFFFAF0
FFFFFAF7
FFFFFC8D
FFFFFD7A
0000041D
00000F63
00000DA4
00000310
00000801
FFFFFFF5
FFFFFE32
FFFFFA92
FFFFFDBF
FFFFFAB2
FFFFF00F
FFFFF944
000008EE
0000046E
00000109
00000895
0000035F
FFFFFE2C
00000171
000004A1
0000047E
FFFFFE66
FFFFF943
FFFFFC39
FFFFFD66
FFFFFD5E
FFFFFD28
00000271
00000A06
00000F26
0000070C
FFFFFF2A
00000352
FFFFF916
FFFFF9AA
FFFFFA08
FFFFFD53
FFFFFB4A
FFFFF467
FFFFFAA4
000007BC
00000DAA
0000062C
00000572
000006DA
00000101
00000121
FFFFFFC8
0000076A
FFFFFCFB
00000957
FFFFFF29
0000003B
00000468
00000142
FFFFFDA4
00000432
00000C8E
0000044B
FFFFFC6E
0000005D
FFFFFA5B
00000037
FFFFFF61
FFFFFDDC
FFFFFB86
FFFFF4AA
00000146
00000586
00000632
FFFFFD24
0000027D
00000348
000003E1
FFFFFC8A
00000254
FFFFF799
FFFFFA5B
00000643
FFFFFC15
FFFFFE9C
FFFFFF2E
00000120
000006E0
00000307
FFFFF96F
0000060C
0000001E
FFFFFDDB
FFFFFE47
FFFFFD37
00000105
FFFFF7C0
FFFFFC3E
FFFFFCCD
00000201
FFFFFF88
000001A5
FFFFF5AA
FFFFFDA5
FFFFFDCC
0000009B
000004D7
00000372
FFFFF397
00000739
0000056A
00000234
FFFFFEF4
FFFFFB55
0000042E
00000DC2
FFFFFD81
FFFFF5E8
000005E0
00000149
FFFFFBEB
FFFFFBB0
FFFFFEBC
0000016D
0000025D
00000553
0000057A
0000070E
00000262
FFFFFE65
FFFFF8AC
FFFFFC46
FFFFFBD0
FFFFFB74
000002C7
FFFFFF8A
000000B3
000002CA
00000A2A
FFFFFFB9
0000018C
00000021
00000667
00000E94
FFFFFEF5
FFFFFAC4
FFFFFF5F
00000529
00000BAA
0000049A
0000065E
0000073F
0000074F
00000D27
00000980
00000819
00000345
000001A1
0000000E
FFFFFBD6
FFFFFA6B
00000270
00000583
FFFFFEF2
FFFFFAB0
000003AA
FFFFFFF1
FFFFFF43
FFFFFDC4
FFFFFE3B
FFFFF7E3
000006D9
FFFFFC04
FFFFF402
FFFFFE19
000002FE
00000911
000009AD
000009F9
000008DB
00000A9C
00000B70
0000061D
0000058D
00000B54
FFFFFB53
FFFFFED9
FFFFFD7D
00000456
FFFFFDA7
FFFFF4CE
FFFFF416
FFFFF71E
FFFFF871
FFFFF9D3
00000000
FFFFFF0C
FFFFFDEF
000004DD
00000381
FFFFF322
FFFFF8C7
000003CC
FFFFFD0F
FFFFF4B1
FFFFFE9B
00000246
FFFFF77C
FFFFF4DF
FFFFFD29
FFFFF64F
FFFFFF96
000003DB
00000303
FFFFFE42
FFFFFED2
FFFFF83F
FFFFF7B1
FFFFF8B5
00000151
00000340
FFFFFB4B
FFFFF7FC
FFFFFF1D
FFFFFF81
FFFFFE32
000001F9
000001E2
00000B5A
000002DF
FFFFFDE1
FFFFF8BF
FFFFFBA7
FFFFF8C2
FFFFF70E
FFFFFD0D
00000214
0000008D
00000091
FFFFFE2A
FFFFFA1C
FFFFFC0F
FFFFFD14
FFFFFC32
FFFFFF0F
FFFFFE3E
FFFFFD08
FFFFFED7
FFFFFC6F
FFFFFD9C
FFFFFF0E
00000067
FFFFFEEE
0000023B
FFFFFF33
000001B5
FFFFFA05
FFFFF1CC
FFFFFBB1
0000031E
FFFFFF82
FFFFF9C8
FFFFF3D9
FFFFFB41
FFFFFF9F
FFFFF815
FFFFF34F
FFFFFDE9
FFFFF498
FFFFE89F
FFFFF309
FFFFFD4E
FFFFFC9B
FFFFF8DB
FFFFF7B8
FFFFF828
00000229
0000008B
FFFFFE93
000000B5
FFFFFF0B
FFFFFDCF
00000137
000000C9
FFFFFDBF
FFFFFFF2
FFFFFE73
FFFFFEF2
000000C3
FFFFFEA0
0000019B
FFFFFE50
FFFFFBE9
FFFFFB3E
000006A5
000003DF
000001DF
000001D7
00000136
FFFFFF46
FFFFFDDE
FFFFFF81
FFFFFF2F
000001B4
000000D0
00000236
0000006A
FFFFFF8F
0000022C
FFFFFE2F
FFFFFF7A
FFFFFE8F
000000D7
FFFFFCEE
FFFFFAD7
FFFFF90D
FFFFF64F
FFFFFCE5
FFFFFE1B
FFFFFAE3
FFFFF968
FFFFF8DB
0000011C
FFFFFD7C
FFFFF5E4
FFFFF64A
FFFFFCD4
FFFFFB16
FFFFFA32
FFFFFB41
FFFFFA76
FFFFFAD9
FFFFFEE7
FFFFFE90
FFFFFE9E
000000CF
FFFFFF27
0000013B
FFFFFB0A
FFFFFDD9
FFFFFD31
FFFFF97F
FFFFFA27
FFFFF90C
FFFFF6CB
FFFFF8DC
FFFFF273
FFFFEF94
FFFFF2D6
FFFFF3C2
FFFFEA99
FFFFF742
FFFFFC26
0000005F
FFFFF9DA
0000001C
0000020E
FFFFF748
FFFFF90C
FFFFF6B2
FFFFFEF4
FFFFFFC2
00000226
0000014B
FFFFFE50
FFFFFDD7
FFFFFC7B
00000094
000000C3
FFFFFF29
FFFFF2D4
FFFFF4F6
FFFFF9CD
FFFFEBE4
FFFFE73F
FFFFE651
FFFFEB13
FFFFE5FC
FFFFE6A6
FFFFF233
FFFFFD02
00000D25
00001241
000007B1
00000910
000006D5
0000068A
FFFFFAF3
FFFFFBED
FFFFFBE5
00000111
FFFFFFAE
FFFFFEBB
0000008A
FFFFFF10
00000AFB
00000432
FFFFFAA8
FFFFF89F
FFFFECB1
FFFFE475
FFFFDC7C
FFFFE123
FFFFECB6
FFFFEE87
FFFFF2F2
FFFFEC67
FFFFF8D6
FFFFFD60
FFFFFD77
000009B4
00000B23
000001B9
000000E7
000001C7
00000349
0000165A
00001A26
00000EDF
FFFFFAB3
FFFFFEE2
FFFFFF8A
FFFFF79B
FFFFFD7A
FFFFF8D5
00000161
FFFFFD15
FFFFF8E2
FFFFEF89
FFFFF80D
FFFFFC3F
000003D0
FFFFFBB5
FFFFF789
FFFFF2BD
FFFFF80B
FFFFF852
FFFFF6A4
FFFFFF8A
00000437
0000041C
FFFFF87F
FFFFF9D3
000002BC
000010F0
00001E85
00000766
00000371
000001A9
000001EF
0000087E
FFFFFA74
FFFFFAB3
FFFFFF7E
000001E4
0000009B
FFFFFF9D
00000612
00000A4C
000003BA
FFFFFF8B
0000027A
00000228
000001BA
000000D8
000000BC
0000020D
000001A0
000009F0
FFFFFF66
FFFFFABE
FFFFF7C3
00000502
000011F6
FFFFFEA2
000007A0
000001F4
000004E7
00000083
00000502
0000023E
00000206
00000351
000002DC
000001EB
000001D2
00000275
00000087
000001E5
00000468
00000448
00000318
00000340
00000438
000003C3
FFFFFF0B
0000087E
000002EA
FFFFF715
FFFFF5E6
FFFFFD98
FFFFFF12
FFFFFD6F
00000A94
00000002
FFFFFFEC
FFFFFCF5
00000102
FFFFFDFF
FFFFFF4C
FFFFFFC1
FFFFFA6F
FFFFFFA8
FFFFFEFB
FFFFFFA6
0000038E
000000FB
000001CB
00000011
0000018F
000007C2
00000972
FFFFFF94
FFFFFD8D
00000218
00000128
FFFFFE40
FFFFF4D9
FFFFF300
FFFFED5E
FFFFF945
00000AE8
FFFFFA34
00000048
00000369
FFFFFDD2
FFFFFDE7
FFFFFBEA
000003C1
FFFFFF05
FFFFFE81
00000533
00000628
00000682
000003DA
00000541
0000026B
000003BC
0000017E
00000663
000001F0
0000001A
FFFFFED0
FFFFF741
FFFFF625
FFFFF680
FFFFF536
FFFFF938
FFFFF1B4
00000F08
FFFFFB4D
FFFFFEE2
FFFFF26D
000003BF
FFFFFBA1
FFFFFB0D
00000637
00000032
00000132
00000493
00000398
000006E8
00000719
00000444
000000CA
FFFFFB9E
00000053
FFFFFF96
FFFFFB27
FFFFFE78
00000229
FFFFF4E1
FFFFF627
FFFFF53F
FFFFF24D
00000530
000001CE
00000F50
FFFFFB04
FFFFEF7F
FFFFFF2F
FFFFF6A9
FFFFF827
000002A8
00000475
FFFFFBFD
00000158
FFFFFEC8
FFFFFA4C
000000E0
FFFFFA13
FFFFFBFB
FFFFFA16
FFFFFEE7
FFFFFD81
00000170
000000DD
FFFFF8EF
FFFFFD8D
FFFFF5C6
000003C7
FFFFFB30
FFFFF5F5
000001AD
FFFFFED7
00000FA7
00000140
FFFFFF47
FFFFFC46
FFFFEC66
FFFFFD96
FFFFF944
000003DD
FFFFFC76
FFFFFCE8
FFFFF5F2
FFFFFCD2
FFFFF5BC
FFFFECB2
FFFFF741
00000732
000006B6
00000078
00000357
00000215
FFFFFCA3
FFFFFAA5
FFFFFAEB
000005C6
000004F3
FFFFF6E6
0000148E
00000CBE
0000166F
000006C0
FFFFFE5F
FFFFFCD9
FFFFED81
FFFFFC1B
FFFFF335
FFFFFF89
000002D2
FFFFFC33
FFFFFC61
FFFFFB3C
FFFFF5FB
FFFFFA98
00000020
0000092C
000000DD
0000019A
000003E4
FFFFF797
FFFFF943
0000014E
FFFFFBA5
FFFFFC46
FFFFFF0D
00000BBC
00000D09
00000170
000002C5
FFFFFE72
0000003D
FFFFFEBF
FFFFF97C
000003D8
FFFFF576
000003BA
0000099F
00000A64
0000073F
00000538
FFFFFDC7
FFFFFB75
FFFFFE94
000002E2
00000479
000007CB
00000244
FFFFFA05
FFFFFABA
000001EB
FFFFFA9D
FFFFFB2A
FFFFF63A
000003C2
FFFFF9B5
000003EC
0000036B
FFFFFF59
FFFFFEA9
FFFFF70A
FFFFF058
00000670
000004F4
000010B6
00000F4A
000012A8
00001395
00000CD5
0000075B
000003CF
000001C8
0000021A
0000071B
0000019A
0000013D
0000028D
FFFFFD79
FFFFFEA8
FFFFFF5D
0000036E
0000049C
00000728
FFFFFA70
0000052B
FFFFFB1A
000001EB
FFFFFE84
FFFFF91C
FFFFEEE2
000003EC
00000440
000010B2
000011AE
000012B0
00001879
00001481
00000EEE
00000C73
0000096D
000000BC
000000E5
FFFFF6F6
FFFFFA80
000001D0
0000025E
00000123
000003A6
00000B38
00000659
000007DA
FFFFF9DB
00000ACB
0000038E
FFFFFE21
FFFFFF98
FFFFFBE7
00000321
FFFFF66E
0000031D
00000B9F
00001298
00001082
0000098C
00000DE4
00000A33
00000FF2
00000D89
0000075F
00000606
FFFFF849
FFFFFB41
FFFFFDC6
000000BA
00000335
0000007D
000003EE
00000212
0000027B
00000578
000005B7
FFFFF8E7
0000070C
FFFFFF1B
00000489
FFFFF11E
FFFFF23F
FFFFFC4D
0000025C
000000BC
FFFFFAE4
FFFFFB44
000003F2
00000642
000003BF
FFFFFED3
0000006C
000000D7
FFFFFC77
000002B9
FFFFFD02
0000007D
0000039F
FFFFFFCD
0000053C
000001C0
FFFFF6F4
000007C3
000016E2
000007CD
FFFFFF96
FFFFFE12
000003A3
FFFFEC3E
FFFFEB95
FFFFF03D
FFFFEDF5
FFFFE50A
FFFFE7AE
FFFFEC11
FFFFEBD3
FFFFEE26
FFFFF1C4
FFFFF288
FFFFFBBF
FFFFFD5D
000000D0
FFFFFEDE
FFFFFD72
00000375
00000257
0000002F
FFFFFD87
FFFFFAC0
FFFFF85E
000009AA
FFFFFDEA
0000051A
000001DF
FFFFF695
FFFFFAA9
FFFFF5D2
FFFFED57
FFFFED47
FFFFE9F6
FFFFE237
FFFFE722
FFFFEAE7
FFFFE553
FFFFE154
FFFFE643
FFFFFAB0
000002F1
000001F5
0000020E
FFFFFFDE
00000202
000003BE
000000D4
00000178
000000D0
0000063E
FFFFFE31
00000DC3
FFFFFD20
00000018
00000248
00000316
00000B58
0000033B
FFFFF036
FFFFF478
FFFFF6A3
FFFFED18
FFFFE65C
FFFFEA12
FFFFF0FC
FFFFF42E
FFFFF980
FFFFFE48
0000008D
00000046
000006F1
FFFFF973
000001D0
FFFFFE38
000002F3
000008DD
FFFFFF6F
FFFFF977
000007AB
00000DF5
FFFFF5F8
000000C5
00000021
00000137
000009D8
0000074C
FFFFFFEA
FFFFF8AA
FFFFFA96
FFFFF486
FFFFF504
FFFFF44B
FFFFFB2D
FFFFFFF7
FFFFFCDC
FFFFFC01
FFFFFAF4
FFFFF87C
FFFFF7E2
FFFFF9A3
FFFFFB4F
FFFFF946
0000047B
FFFFFF65
00000227
FFFFFF7E
00000F7D
00000590
00000392
000000C1
0000003E
FFFFFE04
00000385
0000056D
00000607
000000B3
0000030B
0000022C
FFFFFDBD
FFFFFAB7
000003F9
00000422
FFFFFA34
FFFFFA25
FFFFFC8A
FFFFF796
FFFFF463
FFFFF5F8
FFFFF732
FFFFFA31
00000059
00000270
0000073F
0000082F
000017A8
00000CCA
000006DF
000000C4
00000191
000000B3
0000031C
000006C8
000001B0
0000020A
00000795
00000277
000005DE
0000073E
000002B8
FFFFFF69
FFFFFACE
FFFFFE3C
FFFFFCEC
FFFFFE64
FFFFFBE6
000000FB
FFFFF72A
FFFFFBC9
000005A7
00000E1E
0000089F
00000B34
00000885
FFFFF83D
FFFFF852
000001B5
FFFFFF77
FFFFFFAB
00000264
FFFFF90B
00000A12
00001D26
000014C5
00000CD9
000013B8
00000E45
00000BC0
FFFFFEF6
0000058C
FFFFFF3A
FFFFFE00
FFFFFC0C
FFFFFFE6
FFFFFB76
FFFFF7E6
00000413
00000A60
00000A23
00000535
0000011D
0000069F
FFFFFD25
FFFFFA9C
000001BA
FFFFFF66
FFFFFE7C
000001E1
000002E6
00000446
00000FEC
00001A76
00001336
00000911
00000893
00001A76
00001377
0000098B
00000CEE
00001D32
0000184F
00000F73
00000BD7
000004C8
00000D01
00001726
0000102A
00000E21
00000247
FFFFFDD1
000000AB
FFFFFDDB
0000020A
00000069
000001C9
0000015B
000001CD
FFFFFF63
FFFFFEA2
000006D1
0000066D
000008A6
FFFFFF5A
000003AE
00000591
00000249
000008DE
000016A7
0000100D
0000078B
000008AE
00001000
00000304
FFFFFAC4
00000576
0000048D
000009E0
FFFFFE1A
FFFFFF6C
FFFFFFE9
0000011C
00000077
000010CD
FFFFFB36
000003B3
FFFFFFA4
0000002E
000002FC
FFFFFF61
00000288
000003C2
000006BF
000010FB
000001A5
FFFFF72F
FFFFFD3F
00000294
00000561
FFFFFF25
FFFFF9E0
00000413
000006D5
00000317
000000EB
FFFFFE6C
FFFFF786
0000071A
FFFFFEA7
FFFFF99C
FFFFFD88
000005CD
00000BB5
FFFFEB53
000007EF
FFFFFD54
000000EC
000012DF
FFFFF833
000006A5
000006F2
FFFFFA2A
FFFFFABE
00000996
00000E0E
000003A8
FFFFFFF4
00001297
FFFFEE8F
FFFFFAA1
0000096A
FFFFF54D
00000D45
0000032D
FFFFF507
00000264
FFFFFD32
0000076F
FFFFEE43
00000AF1
00000311
000002AB
000016EA
00000660
00000730
FFFFFEB1
FFFFFFE9
FFFFF5A5
0000011A
FFFFFECB
00000578
00000D5C
000003F4
FFFFFC1E
FFFFFE33
0000065C
000013D6
00000749
00000869
0000079A
FFFFFD62
FFFFFFBA
00000A5C
00000259
FFFFF9FC
FFFFF45A
00000A18
FFFFF588
FFFFF2B1
FFFFFE29
FFFFFE57
0000138D
000009C4
FFFFFDA6
000002B2
FFFFF966
FFFFF9E7
FFFFF9BF
FFFFF937
000004F6
FFFFF295
FFFFF2F6
FFFFF598
00000036
FFFFFD09
FFFFFB77
FFFFFC13
FFFFF8C0
FFFFFB6C
FFFFFB55
00000B99
00000931
FFFFF760
00000355
000012D4
000009C6
00000364
00000503
000006C8
0000004B
FFFFFB17
0000044C
FFFFFE87
00001074
000001B2
FFFFFCE3
FFFFFA1F
000007E4
FFFFFE69
00001537
0000040A
00000373
FFFFFC35
000003EF
000002FA
FFFFFFF1
00000488
FFFFFE95
FFFFFB9E
FFFFFA55
FFFFFD79
0000022D
FFFFFB26
FFFFFE7C
000004D4
00000284
FFFFF96C
00000226
FFFFFAD4
00000511
00000127
00000534
FFFFF9CA
FFFFFF40
FFFFFD46
FFFFFC92
FFFFFF73
FFFFFE02
00000041
FFFFFA0C
FFFFF9A7
0000039E
0000047A
FFFFFE55
000001DD
FFFFFE9E
FFFFFBA4
000000B7
000000DB
FFFFFD8A
FFFFFF8D
FFFFF8DA
FFFFFA36
0000013F
FFFFFC96
FFFFFF5B
000001CD
FFFFFB31
FFFFFF59
FFFFFC41
00000711
FFFFFFC0
FFFFFC9B
000001F0
000003BE
FFFFFFC9
FFFFFF62
FFFFFD2A
00000061
FFFFFD44
00000184
FFFFFB1C
FFFFFA35
FFFFFAE6
00000139
FFFFFDBF
000002A8
FFFFFF17
FFFFF7E7
00000163
FFFFFBC6
FFFFFEB4
000001F5
FFFFFD9C
FFFFFF28
000003F3
FFFFFB8F
FFFFFD39
FFFFFD4E
FFFFFED1
FFFFFB3F
FFFFF951
FFFFF782
FFFFFA63
FFFFFC01
FFFFFA9E
FFFFFF54
00000199
00000433
FFFFFAF2
FFFFFEB2
FFFFFE99
FFFFFC29
0000003D
FFFFF7C9
FFFFFBCE
00000494
FFFFFB3C
000003E4
FFFFFE22
FFFFFF91
00000058
FFFFFB05
000001E4
000003EE
FFFFFE8F
0000010D
FFFFFDCA
FFFFFE32
0000026A
0000015C
FFFFFC0C
FFFFFBD8
FFFFFBE9
FFFFFF15
FFFFFDF8
0000000A
0000037E
FFFFFC8A
FFFFFC8A
0000032B
00000041
FFFFFEDF
FFFFFDEB
000003F3
FFFFFE83
FFFFFA50
000001DF
00000566
00000271
00000ED1
FFFFFE5D
00000535
000005E1
FFFFFF98
FFFFF44C
0000036B
FFFFFB60
FFFFFCCA
000012BC
000011CD
FFFFFCF7
FFFFF5C1
FFFFFC2A
FFFFFD37
FFFFF8DB
000009BA
FFFFEC25
FFFFFE7B
FFFFEAFB
00000B5B
FFFFFE59
FFFFFD59
0000011B
00000279
00000849
0000012B
FFFFFAF6
0000080C
000019DC
00000520
FFFFFB56
00000CA4
FFFFF98F
00000960
00000073
00000073
FFFFF92D
00000F15
FFFFF2A7
FFFFE8CF
000011D9
00000D23
FFFFF24B
0000060B
000001A1
FFFFFA1A
FFFFFA08
000004C2
00001284
00000462
00000D0B
FFFFF516
000008B0
000005BD
0000067A
FFFFF8E9
00000531
FFFFF063
00000240
FFFFFFEF
00000560
00000000
00000000
00000000
00000000
00000000
00000000
00000000
00000000
00000000
00000000
00000000
00000000
00000000
00000000
00000000
00000000
00000000
00000000
00000000
00000000
00000000
00000000
00000000
00000000
00000000
00000000
00000000
00000000
00000000
00000000
00000000
00000000
