FFFFFE17
000000A5
00000204
000000EE
FFFFFDED
0000017E
00000063
0000016E
0000017D
000000DB
00000226
FFFFFF68
000002BA
000009AE
00000C2E
00000A75
FFFFFF75
00000229
0000007F
FFFFFF37
FFFFFFF1
000001D8
000001AB
FFFFFFFB
FFFFFF3D
0000004B
FFFFFDCA
0000006F
FFFFFE6F
FFFFFE23
00000230
00000020
00000213
00000187
000000E6
00000088
000001AC
00000115
FFFFFFFC
FFFFFC72
FFFFFDB0
FFFFFD79
FFFFF935
FFFFFD60
00000F0B
00000CBF
FFFFFBE6
FFFFF7A9
FFFFFCCD
FFFFFEA7
FFFFFC21
FFFFFFB7
FFFFFE81
FFFFFFCF
00000045
000000E3
000000BF
FFFFFFB6
FFFFFDC6
00000241
FFFFFC05
FFFFFC92
FFFFFEBF
FFFFFDC1
000000C7
00000250
00000208
0000055A
00000F87
00001308
00001007
00000CBE
00000FF7
0000011E
000007DB
FFFFF901
FFFFFD1F
00000152
FFFFFAB3
00000204
000002E5
FFFFFFE2
FFFFFEF8
00000111
00000134
FFFFFF4C
00000BE5
FFFFFF4A
FFFFF9BD
FFFFFFB6
0000016A
FFFFFE5A
0000015C
00000791
FFFFFD64
0000013B
000006A8
0000034B
00000253
000003F5
000007DA
000007CA
00000E0F
00000732
000006D4
FFFFFE5B
FFFFF955
FFFFFC1B
FFFFFB07
00000220
FFFFFD8E
000001C4
00000021
00000004
00000E0B
0000013C
FFFFFF86
FFFFFFD4
000004E2
FFFFFD49
FFFFFAA2
0000010D
00000427
0000097E
00000A5B
0000075A
00000A8D
00000C9C
00000C45
000008AD
0000062E
000009EE
00000C69
FFFFFB76
FFFFF920
FFFFF1E0
FFFFF041
FFFFF822
00000160
FFFFF664
000001F3
FFFFFDF9
00000964
FFFFFD04
000000C3
FFFFFBA3
FFFFFD2F
FFFFFE9C
FFFFFA1C
FFFFFD34
0000013B
FFFFFD16
0000014A
00000389
0000037F
0000041E
0000096C
000004D9
00000353
00000CB9
00000865
00000A2B
00000E0B
000003C7
FFFFF768
FFFFFE6E
FFFFF623
FFFFF3F0
000001BF
0000051A
FFFFF6F1
FFFFF1CA
FFFFF6C9
FFFFF14C
FFFFFB50
FFFFF701
FFFFF74B
FFFFFD72
00000515
FFFFFE89
FFFFFEDB
0000035E
00000A6F
00000A94
00000903
0000081A
00000C1B
00000B11
000003A0
00000737
000009C0
000006DD
FFFFFE92
000005C9
FFFFFF7B
FFFFFC1F
FFFFFDC6
00001312
FFFFFA12
FFFFF52C
000000C7
FFFFF7CD
FFFFF789
FFFFF25F
FFFFF794
FFFFF71C
FFFFFA8D
FFFFFCE4
FFFFFF11
00000543
0000082A
0000076A
00000ACE
00000403
000005B9
000000E0
FFFFFE85
00000367
00000A6A
000003B8
0000020B
0000029A
000001F5
FFFFF941
FFFFF1A7
00000371
FFFFF98B
000000BE
00000441
FFFFFB9E
FFFFF6AF
FFFFF5C5
FFFFF6AD
FFFFF4E8
FFFFFB54
FFFFFE54
000002C4
FFFFFD8D
FFFFFD13
FFFFFE6E
000003E5
00000443
0000030E
00000523
00000386
FFFFFFB8
00000987
00000EAA
FFFFF7CC
FFFFF4BF
00000C04
000008B4
00000000
FFFFFC33
0000070C
00000879
FFFFF764
FFFFF65C
FFFFF53D
FFFFF5ED
FFFFF982
FFFFFA2A
FFFFFF93
FFFFFFF9
FFFFFA5B
FFFFF3F8
FFFFF10B
FFFFF2F3
FFFFFB98
FFFFFDF3
FFFFFFA5
0000030C
00000551
FFFFFEBB
00001007
00000BB5
FFFFECBB
0000062A
000014A4
000005AB
00000064
FFFFFF0A
00000412
000006C9
FFFFF19D
FFFFF147
FFFFFB71
FFFFF9ED
0000024F
FFFFFC19
FFFFFF41
FFFFFBB8
FFFFF1DA
FFFFF285
FFFFF243
FFFFF561
FFFFFD30
FFFFFE4D
00000351
000001A4
000006E2
0000045B
0000067A
0000001F
FFFFEA88
FFFFF260
00000754
000001CF
FFFFFF4C
0000113B
FFFFF33C
FFFFF990
FFFFFCAB
FFFFF500
FFFFFF47
0000028D
00000328
FFFFFF5F
FFFFF931
FFFFF901
FFFFEEBA
FFFFEB6A
FFFFF98F
00000029
00000013
00000201
000002DB
000007BE
000012A9
0000062E
00000610
FFFFF6A4
FFFFE92F
FFFFF922
000004F8
FFFFFF24
FFFFFBE4
FFFFFFBA
00000669
FFFFF49E
FFFFF6F5
FFFFF068
FFFFFB87
000000AB
FFFFF6AC
FFFFFD60
FFFFF92D
FFFFF0E2
FFFFF1EA
FFFFEB8C
FFFFFD4B
0000025E
000005EA
000006C9
00000782
00000F5B
00000AE7
000005CD
FFFFF8D8
FFFFF166
FFFFF461
FFFFFFAC
FFFFFE4E
00000161
00000521
FFFFFF59
00000D38
00000187
FFFFF572
FFFFF166
FFFFFBB8
FFFFF8F1
FFFFFD6E
FFFFFE13
FFFFF626
FFFFF700
FFFFEFEF
FFFFFDC1
00000607
000003DC
00000231
000005FD
0000080F
00000884
00000501
FFFFFFCE
FFFFF480
FFFFF221
FFFFF162
FFFFF97C
0000071F
000002E6
FFFFFF24
FFFFFBD8
FFFFFB6B
000003BD
FFFFFA8B
FFFFF079
00000190
FFFFFED2
FFFFF886
FFFFF4C4
FFFFFA84
FFFFFED6
FFFFFCE3
00000725
00000701
0000069A
0000016B
000003EB
00000481
FFFFFAB2
FFFFF7C9
FFFFF7BE
FFFFFC33
FFFFFB5F
FFFFFAD5
FFFFF77C
000008AF
000004E3
FFFFFDC7
FFFFFC13
FFFFFC9F
00000397
FFFFFDD0
000000E2
00000247
FFFFFC8B
FFFFF81F
FFFFF574
FFFFF4B7
000002C9
FFFFFD3E
000008AC
00000637
00000553
00000044
FFFFFDE4
FFFFFDE5
FFFFF26D
FFFFF75D
FFFFFB3F
FFFFF6DF
FFFFF6AF
FFFFFD10
FFFFFED9
000009EC
00000572
00000073
00000026
000001BD
0000019E
000004A6
00000861
FFFFFD53
0000015F
FFFFFB88
0000008C
FFFFFF5E
00000606
000005F7
000007A2
0000069D
00000529
FFFFFE4A
FFFFFF22
FFFFFDCE
FFFFF7A2
FFFFF661
00000341
0000022F
FFFFFD2E
0000067E
0000004F
000001AF
000002AF
00000035
00000106
FFFFFFD3
0000086C
00000C65
00000DE1
00000194
0000022E
00000285
0000036F
FFFFFF73
000008F8
00000B60
00000E42
00000B4D
00000499
FFFFFEA7
FFFFF83F
FFFFF5BC
FFFFFBC3
FFFFF90C
FFFFFF11
000000D7
FFFFFD15
FFFFFEFA
00000F49
0000064C
00000519
FFFFFF8B
000001BA
FFFFFECA
000006DA
000008E5
00000F90
00000AC4
000004CD
FFFFFE0D
000000B0
000009FF
0000033D
00000094
00000150
0000002D
0000037C
FFFFF9F2
FFFFF3BD
FFFFFA37
FFFFFDD1
FFFFFD03
FFFFFCA2
FFFFF962
FFFFFA5E
000004AF
00000B6E
000004DA
00000279
FFFFFD40
000000D5
FFFFF9C0
FFFFF7E3
0000038E
00000AF5
00000CB7
00000787
00000381
0000038B
0000040B
FFFFFEE2
FFFFFEC9
00000220
000000F4
FFFFFE69
FFFFFDCB
FFFFFE12
FFFFF81F
00000184
0000037F
FFFFF582
FFFFEECF
FFFFFD41
000004D7
FFFFFC18
0000067D
000000C4
00000129
FFFFFEC8
FFFFFF8A
FFFFFDC6
000001BC
000000D1
0000064A
00000D62
00000826
000003C8
000002F7
FFFFFEA3
FFFFFA1B
FFFFF874
FFFFFE5A
FFFFFFA6
FFFFFDBF
FFFFFA0B
FFFFFE58
00000139
00000123
FFFFFD95
FFFFF1F2
000007EA
00000697
FFFFFF97
000003C4
FFFFFF22
000002E8
00000265
00000C5A
00000C2E
00000477
FFFFF86B
0000009F
00000CC7
0000050B
FFFFFB12
000001F1
FFFFFD0D
FFFFFB03
FFFFFC4B
0000014E
000003CF
FFFFFCD0
FFFFFB89
000001A7
000008F1
FFFFFDA4
0000018E
FFFFFE91
0000088E
000000D2
000007A9
000010D7
FFFFFF44
000002DE
0000034C
00000A65
FFFFFD98
0000090A
0000060F
00000327
00000575
00000056
FFFFFDC2
FFFFFED1
FFFFFD6D
FFFFFA04
FFFFFC97
00000144
FFFFFF5E
FFFFFDB9
FFFFFF6E
0000016C
00000768
FFFFFDC4
FFFFFF99
000000E9
0000073A
00000DBB
000004BF
000006CC
0000012F
00000146
0000009C
00000A51
FFFFF916
FFFFFF9A
FFFFFEDA
FFFFFAC6
FFFFFD86
FFFFFB6B
FFFFFBCF
FFFFFF7A
FFFFFFB1
000002A8
000007FD
FFFFFFFD
000005CA
000007DD
000003A7
000008F7
0000024B
00000388
000006AD
00000D5A
000013B3
00000E86
00000607
00000288
FFFFFDFC
00000145
FFFFFEA3
FFFFFEC7
000001D0
FFFFFFE0
FFFFF86C
FFFFF818
FFFFF2CC
FFFFF541
FFFFF414
FFFFF866
FFFFFF0B
0000026C
FFFFFB91
FFFFFFC5
00000752
0000014F
000007E8
000008F8
00000376
000007C3
00000D8E
00000458
00000062
00001045
00000487
000000F7
000001D1
FFFFFE7B
00000044
FFFFFD46
FFFFFA2E
FFFFFAD0
FFFFF306
FFFFFC4D
FFFFF38A
FFFFFF9D
000002A9
FFFFFF38
FFFFFF98
00000204
FFFFFEB0
FFFFFC93
0000038E
00000111
0000006E
00000761
000000A0
000007AE
000005CF
FFFFFE2B
FFFFF620
0000018F
000003C0
00000176
FFFFFE1E
FFFFFF07
FFFFFE6D
FFFFFF2B
FFFFFD40
FFFFE9D8
FFFFEB0B
FFFFF195
FFFFF8A2
000001D1
000000C6
000000C4
FFFFFA7C
FFFFF38C
FFFFF915
FFFFFD32
FFFFFA64
FFFFF88F
FFFFFADA
000002C2
FFFFF6AA
FFFFF7D3
FFFFF773
FFFFF415
FFFFF693
FFFFF884
FFFFFA62
00000149
00000185
000001CD
0000010F
FFFFFFD4
FFFFFEB8
0000040C
000000E6
FFFFFEA1
FFFFFE1B
FFFFFF71
FFFFFF9F
000008FB
FFFFFB23
FFFFFC4F
0000051D
00000254
FFFFFF4E
00000030
FFFFFDDA
FFFFFC80
FFFFFDC1
FFFFFA9E
FFFFFC64
FFFFFBFE
00000001
FFFFFF6D
0000011C
00000229
FFFFFF7A
FFFFFECC
FFFFFED3
FFFFFDBF
00000136
FFFFFFC1
FFFFFDEA
00000004
FFFFFE03
FFFFFF6F
00000226
FFFFFE98
FFFFFFBC
FFFFFD2B
FFFFF84E
FFFFF819
FFFFFB34
000001F8
FFFFFE76
FFFFFFF7
0000001B
FFFFFF5B
00000051
00000177
00000109
000001AF
0000021C
FFFFFFAB
FFFFFE62
0000001D
FFFFFE9A
00000180
00000074
00000103
FFFFFE32
FFFFFA2E
FFFFF86C
FFFFFADB
FFFFFB91
FFFFFCA6
FFFFFBFC
0000008B
FFFFF53B
FFFFFDA5
FFFFFC51
FFFFF43C
FFFFF413
FFFFFD59
FFFFFDA9
FFFFFCBD
FFFFFDE6
FFFFFC06
FFFFFF6C
FFFFFF44
FFFFFFEB
0000018C
FFFFFE9C
00000041
000000F2
FFFFFE16
FFFFFF3D
FFFFFF89
FFFFFFDA
FFFFF821
FFFFF96E
FFFFF4E0
FFFFFAA0
FFFFFC5E
000004DB
FFFFF99D
FFFFF046
FFFFF27C
FFFFF4C2
FFFFFE27
000000FB
FFFFFA26
00000396
000005AF
FFFFFA42
FFFFF9B4
FFFFF375
FFFFFCDD
FFFFFE09
00000200
FFFFFDDC
00000072
FFFFFEC5
000004A3
FFFFF99D
FFFFF2E1
0000016F
FFFFF922
FFFFFC6B
FFFFF6ED
FFFFFAC7
0000038D
0000070C
FFFFF95F
FFFFEA5C
FFFFEFC9
FFFFFF7A
00000119
0000058E
00000292
0000089F
00000111
FFFFFD09
FFFFF819
FFFFF275
FFFFF699
0000028C
FFFFFEBE
000001E2
FFFFFF56
00000271
0000052C
00000398
00000C34
00000860
000002E7
0000063B
00000E90
00000955
00000C08
00000753
00000245
FFFFF42F
FFFFF2AF
FFFFFD88
00000C6C
00000366
00000929
00001009
00000DC6
00000446
FFFFFE43
FFFFF6A6
FFFFF6EA
FFFFFDFE
FFFFFF7A
FFFFFAC6
0000007E
00000127
0000041A
FFFFFA80
00000162
00000E3C
000007BE
0000114D
00000C10
0000033D
00000669
FFFFF791
FFFFF531
FFFFEEEE
FFFFF5FD
FFFFFC0F
000001BB
00000729
000006C7
000004CA
000007D7
000002D2
FFFFFDC7
FFFFFD7A
FFFFF64F
FFFFFBE3
FFFFFCC2
FFFFFF13
0000016A
000002D2
00000034
FFFFFFBB
FFFFFD35
00000436
00000688
0000032E
0000010A
00000459
FFFFFF26
FFFFF6C5
FFFFF702
FFFFEB02
FFFFEB51
FFFFFA93
0000072D
00000935
00000F99
00000CA2
00000787
FFFFFEDB
FFFFF032
FFFFF468
FFFFEC02
FFFFFC83
00000031
0000042B
00000113
000007EC
FFFFFEC8
00000AF3
00000AE2
00000900
000002A5
000004B4
FFFFFC26
0000024D
FFFFFE19
FFFFFBD1
FFFFF626
FFFFEC3A
FFFFF242
FFFFF95C
000009B1
000010EA
000008F8
00000C5B
000006EB
FFFFFB05
FFFFF2FD
FFFFE8ED
FFFFE4FC
FFFFEE35
FFFFFA92
FFFFFE05
FFFFF84A
FFFFFB28
0000081E
00000C53
00001098
00000A98
FFFFFD5B
FFFFFF6D
FFFFF73B
000006FE
000003D8
FFFFFDF0
FFFFF386
FFFFEF92
FFFFEDA2
FFFFFFDF
00001303
000015D1
00000BBC
00000174
FFFFF816
FFFFF5D1
FFFFEE05
FFFFE7D4
FFFFE4CF
FFFFF55A
FFFFFD4A
FFFFFFAF
00000124
00000453
00000BE6
0000049F
00000D6F
0000083C
000000B4
FFFFFF82
00000027
00000459
FFFFFFB1
FFFFFE65
FFFFF9BE
FFFFEEF4
FFFFF0F2
00000A65
000019E6
00000E25
000007AE
FFFFF746
FFFFEE34
FFFFFA9A
FFFFFA9B
FFFFF375
FFFFDDE9
FFFFF540
FFFFF6FF
FFFFFCF1
00000131
0000057D
00001462
00000BDE
00000895
0000004F
FFFFFAC2
FFFFFD24
0000013D
00000739
FFFFFE69
00000132
FFFFFDB9
FFFFF3B6
FFFFF452
000009A8
00000DDB
00000EA2
00000178
FFFFF89A
FFFFF17C
FFFFF811
FFFFF96E
FFFFEE6E
FFFFE1EE
FFFFFE1F
FFFFF81F
FFFFFD9E
000004FC
00000930
000002A9
00000DE1
000008B3
000001F3
FFFFFED0
FFFFF712
FFFFFA9F
00000464
00000549
0000050D
FFFFFFE9
FFFFF960
FFFFFC44
0000089F
00000B91
00000256
FFFFF8EE
FFFFF159
FFFFEF75
FFFFF66F
FFFFF37A
FFFFF395
FFFFEAC9
FFFFFB66
FFFFFE79
0000051C
0000044D
00000374
00000897
00000776
0000024E
0000023E
00000464
FFFFFE96
FFFFF7EF
FFFFFD9D
00000D6B
000007E2
0000060E
0000006F
FFFFFD46
000003C3
00000624
FFFFFD79
FFFFF374
FFFFEFAD
FFFFF576
FFFFFDA9
FFFFFAA3
FFFFFE29
0000066F
FFFFFC8F
FFFFF330
00000219
FFFFFF86
000002EE
00000273
00000452
FFFFFF4D
0000062E
00000593
FFFFFB69
FFFFF7D7
0000016B
0000069A
FFFFFFAF
FFFFFBCA
FFFFF83F
FFFFFB94
0000007B
FFFFFE3E
FFFFFF5D
FFFFFCC1
FFFFFA9E
000000EE
0000031E
000001C1
0000065A
0000071F
FFFFF9B5
FFFFEDF1
00000078
FFFFFDB0
00000284
000003C9
0000029A
FFFFFEDA
00000EF2
000006C0
FFFFFC68
0000011B
000007D7
000006F3
FFFFFCB5
FFFFFCB4
FFFFFF89
00000484
00000428
000004A2
00000290
FFFFFD5A
000003E3
0000066A
000008C8
00000ACF
00000C93
00000BD4
000005E0
0000015A
FFFFFCB6
FFFFFF0A
000004C2
0000166B
000007DF
00000573
00000E53
0000055B
0000032B
0000078C
00000397
00000008
FFFFFD07
FFFFF973
00000123
00000561
00000490
FFFFFEBD
00000583
FFFFFE2C
000003C4
000009F5
0000106C
00000FAF
00000841
0000036F
0000031F
00000AFB
000002FC
0000026A
00000547
000011CF
00001045
000007B8
000004FD
000009DA
000008C7
00000129
000000D3
FFFFF4A8
FFFFF632
FFFFFC10
FFFFFE25
FFFFFCD0
0000011C
00000032
000000D9
000001D0
00000B14
000003CA
00000C28
000001E0
00000769
00000EF4
00000942
000001BE
000001AF
FFFFFDBB
000002B6
00000BBF
00000322
000004CE
000004B4
000002E3
00000144
FFFFF379
FFFFF49E
FFFFF066
FFFFF368
FFFFFA47
FFFFF89F
FFFFFF5C
00000206
FFFFFFF3
00000228
0000036C
00000088
FFFFFD91
0000075B
0000028E
0000044E
00000C35
FFFFFF04
00000815
FFFFFDFB
FFFFEFA2
00000774
00000888
00000671
0000043F
00000621
000003F0
00000204
FFFFF464
FFFFF51B
FFFFF776
FFFFFB7E
FFFFFD3B
00000526
FFFFFBE1
FFFFFDDA
FFFFFFAF
00000013
0000012C
FFFFFCF3
FFFFF900
000006FB
FFFFFD0E
FFFFF629
00000041
FFFFF9F5
00000D43
000005BA
00000766
FFFFFA77
FFFFFB9B
00000AFF
00000998
00000A2E
00000737
00000454
FFFFF870
FFFFFDA0
FFFFFF45
FFFFFFDD
FFFFF86B
000000B2
FFFFFB2A
FFFFFECF
00000048
0000007C
00000438
000004A7
000001AE
00000829
FFFFF80C
FFFFF43B
FFFFFDCD
00000392
00000096
0000069D
00000063
FFFFF57D
FFFFFC1A
000005E5
00000659
00000454
00000976
FFFFFD86
FFFFF9E8
FFFFF90F
FFFFFD0A
FFFFFD3D
0000021B
FFFFF87A
FFFFFA70
FFFFFF49
000004C4
000002F5
00000C42
000004DB
0000072C
00000806
FFFFFCE7
FFFFF956
00000137
00000160
000004B9
00000FA1
000003B5
0000070E
000002DF
000004E5
FFFFFE5F
FFFFFF76
00000624
00000324
00000066
FFFFFC07
FFFFFBDA
FFFFFB92
FFFFFD41
FFFFFB30
00000002
FFFFFEB3
FFFFFE82
00000163
FFFFFF5C
FFFFFF6B
00000031
FFFFFF4B
000003A8
000005FA
00000D07
000002B7
00000312
FFFFFEC5
00000428
0000083A
00000301
0000079C
FFFFF76C
FFFFF5A3
FFFFFFF5
000002E7
00000065
FFFFFFCF
FFFFFEB6
FFFFFE8D
FFFFFB48
0000032C
FFFFFA6E
FFFFFE74
FFFFFD17
FFFFFF67
FFFFFDE8
00000552
000004CE
00000A61
00000922
000004EE
00000057
000003C9
00000606
0000002C
FFFFFF97
00000168
0000098C
0000074C
FFFFFDED
FFFFFA12
FFFFFCD2
00000B4E
0000075C
0000017F
000002CF
FFFFFEAA
0000026B
00000019
FFFFFA2A
FFFFFED4
FFFFF8B6
FFFFFCE5
000001D5
000003B3
0000063B
00000F0E
00000256
00000036
FFFFF58F
FFFFFF69
00000808
000000BE
FFFFFF9E
00000176
0000091C
00000827
0000039E
FFFFF860
00000096
00000455
00000895
00000BF0
FFFFFAEE
FFFFF521
FFFFF7C5
FFFFFE54
00000007
FFFFFB78
FFFFFD5D
00000392
00000252
FFFFF97F
FFFFFF3A
00000A11
000003AD
FFFFFEDE
FFFFFA0B
000003D8
00000172
FFFFFE72
00000182
FFFFFFC4
FFFFFE9A
FFFFFF9E
00000CDA
0000055A
0000077D
0000092F
00000A77
00000A24
FFFFFCE3
000001FC
00000901
FFFFFF67
FFFFF8A2
FFFFF447
FFFFFA66
00000220
000000DC
FFFFEE4C
FFFFF3AA
FFFFEFDE
FFFFFDD8
00000387
FFFFFCA6
0000001F
FFFFFF04
FFFFFFF1
00000182
FFFFFF2A
FFFFFEAE
FFFFFF48
FFFFFA2F
FFFFFE8A
FFFFFFE0
FFFFF1C1
FFFFFDD9
FFFFF223
FFFFFC72
FFFFFEF4
FFFFF3A4
FFFFECDD
FFFFF0F5
FFFFFF2E
000002C4
00000878
FFFFFE1A
FFFFF5BB
FFFFF07F
FFFFF34F
FFFFF76C
FFFFF8CB
FFFFFBCA
00000179
FFFFFF33
FFFFFE51
FFFFFE84
FFFFFEA6
000000BA
000001E9
000002B1
000000BA
FFFFFA6E
FFFFFC0C
FFFFFD07
FFFFFDB7
FFFFFB76
FFFFF8ED
FFFFF90B
FFFFFCCA
FFFFEE37
FFFFF353
FFFFFE65
FFFFFF4F
FFFFF60B
FFFFFC8E
FFFFFC49
000002E4
00000055
00000A27
FFFFFE78
00000091
FFFFFDE2
FFFFFDBE
00000109
FFFFFEE4
FFFFFEF7
FFFFFE24
FFFFFF12
000001DF
00000115
00000057
000000A0
FFFFFF32
0000013E
000000DB
FFFFFF37
FFFFFEA4
FFFFFFF1
FFFFFE22
00000056
000000F1
0000019C
00000068
FFFFFF29
FFFFFEB3
0000014A
FFFFFF6B
0000013E
FFFFFFB7
FFFFFE8C
FFFFFF52
000001F1
FFFFFFA5
000001CF
FFFFFDFC
0000007C
FFFFFE90
00000172
00000189
0000018A
000003D3
0000025D
00000176
0000058A
000002CB
FFFFFDDC
FFFFFE15
00000376
000003AF
FFFFFDED
FFFFFFA3
FFFFFEC7
FFFFFF60
0000021D
000001EA
000001A1
FFFFFFA9
00000166
FFFFFF4C
00000047
00000180
0000021A
000000B4
0000013F
000002F3
FFFFFFD8
FFFFF8B2
FFFFF680
FFFFF3A1
FFFFF70F
000000A3
FFFFFA3A
FFFFFA24
FFFFF651
FFFFF5F6
FFFFF304
FFFFFB62
00000477
000005EC
00000869
FFFFFDB0
FFFFFF7D
00000052
FFFFFE61
00000203
00000194
000000DB
000001A7
FFFFFF13
FFFFFECE
00000313
00000224
0000026A
000000F7
FFFFF986
FFFFF723
FFFFF22A
FFFFF474
000004AF
00000B3A
0000034B
FFFFFA41
FFFFFBE8
FFFFF052
FFFFF9A0
FFFFF344
FFFFEB11
FFFFEB81
FFFFF8CC
FFFFF4F7
FFFFF7D5
00000536
00000468
0000042D
0000007F
FFFFFFCB
00000275
FFFFFF9C
000001E4
FFFFFE94
FFFFF936
FFFFF6CB
FFFFFBB9
FFFFFD10
FFFFFB79
FFFFFC4D
FFFFFCD3
FFFFF8DA
FFFFF06A
FFFFEF91
FFFFF2E1
FFFFECE1
FFFFF5E8
000001A5
FFFFFEA5
FFFFFA40
FFFFFB70
FFFFFD11
000000DC
000007D7
0000117A
00000C7D
FFFFFAED
000000EA
FFFFFFC4
FFFFFF3F
FFFFFE67
FFFFFA7F
FFFFFA52
FFFFEDFC
FFFFF316
000001DB
00000289
FFFFFCE0
FFFFFA3D
FFFFF1CE
FFFFF2F4
FFFFF368
FFFFF3AF
FFFFF721
FFFFF61D
FFFFFBBA
FFFFFBF5
FFFFF995
FFFFF988
FFFFFE2B
00000424
0000043C
00000897
00000249
00000140
0000021A
00000040
000009B6
FFFFFD3D
FFFFF962
FFFFFC55
FFFFEC2C
FFFFEA0F
FFFFF796
000002FF
000005A3
FFFFFDBD
FFFFFC1B
FFFFFEE4
FFFFFE37
FFFFFADC
FFFFFAD3
000001D6
FFFFFE57
FFFFFD0C
FFFFFE78
FFFFFE32
00000704
00000654
00000B4E
000012B2
00000A0B
000007DC
0000002A
0000025D
00000A29
FFFFFBEE
FFFFF18A
FFFFFB3E
FFFFF430
FFFFFB1C
00000653
00000737
00000B2D
00000603
00000616
0000019A
00000379
000004C0
000007EC
00000A5F
00000673
000003A0
00000C22
00000989
00000C94
0000094D
000009EF
00000E66
00000C53
00000AF4
00000236
00000298
FFFFFF1C
FFFFF788
FFFFF27A
FFFFFD7B
FFFFFBF3
000002A3
00000438
00000805
0000056C
00000601
00000B6A
000003A9
0000057B
000007E7
00000E12
0000117B
00000DC1
00000C88
00000DC3
00000AD8
00000E20
00000A74
0000128A
00000D83
00000639
000008B5
FFFFFED9
FFFFFEF5
FFFFF6A1
FFFFFAA3
0000029D
FFFFFC93
FFFFFE1F
000003DA
00000459
000004BB
00000527
0000082D
0000025C
0000008D
00000153
00000082
00000487
00000C6B
00000E1E
000002BB
0000005D
FFFFFFB0
00000AE4
00000140
00000B87
00000E6D
FFFFF918
0000092F
FFFFFD14
FFFFFDCD
FFFFFB8E
0000053E
FFFFFC00
FFFFFD24
0000097E
000000E0
0000078B
000009A3
00000BB9
00000A89
00000055
FFFFFC57
FFFFF91C
FFFFF793
FFFFFA1F
FFFFF8FB
FFFFF825
FFFFF4F5
FFFFF936
FFFFFD61
FFFFFAC2
FFFFF27C
FFFFFB87
000002AA
00000599
000008C4
FFFFF905
FFFFFEA6
00000920
FFFFF9F6
FFFFF4D9
00000390
000002AE
FFFFFE75
000003AE
000002A0
000001B5
000004B4
FFFFFC7D
FFFFFEB0
FFFFF564
FFFFF553
FFFFF2C0
FFFFF256
FFFFECB0
FFFFE4B6
FFFFEA67
FFFFF14C
FFFFF4AB
FFFFEB5C
FFFFEABE
00000052
000007AC
0000013B
FFFFFB70
FFFFFF81
00000054
FFFFEEBE
FFFFF080
FFFFF9D1
FFFFFD80
0000004C
00000759
00000604
0000078B
000006D4
000000C4
0000037E
FFFFFDE0
FFFFFC8D
FFFFF304
FFFFF20A
FFFFEFC8
FFFFEC51
FFFFF0DE
FFFFECC7
FFFFF666
FFFFED9F
FFFFEEE9
FFFFEB45
0000016D
FFFFF7DF
FFFFFD65
FFFFFC28
FFFFFED0
FFFFF036
FFFFEA10
FFFFF99E
FFFFF9DB
0000037B
0000040B
0000058B
0000092B
0000012C
0000059E
000005A2
0000044D
FFFFFA04
FFFFFD23
FFFFFF7D
FFFFFC53
000000A0
FFFFFFC8
FFFFF28E
FFFFF4A7
FFFFF9D6
00000033
FFFFF8C1
FFFFFE2A
FFFFFC04
000003A6
FFFFFF0D
000008E6
FFFFFA8E
FFFFFD07
FFFFF3C7
FFFFFF2F
00000243
0000061E
00000602
00000CAF
0000039E
000002F8
000001E6
00000651
000004FD
00000578
00000287
00000037
00000756
00000660
FFFFFC3B
FFFFFFBF
00000D88
00001143
FFFFFCAC
FFFFF842
FFFFFD64
00000121
0000036E
FFFFFFF7
FFFFF4A5
00000257
FFFFFF57
FFFFFA45
000000F9
FFFFFE88
00000538
00000DA1
00000A48
00000523
FFFFFE2B
FFFFF8C1
FFFFF887
FFFFF698
000001D0
00000442
000000DF
000006FD
0000010F
000004D6
00000DD8
00000937
FFFFFDD2
FFFFF2DB
FFFFFB94
FFFFFEBB
0000024D
00000074
FFFFF817
FFFFF80B
00000210
FFFFF5D3
FFFFFA1F
FFFFFC2D
FFFFFD23
00000689
00000548
00000004
FFFFF569
FFFFF075
FFFFF6B9
FFFFF7A5
FFFFFFC2
0000021A
0000045F
00000102
000001CA
00000B98
00000806
FFFFFFFF
FFFFFD32
FFFFF6E8
FFFFFBC8
FFFFFF7A
0000025C
FFFFFE55
FFFFFB53
FFFFFDC1
0000012D
FFFFF986
FFFFF854
FFFFF9BD
FFFFF663
FFFFF964
FFFFFC92
FFFFFAF5
FFFFEFAE
FFFFEFCD
FFFFFA79
FFFFFB58
00000246
000003E3
00000250
00000374
FFFFFFAB
00000B20
000000A5
FFFFF501
FFFFEC7A
FFFFF219
FFFFFBDF
0000012D
FFFFFA64
0000059C
FFFFFB65
00000804
0000047F
FFFFFFFF
FFFFF8BC
FFFFF6FB
FFFFF193
FFFFF2B7
FFFFF689
FFFFF2B6
FFFFEE51
FFFFED33
FFFFF5F3
000000F9
00000427
FFFFFF7C
0000021D
000002D8
00000143
00000411
00000274
FFFFF801
FFFFF6D2
FFFFF3FB
FFFFFBB2
FFFFFEA1
0000024A
00000334
FFFFF7FD
000008BF
000005F8
000002E9
FFFFFDB2
FFFFFC0E
FFFFFC00
FFFFF875
FFFFFBA0
FFFFF877
FFFFF0F8
FFFFF32B
FFFFF753
0000008B
00000778
0000023F
000003AF
00000247
FFFFFC47
FFFFFDDF
0000012C
0000049F
000008AB
FFFFF3A7
FFFFFD04
0000020B
0000013A
FFFFFC34
FFFFFE01
00000B64
00000507
000000F0
FFFFFB68
FFFFFE3C
00000107
00000394
000003CF
FFFFFE70
0000064D
FFFFFD05
000000DB
00000146
000004BD
000001F0
00000426
FFFFFE0A
FFFFF5FF
FFFFF8E1
00000024
00000440
00000B6F
FFFFFF80
00000344
FFFFFF9E
FFFFFD24
FFFFFDEE
FFFFFACC
00000DF3
0000076B
FFFFFD7F
FFFFFE01
FFFFF9C2
FFFFF9F7
000002EE
00000303
000006B4
00000554
00000229
FFFFFF7D
00000375
FFFFFC81
FFFFFFF7
FFFFFE65
FFFFFA30
FFFFF896
FFFFFC00
FFFFFD05
00000205
00000AC0
0000006F
000001F3
FFFFFF1E
FFFFFB10
FFFFF6CA
00000404
0000074F
000004FE
00000355
FFFFFC6A
FFFFFF76
FFFFF88A
FFFFFD78
000001EC
FFFFFFDA
FFFFFBA1
FFFFFD06
FFFFFF4A
00000248
000000A5
FFFFF9EF
FFFFF7CC
FFFFF8B3
FFFFFCFF
FFFFFB24
00000469
000007E2
000000E6
FFFFFE63
00000056
FFFFFE58
00000223
FFFFFEA6
00000AE7
0000137C
00000D8B
000007A5
FFFFFF2F
00000070
00000291
0000036E
000004FE
000000F4
FFFFFBC7
FFFFFEF0
FFFFFD75
FFFFFFBF
FFFFFCA1
FFFFF538
FFFFF52B
FFFFF9D2
FFFFFD4B
000002DC
0000042F
00000844
00000337
FFFFFBDF
0000005E
FFFFFDD6
000000EE
0000001E
00000794
00000508
FFFFFF71
000000CB
FFFFFDBA
FFFFFF13
000004CC
00000178
FFFFFF97
000003EB
00000285
FFFFFF04
FFFFFF24
000000EF
0000076B
FFFFFF44
FFFFFD71
00000764
00000FDF
00000865
000003AE
000008F7
FFFFF727
FFFFF99A
000000F5
FFFFFF44
0000004B
00000313
00000461
FFFFFA33
FFFFFDB1
0000086F
000000B9
00000154
000000C6
0000021C
000004C2
00000F34
00000AFC
00000466
00000950
00000BAA
00000BBA
00000924
00000A9E
00000734
00001338
000015DC
00001185
00000EE3
FFFFFAD5
FFFFF6E3
FFFFFFB9
000001B8
FFFFFEA9
000001A2
FFFFFECB
00000464
FFFFF850
FFFFF54D
FFFFF431
FFFFF618
0000009E
00000C2E
000011A8
00000FF8
00000FCF
00001090
00001ADA
00001AFC
00000D13
000003D3
000015D5
0000140C
00000AD1
00000AF1
FFFFFE5C
FFFFFB45
FFFFFF0E
FFFFFE31
0000004D
FFFFFF6E
FFFFFF58
000001D8
FFFFFE79
FFFFFE2F
00000092
FFFFF971
FFFFFF38
FFFFFE29
FFFFFBD3
FFFFFF24
00000395
00000462
FFFFFEA4
00000C74
FFFFFF50
FFFFFFBF
00000E59
000007BB
000002CA
00000648
000007F1
00000839
FFFFFFF9
00000202
000000C4
FFFFFF21
FFFFFE24
000001F1
000001CD
00000091
000001CA
FFFFFDE3
FFFFFF67
000001E8
00000027
FFFFFF14
00000077
0000015D
00000183
00000645
00000697
00000115
00000078
FFFFFFCE
00000217
FFFFFE04
FFFFFEFD
FFFFFE92
FFFFFF26
FFFFFDFA
000000BB
FFFFFED0
FFFFFDD9
00000229
00000243
FFFFFFE0
000001EF
000001BA
000000FB
00000114
00000000
0000006E
000000A5
000004ED
00000372
00000773
00000277
00000494
000007B0
000006D7
FFFFFCB7
FFFFFA6E
FFFFFBB3
00000766
00000821
0000082E
000007A3
00000379
00000037
FFFFFFDC
FFFFFF89
FFFFFEF5
FFFFFE03
00000131
FFFFFFC0
FFFFFDDF
FFFFFA64
FFFFFCF4
0000030B
0000066B
00000168
00000181
FFFFF9FB
FFFFFE09
000003DE
00000493
0000061C
00000863
FFFFFFF8
FFFFFB92
000000DB
000000A3
000002E2
000002C7
FFFFFF67
000004E0
FFFFFDB3
FFFFFB69
FFFFFAB4
00000105
00000132
FFFFFF23
000001EC
FFFFFE89
FFFFFED6
000009D3
FFFFFD39
FFFFFF66
000001E5
FFFFFA07
FFFFF505
FFFFFC13
FFFFFC16
FFFFFCFE
000000D6
FFFFFCE9
FFFFF7B8
FFFFF548
FFFFFE4D
FFFFFF83
FFFFFF04
0000030D
000010D9
000010BD
000001DA
FFFFF4AF
FFFFFB53
FFFFFB45
FFFFFF8A
FFFFFFA6
FFFFFE10
FFFFFD92
0000098B
000005CE
FFFFF98F
FFFFFACE
FFFFF95F
FFFFF5B7
00000213
00000052
0000017D
FFFFFF25
FFFFFBA8
FFFFFE5F
FFFFFB85
FFFFFE8B
00000169
FFFFFAB3
FFFFFC00
FFFFFEA0
00000105
0000097B
00000F35
00000748
000004BB
00000F04
000009FE
00000088
FFFFFE87
FFFFFEC4
0000005A
FFFFFC2B
FFFFF558
FFFFF9AB
FFFFFD0E
FFFFFF32
00000615
00000C62
000009EC
000006EC
0000028F
00000100
FFFFFA36
FFFFFDD0
00000114
FFFFF7A5
FFFFFAB8
FFFFFC37
FFFFF816
FFFFFE06
FFFFF6F4
FFFFF8CB
FFFFFD57
00000D1E
000009AF
FFFFFE1D
FFFFFA3E
00000562
FFFFF00A
FFFFFDAE
000008FA
FFFFFE60
000000CA
000006D2
00000385
00000477
000003B5
000004DB
000001A1
FFFFFD5F
FFFFFBAF
FFFFF7A1
FFFFFAE4
FFFFF8C5
00000218
FFFFFE29
FFFFF5F1
000004BD
000001BD
000000F5
00000B2A
000004D9
FFFFFA1F
00000025
FFFFF627
FFFFFDF6
FFFFECF8
FFFFF7E9
FFFFFCB4
FFFFFBA0
FFFFFB59
0000065E
000006B9
00000A94
000007EE
0000050D
FFFFFC37
FFFFFE4B
00000362
00000236
FFFFFDBC
FFFFFB68
FFFFFFC6
FFFFFE40
FFFFFD4D
00000BCA
00000F35
0000040E
000005E7
00000C36
FFFFFEF0
00000220
FFFFFB34
00000696
00000323
FFFFF670
FFFFF6B0
00000538
000001E7
000000C0
00000319
00000218
000008AD
000003D4
FFFFFE11
00000081
0000029C
0000063E
FFFFFE92
00000143
FFFFFE43
000000D7
000005B2
00000315
00000C73
00001460
00002180
00000A4E
00000ACD
FFFFFFE5
FFFFF9DB
FFFFFFBC
FFFFFEF3
FFFFF7BB
FFFFF285
FFFFFC10
FFFFFAA5
00000141
000005B4
000004E2
00000786
000001F1
FFFFFFEB
FFFFFB83
FFFFFECA
0000073B
FFFFFDF6
000000D3
000000C8
00000111
000005AA
0000006A
00000578
00001625
00001A11
00000682
FFFFF4D6
FFFFFE8D
FFFFFB8D
FFFFF65C
FFFFF594
00000274
FFFFFA53
FFFFFB65
FFFFFF8B
0000068D
00000A2D
000008C4
0000011E
000003AB
FFFFFB87
FFFFFC4D
FFFFFBD5
FFFFFDA2
FFFFFD10
00000364
000001F2
000004B8
000002C3
00000061
FFFFFE8C
00001024
000013ED
00000968
FFFFF7C4
FFFFFF4F
FFFFF63C
FFFFF68E
FFFFF696
FFFFFBFC
FFFFFD77
000003F8
00000406
0000025D
00000640
0000032F
000000BA
00000400
0000036B
FFFFFB96
FFFFF9A3
00000394
FFFFFED0
FFFFF954
FFFFFB72
FFFFF832
000001B2
FFFFFDB2
0000025E
000010F5
0000125C
0000190B
FFFFF5E0
FFFFFFC8
FFFFFDE0
FFFFF76A
000000D7
FFFFFC35
00000637
0000051F
00000667
00000391
00000220
FFFFFE84
000003A0
000004E5
0000062C
FFFFFA4D
FFFFFB9B
FFFFFCBB
000000CF
FFFFF838
FFFFF7EF
00000232
00000529
FFFFFE01
000004BC
0000085F
FFFFFD97
00000201
FFFFEC5D
FFFFFFF6
FFFFFDA3
FFFFF8EA
00000272
FFFFFEDA
00000F23
0000018C
00000B26
00000476
000003BA
00000088
000005B9
00000578
000000A4
FFFFFAA1
FFFFFE1C
FFFFFEF4
FFFFFE1C
FFFFF636
00000087
000001EC
FFFFFB7C
00000275
0000025A
00000026
FFFFF8F1
FFFFF7E2
FFFFF9C1
0000042A
FFFFFD75
FFFFF52E
00000123
0000017E
00000C1B
000006C5
0000011B
000004B5
000006A0
00000AB3
000005BC
FFFFFE4E
FFFFF9C6
FFFFFC15
FFFFFD6C
00000293
00000150
FFFFFDF3
FFFFF914
00000362
FFFFFCB5
000001EA
FFFFFEB3
FFFFFF68
FFFFFC18
FFFFF2EB
FFFFF635
00000016
FFFFFD34
FFFFFD0C
FFFFFCEE
0000040F
000001C7
00000181
000002FD
000001F9
000006B2
00000B8F
000004A6
FFFFFEF8
FFFFFB8E
FFFFF854
FFFFF77D
000000BE
00000334
FFFFFF3F
FFFFFB24
FFFFFC9E
FFFFFD08
FFFFFE40
000000C6
FFFFF6E5
FFFFF9AE
FFFFF2BF
FFFFFA4A
FFFFFDFF
FFFFFE35
FFFFFBDB
FFFFFFB9
FFFFFF5E
FFFFFC30
FFFFF727
FFFFF99D
0000042B
0000043A
00000603
000008AA
0000051D
FFFFFDB4
FFFFF9B4
FFFFFB86
000000D6
FFFFFF70
FFFFFE07
FFFFF74C
FFFFFB5A
FFFFFA84
FFFFF9E9
FFFFFFB2
FFFFFBE7
FFFFFC58
FFFFEEF1
FFFFF825
000001FA
FFFFFF6D
FFFFFF8C
FFFFFE2D
FFFFF8F8
FFFFF665
FFFFF92F
FFFFF829
FFFFF8B6
000002E4
000007D6
00000958
00000112
FFFFFB18
FFFFFC17
FFFFFFE7
FFFFFF9D
FFFFFEF2
FFFFFF72
FFFFFE37
0000024D
FFFFFA6D
FFFFFCD4
00000422
000002EF
FFFFF34D
FFFFF512
FFFFF23E
FFFFF9DF
FFFFF6D0
FFFFFA4A
FFFFFB39
FFFFFACE
FFFFF90A
FFFFFE77
FFFFFA0B
FFFFFD84
FFFFFF13
FFFFFE7E
00000014
00000161
FFFFFDB9
FFFFFDC3
FFFFFED7
FFFFFFE6
FFFFF8E9
FFFFF8BF
FFFFFF60
FFFFFF99
FFFFFB50
FFFFF93F
FFFFFCF3
000000A7
FFFFF4C5
FFFFED70
FFFFEFBF
FFFFFF95
FFFFF37C
FFFFFAE7
000002C9
FFFFF946
FFFFFA6E
0000019C
00000123
00000632
00000026
FFFFFFD5
FFFFFA3F
000000B5
FFFFFD7F
FFFFFD97
FFFFFCE7
FFFFFB8A
FFFFF963
FFFFFE1D
FFFFFF7E
FFFFFD1C
FFFFFD9E
FFFFFE10
FFFFFF18
0000069B
FFFFFA0F
FFFFF07B
FFFFF514
FFFFFFF3
FFFFFF81
FFFFFF47
FFFFF8D0
FFFFF2D4
FFFFFB1B
FFFFFE39
FFFFFCF9
000004E4
000003E5
FFFFFCF5
FFFFFC6F
FFFFFCD0
FFFFFE34
FFFFFB57
FFFFFC2E
FFFFFDBD
FFFFFCFF
0000026A
000000BC
FFFFFD67
000000E3
FFFFFECE
FFFFFDFC
000000DE
0000056F
FFFFF2DF
00000390
FFFFFEBF
FFFFFD72
FFFFFBCF
FFFFF1C9
FFFFF6DA
FFFFFAFB
FFFFFD8A
FFFFFE80
FFFFFF5C
00000886
FFFFFE5C
FFFFFDE2
FFFFFDDD
FFFFFE32
FFFFFC8D
FFFFFFF9
FFFFFE5B
00000538
00000386
000001AF
00000266
00000202
000000B8
FFFFFFAE
000007E4
0000055D
FFFFF81A
00000173
FFFFFE3B
FFFFFC44
FFFFF71D
FFFFFAE3
FFFFFB36
FFFFF835
FFFFFB90
0000032D
FFFFFCB3
00000129
00000105
000002BC
00000362
0000016F
0000012A
00000142
00000574
00000894
0000023F
FFFFFD62
FFFFFD4F
0000011C
FFFFF974
FFFFFFD6
000001C3
000001B7
00000603
0000021A
000001B5
00000107
FFFFF9E8
0000057D
000003CA
FFFFFC7D
FFFFFDAD
FFFFFD90
000004DD
00000233
00000148
00000101
00000828
00000657
0000074D
000004A0
000008C8
0000096C
000002BB
0000011F
00000457
000000D7
000002AA
00000325
FFFFFDAB
00000663
00000256
FFFFFF8F
00000141
000000A1
FFFFFE01
FFFFFDF9
FFFFF781
FFFFF125
FFFFF326
FFFFF406
FFFFFFEA
00000865
0000095C
000009D2
00000C55
000007B3
0000050E
0000004F
000008BD
FFFFFB97
00000070
00000741
00000935
00000076
0000036A
000004F8
FFFFF5A6
FFFFF781
FFFFFD6F
000001CD
000001D4
00000147
000007A5
00000321
FFFFF040
FFFFEE3C
FFFFF8FD
FFFFF749
FFFFF3FE
FFFFFA0B
FFFFFBA5
00000009
FFFFFE95
00000925
0000029D
00000939
00000B61
000008B8
00000A94
000007E0
000007F7
00000C46
000010A9
000014C4
00000E69
FFFFFAD9
FFFFFA82
FFFFFFAF
00000177
000000F5
00000145
00000309
000001C3
FFFFFFFB
FFFFFDF6
FFFFF8BE
FFFFF6C7
FFFFFB9A
FFFFFB18
00000444
00000814
FFFFFAFF
FFFFFBD0
FFFFFFF6
00000549
00000C8A
000006A4
FFFFFF23
000000A7
FFFFFF58
0000022E
00000798
FFFFFC88
0000002C
FFFFFE06
FFFFFFE9
0000004C
FFFFFDF4
000001DE
FFFFFE24
FFFFFA3A
FFFFF91B
FFFFFCD0
000000B5
FFFFFFCF
FFFFFA22
FFFFF503
FFFFFC61
0000004A
FFFFF72C
FFFFF800
00000212
FFFFF94D
FFFFF1EC
FFFFFA20
FFFFFFAA
FFFFFECC
FFFFF69D
FFFFF69F
FFFFFB9A
FFFFFFB7
FFFFFDDC
FFFFFE52
FFFFFFA3
FFFFFF87
00000011
00000109
FFFFFA96
00001571
000004C6
00000439
000003BD
00000857
FFFFE752
0000001D
FFFFF2CC
00000C9D
00000411
00000FE0
00000445
00000708
00000DB0
00000704
00001812
000004E2
000002A9
000008DF
0000030B
000002BB
FFFFFFAD
000008C0
0000086C
0000016E
FFFFFA9F
00000364
0000075D
FFFFF988
000001BD
FFFFF452
FFFFF2BE
FFFFF779
FFFFF9BC
000005FE
000006E5
00000669
0000038C
FFFFEF4D
FFFFF477
FFFFFBA1
000002EC
00001CE7
00000B25
00001678
000009D5
FFFFEC2B
000009C6
000000A6
FFFFF814
00000AA2
FFFFF728
FFFFF2BC
00001038
FFFFF526
00000D8A
FFFFFC7D
00000AFD
000008F5
FFFFF23D
FFFFFE15
00001C37
FFFFE44E
00000B81
00000788
00000206
FFFFF372
000005D2
00000775
00000268
FFFFF927
000000A1
000003CB
FFFFF895
00000E41
FFFFFF03
00000956
0000011A
0000033F
FFFFF81E
000006B6
00000B31
00000782
000005DE
FFFFFA6B
FFFFF39D
0000029B
FFFFFE40
00000160
FFFFFE33
00000193
FFFFFE58
00000B25
FFFFFB6B
FFFFF07F
00000899
000001AD
FFFFFC76
00000105
FFFFF53F
000009D4
FFFFF6C8
0000002C
FFFFF19B
00000659
FFFFEF1C
FFFFF1C6
000007EF
000013B1
000004FF
FFFFFBB7
00000CFB
000008D5
FFFFF7AB
FFFFF874
0000016A
000000D1
00000D03
FFFFF369
0000043B
FFFFFF6A
000016A2
FFFFDD1A
FFFFF6DB
FFFFFCEF
00000AA2
00000A3A
0000074A
0000207D
FFFFFADE
00000FFC
00000386
00000316
FFFFF318
00000488
FFFFFBD0
FFFFF82A
FFFFFCD9
FFFFF498
FFFFFF70
0000073C
00000D5E
00000A4D
FFFFFA2D
FFFFFECE
FFFFFD08
000010AE
FFFFFEE8
00001025
000006F5
000000CF
0000061C
FFFFFF17
00000767
FFFFF7A7
00000C32
000019F7
00000337
000000BD
FFFFF83B
FFFFF4BB
FFFFFC12
FFFFF9FD
0000094F
FFFFEE7D
FFFFFFB8
FFFFF0BD
0000085C
FFFFFD9B
000001F1
000005EA
00001895
FFFFF51F
FFFFF404
000003F6
FFFFFC6C
000000B0
FFFFFCF9
0000037F
FFFFE829
00000706
FFFFFDEC
FFFFF2D4
000010D7
00000A8A
000008EB
FFFFF83F
FFFFFA68
FFFFFC00
000006FD
FFFFEDA4
00000867
FFFFFCB0
FFFFF853
FFFFF31F
00000AE4
00000787
000006EE
000005F2
00000901
00000B65
FFFFF6B2
00000C96
000004E1
000008E7
000009CC
FFFFFD26
FFFFF23E
00000A66
FFFFFE26
FFFFFFA4
000007E0
000007EB
FFFFF648
00000119
FFFFF7EB
00000378
FFFFFC92
0000038B
FFFFFE32
000014D3
00000070
FFFFF965
000007A0
00000915
000003EA
FFFFFDA2
FFFFF7FF
00000DA0
00001103
000007A3
FFFFEA9B
0000043E
FFFFE2E7
0000058A
0000032B
FFFFFFAD
FFFFFE3F
00000A00
0000101E
FFFFEFF4
FFFFFD81
FFFFFBD5
000007C3
0000001B
00000370
000008B5
000007D3
000006BF
00000258
FFFFEBB4
FFFFE026
FFFFFB0B
000005FF
FFFFFF92
0000011C
FFFFF0F3
00000B46
00000C79
0000037C
FFFFFB7F
FFFFFB6E
FFFFFE68
FFFFF73D
00000BA7
000008D1
00000ED8
000006C3
000005DA
00000B59
00000D49
FFFFF9EA
FFFFFB74
0000099D
00000935
00000710
FFFFE487
00000B93
0000046B
0000096D
0000033E
00000A34
FFFFF7B1
FFFFF5B6
FFFFFC28
00000CAE
FFFFEE3B
000000AB
0000018D
FFFFF5E2
0000005F
FFFFFFE8
0000036A
00001042
000007EA
FFFFFC3C
FFFFF5AB
0000117B
FFFFFD06
00000528
000007D5
FFFFFF37
FFFFF912
FFFFF2FC
0000007B
00000CE0
0000108D
FFFFFB0C
00000961
FFFFF5B1
000002AF
FFFFF40D
00001056
000004F2
FFFFFE90
000005EB
000016C5
FFFFE9E6
FFFFE295
FFFFF2AB
000008DD
FFFFF7CD
000011EA
FFFFE15D
FFFFF2F3
000002F5
FFFFFD76
000010DA
FFFFF09E
FFFFEFAB
FFFFE55C
FFFFF45D
FFFFEFE0
00001326
000002BD
00000A3F
FFFFFACE
00000788
FFFFF3C8
FFFFF555
FFFFF574
FFFFF350
000008FC
00000EA6
FFFFEA65
000009BE
00000984
00000FE4
