FF71
004B
0090
0058
FFE9
0063
FF7C
0026
FF72
0076
FFEF
FFBF
FEDA
008C
0179
01E9
0085
FFAC
0044
0074
0010
FF9E
0042
FF84
0020
0074
FFC2
0003
FF9B
000A
0089
0001
FFB6
FDCD
FD9D
FD4A
FDE6
FF44
FD57
0144
FE34
017D
FDCE
FD7B
0432
0361
FAB2
FBDE
FBEA
FD02
FD04
FC50
FFA2
0042
0015
FFF8
FFC1
0004
FE30
030D
023C
FE84
FCC4
FC3D
FE0D
FF3A
FFC1
FE19
FD66
FB40
FC1B
FAB8
FB9F
FB42
FD05
FACD
FD81
FEB4
F88F
FEFF
02C3
0221
0041
FF84
FFCB
FFB2
FC7F
01BF
FCB0
FD13
FB1E
FA0F
FC66
FD9B
FEC2
0040
00A3
FEBE
00E4
00EB
FFA1
FF0B
FBFB
FB80
FD7C
FE5F
FE60
FD08
0111
0402
01C7
0041
0052
FF3F
FE6D
FD53
FCEF
FBF2
FC8E
FC64
FBE7
FDB4
FEE8
0230
00E1
005C
0152
0242
012C
019B
FFC4
FEA7
FEC7
FC72
FE98
FDC0
03F3
06B2
066F
0042
008D
0065
FC6F
0455
FF3A
FAFE
FE9A
FF81
00C3
008A
014B
02C2
0315
0160
0143
0018
025B
016F
FFF2
FF4F
0019
FF4A
019C
0152
00AC
05DA
FF9A
FBF6
FFDA
026E
FF37
0678
006C
01D8
0261
009A
00F4
00BE
00BF
FE7D
FF3E
003F
0001
FEFD
0056
0122
0089
00B8
FEFB
011F
034E
0211
FF1C
0073
FF0F
FD30
003C
05A1
00DC
0385
0368
029A
028E
0019
0005
FEEF
FF20
FF85
FE6B
FF85
FD38
FE76
FFDB
02A0
0280
0136
FF07
0038
0162
0208
0036
01EA
FFB4
0042
0511
02DF
01C1
0121
01DF
006F
009A
FFE5
FDC9
FFE6
014E
FFF9
007E
000D
00BC
00D5
02A0
0205
0317
01BF
0146
0039
036A
0356
FE17
00E5
026C
040A
02E7
01D4
02E8
0272
002C
01FE
FD75
FC87
FE0A
FFEF
FF42
FF0E
010C
0157
00DF
003F
01DB
0154
0174
0226
023D
01D2
0338
0508
00BD
0234
0088
FDB7
02C5
FE69
056D
041F
FE9A
00C2
FE74
FD89
FE35
FEC1
FF46
001E
0117
01CD
0151
FFF3
0029
00F3
013D
011E
0290
02A3
0349
01A7
0018
FEAD
0153
FE9A
0156
04F1
00A1
069A
00AF
FDF0
FF74
FE7B
FE0F
FEF3
FF34
01CC
01FB
01EF
00B3
FF9F
FE55
FDD4
FE9C
0120
FFD2
0080
FE91
FD61
FEFA
0107
0270
FCCC
FF9E
05F7
0095
02F3
FF6C
004A
FFDC
FE8A
FDC9
FEF3
004B
00CE
044C
034A
0015
FDE2
FD8C
FE8F
FF91
01F2
0241
FFF1
FF29
FB75
0054
01CC
0150
FF89
FCE2
03DA
03EF
0495
0031
00C5
01CB
FEF7
FDB9
FFA0
0016
0362
04DD
0323
00FB
FE2B
FCD8
FF02
03C4
032B
0124
FEA8
0035
FEEE
01DF
04D6
0687
0373
FF51
0123
0576
0271
014F
0118
0050
002A
FDBE
FDE6
005F
0386
04EA
0399
01EB
FF62
FD3A
00EC
03AC
034C
FF91
FEB3
0070
000D
0269
0104
08E1
039B
FF07
00BD
05CD
01D1
0268
01A9
FE5C
FEFE
FF04
0083
015D
016B
02D7
027F
01D2
0109
FF2D
02C4
0369
0301
FF70
FE5F
FF9F
FFCC
0428
011B
0572
036F
00FA
01ED
000D
0130
0200
FEB3
FEA6
01C5
FF8B
0104
016B
0194
02E8
024F
01BA
0269
02CC
04CC
0375
025C
0010
0127
FFBE
FFC4
00C3
0397
0815
0549
FFAA
00DA
01EE
0191
0317
0016
0050
0199
0047
0187
0010
01D6
02CC
027A
FF7D
00C8
02A1
02D4
008D
FF68
FE19
0083
00F6
FFE9
0063
0532
030A
0641
FC47
0103
024C
0149
01B2
029D
0185
0095
0125
FFC7
00DB
0089
00A8
00E8
FF34
FFE3
018C
FF9A
FEF7
FDB3
FD51
FF3D
0062
016C
0223
021E
FE70
00FB
FD47
064F
FEFE
0086
0130
0205
0084
FF9F
FEC7
FECF
007B
FFA7
013B
025C
0023
FFB0
FF63
00B9
FF39
FC65
FDEB
FECC
00F2
0147
FEAA
FE96
017E
FDFF
004B
041B
0237
04C6
0250
01F0
00AE
0154
0074
FF26
001A
0188
0197
01D9
FEC9
FF41
FE02
FF85
FF5E
FE4F
FFB0
00AF
003E
0030
FCFC
FC57
FFF3
FD1B
FDA1
03AE
06B8
0348
FF7B
FCDC
FEC8
0071
FF34
FF8D
FF9E
01B6
0186
0047
FDC0
FEB4
FDF5
0006
FE6E
FF75
FDB1
FE30
0179
0157
FB5B
FE71
04B2
0039
FE3A
FF07
063B
022E
FE0B
FE6D
0114
023A
00F3
0247
01D1
0458
026D
00E8
FD35
FDEB
FEB3
FE9F
FD83
FE83
FE1B
FF65
0246
FF9E
FD31
FD69
FD9B
0173
0038
FF74
04B0
0481
00A0
FF22
0153
048B
0458
03D3
0491
0554
01F3
0113
FF88
FEFB
FE35
FE33
FE29
FD75
FE99
FFE4
00A7
0028
FCCF
FE7A
FBED
FFB9
FFC7
007E
FE25
00FF
0246
FE66
0228
00AC
0100
0163
FFCA
026F
02F6
0383
039D
0096
012F
0016
FDB1
FE1B
FE3C
FF3D
FD6E
FA9A
00BF
009B
FFBB
FFF3
0018
0052
FE6B
FC5A
0217
FF48
01AC
01BF
FF84
005D
037B
0245
0118
016B
FD16
0093
FFF9
FDA0
FBCB
FB3D
F760
F792
FB0D
FA9C
FE4C
FD60
015D
FF8B
FFB4
FFD8
FF82
FDF6
F8D4
F7F1
F9BB
FD17
FC66
FA21
FEB2
FE27
FBF7
FC84
F79B
FB40
F9ED
F91C
F974
F8F2
F66E
F6E5
F99C
FED6
FC90
0240
FF9E
FFEE
FFCE
003F
0018
0066
02FB
04B6
FEBF
FD6D
FDFC
FD53
FEB9
FD47
FD03
FFDE
F8A6
FBD0
038B
026E
FDB3
FA5A
F941
FA5E
FC32
FF77
FFD5
0066
0081
FFF3
0000
0000
0000
0000
0000
0000
0000
0000
0000
0000
0000
0000
0000
0000
0000
0000
0000
0000
0000
0000
0000
0000
0000
0000
0000
0000
0000
0000
0000
0000
0000
0000
0000
0000
0000
0000
0000
0000
0000
0000
0000
0000
0000
0000
0000
0000
0000
0000
0000
0000
0000
0000
0000
0000
0000
0000
0000
0000
0000
0000
0000
0000
0000
0000
