FFFFFE38
FFFFFDD9
FFFFFFBB
0000022F
FFFFFE74
FFFFFF47
000000F2
FFFFFE1B
000001F0
0000017A
FFFFFF45
FFFFFF0A
00000818
00000901
000005E5
0000065E
FFFFFF5F
000000C6
FFFFFF53
FFFFFEAF
00000127
000000FD
FFFFFE6C
FFFFFDD8
FFFFFE92
000001C5
00000018
FFFFFF47
00000102
FFFFFF45
000001F7
00000215
00000194
00000297
00000699
00000591
000005AE
0000037A
00000552
00000595
00000703
000009D5
000007F1
000019A0
00000EB2
00000D74
00000EE0
000008F7
00000B48
0000072C
0000055B
0000060C
FFFFFE54
FFFFFF65
00000034
00000033
FFFFFFCC
FFFFFF9E
FFFFFFB6
000003D7
000003C8
000003C6
000004BA
00000A7B
0000053B
00000437
00000080
0000074D
00000368
00000B2D
00000BD4
00001471
000012C4
000010CE
00001257
0000156C
00000FDE
00000CDD
00000B55
00001185
00000071
FFFFF9B9
000000A7
00000069
FFFFFF13
000000E1
FFFFFAAC
00000B86
00000BF8
00000008
00000CB4
0000069C
FFFFF9DC
0000045E
FFFFFE4B
FFFFF693
FFFFF28C
FFFFF377
FFFFF904
FFFFFCDF
FFFFFCDD
000003EF
00000B78
00000912
FFFFF5BC
000005F2
00000850
0000024E
0000031D
FFFFF924
000003A6
FFFFFE59
FFFFFE0B
FFFFFDB3
FFFFF583
FFFFF9AC
FFFFFEB8
000005E4
0000060C
FFFFFEE5
FFFFFB0C
000000ED
0000040E
FFFFFC0A
FFFFFAC2
FFFFFF19
FFFFFD35
FFFFF9F2
FFFFFC68
FFFFFB6B
00000043
000000DE
FFFFFE31
FFFFFF0C
FFFFFD5F
0000073A
FFFFFF54
FFFFFDDC
00000E3F
00000C9F
000001DF
FFFFFFF0
0000039D
000006AF
000008FB
FFFFFE03
FFFFF961
FFFFFA70
FFFFF6AD
FFFFFA4E
000001B4
FFFFFC69
FFFFF8E4
FFFFF9C7
FFFFFFBE
00000482
000004D6
000007B2
00000971
00000321
00000613
000002EB
00000721
00000FA1
00000953
00000DBA
00001121
00000EFC
FFFFFE94
000006E8
00000746
00000FC4
00000922
0000010B
000002DF
FFFFF99F
FFFFFB9E
FFFFF276
FFFFF9D3
00000188
000007D0
000000A9
00000159
000000FD
00000323
00000039
000007F2
000007D0
000002B5
FFFFFF4A
0000042F
00000CF6
000015CC
0000154A
000008DF
000005EF
00000206
FFFFFDA7
000005C3
000008A6
000005DD
FFFFF43B
FFFFF339
FFFFFDF8
00000034
FFFFFF89
FFFFFFD3
0000079D
000007EB
00000269
000006A3
000003B6
00000047
000002E1
000001ED
000001B6
00000332
FFFFF932
FFFFFB69
00000377
00000911
00000FF3
000008E0
0000088F
00000033
00000042
FFFFF74A
FFFFFD91
FFFFFE9A
FFFFF524
FFFFFBE2
000006A7
000000D0
FFFFFE0B
00000007
000004FB
00000798
000002C1
000004A4
FFFFF9E4
FFFFF3C9
FFFFF558
FFFFEC7B
FFFFF2F3
FFFFF4D4
FFFFEAE2
FFFFF105
FFFFF4D5
FFFFF297
FFFFFAEB
0000029E
FFFFFF1D
FFFFFEAD
00000151
FFFFEF1B
FFFFF6AC
FFFFFFD1
FFFFFA56
FFFFFDFA
00000C71
0000029C
FFFFFE8B
FFFFF97F
FFFFFC96
FFFFFF4D
FFFFFC70
FFFFFF91
FFFFFDDF
FFFFEF5E
FFFFE943
FFFFE6C0
FFFFE3B8
FFFFE3AF
FFFFDB3B
FFFFDFA3
FFFFE3EF
FFFFEE41
0000024C
FFFFFA67
00000346
000001E6
000000F8
FFFFF8A7
FFFFFAFF
FFFFFF74
00000325
000005CA
00000386
FFFFFD9F
FFFFF66D
FFFFF59F
FFFFF6C8
FFFFFBA1
FFFFFA80
FFFFFFB8
FFFFFCD5
FFFFF30B
FFFFEE0C
FFFFF491
FFFFEFC4
FFFFE526
FFFFE098
FFFFDFE7
FFFFE38D
FFFFEEC7
FFFFF500
FFFFF557
00000398
FFFFFF59
FFFFFD2D
00000655
FFFFFF46
FFFFF91F
00000094
0000019D
FFFFF64C
FFFFF8CB
FFFFF5F3
FFFFF7BE
FFFFF8BD
FFFFF160
FFFFF952
000002C2
FFFFFA1E
FFFFF825
FFFFF701
FFFFFC08
FFFFFE68
FFFFFB21
FFFFF59C
FFFFF457
FFFFEDF6
FFFFEBC6
FFFFEDDC
FFFFEB72
FFFFFAFE
FFFFFE79
FFFFFEBA
000000CB
FFFFFEFF
FFFFEB65
FFFFF5B3
FFFFF7CE
FFFFEF7C
FFFFFABB
FFFFF5B1
FFFFFB0D
FFFFFEAC
FFFFFA2D
FFFFFC3A
00000985
FFFFFD28
FFFFFCEB
FFFFF93D
00000058
FFFFFCDA
00000237
000000A0
000006B3
FFFFFD62
FFFFF69A
FFFFE415
FFFFF2E5
FFFFFACA
00000990
FFFFFF89
00000157
FFFFFFF0
FFFFEA1E
FFFFEF90
FFFFF392
FFFFF9A8
FFFFF69D
FFFFF601
FFFFFD01
FFFFFDCF
FFFFFDF9
0000069D
00000CC8
000004AF
FFFFFEEA
FFFFFE0C
FFFFFF16
FFFFFFC5
000002F3
000005DE
000005D0
00000756
0000005A
FFFFF1EA
000003FE
000008A3
000003B2
FFFFFC2C
FFFFFD63
00000399
FFFFEC35
FFFFF317
FFFFF86A
FFFFFB3A
FFFFFA42
0000001E
00000929
00000454
000000E7
000002E9
000006A1
FFFFFD5A
00000686
FFFFFD0E
00000A63
000000DB
0000030E
0000016C
0000039C
000001B1
00000D6E
00000896
00000204
000005FA
00000437
FFFFFE36
FFFFFF3A
0000065E
FFFFEC33
000004CF
FFFFFC5F
FFFFFFF8
000000C9
FFFFFEAC
00000299
00000431
FFFFFFEA
000001FE
00000181
FFFFFCEE
00000598
0000096F
00000888
00000310
00000334
0000058C
FFFFFFB6
FFFFFF10
00000C42
00000E2B
000001E8
00000D21
FFFFFFCF
FFFFFD6A
00000262
000008A9
FFFFF595
00000754
00000400
FFFFFEDC
FFFFFE61
00000058
000001FC
00000318
000002C1
00000683
00000254
FFFFFD2B
000001F7
000004E4
000005A0
00000000
000001D5
000009C5
00000CC3
00000627
00000EF9
00001A09
00001096
00000C02
000001D9
00000077
00000339
00000B97
FFFFFBCA
000000E8
0000054A
000000AC
00000346
FFFFFCFC
FFFFFC6C
FFFFFD1C
FFFFFFB7
00000228
00000012
00000248
000003E0
00000441
00000627
000001F8
00000704
00000D66
00000B2B
000005A3
FFFFFD71
00000E15
FFFFFDCF
00000CC0
FFFFFE9D
0000003D
FFFFFC89
00000B91
0000080D
000006B6
FFFFFD08
FFFFFF90
000004F7
000003A8
0000009E
FFFFF980
000001A1
00000592
00000811
000004F1
00000417
0000037E
0000032A
000001F1
000003FC
000005EB
FFFFF844
FFFFFF0C
000006D5
000015DB
FFFFEFA4
00000AE3
000005AF
FFFFF5F2
0000069D
0000009A
00000796
0000042E
FFFFFED7
000003FC
00000692
000006EA
FFFFFE82
00000370
000008E8
000005D3
0000073D
00000542
000009E0
000004BF
000004DB
000005E6
0000022A
00000277
0000002E
00000B8C
000006BD
00001B8B
FFFFFF9C
000005F7
FFFFFFBC
FFFFF458
00000618
00000491
000011D5
0000060E
FFFFFEC7
FFFFFF1F
00000108
000006FB
000003C5
00000573
00000328
000006BA
000007FB
000009F8
000005D4
000002A6
000006FB
00000697
000004C1
00000805
00000C98
00000A60
0000078B
00001018
000006AE
00000836
0000029F
FFFFFA98
00000551
0000088B
00000DD7
00000A87
00000308
0000023B
FFFFF9DD
00000253
000000AB
000003C8
00000804
000005F0
0000086A
00000364
FFFFFEEB
00000290
00000858
0000071A
00000306
000004AA
00000694
FFFFFA62
FFFFFE01
00000D58
00000A1A
FFFFFF5C
0000056F
FFFFFC1D
FFFFFC71
00000252
00001116
00000318
FFFFF8F2
FFFFFDFF
00000240
FFFFFD64
00000224
0000015E
00000302
FFFFFE13
FFFFFC19
FFFFFEEC
FFFFFD8C
FFFFF9B8
00000359
FFFFFCF4
0000019C
FFFFFBAE
FFFFF4C8
FFFFFAF5
FFFFFAC9
000007F4
00000826
00000037
FFFFFE59
00000101
0000047C
000000B6
000014B8
00000885
FFFFFF99
FFFFF809
FFFFFEE2
00000209
FFFFFC40
FFFFFB2C
FFFFF8A4
FFFFF50B
FFFFFB93
00000317
FFFFFD38
FFFFF8CD
FFFFF7DC
FFFFF2E3
FFFFF6D2
FFFFF9E5
FFFFF3B6
FFFFFBCE
FFFFF37F
0000074B
00000FC4
0000007F
FFFFFDD2
FFFFFE06
00000017
FFFFFAFD
00000FEF
0000119A
000006A5
0000013E
FFFFF980
FFFFFA84
FFFFFBFE
FFFFFB0A
FFFFF72D
FFFFEE3E
FFFFF86E
FFFFF810
FFFFFCA7
FFFFECC4
FFFFEA7B
FFFFE613
FFFFEA47
FFFFF044
FFFFEF5A
FFFFEF20
FFFFF92E
000003F5
000000B7
0000000C
FFFFFDD6
FFFFFE13
FFFFFFE9
0000011C
FFFFF67A
FFFFF1A3
FFFFF632
FFFFFB9E
FFFFF01D
FFFFF654
FFFFF0AF
FFFFFB50
00000555
FFFFFA59
FFFFF8A8
FFFFF230
FFFFF13C
FFFFFA49
FFFFF83B
FFFFFD14
FFFFFC2D
FFFFF72A
FFFFFCDD
FFFFFA52
FFFFFA7C
000002C6
000002AF
0000011D
FFFFFEA8
000000E3
000001B5
0000001E
FFFFFAED
FFFFFB00
FFFFFDE4
FFFFF8F4
FFFFF9FF
FFFFF871
FFFFFC2E
FFFFFA5A
FFFFFDAE
FFFFFFFC
FFFFF9EF
FFFFEED4
FFFFF6C9
FFFFF8DC
FFFFFB44
FFFFFA50
FFFFFBF6
FFFFFDCE
FFFFFC7F
FFFFFBBA
0000014D
000001F2
FFFFFF8F
000001FB
000001D7
000000B6
FFFFFE14
FFFFFF8D
00000129
00000126
0000016E
000000AC
0000010B
FFFFFDFE
FFFFFF3C
000000D5
FFFFFDA8
FFFFFE79
FFFFFC20
FFFFFFDC
0000011C
FFFFFCB5
FFFFFC07
FFFFFE40
000000DC
FFFFFE58
FFFFFC03
FFFFFEA9
000001C5
00000240
00000186
FFFFFFFC
FFFFFDFD
FFFFFECD
0000017F
0000000E
00000121
0000002A
FFFFFE57
FFFFFDBA
00000154
FFFFFF92
00000157
000001CC
00000206
000007B6
00000CC9
00000697
00000184
FFFFFFEF
FFFFFDFB
FFFFFECB
FFFFFDE0
00000118
00000003
000001ED
0000008E
0000014E
000001DC
0000022C
000001AF
FFFFFEC2
00000175
000000D3
FFFFFEB6
FFFFFF8E
000004EF
0000046D
00000625
000003ED
000005FA
FFFFFFFB
FFFFFDA4
FFFFFA41
FFFFF5CE
FFFFFA13
00000F25
00001203
00000A3B
000006EC
00000914
0000021B
00000399
00000588
FFFFFEC4
FFFFFEB3
FFFFFF72
000001F6
FFFFFE23
FFFFFEB0
000001EF
000003B5
00000155
00000485
00000E6A
00000545
000012DE
00001DA6
000015F8
000010D5
00000BAF
000002CA
00000E70
00001340
00000DD6
00000ACB
000011F8
00000399
00000958
0000124A
00000B4A
00001277
00000FCA
000004E9
FFFFFFAF
00000006
FFFFFEB5
FFFFFFAB
FFFFF580
00000343
0000009F
00000BC6
00001032
000000FE
00000A0C
00000BE2
FFFFFFA1
000003FF
00000BF9
000008BF
000001ED
00000039
00000487
FFFFFBAF
FFFFFB4D
000006B3
FFFFF80F
00000011
00000391
00000B56
00000943
0000030C
000008C0
000000B7
FFFFFEF7
FFFFFE0B
FFFFF3F1
FFFFF392
FFFFFCDF
000010A6
0000106E
00000E61
00000B1E
0000046C
00000A48
FFFFFFFF
00000644
00000420
000002F8
FFFFFCD0
FFFFFFC4
00000344
FFFFFCB3
00000355
FFFFFD55
FFFFF94B
FFFFF83A
00000060
000000DA
000002C2
00000298
000004AB
FFFFFF20
FFFFFFCE
000003F6
000001E0
000006E2
00000297
000000DC
0000028A
00000055
FFFFF927
FFFFFD53
FFFFFCF2
FFFFFF6A
FFFFFB87
00000573
00000137
FFFFFB1D
FFFFFF63
0000050D
000005A8
000001AF
FFFFFAFD
FFFFF800
FFFFFDA1
00000533
0000076C
000006A3
000007F5
000001AC
00000732
FFFFF979
000008AE
000006B7
FFFFFC0E
00000066
FFFFF991
FFFFF53B
FFFFF0D1
FFFFF977
FFFFFDD5
FFFFFE21
FFFFF7EC
00000012
00000682
FFFFFFF1
FFFFF768
FFFFF7B5
FFFFF9D9
FFFFF1A0
FFFFF099
FFFFF476
FFFFEC27
FFFFF685
000008A6
FFFFFEBA
000008B6
000000E1
000006D6
000004C7
FFFFFC45
FFFFFF07
FFFFECD8
FFFFF373
FFFFF7D8
FFFFF91F
FFFFF0BD
FFFFFFC3
00000354
FFFFFD5F
FFFFFBE4
000005A8
0000033D
00000015
FFFFF7DB
FFFFF9C6
FFFFF888
FFFFF5AA
FFFFF70B
FFFFF498
FFFFE2B2
FFFFFD6E
00000B75
FFFFFD16
0000080E
0000047C
000006D2
000000E5
FFFFFCDD
FFFFF044
FFFFEEF9
FFFFF6F8
FFFFFCEB
FFFFF891
FFFFFDB4
000005CE
000000B1
FFFFFAF4
FFFFFEB5
000001DB
0000021D
FFFFFB88
FFFFFC41
FFFFF92B
FFFFFD2D
FFFFFFFD
FFFFF702
FFFFF7B3
FFFFFE64
FFFFEED8
FFFFF827
FFFFF4C6
FFFFFA55
0000019C
FFFFFB5B
FFFFFE19
00000C1A
FFFFF78C
FFFFFB48
FFFFFAA2
0000006C
FFFFFA86
FFFFFB30
FFFFFB97
FFFFF737
FFFFFB76
FFFFFDE7
00000128
00000099
FFFFFFA1
FFFFFC45
FFFFF851
FFFFF90A
FFFFFF82
FFFFFCE5
00000534
FFFFFABE
FFFFFD24
FFFFE87A
FFFFFA41
FFFFF4E7
0000015E
00000379
FFFFFCC8
00000849
00000097
00000A60
000000A7
00000144
FFFFFF60
FFFFFC0A
FFFFF9DF
FFFFFD85
FFFFFCA7
FFFFF89A
FFFFFE93
0000018E
000002A1
FFFFFF32
FFFFFABA
FFFFF641
FFFFF5C6
0000051B
FFFFFACC
0000046D
00000871
FFFFF029
00000029
FFFFF54F
FFFFFF67
00000A59
FFFFF3BF
FFFFFBAD
FFFFF916
00000107
0000008D
00000123
000000DD
FFFFF717
FFFFFD70
FFFFFDD5
FFFFED75
FFFFEFFF
FFFFFE8F
FFFFF8E9
0000005A
FFFFFD96
FFFFFED4
FFFFFA02
FFFFFBEF
00000211
00000595
00000C2E
00000ED2
00000F8B
FFFFF8A8
FFFFEFB7
00000048
FFFFFFA9
FFFFF637
FFFFF3BB
FFFFF49D
FFFFFBFF
FFFFFAD6
FFFFFD5A
0000002C
FFFFFABE
00000025
0000015E
FFFFF260
FFFFF9DB
FFFFFE1F
FFFFF548
00000258
FFFFFF3F
FFFFFE2E
00000054
FFFFFC83
00000124
00000B1A
FFFFFE7D
000007A4
00000133
FFFFF6D5
FFFFF547
00000B4B
FFFFFF55
FFFFFC80
FFFFF7E3
FFFFF0C6
FFFFFEA4
00000040
FFFFF9CF
0000009C
FFFFFA03
FFFFFA7A
FFFFFE93
FFFFFF33
0000049B
FFFFFD7B
FFFFFFD9
0000014C
FFFFF9DB
FFFFFD55
000004A7
FFFFF823
FFFFFE50
00000405
FFFFFFC1
00000506
FFFFFE4E
00000D58
00000E3E
00000081
FFFFFEC4
FFFFFF6C
0000080B
FFFFF010
00000211
000006E8
000004D0
000001CF
00000061
FFFFFD79
FFFFFDDB
00000356
00000D5D
00000BE2
00000932
00000360
FFFFF693
FFFFFCE6
FFFFF97A
FFFFF4BE
0000029A
00000A5C
00000742
000007B0
00000B12
0000136F
000009B4
00000229
FFFFFC87
00000BF2
00000AF9
FFFFF5FC
0000062F
00000893
000008E0
00000313
0000029F
000001D8
00000391
00000889
000013B0
0000117E
0000087F
00000812
FFFFFD92
FFFFFF6A
FFFFFF1D
FFFFFCAE
0000011F
000000C8
FFFFFE83
000005EE
00000BA8
00000E26
00001182
FFFFFEB7
FFFFFDE8
00000501
00000776
FFFFF743
00000733
00000FA9
00000FD1
000003A2
0000022A
000000A2
000001BB
000003C2
000006DA
00000E44
00000911
00000881
00000981
0000014D
FFFFFD7D
0000011B
00000AA0
0000031D
000004E2
0000065C
000013E0
00001298
00000CA9
0000006B
FFFFFC03
000002D2
FFFFFB7E
FFFFFF08
00000335
00000922
00000657
00000404
FFFFF882
FFFFFAD4
000000D5
FFFFFFCD
00000461
00000851
000005F7
000007E4
000006B7
000001D0
FFFFFFFC
000009AA
00000EAF
00000592
00000162
FFFFFDD8
000014BC
0000026B
000013C1
000001AD
FFFFFF24
00000221
0000022B
FFFFF932
000001CE
00000701
00000808
FFFFFF75
FFFFFCFD
FFFFFD32
FFFFFAE1
000003B9
00000363
00000890
00000B27
00000A7F
00000B42
00000B29
000006CF
00000333
0000022F
000001CD
FFFFFD65
00000586
000011D6
FFFFF19A
000012F1
00000056
FFFFF909
00000134
FFFFFFA4
FFFFFFAD
FFFFFF73
FFFFFBD5
000001B0
FFFFFDF9
FFFFFDE2
FFFFFF57
FFFFFE41
FFFFFB74
FFFFFC1E
000006F2
00000E82
00000CD3
0000106C
00000855
000003CB
FFFFFEFC
FFFFFCF8
0000004C
00000572
FFFFFF02
00000C67
000010F8
00000D94
00000230
FFFFF89F
000001A7
00000149
FFFFFF19
00000055
FFFFF6D0
FFFFF93F
FFFFFAE1
FFFFFE2E
0000022E
00000059
FFFFFBB0
0000001A
0000016C
000007B0
000004C1
000000ED
000005D0
0000037D
00000705
00000014
FFFFFE16
FFFFFAD4
FFFFFBB6
0000005C
00000527
FFFFFEA2
000003AC
0000020D
FFFFFF3D
00000912
0000050E
FFFFFD79
FFFFFD59
FFFFF94F
00000248
00000450
00000402
FFFFFDA5
FFFFFD11
FFFFFFB6
FFFFFDAB
FFFFF89A
FFFFF85B
FFFFFFCD
0000038A
00000563
000003CC
FFFFFC74
FFFFFC9B
FFFFFA3B
FFFFF40C
0000086C
000010CB
FFFFFE0F
0000057B
FFFFFF6E
0000049D
00000E3E
000000BC
000005FA
0000028D
FFFFF598
00000149
0000068E
000002D2
FFFFF9B0
FFFFF62D
FFFFF77B
FFFFEEBE
FFFFED2E
FFFFED36
FFFFFB6E
0000000C
000004F3
FFFFFE6F
FFFFFF4E
FFFFFA44
FFFFF3F0
FFFFF5C9
000007DD
FFFFFEDE
000000CE
0000000C
FFFFFFFE
000004CE
00000913
00000141
00000034
0000019D
FFFFFCEB
FFFFFEAB
FFFFFEB3
FFFFFC23
FFFFF787
FFFFF578
FFFFF145
FFFFF3D6
FFFFED6B
FFFFF29F
FFFFF472
FFFFFB5C
FFFFF820
FFFFFAA0
000000D5
FFFFFA93
FFFFF732
FFFFEE30
FFFFF7FB
FFFFF6F3
00000014
FFFFFE70
00000241
000000FB
FFFFF25C
FFFFF2F2
FFFFF1C0
FFFFFB96
FFFFF8D0
FFFFF948
FFFFEF34
FFFFFD37
000000FA
FFFFF479
FFFFE5BF
FFFFF00D
FFFFF124
FFFFF1CB
FFFFF522
FFFFEEFA
FFFFED16
FFFFEDC8
FFFFF950
FFFFF640
FFFFF0E0
FFFFF8ED
000004DF
000003F3
0000012B
00000193
FFFFFED4
FFFFFEFC
FFFFFB50
FFFFFC13
FFFFF5A3
FFFFF27B
FFFFEB87
FFFFE1A7
FFFFE0E5
FFFFECC6
00000436
FFFFFC00
FFFFEA77
FFFFF320
FFFFF7DC
FFFFEE68
FFFFF36D
FFFFE8C0
FFFFE265
FFFFEC6A
FFFFE8F5
FFFFEE74
000002BC
00000149
0000034B
00000611
FFFFFEF6
FFFFFFB8
FFFFFE3D
FFFFFDBA
FFFFFF27
FFFFFB71
FFFFF4EC
FFFFF513
FFFFF758
FFFFF282
FFFFF04F
FFFFF197
FFFFF8BD
FFFFF190
FFFFFAE2
FFFFF9F6
FFFFFBAA
FFFFF19C
FFFFF64D
FFFFEFDA
FFFFEF0B
FFFFEBDD
FFFFF332
FFFFF638
FFFFFAA8
00000072
FFFFFEB1
FFFFFF17
00000033
FFFFFF99
FFFFFE0F
FFFFFE55
FFFFFF47
00000047
FFFFFF29
000000E5
000000AF
FFFFFD06
FFFFFC15
FFFFFBD7
FFFFF6DE
FFFFFA04
FFFFFBAF
FFFFF388
FFFFFC6D
FFFFF619
FFFFF807
FFFFF29C
FFFFF703
FFFFF73C
FFFFFCB8
FFFFFB95
FFFFFF2B
FFFFFFBD
00000080
FFFFFF6B
0000006A
0000003A
00000114
FFFFFF73
00000061
FFFFFFB4
FFFFFF36
FFFFFF2C
FFFFFF0A
00000053
00000115
FFFFFFD0
0000001F
0000014D
000000C5
000000A2
000001AC
FFFFFFA5
FFFFFECD
FFFFFEE0
00000050
FFFFFF04
000000CC
FFFFFEEB
00000038
FFFFFED4
FFFFFE46
FFFFFEB2
000000A4
00000150
FFFFFFC3
00000230
0000021E
FFFFFE57
00000227
000000D0
0000006B
00000397
0000026F
0000014A
00000759
000001EA
00000257
FFFFFF0A
FFFFFD8C
00000292
00000601
000004E6
FFFFFF46
00000113
000001CA
0000009C
FFFFFEE3
FFFFFFB8
FFFFFEFD
FFFFFF5C
000000FB
FFFFFECA
000000D4
0000012C
FFFFFE47
0000025D
00000078
0000041C
0000003B
00000418
00000525
0000120B
000011C0
000004F2
FFFFFFAA
FFFFFFC3
FFFFF188
FFFFE788
FFFFF360
FFFFF34F
FFFFF0DA
FFFFEE2C
00000392
00000231
00000222
0000001E
00000197
FFFFFF8B
FFFFFECC
FFFFFE74
0000022A
FFFFF1F9
FFFFFD4C
00000685
0000055A
0000010A
FFFFFC20
FFFFFC08
00000EF9
FFFFFEA0
00000E22
00000C98
00000DFA
00000B53
00000164
0000020E
000000EF
00000267
00000680
0000032B
FFFFFC65
FFFFF5FA
FFFFF19A
000002F1
0000037A
FFFFFF38
FFFFFF70
FFFFFE2E
FFFFFFF8
FFFFF5BB
FFFFF1A0
FFFFF848
0000072C
00001154
0000146B
00000CBD
00000E7B
0000085E
000006BC
00000713
00000B9F
FFFFFF07
0000028B
FFFFFE45
0000037B
000006B7
000005BB
0000052C
FFFFFF18
FFFFFB56
FFFFF271
FFFFEBDB
FFFFEEE8
FFFFFB73
000007C2
FFFFFFE5
FFFFFE4E
FFFFF284
00000605
0000028F
FFFFFA48
000008BB
000007FA
000006F2
000000CB
000009C8
000005CC
00000337
000005FC
00000965
000006EF
000004FC
00000484
0000060B
00000468
000001C8
000000F5
000001AE
FFFFFE95
FFFFF719
FFFFF23F
00000387
000003AD
FFFFFFA2
0000031D
00000555
00000369
FFFFFCA3
FFFFFFCF
000004FB
0000035E
00000091
00000579
00000C12
00000422
000004A6
00000573
0000065E
000002F3
00000266
FFFFFFFE
000004F5
000004C1
FFFFFF36
00000144
00000019
FFFFFC45
000003AD
FFFFF477
FFFFFEFF
00000018
00000184
000004F9
00000243
000002F8
FFFFFFEC
000002ED
000003C5
FFFFFE2F
000001FC
FFFFFE01
0000009C
000009E4
FFFFFFE1
00000630
00000221
0000015D
000005AC
00000317
000006AB
00000577
00000450
0000009A
FFFFFBCB
FFFFF921
FFFFFF8A
FFFFED28
0000091C
0000068E
FFFFFF57
0000015F
000002A0
000000EC
00000B0D
0000025D
FFFFFB0D
FFFFFB2D
FFFFFD61
FFFFFCFE
FFFFFFF0
00000020
0000054C
00000658
000009A3
000001BA
00000205
00000653
0000000A
0000017F
00000619
000000AA
FFFFFC20
FFFFFFB9
FFFFF991
FFFFF115
FFFFF81C
FFFFFDEB
FFFFFFF6
00000073
000006BC
FFFFF79A
00000241
000004C4
FFFFF7DB
FFFFFDCC
FFFFFB0F
FFFFF731
FFFFFBCC
FFFFF94B
FFFFFC27
FFFFFF9B
FFFFFCAA
FFFFF97A
FFFFFAE7
0000008F
00000232
FFFFFE87
00000362
FFFFFA6A
FFFFFB67
0000028C
00000674
FFFFFEA0
FFFFF250
000003C5
000002A7
FFFFFFCF
00001262
FFFFFFC7
FFFFFA34
FFFFFD53
FFFFFBA0
FFFFFC6E
FFFFFC9A
FFFFF8CC
FFFFFBB1
FFFFFB4A
FFFFFD67
FFFFFBB0
FFFFF80E
FFFFF9F9
FFFFFC4A
00000450
FFFFFC8A
FFFFFA5A
FFFFFF77
FFFFFC61
00000509
000006AA
00000151
FFFFF8B5
FFFFFE19
FFFFFF55
FFFFFC15
FFFFFD49
FFFFFB8F
FFFFF9D3
FFFFFBCF
FFFFF107
FFFFFD1E
FFFFFC53
FFFFFC18
FFFFF647
FFFFF972
FFFFFEA4
FFFFFAAE
FFFFF76A
FFFFF708
FFFFF524
FFFFF4DA
FFFFFF89
FFFFFFE8
FFFFF9C9
FFFFFA6B
FFFFFEDF
000000BF
FFFFFA2F
FFFFFC99
FFFFF4EB
FFFFFE61
FFFFFB60
FFFFFAB5
FFFFFF60
000002F0
FFFFFF5D
FFFFFCA4
FFFFF644
FFFFFBC1
FFFFFCC8
FFFFFBF0
FFFFFB29
FFFFFF83
FFFFFD7D
FFFFFCA4
FFFFF792
FFFFF5A8
FFFFF510
FFFFF4FE
00000169
FFFFFD67
FFFFFB0B
FFFFFB47
FFFFFF94
FFFFFDB9
FFFFF925
FFFFFE43
FFFFF630
FFFFF9E7
FFFFF03D
FFFFFD0B
000002F2
000007B6
00000898
00000283
FFFFF829
FFFFFD38
0000017F
FFFFFC70
00000410
FFFFFF19
FFFFF93E
FFFFFC13
00000114
FFFFFDDD
FFFFFA7D
FFFFF6DF
FFFFFD7C
FFFFFF35
FFFFFF60
FFFFFD61
FFFFFFE6
FFFFFEEC
FFFFFBE5
FFFFF67D
FFFFFB85
FFFFF51D
000000D4
00000322
FFFFFB59
000000E9
000008FD
000000E5
000005FB
FFFFFE40
0000022E
FFFFFF64
FFFFFE93
FFFFF8B5
FFFFFD57
FFFFFD04
000003C2
000002FC
FFFFFFA9
FFFFF502
FFFFFAD2
FFFFFE15
FFFFFBAA
FFFFFF36
00000644
000000D9
FFFFFE7F
FFFFFF31
FFFFF9DF
00000405
00000407
000003B2
FFFFFCCF
FFFFFA9D
00000615
FFFFFF30
00000671
FFFFFA9D
000000AD
00000013
00000224
FFFFFE03
FFFFFDE9
FFFFFF2C
FFFFFA68
FFFFFA59
FFFFFC01
FFFFF9E9
FFFFFA16
FFFFFDDC
00000017
00000191
00000661
FFFFFB5E
FFFFFAD3
000003AE
FFFFFA1B
00000D8A
000008AA
000000EC
FFFFFC9C
00000303
0000076D
0000017D
000008C3
FFFFFAC6
FFFFFD07
FFFFFF04
FFFFFF8A
FFFFFDE5
00000099
0000027D
00000260
FFFFFEB7
FFFFF9C7
FFFFFC88
00000106
FFFFFBB3
00000200
00000616
00000806
FFFFFC34
FFFFFAAD
000005CF
FFFFFEED
0000045F
0000088A
0000006D
FFFFF8D1
00000284
00000543
FFFFFE39
FFFFFFF8
FFFFF93B
0000007D
000002D2
FFFFFD86
00000341
FFFFFCDF
FFFFFD9C
FFFFFDBF
FFFFFC23
FFFFF8CC
FFFFF979
000002C4
FFFFFF58
00000631
00000198
00000584
FFFFFBDD
FFFFF909
FFFFF4E8
000001B3
FFFFF297
0000120E
00000336
000000C4
00000339
0000002B
FFFFF541
FFFFF891
FFFFFE50
000001C3
0000007D
FFFFFD55
FFFFFF1B
FFFFFA71
FFFFF99A
FFFFF044
FFFFF3E9
FFFFFF76
000004FF
FFFFFFE4
000003DE
FFFFFE70
0000006F
0000066D
00000164
FFFFF5EA
FFFFF3F6
0000079D
FFFFF569
000005FE
FFFFFB19
00000461
000002E4
FFFFF4C8
FFFFF35F
FFFFF931
000000E7
000002DE
FFFFFC6A
FFFFF7A8
FFFFFDF3
FFFFFD51
FFFFFD54
FFFFF934
FFFFFB78
0000027C
000001E2
000005FC
FFFFFD47
FFFFFE95
00000445
00000317
FFFFFE0B
FFFFF420
FFFFF705
000000F8
00000919
00000493
00000001
00000184
00000E46
000001DC
FFFFFA71
0000001F
000002A4
00000422
000005D2
00000337
000002F4
000003C3
0000052E
00000CE3
00000737
000008CB
000003D4
000005D5
FFFFFCEF
000000E3
FFFFFF79
0000034A
FFFFFD32
FFFFFEF5
FFFFFC12
FFFFFE22
FFFFFF5B
FFFFF7FE
FFFFFBC5
FFFFFC50
00000F47
00001027
FFFFF95C
FFFFFA49
FFFFFE6A
000001D4
00000766
0000034F
0000067E
00000794
00000E16
00001328
00001210
00000F77
0000085B
00000318
FFFFFEFC
FFFFFE8B
00000147
000004C5
000009EB
000010E4
00000D5F
00000B38
000007CB
00000178
FFFFFCBA
FFFFFA71
0000127D
0000117F
FFFFF89A
00000367
0000059C
000004F3
0000093A
00000B6C
0000080E
00000DEF
0000101D
00000C97
000009AD
00000719
00000200
000001AF
0000001B
00000025
000001A4
000002C0
000009A0
000010A7
00000AFF
000009A2
000001DA
00000115
0000015D
FFFFFF4A
0000042C
000012D7
00000311
00000119
0000084D
00000BF1
00000BEB
00000BA1
00000E93
00000E9D
00000BA2
0000057A
0000083A
0000039B
000000F1
FFFFFF8E
FFFFF7B2
FFFFFDDB
000005B1
000003FE
00001119
00001901
00000AFE
000004FC
FFFFFD1B
FFFFFDDA
0000023F
FFFFFDBD
FFFFF81F
00000868
00000C59
00000663
0000071A
0000073E
00000A4E
00000819
00000382
FFFFFB43
0000014D
000001F7
0000028C
000005D1
000002BA
00000C1A
00001037
000001DC
FFFFFB2F
FFFFF8CE
0000054A
000004FB
0000132F
00000817
FFFFFDD8
00000014
00000038
FFFFFFA2
FFFFFB38
FFFFFE31
000001FF
FFFFEFDD
000002E4
00000687
00000346
0000078E
0000037C
00000093
FFFFF40D
FFFFF3D2
FFFFF119
FFFFFA00
FFFFFE6E
00000230
000008B6
00000740
00000096
FFFFFE85
0000005A
FFFFF94B
0000005D
00000392
00000652
00000127
00000235
000000B0
FFFFFEFB
00000142
FFFFFF44
FFFFEB55
FFFFEE98
FFFFF472
FFFFFA3F
FFFFFB26
FFFFFF32
00000060
00000472
0000054F
0000040C
00000772
00000B68
FFFFFD8C
0000025C
0000062E
FFFFF54F
FFFFF31E
0000003D
0000010F
0000028E
FFFFFCDB
000001EB
000001F7
000001D9
00000207
00000161
0000023D
0000026B
0000011F
FFFFFEDB
00000024
FFFFFF2C
FFFFFD46
0000016D
000001ED
000000F4
FFFFFCEB
FFFFFAEF
FFFFFCCC
FFFFFB70
000000C5
FFFFFEA3
000000F7
00000000
FFFFFD88
00000049
0000013C
FFFFFE76
FFFFFF83
0000014B
000001BF
FFFFFE59
FFFFFDC8
0000021F
000000AE
FFFFFDE4
FFFFFDD2
FFFFFDDD
FFFFFF0C
00000032
000000B3
FFFFFE6C
000000E8
000005AC
000006CA
00000742
00000676
0000012F
FFFFFE15
FFFFFFF7
0000017B
0000006F
FFFFFFBD
FFFFFDE1
FFFFFE9E
0000004B
000000A7
FFFFFEE9
00000005
0000010D
00000025
0000006E
00000027
FFFFFFFF
FFFFFD2E
FFFFFD1D
FFFFFD64
FFFFFB72
FFFFFC5B
FFFFF688
FFFFF3F5
FFFFF94D
FFFFFB22
00000824
00000F65
000008FF
00000864
FFFFF853
FFFFFFEF
FFFFFD35
FFFFFAC9
FFFFFF17
FFFFFF49
00000014
FFFFFF5F
FFFFFF80
FFFFFF0E
FFFFFF5E
FFFFFF0E
0000012E
00000048
0000004B
FFFFFA8F
FFFFFAEA
FFFFFCF8
FFFFFF44
000000B2
00000935
00000900
FFFFFE01
00000CE6
0000079E
000005FB
000007DB
00000008
FFFFFD38
FFFFFF41
FFFFFE97
FFFFF222
FFFFF7BD
FFFFFC58
00000283
000006A3
FFFFFF78
00000098
000000E0
000000A8
00000E6C
0000055C
0000023A
FFFFFE60
000002CC
00000C6A
00000DA8
00000C82
00000925
0000089C
00000A05
0000017F
FFFFF5DE
FFFFF5A6
FFFFFBF3
FFFFFA67
FFFFFBB5
0000017F
0000089F
FFFFF5C4
000002EF
000000F2
00000A4E
000010DC
00000AF9
FFFFFF89
000001E1
000001AF
00000C92
00000B7D
000002FF
0000001A
00000B12
00000884
00000D7D
00000395
00000198
FFFFFE01
FFFFF72A
000003B9
FFFFFF19
FFFFFBA9
FFFFF926
FFFFFA04
FFFFFB1C
FFFFFE80
FFFFFF80
FFFFFB67
00000122
FFFFFF11
00000085
000000E1
000013B2
FFFFFE5B
00000206
FFFFFDF4
00000E20
00000A48
000004AC
000000EA
FFFFFF16
00000AE0
0000030E
00000134
FFFFF5A2
FFFFEF78
FFFFEE5A
FFFFF845
FFFFFA8E
FFFFFC73
FFFFFDB6
FFFFFA43
FFFFFCC9
0000012E
FFFFFE7F
000000D4
000005FB
FFFFFF79
FFFFFFB7
00000F49
00000561
FFFFFE60
FFFFFE25
00000842
FFFFF329
0000074D
00000300
FFFFF274
FFFFF628
FFFFFE30
FFFFFB38
00000127
0000019F
FFFFF85A
FFFFF8BC
FFFFFBD9
0000021A
FFFFFD56
FFFFFA06
00000037
00000761
FFFFFE92
FFFFFBEF
FFFFFA77
FFFFF3E8
FFFFF609
FFFFF6E3
0000081D
00000AF1
00000A63
FFFFFF4A
00001304
FFFFF45B
0000081B
00000832
FFFFFAB6
FFFFFABC
FFFFFFED
FFFFFD36
FFFFFA2F
FFFFFD33
FFFFFC13
00000462
000005F5
000006C8
000002D1
00000301
00000720
00000287
0000017B
FFFFFFBA
FFFFFD4D
FFFFFD08
FFFFF777
FFFFF61F
FFFFF65F
000006B6
00000965
FFFFEC85
00000974
FFFFFBC0
FFFFFADC
00000253
000007F0
FFFFFD64
000000C1
FFFFFC18
FFFFFCD9
0000065D
0000018A
000006B3
00000A65
00000AD5
0000093B
0000078E
00000CB8
000001EA
00000255
0000041D
FFFFFD50
00000589
000007C9
FFFFF39A
FFFFF4AE
00000737
00000AD4
0000016B
000003BF
FFFFFF60
000003DC
000007E5
00000908
00000BB7
000007E6
00000318
000004FC
00000869
00000A08
00000EDE
00001206
00001180
0000126C
00000A6B
000008D3
0000017D
00000050
FFFFFE05
FFFFF8BD
FFFFFCF5
FFFFFD17
FFFFFC68
00000BFB
00000F42
00000EA6
0000023A
00000194
FFFFFEE2
00000024
FFFFFD88
00000908
00000D89
000003EE
0000067F
00000460
00000E7D
00000A65
0000082E
0000123D
00000DC7
00000BEB
0000088C
FFFFFE64
FFFFFDC1
000003C6
FFFFFE04
FFFFF94F
FFFFF6F1
FFFFFF79
0000055D
00000A77
000010C3
000012AB
00000125
00000026
FFFFFB82
FFFFF837
00000374
00000A49
00000382
FFFFF9F9
FFFFFDE6
FFFFFE2F
00000196
000004BA
FFFFFDB0
000000FD
000001C6
000002A0
FFFFFC7F
FFFFF846
FFFFFFCE
FFFFFFDA
000005F1
FFFFF50D
FFFFFBCE
FFFFFC4F
FFFFFA47
FFFFFF22
00000435
00000752
00000170
000003B0
FFFFFF87
FFFFF427
FFFFFC67
FFFFFD58
FFFFFCC6
FFFFFCCC
FFFFFBB9
FFFFFA41
FFFFF991
FFFFEFDF
FFFFF21D
FFFFEFA8
FFFFF6F6
FFFFFDC4
FFFFFB70
FFFFFEF7
0000045E
00000083
FFFFF9E5
FFFFF9C8
FFFFF57A
FFFFF5CE
FFFFFB7F
00000E7A
00000DF9
00000664
0000055F
00000104
000004D7
FFFFF0C3
FFFFE6C5
FFFFF224
FFFFFACD
FFFFF469
FFFFFA65
FFFFFAC8
FFFFF461
FFFFF535
FFFFE977
FFFFEF5D
FFFFFB90
FFFFF79B
FFFFF8FF
0000063D
00000643
00000582
FFFFFF08
FFFFFE1C
FFFFF61D
FFFFF379
FFFFF8A9
FFFFFAAD
FFFFFEEE
00000453
FFFFFE42
00000106
00000692
FFFFF5B2
FFFFE3E5
FFFFE1AA
FFFFEC1F
FFFFEB83
FFFFF90B
FFFFF8CA
FFFFFD5F
FFFFFD27
FFFFF4EE
FFFFF96A
000000BE
FFFFFDD5
FFFFFA34
0000045A
00000A8A
00000CB3
FFFFFBFB
FFFFFD7B
FFFFFC5D
FFFFFC66
FFFFF6EA
FFFFF239
000008CB
000004EF
00000063
FFFFFFB2
00000DA5
FFFFF54A
FFFFEAFF
FFFFDEC3
FFFFF24E
FFFFF1B8
FFFFFAD8
FFFFFC82
FFFFF923
FFFFFF11
FFFFFF45
000006F7
000000E2
FFFFFE45
FFFFF9AA
FFFFFCBD
00000458
000007BE
FFFFFE05
FFFFF8FB
FFFFFB8E
FFFFFBFA
FFFFFAC5
FFFFF623
0000016E
000007D2
FFFFFFFA
00000420
00000FCB
FFFFFCF4
FFFFF37C
FFFFF182
FFFFFAAA
FFFFFA46
FFFFFC57
FFFFFC9A
FFFFFCEC
FFFFFF0F
FFFFFB2D
000003B8
0000022A
FFFFFD4F
FFFFFEF0
FFFFFF3D
FFFFFDF9
FFFFFF2C
FFFFFA40
000000E1
FFFFFEC3
000000F6
000007DC
FFFFFF63
000003AC
00000921
0000010B
000003C3
00000E1E
000003C7
FFFFFA11
FFFFFB82
FFFFFF41
FFFFFE02
00000343
FFFFF99A
FFFFF747
FFFFFB78
000001C6
000007CB
00000162
00000012
FFFFFFAA
00000234
FFFFFFB9
00000081
000000BA
0000019E
FFFFFC21
FFFFF91F
00000775
00001531
000006F8
00000944
00000373
0000076C
0000097A
0000071E
000002C9
000008CA
0000086D
00000369
FFFFFF32
FFFFF997
FFFFFB56
FFFFFC42
000000C8
00000526
FFFFFFD7
FFFFFF5F
00000323
000007E4
FFFFFE71
FFFFFEB8
FFFFFD45
FFFFFD02
FFFFFDE1
FFFFFA30
00000397
00000A34
00000E95
00000AF6
000004FF
00000D02
FFFFF7B7
0000058A
FFFFFE2B
00000156
0000063B
00000714
00000567
FFFFFFAA
FFFFFC9C
FFFFFE6C
00000282
000006C0
000003AF
0000027F
0000055B
000000AA
00000026
0000035A
00000261
FFFFF5A3
FFFFFCB6
000006B4
00000C9A
00000B52
000005E7
00000516
FFFFFDC8
FFFFFA7B
FFFFFD74
00001253
0000012A
FFFFFCAB
00000693
00000663
000009F1
000005EE
00000126
000000AE
0000003C
00000329
FFFFFF5A
00000338
0000010B
0000011D
0000068B
0000007C
FFFFFD0B
FFFFFAF2
00000352
0000128D
000011F5
00000B12
0000032B
00000A23
00000199
000006CB
00000FFC
0000097C
00000663
FFFFFFDA
00000102
000000CF
FFFFFEE9
0000012D
000006AA
00000244
00000767
000007C9
000006A1
000003EC
0000048F
FFFFFD72
00000F05
00000642
FFFFF583
FFFFFEB8
0000087E
00000803
000015E6
00000BE6
FFFFFCB6
FFFFFE00
000002AE
000003A7
0000090E
FFFFF5C9
0000035A
00000460
FFFFFF25
00000224
FFFFFE69
FFFFFE43
FFFFFEC6
FFFFFFEC
000001F2
000000C6
FFFFFE52
000001AC
0000050E
000004FA
00000408
FFFFF68C
FFFFF20F
FFFFF75E
0000069A
00000A7A
00001670
00001226
00000B4E
FFFFFFBC
FFFFFE33
00000005
00001212
FFFFEFAE
FFFFFE0D
FFFFFD53
00000345
00000245
FFFFF9D0
FFFFFC31
FFFFFFA4
00000273
0000001E
000000DA
FFFFFD1A
000001DC
00000761
0000036A
FFFFF87C
FFFFF0BB
FFFFF24A
00000039
00000AFB
00000E5B
000010F0
00000B8A
00000D09
000001C8
000001CE
FFFFFE9F
00000871
0000023D
00000B0C
0000056B
00000446
FFFFF9C6
FFFFF437
FFFFF232
FFFFFA3B
FFFFFB08
00000217
FFFFFEA4
FFFFFD66
FFFFFF77
FFFFFB69
000000FD
FFFFF7A8
FFFFF90E
FFFFF317
FFFFFDC4
0000039F
00000528
00001167
000001F2
000001F5
000001C0
FFFFFFC9
FFFFFE94
FFFFF650
00000619
000003C4
FFFFFFB5
0000034E
00000941
00000CC3
0000012A
FFFFFE2B
000000B0
00000EA3
00000287
00000172
0000035A
00000455
00000771
00000585
0000062F
FFFFF9D9
FFFFFD40
000007FE
00000860
00000C05
FFFFFCD8
FFFFFF06
FFFFFE3A
FFFFFE57
00000211
000000BD
FFFFFEF9
FFFFEB7D
FFFFED11
FFFFF1BE
000002F9
0000082B
00000365
00000C03
000005F3
000005F2
00000C1A
000002C7
FFFFFD31
000001ED
FFFFFEE0
00000427
000005A4
FFFFFF13
FFFFF86F
FFFFFBFB
FFFFFF73
FFFFF81A
000001E2
00000190
FFFFFDC8
FFFFFDEF
0000010C
00000203
FFFFFF0D
000007BB
00000D19
000008B0
00000674
00000756
000002BC
00001046
0000069B
0000002C
00000B42
000007BF
FFFFFBA1
FFFFFD13
00000D8A
0000056A
000002F6
FFFFFEF3
FFFFFB10
FFFFF9C8
00000018
FFFFFF43
FFFFFF5B
00000098
00000154
FFFFFC0D
000012DA
00001920
FFFFFE3E
00000872
FFFFFD07
00000040
00000689
FFFFF906
00000044
000004C7
FFFFEAB0
FFFFF75F
00000B54
000001DB
000006E2
00000853
FFFFF9C7
000009C8
FFFFECE9
000003CF
00000284
00001055
00000AA6
00000626
00000254
FFFFFD0A
00000032
000007D0
FFFFFDC3
000003B2
000009E8
000011A2
FFFFFE51
00000D74
000001FB
00000639
000000E6
0000118B
00000363
FFFFEFED
00000D7C
FFFFFEE1
00000D53
000000B4
FFFFEE15
00000F47
00001357
FFFFEDF6
FFFFF8FC
00001E3C
00000114
00000312
0000020F
FFFFFE1E
FFFFF560
000007A9
00000525
FFFFEB0C
000007FA
00001265
000001D5
00000638
FFFFF287
FFFFFBDB
FFFFF6DB
0000017E
FFFFFB60
FFFFFDA4
FFFFF98B
FFFFF061
FFFFFFA6
00000541
00000DE6
FFFFF493
FFFFFC47
000005BD
FFFFF467
0000024E
FFFFFD91
FFFFF7FF
00000949
0000062F
FFFFFC3D
000000DE
000005B2
00000D3F
000004DF
FFFFF9D1
00001581
00000237
FFFFFE2A
FFFFFA58
00000532
FFFFFDF0
FFFFF9C5
00000A37
FFFFFBA5
00000748
FFFFFE67
000015DE
00000965
FFFFFC02
00000352
000001AA
FFFFFF7E
00000624
FFFFFBB2
0000020E
FFFFF12E
00000AB3
00000A82
00001ADD
000006FF
00000361
000009EE
FFFFF91B
00000087
FFFFFF08
000012C6
FFFFFFFC
0000046F
00001457
0000014F
FFFFFB00
00000193
FFFFF700
FFFFE436
00000342
FFFFED54
FFFFF5B2
FFFFFD8B
FFFFF70E
FFFFFFF4
0000007B
000002EB
00000542
FFFFFE4E
FFFFFCA1
00000668
00000AD3
FFFFF63D
00000107
0000069A
00000587
000003ED
000005B3
00001563
0000016F
000001D5
FFFFFF49
FFFFF9DA
00000AE5
000003CC
FFFFFDC3
000008E1
00000394
FFFFFD9B
00000018
FFFFEEED
FFFFE9F2
00000577
FFFFFA14
FFFFFC01
FFFFFBE8
FFFFFC5D
FFFFF39E
FFFFFBF5
0000079D
FFFFFCE8
FFFFF554
FFFFF9A2
FFFFFBE3
00000BC7
000002F5
FFFFF71F
0000164B
0000013B
FFFFE44A
000000FD
00000521
FFFFFEAD
000001FB
FFFFFD6C
FFFFF5B6
000006A6
0000168B
FFFFF406
FFFFECE3
000000AB
00000410
000008C5
FFFFFD22
000005CB
00000293
000006D6
000001DF
00000D6B
00000E1E
00000402
0000021C
FFFFF4A6
0000018D
0000028D
FFFFFF59
00000E8A
00000B6E
00000457
000002DC
000006F0
FFFFFECF
0000066A
00000177
FFFFFF6F
FFFFF6D3
00000551
00000AFF
FFFFEF64
0000003C
000000CD
FFFFFCDB
FFFFFE37
000001DC
000007E9
FFFFF918
FFFFFE38
FFFFEE4D
0000089F
FFFFEA4A
000000A1
00000258
0000086A
FFFFFEC7
00000230
000009CA
000012A1
00000578
00000B67
000000C3
0000060E
FFFFDD48
00000268
0000035A
FFFFFD5D
00000914
00000564
000000B3
FFFFF617
FFFFFC7D
00000083
FFFFEE5E
000003AA
000008B1
00000668
FFFFFCA7
FFFFFF1A
FFFFFF85
000001A3
000002C3
FFFFFF21
00001200
00000817
FFFFF5ED
00001169
0000002C
0000067F
FFFFFF0C
00000AD0
000002A8
FFFFEF51
000006BB
00000725
FFFFFCC5
00000565
00000B1A
FFFFEF7B
FFFFF717
FFFFFC76
00000AC3
FFFFFE10
FFFFEC68
FFFFF842
FFFFFB6C
FFFFF8A8
FFFFFF86
FFFFF5EE
FFFFFFF5
FFFFF011
00000FF0
FFFFF17F
FFFFFA3F
00000E0F
00000008
00000577
00001123
FFFFFA88
FFFFFA98
00001B34
FFFFFB41
000002CE
FFFFF94D
FFFFFF8F
FFFFF2A8
FFFFF825
00000755
FFFFFA34
00000976
00000AC9
FFFFFC1E
FFFFF95F
00001011
FFFFFD96
000003B0
00000E35
0000023B
00000B79
00000BDE
FFFFFCBA
FFFFF93E
00000449
00000000
00000000
00000000
00000000
00000000
00000000
00000000
00000000
00000000
00000000
00000000
00000000
00000000
00000000
00000000
00000000
00000000
00000000
00000000
00000000
00000000
00000000
00000000
00000000
00000000
00000000
00000000
00000000
00000000
00000000
00000000
00000000
