FFFFFE1D
0000021B
00000222
FFFFFE68
00000226
FFFFFE92
00000061
00000084
FFFFFE38
00000046
FFFFFEC6
00000098
0000041F
00000800
00000224
FFFFFF7C
000000EE
000001DC
FFFFFE49
0000022B
FFFFFF5A
00000144
FFFFFEB6
00000125
00000177
FFFFFFDB
FFFFFF14
FFFFFF38
FFFFFF08
00000139
FFFFFF11
FFFFFE4E
FFFFFEDB
0000006D
FFFFFDE5
FFFFFD75
00000210
000000F0
00000761
FFFFF9C9
FFFFF7AA
FFFFF9E6
0000073C
FFFFF7E3
FFFFFD2B
FFFFFA9C
00000DE9
0000099F
000009E9
FFFFFEEB
FFFFFDAD
FFFFFAF1
FFFFFEA2
FFFFFEB5
FFFFFE63
00000031
FFFFFEAA
00000037
000001A7
FFFFF9AA
FFFFF9D0
000003DC
00000923
000000CE
00000BAF
00001437
0000136B
000009B7
000005F0
00001029
00001C63
00000E66
0000088D
00000505
00000069
FFFFFD71
00000409
00000550
000007CC
00000588
00000826
0000041E
0000008C
FFFFFE7C
00000010
FFFFFFF2
FFFFF8FC
FFFFF733
FFFFFF1A
00000652
000008E3
FFFFFD90
FFFFFE25
000001C6
FFFFFE90
000008B2
FFFFFD78
FFFFFF34
FFFFFC37
000000C6
0000049C
FFFFFF11
FFFFFC17
000002FE
FFFFFE3F
FFFFFC62
000002D3
000009ED
FFFFFEA2
FFFFFBC4
0000024D
FFFFFF3D
0000017E
0000018B
FFFFF7DE
FFFFF71B
000006AC
00000AA5
000000EA
FFFFFEFC
000005A4
FFFFFF3A
000002AF
00000181
FFFFFD78
FFFFFFDD
0000000F
FFFFF630
FFFFFB73
FFFFFFE3
FFFFF69C
FFFFFD50
FFFFFB42
FFFFFB19
FFFFFC6B
00000178
FFFFF6F7
FFFFFB7D
0000052C
00000755
FFFFFFAB
00000242
FFFFFF60
FFFFFA74
00000961
00000095
00000521
0000082C
000002EB
FFFFFFA9
FFFFFCCC
00000515
00000E24
000003EF
FFFFFFAF
FFFFF9C7
FFFFFA93
FFFFFC73
FFFFFAD6
FFFFFAF8
FFFFF4F8
FFFFF9F1
FFFFF717
0000035A
000002B7
000006A7
000007C3
00000577
FFFFFE00
FFFFFCA2
FFFFFD8A
FFFFF8EF
0000039C
FFFFF8CD
FFFFFF63
0000074D
FFFFFAD2
000000B9
FFFFFD19
FFFFFFC1
00000173
0000013F
FFFFFF5A
0000046D
FFFFFD53
FFFFFE07
FFFFF900
FFFFF9CF
FFFFF8C0
FFFFF979
FFFFF76E
FFFFF6A3
FFFFF4B6
FFFFFFB8
FFFFFFF6
00000690
000001BF
FFFFFE86
0000054E
FFFFFE6C
00000456
FFFFF5EA
FFFFFD46
FFFFFC5F
FFFFF660
FFFFFD64
FFFFFDFA
FFFFFFFC
00000155
0000048F
00000226
00000425
FFFFFE33
FFFFFB1A
FFFFFA79
FFFFF87F
FFFFFA7B
00000103
FFFFFC95
FFFFF0F9
FFFFF712
FFFFFE50
0000031A
00000111
FFFFF0C3
000004D4
FFFFFEDA
00000246
00000A3F
000001ED
FFFFFF3F
FFFFFA82
000000A1
00000519
00000508
0000038F
000000CC
00000ACC
00000592
000001AD
FFFFFB11
FFFFF952
FFFFF587
FFFFFE02
FFFFFBA0
000002A4
00000049
FFFFFABD
FFFFF4DC
FFFFFECE
000007C2
FFFFFF0B
0000042D
000002AC
FFFFFFF0
00000439
FFFFFE3F
000001F4
FFFFFCE2
FFFFF8C8
FFFFFDDF
000001E4
0000001A
FFFFFF01
00000496
00000977
000005E8
000001FD
FFFFFCD4
FFFFF917
FFFFF1CB
FFFFFB09
FFFFFEFE
0000072B
000002F3
00000626
FFFFFC7E
FFFFFA2F
FFFFFD39
00000576
00000381
000002E1
FFFFFBCC
FFFFF564
FFFFFBB7
00000188
FFFFFD9B
FFFFFC12
FFFFF88C
FFFFFD85
FFFFFF8B
000003EF
000004CE
00000545
0000002A
FFFFF953
FFFFF824
FFFFF64D
FFFFFD40
000000BF
000003A3
00000037
FFFFFE61
0000036E
FFFFFEDF
FFFFF64E
FFFFF5DD
0000071F
000003FA
FFFFF490
000008A3
0000017E
00000470
0000048F
00000236
000001C4
FFFFFE9D
000006FD
000001F4
0000008E
000002A0
FFFFFF36
00000120
FFFFFC52
FFFFF6F4
FFFFF44F
FFFFFDE7
0000085F
000004B6
00000155
FFFFFF9F
0000030E
00000097
FFFFFF24
FFFFF9A6
0000059A
0000017A
000002F5
0000043A
00000429
0000037B
00000479
FFFFFD98
0000006B
FFFFFDF8
0000025E
FFFFFC35
FFFFFB8C
FFFFF932
FFFFF81B
FFFFF9CB
FFFFFDCC
0000021F
0000043C
000004BC
000001AF
000000C1
000007C7
00000148
0000080A
00000722
FFFFFF4E
FFFFF27E
000005A6
FFFFF718
000000F6
FFFFFFDD
000004A0
FFFFFC47
0000009D
000000DD
FFFFFB9F
0000012C
000000B7
FFFFFC3F
FFFFF8B7
FFFFF795
000000B5
00000448
00000921
000008CC
0000061B
000004F6
000001EA
0000031D
00000C39
000008B2
0000048B
FFFFFFBB
FFFFFEDB
FFFFFA82
000004E0
FFFFFE0F
FFFFFC4F
FFFFFA93
000009D7
FFFFFAFF
FFFFFC3E
0000019B
FFFFFF49
FFFFFD3D
FFFFFC96
FFFFF7E9
FFFFFDAA
FFFFFEA4
000007A2
00000A6D
0000080C
000007B1
000000A6
000002DB
00000604
00000222
0000071A
000006CE
FFFFFE7F
FFFFF0D7
00000396
00000C7E
0000026E
FFFFFB6A
FFFFFBB4
FFFFF370
0000078F
FFFFFC80
FFFFF855
000002A2
FFFFFC0B
000001E7
FFFFFEF0
FFFFFA54
000002BD
0000048C
00000D3F
00000F51
00000360
00000319
FFFFFFBD
FFFFFD3B
00000570
00000216
000005DC
000004E0
FFFFFF6A
FFFFF414
FFFFFE5E
00000F6F
000004CE
000001CB
FFFFFDA1
FFFFF96D
FFFFFFCF
FFFFF8AE
000001B9
0000092D
FFFFFFF8
000001BE
00000657
0000041C
0000026F
000002D6
000006A4
00000961
FFFFFEF2
000003C6
0000000A
000001E0
000002F2
00000046
000004BD
0000016C
0000014D
FFFFFA23
00000BBC
0000127A
0000005C
FFFFFF0F
FFFFFCFA
00000319
0000007A
FFFFFA16
FFFFF8B9
00000000
00000319
00000269
0000014E
000001E3
000000C5
000003EC
0000068D
00000363
0000011E
0000029E
000003F8
0000020F
000000AE
000001F0
000004B5
00000427
0000002E
0000014C
000009D0
00000B44
FFFFF8AC
00000638
FFFFFDF9
FFFFFFCF
000003BF
FFFFFD04
FFFFF421
00000315
00000152
FFFFF912
FFFFF9C3
FFFFF8B0
FFFFF7E0
FFFFFE60
0000025E
FFFFFE81
00000274
FFFFFB77
00000795
000005BE
000001CC
00000422
FFFFFEB3
000002D4
000001E7
00000462
00000885
000010BA
000009BE
FFFFFF61
FFFFF5F3
FFFFF9FB
FFFFFBB6
FFFFF8FD
FFFFF6F8
FFFFFC73
00000336
FFFFFF3E
FFFFFEA5
FFFFFF20
FFFFFCC2
FFFFFFC8
0000044E
000000EC
000002A9
0000022F
00000043
000000B6
FFFFFF89
FFFFFAA8
FFFFFC54
00000555
000006F2
FFFFFD76
FFFFFD0E
00000BA5
0000077B
0000019E
FFFFFDBE
FFFFFE2A
FFFFFA69
FFFFF0F7
FFFFF84F
FFFFFDC0
00000255
00000077
FFFFFDB2
FFFFFE86
0000005C
000006D6
FFFFFFDF
0000067A
000008C5
0000032F
FFFFFC9E
FFFFFBD8
FFFFFA5B
FFFFFDE9
00000461
0000072D
0000080E
0000059A
FFFFFCB5
000001C1
FFFFFC81
0000011D
000002A3
00000311
000000FE
FFFFFB03
FFFFF7B5
FFFFFE7C
00000206
000003E1
0000010E
00000146
000004F2
000001BD
0000032D
000006DA
FFFFFF65
00000129
FFFFFB78
FFFFFCF1
FFFFFD6D
FFFFFC3D
FFFFFEBB
0000009F
000004B6
0000020C
FFFFF8B7
FFFFF3B4
00000120
FFFFFF96
00000095
000003F9
FFFFFD11
0000041E
00000205
FFFFFF8D
0000015E
FFFFFF2D
00000113
000000C9
FFFFFD82
FFFFFD06
FFFFFAF7
FFFFFCF2
FFFFFD28
FFFFFA01
FFFFFA74
FFFFFAB4
FFFFFCA8
0000009E
FFFFFDB4
00000386
FFFFFFD1
00000464
FFFFFD17
FFFFF21E
FFFFFCD0
FFFFFE5C
00000009
FFFFFC43
FFFFF513
FFFFFB52
FFFFFE18
FFFFFF90
FFFFFBD0
FFFFFF78
FFFFFE0C
FFFFFD75
FFFFFE05
FFFFFED5
FFFFFAB8
FFFFF3BE
FFFFF96A
FFFFFFD6
0000018D
000004FC
000005AB
00000121
FFFFFF66
00000525
000002CB
000001C2
FFFFFB6A
FFFFF765
FFFFFEA0
00000217
FFFFFEC7
00000131
FFFFF802
FFFFFD23
FFFFFEF3
0000021C
000001D3
000006D7
FFFFFE70
0000016A
000006B4
000000D8
FFFFFBF7
0000000F
0000025B
000001D6
FFFFFBC6
FFFFFD6F
0000056A
0000027E
FFFFFAC7
00000367
000003AF
00000289
00000584
00000469
FFFFFE20
FFFFFF0E
00000003
FFFFFECE
0000021B
000005DB
00000992
00000C55
0000078D
00000031
FFFFFCC5
FFFFFE0B
FFFFF77B
FFFFF64C
FFFFF87E
FFFFFF70
FFFFF9AC
FFFFFB1D
00000133
FFFFFC42
FFFFFAEC
FFFFF97A
FFFFF483
FFFFF123
FFFFF3BF
FFFFF2EF
0000018E
00000078
FFFFFE59
000001C1
000000F0
000000E8
0000021B
FFFFF73A
000008F8
00000BCE
00000DEB
000009DB
00000435
FFFFF7B3
FFFFF3B9
FFFFFC8D
FFFFFDF3
FFFFFC05
FFFFF7A3
FFFFFDC6
FFFFFEDF
0000015A
FFFFF9BF
FFFFFB9B
FFFFFCE8
FFFFF9C4
00000AAC
0000074D
000000D5
FFFFFEFF
0000022D
00000198
000001CF
00000169
FFFFFE8C
00000317
00000217
000006A0
00000728
00000942
0000062E
00000A37
00000619
000001DF
00000291
FFFFF97E
FFFFF79F
000000D1
000005E8
0000058D
000008EE
000001EB
FFFFFF68
FFFFF7FC
FFFFF5E0
FFFFFFA3
FFFFFFAB
00000074
000000F4
0000019D
FFFFFFF9
FFFFFE1C
00000178
000001DB
FFFFFEA6
FFFFFE2A
000000D2
FFFFFDC9
00000015
00000142
FFFFFE70
000001E6
000003D5
FFFFFE1F
00000073
000001B1
00000222
FFFFFF1C
FFFFFEDA
FFFFFECF
FFFFFE1C
000000C5
00000196
0000012F
FFFFFE12
0000023F
FFFFFF29
FFFFFEAF
00000223
FFFFFE34
0000023C
FFFFFE30
000000C3
FFFFFD80
FFFFFA25
FFFFFC1B
FFFFFE5F
FFFFFF49
FFFFFD7E
FFFFFDEA
FFFFFFF9
00000156
FFFFF74A
FFFFF563
FFFFF829
FFFFFAB0
FFFFFD9F
FFFFFA7C
FFFFFD62
FFFFFC75
FFFFFAB0
FFFFFDE3
00000212
0000013B
0000021B
000001FB
FFFFFF14
000000F1
FFFFFF99
00000091
FFFFFDAE
FFFFFB6A
FFFFF960
FFFFF9CB
FFFFF734
FFFFF987
0000000A
000003BD
00000BCF
000007C8
FFFFFD1E
FFFFF990
FFFFF860
FFFFFD73
FFFFFF73
FFFFFD1B
00000087
FFFFFF5F
FFFFFB5C
00000058
FFFFFF0B
000000F8
FFFFFDD4
FFFFFFD7
000001A2
FFFFFDDE
FFFFFF4A
FFFFFE16
FFFFFFE6
FFFFF849
FFFFF637
FFFFF60D
FFFFE720
FFFFF00A
00000129
FFFFF8F1
FFFFF3DF
FFFFFB58
FFFFFBDF
FFFFF809
FFFFFCA4
000003E8
FFFFFF6C
000001DA
000008E0
000003AA
000001B1
FFFFFFF8
000002B4
0000000C
000001EE
00000023
000002C7
000002F6
00000F48
000001A4
FFFFF6DC
FFFFF32B
FFFFEEA9
FFFFEBCF
FFFFEC7B
FFFFF46A
FFFFFC5C
FFFFF9CB
FFFFF8AB
FFFFFE6F
000002A3
00000620
000004FF
0000077C
000002A4
0000011E
FFFFFD27
FFFFF923
FFFFF2F0
FFFFFBB4
00000160
FFFFFB16
FFFFFFB5
000000BF
00000179
FFFFFE3E
FFFFFBD1
FFFFF5B1
FFFFF32C
FFFFFADE
00000074
FFFFFF9D
0000017A
FFFFFCB8
00000164
0000092E
000003C4
000008F6
000000F2
0000013F
00000ADB
FFFFFDA0
FFFFFC0D
FFFFF79D
FFFFEDC5
FFFFF0BB
FFFFF719
FFFFFB39
FFFFFC63
FFFFF329
FFFFFD90
0000013B
000000FA
00000620
FFFFF91F
FFFFFDD9
000001AE
000002F0
00000123
000004DA
00000591
FFFFFC3A
00000317
0000036E
00000070
00000081
FFFFFD25
00000198
00000662
FFFFFB5E
FFFFF8BE
FFFFFCD5
FFFFFE80
FFFFF730
FFFFFB29
FFFFFC01
FFFFF8FD
FFFFFFC2
FFFFFFB0
00000004
00000247
00000993
FFFFFC9B
FFFFFF99
FFFFF830
FFFFFE1D
000001AF
000007B0
0000056B
FFFFFF0A
FFFFFFD7
0000010D
0000013B
FFFFFF39
FFFFFE43
FFFFFF0E
00000678
FFFFFC05
FFFFFEDB
FFFFFFBC
FFFFFAEA
FFFFF560
FFFFFAE5
FFFFFA46
FFFFF3C6
FFFFFC8B
0000003E
FFFFFEEF
000003B1
00000DBC
FFFFFCC3
00000445
FFFFFA31
0000025F
00000193
00000770
000008F4
FFFFFFCD
00000220
0000004A
00000269
000003E2
00000517
00000732
00000556
000002FA
FFFFFD22
000000CB
00000200
FFFFFE2D
FFFFEFF4
FFFFF627
FFFFFCB0
FFFFF81D
FFFFFDA2
FFFFFF8C
00000099
00000B58
FFFFFCBE
000003DE
FFFFFA28
FFFFFE6F
000005E5
0000085D
00000682
000001F4
000001AE
000003DF
FFFFFBF0
000006D7
00000786
000008A9
00000920
FFFFFDA7
FFFFFE01
000004B6
FFFFFEBA
FFFFFF8B
FFFFF8FB
FFFFEE8C
FFFFF272
FFFFF2AB
000005B9
FFFFFFCF
00000127
00000628
000004DA
000002BF
FFFFF51A
FFFFF8E0
00000214
000004D6
00000068
FFFFFC5F
FFFFFB66
FFFFF94C
FFFFF4A6
FFFFF995
FFFFFF46
000003C5
00000427
FFFFFDBD
FFFFFFA4
00000658
FFFFFD2A
000005E4
00000339
FFFFF663
000006CD
FFFFF9EA
00000153
00000BD3
FFFFFF7C
0000044E
00000D0E
00000353
FFFFFD28
00000088
FFFFFE70
000004A9
0000007B
FFFFFF8A
FFFFF97B
FFFFFAF6
FFFFFAA0
FFFFFB9F
FFFFFF6D
0000026F
000002F8
000000C1
00000348
000003B8
000002CF
00000926
0000010B
FFFFF8E6
0000012A
0000010C
0000028A
0000087C
00000177
0000097C
FFFFFC3C
00000216
FFFFFD07
FFFFFB12
FFFFF9F0
FFFFFE73
FFFFF9C8
000000EE
FFFFFE35
FFFFFBF1
0000000D
000004DB
FFFFFF8D
000000FB
FFFFFCAA
00000428
FFFFFE55
FFFFFFEB
00000695
000009D0
000005B1
FFFFF5DE
00000162
FFFFFEA2
00000162
FFFFFB87
00000229
000003C4
FFFFF6E5
00000398
FFFFFAB4
FFFFFD1D
FFFFFE0E
FFFFFF70
FFFFFC5C
000007B6
0000058A
00000346
0000028B
00000180
FFFFFF8F
FFFFFE52
FFFFFF81
000002DB
00000235
0000014C
000003C4
FFFFFFB4
FFFFEFC6
FFFFEC38
FFFFF048
FFFFEDA9
FFFFFC9D
FFFFFD6E
00000305
FFFFFF66
FFFFF9AB
FFFFFE0F
FFFFFF1E
FFFFF5F9
FFFFF91A
FFFFFA7D
00000497
000004AD
00000575
0000077A
000005BD
FFFFFFFD
000000E1
FFFFFD88
000000A7
000003E5
0000000F
00000007
FFFFFF37
FFFFFA62
FFFFEDFF
FFFFE67F
FFFFEAAC
FFFFECD6
FFFFFD02
FFFFFF9A
0000037F
000001CE
00000152
FFFFFA07
FFFFF86D
FFFFF650
FFFFF155
FFFFF535
0000002C
00000A8B
0000097B
00000977
000005C2
000002BA
000003FA
000000D3
000003A8
00000021
FFFFFEFE
FFFFFE35
FFFFFE4D
000001D8
FFFFF584
FFFFEBF1
FFFFF074
FFFFF9F9
FFFFF59A
00000369
0000037D
00000172
FFFFF90A
000000B4
FFFFF90C
FFFFFE1A
FFFFF5A5
FFFFF89C
0000019A
00000621
0000088A
00000D88
00000BF5
FFFFFE3C
0000051D
0000000C
0000039E
00000571
00000014
FFFFFB57
FFFFFB24
FFFFF6DB
FFFFF618
FFFFEB4B
FFFFED17
FFFFEF67
FFFFF16B
FFFFFF31
00000169
FFFFFFC8
FFFFFA0C
FFFFFD14
FFFFF98C
FFFFF64B
FFFFF1FA
FFFFF66C
FFFFFF84
FFFFFEC6
000001D7
000001F3
0000082F
000001EA
000002CA
0000045A
00000B82
00000656
00000041
FFFFF5C0
FFFFF74C
FFFFFB47
FFFFF6BE
FFFFFABC
FFFFFD6D
FFFFFAD2
FFFFF67B
0000021E
000001BE
00000148
FFFFFAF3
FFFFF994
FFFFF61D
FFFFEC2C
FFFFEE5A
FFFFF503
FFFFFDE0
FFFFFBC6
000001B2
0000022C
0000049F
FFFFFAB4
FFFFF870
0000024D
00000AD9
000007EB
000007E1
FFFFFC0C
FFFFF61E
FFFFEEDD
FFFFEE06
FFFFE98D
FFFFFEED
000011B1
FFFFF78F
FFFFFBBC
00000078
000004E6
00000027
000000B8
FFFFFEC4
FFFFEFCD
FFFFEE14
FFFFEFB1
FFFFF376
FFFFF1A0
FFFFF533
00000000
FFFFFBAD
FFFFF8C4
FFFFFCED
00000199
000009CF
00000BCC
00000B82
FFFFFEDF
FFFFFD8B
FFFFEFED
FFFFE490
FFFFDE76
FFFFF30F
FFFFFAA6
FFFFF7CA
FFFFFDDE
000008FA
00000902
0000009A
0000052F
FFFFFFAC
FFFFF5CF
FFFFFA8D
FFFFF55C
FFFFF13D
FFFFECE3
FFFFEE44
FFFFEFE9
FFFFF6EE
FFFFFC3F
FFFFFCC7
0000093B
000007DE
00000792
0000075C
FFFFFEDD
FFFFFA31
FFFFFC57
FFFFF52E
FFFFEA93
FFFFF668
FFFFF9D6
FFFFF957
FFFFFBBE
000000B2
00000655
00000353
00000A7B
000004DA
00000397
0000090E
0000028A
FFFFF41B
FFFFF4A1
FFFFF1F4
FFFFF195
FFFFF5F7
FFFFFACC
FFFFFCBA
00000301
00000686
FFFFFF76
FFFFFE1E
FFFFFE68
FFFFFFE8
FFFFFCCB
FFFFF3CA
FFFFF29A
FFFFFC38
FFFFF670
00000010
FFFFFEC0
0000000A
00000089
000006AE
00000BFD
00000A2B
00000CDA
00000C09
00000260
FFFFF9BC
FFFFFF44
FFFFF91B
FFFFF54D
FFFFF63C
FFFFFB59
00000061
00000119
000003EC
000000A9
000003E6
FFFFFB20
FFFFF679
FFFFFF9C
FFFFFB38
FFFFF862
FFFFF8EC
FFFFFAB3
FFFFFF27
00000071
FFFFFE0B
0000045B
000004B5
000006D6
00000807
00000D1E
00000A96
000005AC
FFFFFFA6
000006B5
00000291
FFFFF6FC
FFFFFCD7
FFFFFE94
000001F6
FFFFFEEC
00000184
000003E2
00000045
FFFFF99B
FFFFFA5C
FFFFFD05
FFFFFCA2
FFFFF58C
FFFFF75F
FFFFF900
FFFFFE23
FFFFFEEC
00000164
00000370
00000AA7
00000636
00000C9E
00000DAB
00000880
FFFFFCDF
00000612
00000B49
00000470
FFFFFB53
00000930
000001CC
FFFFFEDC
0000042A
FFFFFB7A
FFFFFA39
FFFFFE56
000002D5
FFFFFB3E
0000050E
00000219
FFFFF222
FFFFF943
FFFFFA71
FFFFFFC6
FFFFFFC9
0000002C
000006E7
FFFFF83D
FFFFFE31
00000A58
FFFFFC5A
FFFFFD75
FFFFFE7A
00000172
00000825
0000032A
00000250
000008B9
0000009F
FFFFF85C
FFFFFE76
FFFFF649
FFFFF68D
FFFFFE79
FFFFF5E6
FFFFF9B9
00000493
00000664
FFFFFD3D
FFFFFB5F
FFFFF7EA
FFFFFE6A
FFFFFDD6
FFFFFE34
FFFFFDF5
00000457
00000718
00000683
00000527
00000056
FFFFFE0C
00000127
00000E4F
00000932
000007BB
FFFFFDE9
000005FE
00000395
000009B3
00000861
00000102
00000581
00000533
0000070E
000007AB
00000576
00000527
000005A9
FFFFFF1B
000000FE
00000162
0000000D
0000015A
FFFFFE3C
FFFFFF78
000004FD
FFFFFA9D
FFFFFE24
00000382
00000117
FFFFFDED
FFFFFDB9
0000038E
00000375
00000970
000010EB
0000027B
000002FA
00000A8E
00000929
00000680
00000820
0000074E
000002BC
000001B6
FFFFFE2D
00000130
00000040
00000048
000000BC
0000006B
00000235
FFFFFFDB
FFFFFE7E
FFFFFFC8
00000013
FFFFFDD4
0000023A
00000163
FFFFFEC6
0000004E
000005E2
00000982
0000066A
0000009A
000001A7
FFFFFFAE
FFFFFE6B
FFFFFDBC
FFFFFE64
FFFFFF5D
FFFFFFF7
000001A7
FFFFFFA2
00000144
00000214
00000010
00000150
0000004B
0000023F
FFFFFF89
FFFFFEB9
FFFFFD7C
FFFFFCC0
FFFFFC4F
FFFFFD3B
0000023C
FFFFFC93
FFFFFA5D
FFFFF9FB
000005B2
FFFFFABF
FFFFFBAB
FFFFFA01
00000511
00000061
FFFFFBFF
FFFFFBBB
FFFFFB23
FFFFFDED
FFFFFFDE
FFFFFE59
FFFFFE77
FFFFFE80
000001CC
00000239
0000025E
FFFFF82B
FFFFF916
00000281
00000354
00000299
00000AE4
00001296
00000F9A
000007FB
FFFFFF68
000002F8
000014AC
00001135
00000A1A
000005C4
0000036E
FFFFFACC
000003BC
0000019E
FFFFFFE6
00000027
00000516
000004B2
FFFFFF4A
00000098
FFFFFED1
FFFFFE6C
0000019B
FFFFF984
FFFFF86B
0000026F
00000560
FFFFFD3C
FFFFFD6A
0000037A
000001C6
00000544
FFFFFFF0
00000146
FFFFFDD2
000004C7
000002C4
FFFFF75B
FFFFFBE8
00000089
FFFFF440
0000001C
000005F7
0000108F
0000077D
FFFFFB25
FFFFFBBC
000001DE
FFFFFE7F
FFFFFEC5
0000044A
FFFFF1C3
00000120
00000836
00000486
00000286
00000716
00000502
00000B4E
00000B81
000008A0
00000463
00000861
FFFFFED1
00000064
0000019F
FFFFFD21
000000CD
00000160
FFFFFE7F
000002B9
0000038E
000001D9
00000103
FFFFFFE0
FFFFFE56
FFFFFFC1
FFFFFED7
0000066B
FFFFF590
000005DD
FFFFF7C1
FFFFFFED
000006DA
FFFFFED0
FFFFFDC6
0000052E
00000866
00000EFD
00000865
00000401
000003E1
FFFFFFCD
000004A9
FFFFFEDB
000005B5
000002FF
0000050D
00000559
0000083E
0000067D
00001104
0000024C
FFFFFE30
0000007E
FFFFFE1B
FFFFF6C2
FFFFF595
FFFFFF0C
FFFFF34C
0000005C
000007F9
0000044D
000006D9
00000305
00000653
000003AB
00000349
0000020E
0000069D
000004F8
0000074F
000001BB
00000166
FFFFFC4C
FFFFFA08
000000EF
000007ED
FFFFFB88
000007A6
0000033F
000004D7
000000C2
FFFFFD0E
FFFFF9A5
FFFFFA6E
00000757
FFFFFC98
00000201
FFFFFC2A
000000E9
0000022A
000000B0
0000025C
000000B1
00000266
FFFFFD85
0000015A
FFFFFED7
FFFFFE35
FFFFFEB9
FFFFFE64
FFFFFF18
00000341
00000192
000000F4
FFFFFE67
FFFFFEDD
FFFFFC24
00000085
FFFFF341
FFFFF55F
FFFFFC1A
00000505
00000AC0
0000025D
FFFFFF74
FFFFFD4B
00000117
00000164
00000286
FFFFFE43
FFFFFA94
000002EE
FFFFFCDA
FFFFFB06
FFFFFE28
FFFFFB9F
FFFFFD5D
00000251
FFFFFF66
0000014E
0000047E
FFFFFBB1
FFFFF792
000000D5
00000743
00000692
FFFFFD54
FFFFF776
00000544
0000047B
FFFFF9A7
00000234
00000114
FFFFFC0D
FFFFFF2E
FFFFFEFA
FFFFFD2D
FFFFFEA8
FFFFFE58
FFFFFF86
00000027
FFFFFFFD
FFFFFBAA
FFFFFC9F
FFFFFC7F
FFFFFFA9
FFFFFF44
0000016F
0000038F
FFFFFAAE
FFFFF0AA
FFFFFAF6
000004CA
FFFFF0A6
FFFFFDA3
FFFFFA63
FFFFF28B
FFFFFEA3
FFFFFDF2
0000048F
0000009A
0000044A
000000F3
FFFFFCFA
FFFFFC5B
FFFFF842
FFFFFC9C
FFFFFBB0
0000019E
FFFFFB91
FFFFFAD5
FFFFFD08
FFFFFC73
FFFFFE5F
FFFFFEA7
FFFFFE02
FFFFFA18
FFFFFAD3
FFFFF617
FFFFEF5D
FFFFF728
FFFFF74D
FFFFFF0C
FFFFEB28
FFFFF367
FFFFFC72
FFFFFD8E
00000448
FFFFFEF2
00000173
000000EA
FFFFFE4D
FFFFFC93
FFFFFCCD
00000497
0000017F
00000169
FFFFFF16
FFFFFFBA
FFFFF8D6
FFFFFCD6
000002D4
FFFFFF9E
FFFFFCF7
FFFFF9B0
FFFFFCEE
FFFFFFFF
00000244
000003BA
FFFFF78D
FFFFFCA1
FFFFFE88
FFFFF75A
FFFFFAF5
FFFFFE85
FFFFFF65
00000019
0000009F
FFFFFB4B
FFFFFC32
FFFFFCC5
FFFFFED5
FFFFFFCC
FFFFFF56
00000395
FFFFFF72
000000DA
FFFFFCCA
FFFFFF42
0000034A
0000021C
00000335
FFFFFB04
000007AC
0000095D
FFFFFFCC
FFFFF82B
FFFFF0D3
000004C9
FFFFFE7A
FFFFF70B
000000D7
FFFFF88B
FFFFFF2F
FFFFFD59
FFFFFEC7
FFFFFEB2
FFFFFE43
FFFFF9B6
00000090
0000012A
00000A9F
0000095A
00000A90
00000436
00000169
00000357
0000062D
00000402
FFFFFEC3
0000000A
FFFFFF12
000000D0
FFFFFC23
000005A2
00000879
FFFFFDE6
FFFFFC53
FFFFF651
00000597
FFFFF7BF
FFFFFED8
00000275
FFFFFEBD
FFFFFAD5
FFFFF8AF
FFFFFD9F
000003F1
000003B6
000008A3
00000A5F
0000062C
00000A01
000000F0
FFFFFF08
00000302
FFFFFF3E
FFFFFEA5
FFFFFFAF
FFFFFA71
FFFFF8CE
000007EA
000010E6
00000942
FFFFFEA5
FFFFFFDB
FFFFFDAD
000005A7
FFFFFE30
FFFFFD9D
00000015
FFFFFEBB
0000037F
FFFFFFB3
FFFFFF43
000001BC
00000286
00000658
00000EA1
000008F9
00000D24
00000157
FFFFFE80
000003B5
FFFFFD17
00000061
00000163
FFFFFBC6
FFFFF693
0000050E
00000E63
00000DE7
00000171
FFFFFEE0
00000643
0000034F
FFFFFB7D
FFFFFED6
00000A22
00000351
FFFFFEF0
000007FD
00000550
0000034D
000004D0
000006C2
00000ADB
000002BD
000007F4
00000475
0000058D
FFFFFFF6
FFFFFE5D
00000095
FFFFFEBA
FFFFFFF6
FFFFFDA5
00000D95
00000ECA
000002E9
000001CC
00000005
000009F3
FFFFFE70
00000234
FFFFFFC3
0000016D
00000290
000005D3
00000786
000004A2
0000030B
000002C3
000002D8
00000388
FFFFFE5D
00000297
FFFFFCEF
FFFFFEBA
0000020B
0000005F
0000019F
FFFFFEB5
00000055
FFFFFE5C
000003F3
000006F8
FFFFFB46
FFFFFBFD
FFFFFFE5
000005C8
0000072B
0000023F
FFFFFDF9
00000299
00000481
FFFFFF66
0000033A
FFFFFFA6
FFFFFB6C
FFFFFC4B
00000157
0000027C
FFFFFE00
FFFFFDB0
FFFFFD01
FFFFFFB2
0000038C
000002E7
FFFFF907
FFFFFD03
000003AF
000008B1
00000A1E
FFFFFEF0
00000911
0000041B
FFFFF236
FFFFF731
00000346
FFFFFFBB
00000191
FFFFFEC3
000000C3
FFFFFF81
00000365
0000038D
FFFFF971
FFFFF6BF
FFFFFF35
00000146
00000398
00000480
FFFFFFEE
00000487
000003CE
FFFFFDF2
FFFFFDC6
FFFFFFCC
000008F0
FFFFFE13
000000E3
000010EB
00000359
FFFFFFDF
FFFFFDB9
FFFFFD84
0000017B
000002F8
0000039E
00000635
00000288
FFFFFC65
FFFFFC62
0000012D
FFFFFE98
FFFFFD0F
FFFFFAA9
0000013C
000006E3
00000531
000004AE
00000276
0000000C
00000314
0000004B
00000310
000005EC
00000392
000000B0
00000748
000000DF
00000209
00000521
000002F0
00000A5E
000008A2
000003CC
00000834
00000634
00000340
0000029C
FFFFFF23
FFFFFF49
FFFFF9A7
FFFFFBC3
00000460
00000127
00000130
FFFFFF15
FFFFFE17
00000034
00000055
FFFFFF9F
000001CB
0000075E
00000282
FFFFF7A8
FFFFF1D9
FFFFFE01
00000194
000002FD
000007DE
00000B6A
00000DF9
00000678
0000092E
0000083C
00000292
FFFFFDA8
FFFFFF6B
FFFFFF0A
FFFFFCBC
000001D2
0000002C
FFFFFA6D
FFFFFE47
FFFFFC90
FFFFFEBA
FFFFFFAF
0000063D
0000046E
0000067B
000002D5
000002B8
FFFFFE6E
FFFFF541
00000053
00000140
FFFFFE10
000008BC
0000007F
FFFFFDF9
00000229
FFFFFC27
00000004
000002E2
FFFFFF9B
FFFFF942
FFFFFA51
FFFFFEBA
000000A9
FFFFF996
FFFFFF57
FFFFFFEB
FFFFFE6B
000005C1
0000069D
00000F4C
00000BC1
00000EA5
00000878
00000038
FFFFFA7E
FFFFFA67
FFFFFE7E
0000007E
FFFFFECC
FFFFFC59
FFFFF7D6
FFFFFDB1
FFFFF275
00000147
0000025D
0000058B
FFFFFE50
FFFFFE14
0000022A
FFFFFD1C
FFFFF869
FFFFFE8D
FFFFFFD1
FFFFFDE7
FFFFF82F
00000123
00000593
000009A0
FFFFFF35
000004B0
000004E5
FFFFFDA7
00000A05
000008E0
FFFFFE9A
FFFFFEE6
FFFFFEEF
000009C9
FFFFF990
FFFFF5D7
FFFFFAF9
FFFFFAC5
FFFFFAB4
0000004F
FFFFFE8A
FFFFFE12
FFFFFD08
FFFFF3F8
00000172
000001CB
FFFFFCD5
FFFFF8FB
FFFFFFC5
FFFFFD5F
FFFFF89D
0000018A
FFFFF905
FFFFF7AC
FFFFF664
FFFFF16F
000006D2
000007A1
FFFFFF8C
FFFFFEF9
00000149
FFFFFE55
0000008D
00000FC1
000007FA
000004A3
00000378
FFFFFE25
0000006F
FFFFFD80
FFFFFDF0
00000020
FFFFFDE2
000006D7
FFFFFE28
FFFFF5DE
FFFFFE32
FFFFF53E
FFFFF114
FFFFFB59
FFFFFA87
FFFFFE07
00000A24
00000E70
FFFFFAB2
FFFFFE2F
FFFFFFEA
FFFFFEBC
00000113
0000013A
FFFFFF1A
FFFFFD33
FFFFF8B6
0000065A
000007C2
0000035C
FFFFFD00
FFFFF6DE
000003B6
000004A5
FFFFFA93
FFFFF80B
00000459
FFFFFC65
FFFFF29D
FFFFFAE7
000000B2
FFFFFEB0
FFFFF7E3
FFFFF8F1
FFFFF915
000001E1
FFFFFFBD
0000023C
00000019
FFFFFEE8
FFFFFF00
FFFFFFA6
FFFFFE3C
FFFFFF40
00000063
000000E3
000000E7
FFFFFDB9
FFFFFFB5
00000178
FFFFFF5B
00000278
000002C6
FFFFFCD9
00000171
FFFFFE4A
FFFFFE65
FFFFFE9F
FFFFFE22
FFFFFE03
FFFFFF0F
00000216
FFFFFEA0
FFFFFFFC
000001D0
000000E6
00000168
FFFFFE93
0000005B
00000197
00000126
000001BF
FFFFFD2C
FFFFFC22
FFFFFB4E
FFFFF7AD
FFFFFCD3
FFFFFE26
FFFFFC35
FFFFF98C
FFFFFB77
00000B5C
00000691
FFFFFD01
FFFFF9C8
000001A0
0000030F
FFFFFC7C
FFFFFD9D
FFFFFADC
FFFFFC05
00000105
00000076
00000045
00000193
FFFFFF72
00000137
000000BF
00000115
000001C0
FFFFFE88
0000017C
FFFFFB9C
FFFFF9DE
FFFFFC78
00000344
000004AC
FFFFFDB8
00000F2D
00001011
00000856
000006D3
FFFFFDB4
FFFFFAC3
FFFFFA8E
FFFFFB58
FFFFFB8A
FFFFFE44
FFFFFD7F
000001BF
FFFFFEB4
000001A7
000001E8
0000014A
00000185
0000091C
FFFFFFCD
FFFFFD1D
00000147
0000019B
FFFFFCC1
FFFFFA19
FFFFFF2E
00000765
000007A8
00000172
000002AC
FFFFFF54
000003C5
0000051F
00000161
FFFFF680
0000087C
FFFFFB10
FFFFF769
FFFFF44D
FFFFFE36
0000030E
0000012B
00000029
FFFFFEC0
00000061
FFFFFF49
00000A6A
FFFFF85B
000007EC
00000E08
00000338
000005BB
000002E7
FFFFFEFD
FFFFFE5A
0000027C
0000008A
00000322
FFFFFEE2
FFFFF8CB
FFFFFB24
FFFFFBFE
FFFFFB83
00000350
FFFFFA33
000004AF
FFFFFB5F
00000379
00000455
FFFFFECA
FFFFFD21
FFFFFCF9
FFFFFF24
FFFFFE22
00000A9B
FFFFF718
00000A8C
000014A1
00000E90
00000B19
000003B5
00000225
FFFFF6A0
FFFFF80A
0000022A
000001DF
0000016E
000000CA
0000025D
FFFFFD60
FFFFFE38
FFFFFF07
FFFFF7A6
FFFFFDFD
FFFFFB83
FFFFFF2D
000003DD
FFFFFF03
FFFFFB1F
FFFFFE7E
0000021E
000000E2
FFFFFBEB
FFFFFFE2
000005CA
0000030B
00000640
00000632
FFFFFC83
FFFFFF9B
FFFFFADA
FFFFFDDA
00000252
FFFFFFEC
000000DB
FFFFFED8
00000155
00000490
00000275
FFFFFFE7
FFFFF8A1
FFFFFF59
FFFFF8B1
FFFFFEF8
FFFFF2E4
FFFFF80B
FFFFFD48
00000011
00000136
00000C78
FFFFFF82
000007CC
00000385
FFFFFCC0
FFFFFFB8
000002E1
FFFFF610
FFFFFAE6
FFFFFDE5
FFFFFEEA
00000056
0000009B
FFFFFF07
FFFFFDFD
FFFFFC6E
00000208
00000D4A
000003D2
FFFFFB06
FFFFFEB8
FFFFFF0D
FFFFFFFF
FFFFF175
FFFFF612
FFFFFE72
FFFFFEEA
FFFFF9D4
00000852
FFFFFF62
0000045D
000005A2
00000515
FFFFFE71
0000079A
FFFFFCF1
FFFFFED6
0000026C
FFFFFA5C
FFFFFDD5
FFFFFDDC
FFFFFE02
00000102
FFFFFF85
0000046D
000009FC
0000024D
000000E5
FFFFF9FF
FFFFFA3C
FFFFFBD8
FFFFEB32
FFFFF0AF
FFFFF9AB
FFFFFF15
0000045B
00000908
FFFFFD6E
000005A0
00000734
000004F3
00000386
00000683
0000035B
FFFFFF10
FFFFFCE2
FFFFFB45
FFFFFF31
FFFFFF93
000002CE
00000645
000007BC
0000057A
00000119
FFFFF9F0
FFFFFCB6
FFFFFA31
FFFFFB46
FFFFFC0E
FFFFEBEE
FFFFEE3D
FFFFFA6D
00000183
000002A4
000006D7
000004E0
0000000D
00000348
FFFFFAFD
0000051F
00000727
000000F7
00000099
0000040A
000001F7
FFFFFBFC
FFFFFBF8
FFFFFA1F
00000659
000006F6
FFFFFFA7
FFFFFB0F
FFFFFA2F
FFFFF7DD
FFFFFB3D
000001DE
FFFFFAD5
FFFFF408
FFFFEE7B
FFFFF544
000001E8
000007CC
FFFFFFB6
00000B89
00001183
0000127B
00000139
00000119
00000630
FFFFFEF2
00000777
000001E4
0000035C
FFFFFAC0
FFFFF8E5
FFFFFFCB
00000514
FFFFFE6B
FFFFFBC9
FFFFF83C
FFFFF949
FFFFFDDF
FFFFFCAF
FFFFFD81
FFFFFBF9
FFFFF356
FFFFEF01
FFFFF5A8
00000E60
0000041C
000002DF
0000040A
0000115E
00000A9E
0000017F
FFFFFA82
0000052C
0000062E
0000029A
00000191
FFFFFD49
FFFFF6BA
FFFFF6C4
00000343
000003CD
FFFFFC5C
FFFFF815
FFFFFBB1
FFFFF95D
FFFFFCCF
FFFFFA3C
FFFFFEB0
FFFFFE88
000001B7
000008B8
00000820
0000138A
FFFFFCB5
00000238
000005F2
00000DF4
0000079D
FFFFFDD0
00000296
00000464
00000439
0000040D
00000180
FFFFFCAA
FFFFF2BD
FFFFF83D
00000215
00000141
FFFFFB24
FFFFFD74
000007CC
00000414
0000032F
00000684
00000041
0000015E
00000945
00000E61
00000586
FFFFFE2E
FFFFFD45
000002F9
000009AF
000008A5
FFFFFF69
0000011C
00000598
00000534
00000573
FFFFFF29
FFFFFB4C
FFFFFA08
FFFFF914
FFFFFF79
000006D0
FFFFFED7
FFFFF99A
FFFFFFB1
0000053B
00000B69
FFFFFDF1
0000051B
FFFFF967
FFFFFF5C
FFFFFF04
FFFFFFBE
FFFFFDC2
000002AF
0000005D
FFFFFEDF
FFFFFFFA
000002F5
FFFFF454
0000033D
00000800
000007D3
00000548
FFFFF979
FFFFF6CB
FFFFFD67
FFFFFB94
000006ED
00000C7D
00000541
FFFFFBC0
0000070A
00000AF2
0000077A
00000596
00000645
000000B2
FFFFFA0A
00000310
000001D6
000001CA
000002BC
000003F5
FFFFFE3C
000000F4
0000031E
FFFFF8E5
00000307
00000775
0000048C
FFFFFE91
FFFFFA34
FFFFF627
FFFFF72E
FFFFFDF0
00000AFD
00000C2C
00000223
000007E7
00000921
00000B0C
00000539
00000237
00000404
FFFFFD94
FFFFFAD6
00000354
FFFFFE32
00000435
FFFFFD1E
000001F2
00000120
000001CF
FFFFFE7C
0000018E
000007AC
000009E0
FFFFFF68
FFFFF37C
FFFFF160
FFFFEC24
FFFFF62D
000007DE
0000105A
00000ABC
0000030D
000007FB
0000092A
00000A69
000004FD
000009CF
000009F8
000003AD
00000007
000009F6
000006F5
000010A4
FFFFF8CD
000004AD
0000085E
000006BB
0000028C
00000475
000003B4
00000263
000003B2
FFFFF5A3
FFFFECD2
FFFFE5AE
FFFFF60D
00000962
000013B3
00000554
000002F5
000005B0
00000DA5
000008AE
0000012E
00000B68
00000774
000000C0
FFFFF7A8
0000041E
0000092E
00001AD9
0000063D
0000003F
0000059F
FFFFFF85
0000009B
000002BD
FFFFFC50
FFFFFD34
FFFFFCD5
FFFFF034
FFFFEC16
FFFFED0F
FFFFFDD0
0000082A
00000C30
00000337
00000188
00000546
00000AC4
00000190
FFFFFF74
00000139
FFFFFD91
FFFFF748
FFFFF5A4
0000028D
0000076E
00000732
000006C4
FFFFFDEF
000000F0
FFFFFF84
00000438
FFFFFCA4
FFFFF644
FFFFFDF6
FFFFF846
FFFFEDCF
FFFFEF13
FFFFFA0F
000004CE
00000B2C
0000070A
0000052A
000003CE
000006B1
00000507
FFFFFE02
FFFFFBAD
FFFFFCC0
FFFFFBD5
FFFFF5FF
FFFFFB4E
00000710
FFFFFF30
000003D9
000001E3
FFFFFEA2
000008A7
000000B5
00000972
FFFFFD0F
FFFFFB94
FFFFFCC0
FFFFF8AF
FFFFF398
FFFFF291
FFFFFBF3
FFFFFE74
000001D8
0000038D
0000070D
000002D3
000003E1
FFFFFF0B
FFFFF977
FFFFFEB5
FFFFF898
FFFFFAD8
FFFFF97F
000000A0
FFFFFC55
FFFFFE79
FFFFFE79
0000009E
000002FD
0000042C
00000924
000001F4
000007BA
FFFFFFDC
FFFFFB44
FFFFF5DD
FFFFF36F
FFFFFC76
FFFFFEA5
FFFFFC2E
FFFFFE27
0000005F
FFFFFE22
0000033D
FFFFFF51
FFFFFF8D
FFFFFE9B
00000532
FFFFFBEC
FFFFFD33
00000080
FFFFFFF1
FFFFF9DC
FFFFFC53
FFFFFEDE
FFFFFF17
FFFFFDF0
FFFFFE44
0000078B
FFFFFA90
00000038
FFFFFC11
FFFFFBD5
FFFFF672
FFFFEF72
FFFFFAF2
FFFFF747
FFFFF7AD
FFFFFE31
0000001B
FFFFFC9D
FFFFFBAB
00000169
FFFFFEFB
FFFFFFE3
00000255
FFFFFBF1
FFFFF6E3
FFFFFBCD
FFFFFFF0
FFFFF942
00000085
0000008B
0000023F
FFFFFF31
FFFFFE56
00000B4A
000000BA
00000744
00000662
0000007C
FFFFFD09
FFFFFCF4
FFFFFD32
FFFFFE44
FFFFFE53
FFFFFCCF
FFFFFB13
00000008
FFFFFE71
FFFFFA67
FFFFFB9E
FFFFFBB7
FFFFFE7B
FFFFFAE6
FFFFF938
FFFFFFA1
0000040E
FFFFFD98
0000034A
0000021D
FFFFFED7
FFFFFF8A
00000200
FFFFF622
000000BE
00000314
FFFFFB5D
FFFFFC30
FFFFFD8E
00000018
FFFFFB02
FFFFFDF0
FFFFFCE3
FFFFF884
FFFFF637
FFFFFF1B
FFFFFA77
FFFFF5C2
FFFFFDE3
00000071
FFFFF8A7
FFFFF596
FFFFF379
FFFFF749
FFFFFE54
FFFFFB29
0000002E
00000133
FFFFFDFF
0000023B
FFFFFF59
00000168
FFFFFBA1
FFFFEDD8
FFFFEF93
FFFFF407
FFFFFF5C
00000247
000003D1
FFFFFEDC
FFFFFA83
FFFFF7DB
000002FE
FFFFFF2F
FFFFFCAF
FFFFFD3B
00000B95
00000AD4
000000D5
FFFFFDAC
FFFFFBDF
FFFFFA25
FFFFFAEF
FFFFFA60
000006AC
00000018
FFFFFF72
FFFFFE76
FFFFFFB6
0000000C
000001A7
000004AC
00000BBB
FFFFFE19
FFFFFC60
FFFFFBA3
000003AF
00000A4D
00000349
000001AB
00000614
00000571
FFFFFBC5
000004EC
000008AC
00000172
000000D0
00000544
000004BF
0000017E
00000433
FFFFFFCE
FFFFFF3E
FFFFFE55
FFFFFEA5
FFFFFC72
FFFFF6E0
FFFFFF67
0000097E
FFFFE721
00000B3D
FFFFFC6A
00000209
FFFFFE68
00001636
0000002C
00000CE4
FFFFFC05
000002BA
FFFFFABC
FFFFFEEF
00000491
00000159
FFFFF5FF
FFFFF837
00000734
0000004F
FFFFFC94
0000014B
00000333
0000024E
FFFFF899
FFFFFB66
00000768
00000524
000008B3
000000F8
FFFFF6C4
00000A6E
00000DFE
FFFFEE50
00000A5A
0000068D
00000BFF
FFFFFCFB
FFFFF6A6
0000038A
FFFFF59D
00000AE9
FFFFFDF0
FFFFEAEA
FFFFF13B
FFFFF99A
00000A12
FFFFFEDE
00000885
000002AB
00000718
FFFFFD56
FFFFFB25
0000157E
FFFFFB52
FFFFFE6E
00001796
FFFFF234
FFFFF7AB
FFFFFCF2
00000510
000007D5
00000148
FFFFF5D0
00001918
FFFFFB30
0000093B
00000551
00000E56
FFFFFC33
0000045B
FFFFF9F7
FFFFF825
FFFFFB43
000003FE
000008B7
FFFFFAB0
000005BE
0000022A
00000680
000004DA
00000B69
00000171
FFFFF718
FFFFFE6F
FFFFFDFF
000008C5
FFFFFF62
000007D8
0000091F
000005AB
00000ED4
000006B9
FFFFFCB7
FFFFF3DD
FFFFFD61
FFFFFDE7
0000081D
FFFFFB9E
00000587
00000C14
00001077
FFFFFAA4
0000060D
0000022A
00001A18
FFFFFD76
00000078
00000AE2
000007FF
FFFFFC73
FFFFF832
000001C9
FFFFF9FC
000008A3
000003C2
00000AF9
00000AD9
FFFFFF8F
FFFFF35E
00000836
00000928
00000753
FFFFFAD2
0000123E
00000CFA
FFFFFC40
FFFFF801
FFFFF9AF
000006C1
FFFFE905
FFFFF803
000001D6
FFFFF952
FFFFFD40
00000879
000005AB
00000471
FFFFF5F9
FFFFFE16
0000073D
00000AE3
00000410
FFFFF869
00000098
000005A6
FFFFF880
FFFFFE93
FFFFFC34
FFFFFCE3
FFFFF7CA
FFFFFFB2
000006D5
0000063E
0000068B
00000661
000001FD
FFFFFADE
FFFFF438
00000B4D
00000974
FFFFE60E
00000B4F
FFFFF97F
0000143B
00000A32
FFFFF8D8
000005FA
FFFFEF2E
0000059F
00001A3D
FFFFECDF
000004DD
FFFFFE8A
00000978
FFFFF6E4
000007C3
000006EF
0000066B
FFFFF670
00000AB6
00000488
00000192
00000C61
00000E18
FFFFFAD0
FFFFF50C
00000BB1
FFFFF813
00001128
FFFFFE2D
FFFFF964
00000C53
000004D3
FFFFFDA0
FFFFFB1A
000002B3
FFFFF364
FFFFFF45
FFFFF405
000004D4
00000906
000001EF
FFFFF2C9
FFFFFF1C
0000000B
00000663
00000137
00000168
0000025F
00000626
FFFFFD2E
000004EB
0000034D
FFFFF93A
0000122B
000008EE
000010A0
FFFFF94F
00000C66
000003D0
FFFFFC92
FFFFFC7E
000004FB
00000366
00000F44
0000090C
0000096D
000006B8
000003E5
00000D5A
FFFFFA45
FFFFFE9A
000009B1
00000024
0000119F
00000862
00000784
FFFFFCA4
FFFFE5EB
0000059A
0000063C
FFFFFF88
000001D4
00000799
00000240
000001BB
FFFFE5BA
000005E9
00000649
FFFFFE16
0000010B
000002CE
FFFFF319
FFFFF990
000000FD
00000619
FFFFFD4E
000008F2
00000DD0
000010A3
00000EE3
FFFFFF1F
FFFFFF18
000001AA
000006C6
FFFFF706
FFFFFC73
000010DE
0000062F
FFFFF42B
FFFFFDB1
0000080E
00001318
FFFFF8C3
FFFFFCC0
000008C1
FFFFF80E
0000157C
FFFFF246
FFFFF852
0000010E
000002F1
FFFFFA92
00000480
FFFFF44C
FFFFFBF2
00000F3B
0000093A
FFFFF731
FFFFFB1F
FFFFF638
0000142C
FFFFFFCE
000002A0
FFFFF0D9
00001218
0000091C
FFFFFDC6
000003D1
FFFFF433
FFFFF8DE
00000972
000000C8
000008B4
FFFFF72B
00000689
000008E2
FFFFFE98
FFFFFFAE
FFFFFDEE
000014A5
FFFFFB30
00001194
00000F6D
FFFFFCC2
000004F1
FFFFFBC7
00000000
00000000
00000000
00000000
00000000
00000000
00000000
00000000
00000000
00000000
00000000
00000000
00000000
00000000
00000000
00000000
00000000
00000000
00000000
00000000
00000000
00000000
00000000
00000000
00000000
00000000
00000000
00000000
00000000
00000000
00000000
00000000
