000000AE
FFFFFFB9
000001F6
0000007A
FFFFFF7C
00000061
000000CA
FFFFFF95
FFFFFE11
000001D3
FFFFFF39
FFFFFDD5
FFFFF7DA
FFFFF60C
FFFFFFF7
FFFFFFBC
00000196
FFFFFE25
00000068
FFFFFFB9
00000236
0000001F
FFFFFF1F
000001FA
000000A8
FFFFFE5A
00000016
000001E7
00000179
000001E3
FFFFFF78
FFFFFE8C
0000000F
00000158
FFFFFAE9
FFFFF719
FFFFFEC4
0000010D
FFFFF5EA
FFFFF3AC
FFFFF792
FFFFF898
FFFFFF10
000000AE
0000034A
00000468
FFFFFAA5
000002CD
00000044
000000B8
FFFFFC60
FFFFFE65
FFFFFEF8
FFFFFDD9
FFFFFEAD
FFFFFE97
00000183
00000236
00000209
FFFFFD85
0000002D
FFFFFA76
FFFFF6A1
FFFFF527
00000724
00000D5C
0000115C
00000C10
FFFFF799
FFFFE7B9
FFFFEC29
FFFFF644
FFFFF58D
FFFFF7A4
FFFFFD8E
FFFFFC88
FFFFFE27
00000191
FFFFFF91
FFFFFFDD
00000402
000004DB
FFFFFF74
0000019E
00000146
FFFFFFBE
FFFFFCA1
FFFFFAB5
FFFFFD5F
00000435
FFFFFC78
000006AC
00000882
000002F9
FFFFFDBB
FFFFFF7F
FFFFF38B
FFFFF0B9
FFFFF5B1
FFFFEF7F
FFFFED9A
FFFFF964
00000838
000008A6
00000842
00000291
00000141
00000527
000005BA
000008A1
00000056
00000014
000001F4
FFFFFF92
000002AA
FFFFFC75
FFFFF25B
FFFFFD67
00000092
FFFFFC9F
FFFFFF51
FFFFF7D6
0000028F
00000A6E
FFFFFE73
FFFFF109
FFFFE949
FFFFF019
FFFFF36B
FFFFEEBB
FFFFF369
FFFFEEB3
FFFFF4AC
000005A2
00000139
FFFFFCA3
00000161
0000028D
00000199
FFFFFEDD
000001D5
FFFFFEEC
000001E8
00000419
00000574
000003D2
0000003C
000003D0
0000032B
00000810
00000350
FFFFFFAD
FFFFFAAF
FFFFFB24
FFFFF708
FFFFFB24
FFFFF1B5
FFFFF826
FFFFEAA4
FFFFE968
FFFFF12A
FFFFF9D1
FFFFF344
FFFFF274
FFFFF996
000001EF
FFFFFE1B
FFFFFFBB
0000010F
000004FA
0000025B
000014B2
0000066E
FFFFFC24
000006CE
000008BD
00000DD9
00000E06
00000651
00000177
FFFFFD11
00000242
00000149
FFFFFFB9
FFFFF9D1
FFFFFA13
FFFFEEB8
FFFFE8D8
FFFFEBF0
FFFFF84C
FFFFF192
FFFFEC41
FFFFF203
FFFFF857
FFFFFE70
FFFFFC06
FFFFFF95
00000529
00000A55
0000164A
00000B56
00000138
000008FD
000009A7
000009EC
00000836
FFFFFAF2
FFFFFAFA
00000599
00000C55
00000625
FFFFFEEB
FFFFF815
FFFFFE76
FFFFF002
FFFFE642
FFFFE651
FFFFF9CB
FFFFEE68
FFFFEB8F
FFFFEF39
FFFFEDDE
FFFFF947
FFFFFBC0
0000025D
000007BB
00000330
0000038A
000009F4
0000050D
FFFFFA00
FFFFFFB9
00000A2A
00000B99
000008CD
000009E4
000008F8
00000C91
000007BD
FFFFFE90
FFFFFC8F
FFFFFF6F
FFFFF480
FFFFEB8C
FFFFE209
FFFFF2AC
FFFFF6FE
FFFFF09D
FFFFE9C3
FFFFEF6B
FFFFFB67
FFFFFF6A
00000199
0000051A
000007BE
00000750
00000CAF
00000B09
0000030B
00000464
000004E1
00000A2A
0000086F
000009C1
000010FA
00000A91
00000732
0000024B
FFFFFCDF
000001C1
FFFFF8A4
FFFFF491
FFFFED70
FFFFF49B
FFFFF59B
FFFFF253
FFFFF200
FFFFF94D
000005A7
00000B3F
00000111
000004D0
00000729
000003C2
00000386
00001045
0000084F
000004CF
000002E5
00000363
0000034E
00000411
FFFFFC51
000002AE
00000286
FFFFFEBF
FFFFFFD7
FFFFFD22
FFFFFA36
FFFFF6F6
FFFFF290
FFFFF38F
FFFFF5F4
FFFFFCB3
0000005C
000001E6
00000AE5
000007FA
000002F7
00000360
FFFFFD98
FFFFFF1B
0000060D
00001112
00000449
FFFFFFCA
FFFFFBA6
FFFFFB27
FFFFF763
FFFFFC6D
FFFFF750
FFFFF70E
FFFFFDE2
00000239
FFFFFBA1
FFFFFF12
0000066C
000001B7
FFFFFBA4
FFFFFAC9
000000CC
FFFFFE2B
FFFFFB9A
FFFFF9A6
FFFFF03D
FFFFF8E5
0000013C
000004FA
FFFFFD4A
0000073F
0000061B
00000790
FFFFFF4D
FFFFF5C1
FFFFF71F
FFFFF234
FFFFF618
FFFFF79A
FFFFF693
FFFFFDEB
000001A5
000004AB
0000076B
00000140
00000E29
00000979
FFFFF9E6
FFFFFF29
000001FE
FFFFF4B2
FFFFFA8A
00000718
FFFFFEBC
00000956
FFFFF76E
00000130
00000463
000008BB
00000413
FFFFFEFE
FFFFFA68
FFFFEC8D
FFFFF2A4
FFFFFBB2
000002C1
000005F9
00000528
0000041C
0000004E
00000253
FFFFFFAB
000002B2
0000080D
00000159
FFFFF884
FFFFFD76
FFFFFE03
0000076C
00000C9B
0000089F
0000007F
000009E1
FFFFFDAF
FFFFFFF4
000004F1
000009FB
000003B4
FFFFF08E
FFFFE71F
FFFFE696
FFFFF25E
00000039
0000070F
00000754
00000A5C
00000347
FFFFFCB0
FFFFFAB9
FFFFF94D
FFFFFC42
00000721
00000986
FFFFFA7B
0000006C
000000E0
00000CDE
000006BE
0000068B
00000AB7
00000A7C
FFFFFC44
FFFFFFED
000006C8
00000A1E
FFFFF9AC
FFFFE992
FFFFEFE2
FFFFF16C
FFFFFA54
FFFFFF4A
000005D1
00000329
000003DD
00000393
FFFFFFB0
000002E6
FFFFF88F
00000806
00000971
00000D7B
00000382
00000934
00000B4D
00000B31
0000117A
00000074
00000496
00000A7B
00000090
0000030C
000004CD
000005DA
FFFFFB4E
FFFFF407
FFFFFFBE
FFFFFEA5
FFFFFB9D
FFFFF9B0
FFFFFF5C
FFFFFFA2
FFFFFF2B
FFFFFE11
FFFFFED3
0000027F
000002CD
000008A9
00000811
000009CA
00000595
00000ABA
00000D05
00000AB0
00000A22
000002BA
00000F51
00000D52
FFFFFF25
FFFFFFD3
000004D3
000001FC
00000440
FFFFFE70
00000339
0000076F
0000039E
FFFFFA9A
FFFFF50D
FFFFFA70
00000008
FFFFFDF9
FFFFF622
FFFFFDE4
00000318
00000C0B
0000045B
00000567
000003B6
0000084F
000008CD
0000069E
00000A13
000013D5
0000069C
00000528
0000038A
FFFFFF01
00000404
00000709
0000000A
FFFFFF8A
FFFFFC21
00000100
0000007A
FFFFF4A1
FFFFF666
FFFFFD17
FFFFFD00
FFFFF623
FFFFF720
0000006E
00000898
00000EAE
0000071A
0000019C
FFFFFF8E
000006A7
00000345
00000494
FFFFFC44
00000A6F
00001619
000001EF
00000102
00000D7E
0000009F
00000703
FFFFFB95
000001B2
FFFFEB80
FFFFEDE5
FFFFF49E
FFFFF0B2
FFFFFB80
FFFFFD97
FFFFFA3F
FFFFF5C8
FFFFFF83
0000059C
0000095C
000002E6
00000606
0000028C
FFFFFE63
00000507
000002C6
FFFFFA50
FFFFEF77
FFFFFA86
00001174
FFFFFF34
00000051
FFFFF969
FFFFFC56
00000D26
00000623
00000016
FFFFF8EE
FFFFFEE1
FFFFFBDA
FFFFFB75
00000140
FFFFFC9C
FFFFFC13
FFFFFBD8
00000115
0000035D
FFFFFDE9
FFFFFEAA
FFFFFF3A
00000037
00000129
000002C0
FFFFFFD1
00000123
FFFFF93F
FFFFFD8D
00000DCB
FFFFFFB1
000001D0
00000454
000003CC
00000E81
000002F3
0000073A
00000356
0000059E
FFFFFF6D
FFFFFE57
FFFFFD42
FFFFFE30
0000011C
FFFFFD87
00000015
0000027D
00000571
FFFFFC6A
FFFFFA91
FFFFFFB6
FFFFFC21
FFFFFBAC
FFFFF8EE
FFFFFA90
FFFFF465
FFFFF2A2
000004C1
00000158
FFFFFEDE
0000041F
000005B6
00000922
00000203
FFFFFEA8
0000087D
FFFFFD77
FFFFFFB6
FFFFFC01
FFFFF8B1
FFFFF7DC
00000264
00000508
000004CB
00000435
000000A6
FFFFFBBB
FFFFF691
FFFFFC2A
FFFFFD1A
FFFFF9CE
FFFFFA24
FFFFED3B
FFFFF32A
FFFFF58A
FFFFFB4F
FFFFFE64
0000018B
00000099
000004EC
FFFFFF8B
FFFFF8E2
FFFFF670
00000351
00000634
000001A1
00000236
FFFFFFEB
FFFFFD81
FFFFFDDC
00000690
000001C2
0000014A
FFFFF8E6
FFFFF418
FFFFF1E3
FFFFFC15
FFFFF8FF
FFFFF484
FFFFEFF0
FFFFED2C
0000032A
FFFFFE5C
FFFFFF54
FFFFFF43
0000018C
FFFFFE52
0000059E
00000360
FFFFFD62
FFFFFE29
00000352
00000187
FFFFFBEB
FFFFFECB
FFFFFFE7
00000222
00000145
00000368
000001AF
000002E6
FFFFF784
FFFFFD87
FFFFF57F
FFFFFEDD
FFFFFC33
FFFFFA25
FFFFF570
FFFFF39E
000005D6
000004C8
0000042B
00000047
FFFFFF22
0000015C
FFFFFC18
FFFFF8E8
0000060C
000003F1
00000418
00000C9E
00000FE8
FFFFFC81
00000407
00000555
00000609
0000013B
FFFFFD0C
FFFFFCEC
0000078F
FFFFFE95
000002CC
000004F7
0000004B
FFFFF245
FFFFF0E3
FFFFEC23
FFFFF482
00000519
00000349
0000014E
FFFFFEE2
FFFFFF63
FFFFFE3B
FFFFFE1E
FFFFFD57
FFFFF8A2
FFFFF8EB
0000091E
0000029A
FFFFFEDC
0000074C
000000BF
FFFFFE31
0000074A
000005E4
00000046
00000650
0000057C
00000F32
00001164
00000B7D
FFFFFDEC
FFFFF88F
0000016A
FFFFFFEF
000000CF
FFFFFFB8
FFFFFFBF
000001B6
0000020A
FFFFFF00
FFFFFF70
FFFFFFEB
000004D3
000005CB
FFFFFF5A
000002F3
00000BED
00001260
00000A11
00000557
00000D4E
00000801
0000037E
000000C3
000015A5
0000109A
0000011F
FFFFFE94
FFFFF4A3
FFFFF90F
00000056
FFFFFDEB
FFFFFE6B
00000055
FFFFFE72
