FFFFFF1C
FFFFFE5E
FFFFFECA
0000002D
FFFFFE42
FFFFFF5F
0000023E
FFFFFED7
00000004
FFFFFF71
FFFFFDE4
000000BE
00000016
00000050
000000F3
FFFFFE90
0000014D
000001D4
0000020C
00000126
0000017D
000000D6
FFFFFFE1
0000018F
00000019
0000020E
00000147
00000170
000000E3
00000132
FFFFFDC2
FFFFFEAF
000000FC
00000163
FFFFFD26
FFFFFF8B
FFFFFC6E
FFFFFC11
FFFFFEA2
FFFFFD50
FFFFFC57
FFFFFE8F
000000FF
FFFFFA41
FFFFF8C8
FFFFF5CC
FFFFFE41
FFFFFABE
FFFFF9D6
FFFFFB77
FFFFFBC8
FFFFFC94
000000C2
000001D2
00000077
000000A6
FFFFFEE7
0000009B
000000C8
FFFFFEFC
FFFFFC7F
00000130
FFFFFDE8
FFFFFE51
FFFFF956
FFFFF618
FFFFFC42
000000FF
FFFFF873
FFFFF4A4
FFFFF33F
FFFFF567
FFFFEFA8
FFFFF5C8
FFFFF293
FFFFF6D7
FFFFF99F
FFFFFC2C
FFFFFDF8
FFFFFB3B
FFFFFC14
FFFFFE64
FFFFFE5A
000000F3
0000016A
FFFFFFE3
00000D7E
00000058
FFFFFF5E
FFFFF7F5
FFFFF323
FFFFF801
FFFFEB08
FFFFEE6D
FFFFF914
FFFFFA50
FFFFF2FD
FFFFEE3E
FFFFF5C4
FFFFFECF
FFFFF8DD
FFFFF3AC
FFFFFC21
0000082D
0000005C
0000000C
000002DD
0000091A
FFFFF9B0
FFFFF89C
FFFFF328
00000132
FFFFFF4F
00000330
00000CE6
00000D43
00000512
FFFFFDC0
FFFFF4B0
FFFFF25E
FFFFF52E
FFFFF7D7
00000033
0000091A
00000495
FFFFFED1
FFFFFB79
FFFFFDD9
00000128
000004E4
00000542
0000089E
0000044A
00000472
0000052B
000002BC
00000018
FFFFF98F
FFFFFE40
FFFFF5D3
00000168
FFFFFE27
00000AC5
FFFFFFC0
FFFFF738
00000320
FFFFFB98
FFFFFAE7
FFFFF687
00000197
0000001E
000004AB
000009A4
00000868
000001F0
FFFFFFD0
FFFFFF61
0000017A
000000B5
000002DE
000003EC
000006BF
FFFFFF96
FFFFF7D8
FFFFFB48
000004A1
FFFFF7D8
FFFFF744
00000041
FFFFFB1C
00000261
000000B9
FFFFFCF6
000002AA
FFFFFC19
FFFFFCC8
00000068
000000AD
00000431
00000AAD
000008E7
0000056B
00000081
FFFFFF51
FFFFFFE7
000002DF
FFFFFCA5
000000EA
000002FC
FFFFFFF1
00000105
000002A1
FFFFF4C4
FFFFF775
FFFFFA34
FFFFF766
0000012D
FFFFFE29
000001F1
00000052
FFFFFC5A
FFFFF64D
FFFFFE2E
FFFFFB56
FFFFFBD0
0000057F
000004AB
000002EE
000002B7
00000012
FFFFFDA1
FFFFFEC8
FFFFFD43
FFFFFA89
FFFFFE2A
000000AD
FFFFFD8D
FFFFFADD
00000036
000009E3
FFFFF7A8
FFFFF31C
FFFFF677
FFFFF80D
FFFFFDF9
FFFFF9CA
000004B9
000005AA
00000476
000005F4
00000B36
00000357
000006F1
0000075F
000004A7
000001CF
FFFFFFE7
000001A5
FFFFFF40
000002E3
FFFFFE77
FFFFFB17
000004FF
000003EE
00000034
00000092
000005E2
FFFFFD2C
FFFFFD1B
000003D0
000007DA
000000E0
00000000
0000088D
FFFFFF8B
00000F10
00000655
0000088C
00000B26
0000051C
000002FA
000002F6
FFFFFC75
FFFFFF45
FFFFFA77
FFFFFFA8
00000378
000005F0
00000699
00000428
000000E1
0000020E
FFFFFFC6
00000208
0000033A
000005AF
FFFFFA7E
00000303
0000063C
FFFFFF58
00000149
0000048A
000003D0
000005A7
00000CB5
00000338
000002F6
0000026C
000004F1
000000C3
FFFFFDC2
FFFFFAC9
FFFFFA71
FFFFFC8D
00000282
0000005C
000002D1
000003F5
0000053E
0000036C
000002F9
FFFFFEE3
0000091F
00000677
FFFFF817
FFFFF581
FFFFF773
0000011D
00000540
FFFFF31B
0000032E
000010DA
00000F5F
00000B1C
00000449
00000779
00000252
000002C1
FFFFFD69
FFFFFE91
0000012B
000005F7
000008EB
00000279
FFFFFDAF
000002C5
000003E2
000003FB
000001DF
000002D6
000005EA
000002A6
FFFFFF93
FFFFFA73
0000088E
00000866
000004AE
FFFFFE33
000009A7
00000FC3
00000E62
00000D94
00000334
00000357
0000016D
FFFFF64B
FFFFF74C
00000316
000008F9
000007F1
000007AB
000002A2
FFFFFF39
0000025D
00000497
00000378
000006C4
00000D7F
000008F0
00001141
0000047B
00000323
00000468
000005CD
000002DF
FFFFFE98
0000041C
00000B45
0000083B
0000054B
FFFFFCA1
000006CA
00000526
00000054
FFFFFF1C
00000873
000005DD
000007C7
0000059E
000005FA
000001C3
000004BA
00000727
0000069F
00000BB9
00000C62
00000515
000000C5
FFFFFFFB
00000861
FFFFF79E
FFFFF791
FFFFFEA5
0000056F
FFFFF99F
00000722
00000516
00000167
FFFFFBCE
000002FF
0000015F
FFFFFCC6
FFFFFF74
000005A6
000006A1
00000728
000006A5
0000023B
000001D6
00000862
000003D7
000005C1
FFFFFCE6
FFFFFC62
FFFFFF8D
FFFFF3FF
FFFFF298
0000015C
FFFFF44B
FFFFF936
FFFFFC30
000003AA
FFFFFF59
00000B87
0000083B
FFFFFBAD
FFFFFCD7
00000019
000000FC
000001C0
00000057
000003B9
0000043A
000007AE
00000AA0
00000418
0000047F
00000C37
000003DA
FFFFF759
FFFFFAEE
FFFFF869
000001D5
FFFFF8E3
FFFFF686
FFFFFD64
FFFFF75F
FFFFFC29
00000650
00000528
FFFFFFE8
00000291
00000A80
FFFFF8D8
FFFFFD5D
FFFFFBC5
00000236
00000229
00000251
00000154
000009EB
00000B81
00000789
0000036C
00000225
000002B2
FFFFFF10
FFFFF430
FFFFF944
FFFFFBBF
FFFFFA78
FFFFFDDC
FFFFFA68
FFFFF1C6
FFFFF13F
FFFFF60B
000000CB
0000010F
FFFFFED7
FFFFFAE9
FFFFFC0D
FFFFF4F3
FFFFFA89
FFFFFCEF
FFFFFC83
00000112
FFFFFB59
000002AC
000005B0
00000C36
00000751
FFFFFE55
FFFFFB73
FFFFFE33
FFFFF7DA
FFFFF77D
FFFFFAD0
FFFFFF3E
FFFFFF26
0000047F
00000336
FFFFFA46
0000018E
FFFFEE57
000002A4
00000356
00000139
FFFFF065
FFFFF977
FFFFF70A
FFFFF384
FFFFF280
FFFFF6DD
FFFFF6D8
FFFFF75A
00000003
FFFFFC60
0000015A
FFFFFACA
FFFFF467
FFFFF993
FFFFF75A
FFFFF41F
FFFFF8D5
FFFFFE7A
FFFFF9B2
FFFFF8D4
FFFFF687
FFFFF6CC
000001ED
0000172C
FFFFF623
00000691
FFFFF933
00000214
FFFFF4AA
FFFFF75B
FFFFF975
FFFFF920
FFFFF5BE
FFFFF3F3
FFFFF998
FFFFF5E4
FFFFF195
FFFFF721
FFFFF620
FFFFF3EB
FFFFF6D7
FFFFF858
FFFFF889
FFFFF939
FFFFFFDA
FFFFFA29
FFFFF7A2
FFFFF714
FFFFF840
FFFFF765
000001C6
000002F7
FFFFFA5F
00000055
FFFFFFFE
000001C3
FFFFED6B
FFFFFD74
FFFFFADC
FFFFFCDB
FFFFFEBB
FFFFFA85
FFFFF710
FFFFF7C7
FFFFF791
FFFFFC8B
FFFFF506
FFFFF640
FFFFFAEB
FFFFFD3E
FFFFFE07
0000010C
FFFFFD1C
FFFFFAE2
FFFFFEB5
000008F5
FFFFFB29
FFFFF93F
FFFFF82D
000002A0
00000603
000001D3
0000030F
00000197
FFFFF075
FFFFFC61
0000018D
00000710
0000032C
000000CE
0000003E
00000437
000004FF
000000DA
FFFFFB3C
FFFFFB08
FFFFFBE7
000000C8
0000018E
000002C3
FFFFFFD7
00000122
000004EA
0000053B
FFFFF703
FFFFFAEB
FFFFF596
FFFFF73B
FFFFFE40
FFFFFFC9
0000018C
FFFFFF33
FFFFF78F
000000E0
000004AB
00000946
000007B1
000005C6
000003D6
00000415
000004FC
00000324
FFFFFE85
000002AC
0000024E
00000111
00000637
00000804
00000279
000006B2
00000351
000004DF
FFFFFFA9
FFFFFE5F
FFFFFE0F
FFFFFEF1
FFFFFFDF
000001BE
FFFFFFF8
FFFFFCDC
FFFFEFC9
FFFFFDAC
00000010
FFFFFE2A
00000217
00000145
000003F9
00000340
00000222
FFFFFE38
FFFFFD78
FFFFFBEA
00000046
000003F1
000003B5
0000051E
0000004F
000004F1
000003CE
0000060E
000004BC
FFFFFF3B
000004E1
FFFFFDCA
FFFFFE1A
00000030
00000076
00000AF3
FFFFFEA5
000002A4
00000AE5
00000619
000004E6
0000045E
00000351
00000555
0000040D
FFFFF99D
FFFFF98D
FFFFF5E8
FFFFF9AD
FFFFFC02
FFFFF0AD
FFFFF480
000005C7
00000740
FFFFFBA5
FFFFFEE0
00000949
FFFFF749
FFFFF8F6
FFFFFD13
00000076
000001E6
00000190
000003AC
000006B9
FFFFF47F
000000E5
FFFFF95F
FFFFFE28
000003C7
000004F3
00000146
FFFFFD1B
FFFFF5DF
FFFFFC1E
FFFFFB35
FFFFF432
FFFFFBA9
FFFFF8F3
FFFFFB79
0000035B
00000398
00000361
FFFFFAD6
FFFFFB31
FFFFF842
FFFFFCE1
FFFFFA50
FFFFFDE5
FFFFFE17
FFFFFF30
FFFFFE8C
0000032A
FFFFF937
FFFFF9CC
FFFFFE08
000001C5
000005AC
0000058A
000001AD
00000039
0000046E
00000312
00000A52
FFFFFD2E
00000256
00000C42
000005D8
FFFFFDC4
0000029F
00000A6F
000009B3
000004ED
0000069D
000003A5
FFFFFE7B
FFFFFF00
FFFFFDF8
0000008F
FFFFFE07
FFFFFFF1
000002C8
00000672
0000085B
00000437
00000550
000000B2
FFFFFD79
FFFFFE6E
FFFFFF72
FFFFFDC8
00000429
00000906
FFFFFE4F
FFFFFADE
000000EB
0000051A
000003D5
000003DC
000007AE
0000032D
0000001A
0000012A
FFFFFF51
00000050
