00000873
FFFFFCC3
FFFFFB61
000001B3
FFFFFB45
FFFFF6AE
00000F0C
00001267
FFFFEB3C
00000C65
FFFFEB7B
FFFFF8DF
000009E0
00000925
000011F8
00000633
FFFFFBEF
FFFFF7DE
FFFFFA94
FFFFECAD
FFFFF8C2
0000016B
0000112C
FFFFF7DE
FFFFEEC7
FFFFECA5
FFFFF7F2
FFFFEBBD
00000A39
00000099
FFFFF4E6
FFFFD6CC
