FFFFFED3
000001FE
00000120
FFFFFE38
FFFFFFCE
0000006C
FFFFFEA6
0000020C
FFFFFE4C
FFFFFF63
00000049
00000126
FFFFFD33
FFFFFC95
FFFFFA06
FFFFFD4F
FFFFFE9B
FFFFFF63
000000DE
00000180
FFFFFF91
FFFFFDE6
00000210
FFFFFE95
FFFFFFA9
0000020A
FFFFFDC6
FFFFFFD4
FFFFFEA9
0000022B
000000DA
00000032
FFFFFFE2
FFFFFF19
FFFFFB89
FFFFFBA9
FFFFFEDC
00000395
000008C7
000008BC
00000597
0000031A
FFFFFA0F
FFFFF196
FFFFFE28
00000114
00000908
0000018D
FFFFFF4A
FFFFFF17
0000004B
000001C2
FFFFFE6A
0000014A
00000033
FFFFFE98
FFFFFDDE
FFFFFDC4
000004C4
FFFFF631
FFFFFA4E
000000E3
0000000F
00000181
00000DE3
00001726
00000F2E
00000AB4
00000E4B
FFFFFD73
00000DE5
0000086C
000007ED
00000EA7
00000C2B
0000111E
00000B3E
00000E0F
000009BB
000006DA
00000668
000000D6
00000033
FFFFFF2C
FFFFFF68
000000C4
FFFFFDC9
FFFFF49F
FFFFF936
00000FE8
0000074D
000007B6
00000299
00000687
FFFFFAF6
0000036D
FFFFFEB9
FFFFF4AA
FFFFF9D2
000004AD
FFFFFEF3
FFFFF380
FFFFF314
000001B8
0000000A
00000357
FFFFFF94
000000D2
000006B3
00000254
00000979
00000137
00000185
FFFFFF9C
FFFFFB0A
FFFFF28A
FFFFFD95
0000092F
00000F12
000007CE
FFFFFD65
FFFFFDA9
00000203
000001EC
0000028E
FFFFFCA5
FFFFFB55
FFFFF7FB
FFFFF641
FFFFF3D6
FFFFFA79
FFFFFF23
0000005E
FFFFFA5C
FFFFF963
FFFFFF16
00000428
0000027C
FFFFF38C
000000CE
0000012E
00000174
FFFFFD24
FFFFFAB1
00000A34
00000A1E
00000A3A
FFFFFDE2
00000319
0000014A
FFFFFE11
FFFFF949
FFFFFC43
FFFFFC37
FFFFF9C3
FFFFFD19
FFFFF964
FFFFFD05
0000031D
FFFFFED7
FFFFFB0E
FFFFFB63
FFFFF670
00000414
0000034C
00000331
FFFFFEB2
FFFFFFA1
00000092
000001C5
FFFFFDE1
0000092D
00000F48
00000C1E
00000967
0000000A
00000302
00000187
FFFFFA4F
FFFFFC99
FFFFFCAD
FFFFF86E
FFFFF89C
FFFFF993
000000ED
00000227
FFFFFEAA
FFFFFCB0
FFFFF2E7
FFFFF6AC
FFFFFF12
FFFFF840
FFFFF749
FFFFFA36
00000206
0000041A
00000030
00000497
00000794
00000384
00000056
00000346
00000395
FFFFFD07
FFFFFEE3
FFFFFFF0
FFFFFB84
FFFFFBD4
FFFFF436
FFFFF3EC
FFFFFBA9
FFFFFC04
FFFFFF22
00000587
FFFFFDA5
FFFFFBED
FFFFFBE1
FFFFFDD6
00000314
FFFFF75F
FFFFFCB4
FFFFFC87
000005F4
0000055C
0000085A
00000B74
00000618
FFFFFE54
00000223
FFFFFF4A
FFFFFE26
FFFFF7B5
FFFFF9D8
00000594
FFFFFE85
FFFFF75A
FFFFF578
FFFFF9DE
FFFFFEAB
00000185
FFFFFFA0
FFFFFE86
FFFFF857
FFFFFC0E
FFFFFFA5
FFFFFC86
FFFFF5E3
FFFFF3F8
FFFFF1AC
FFFFF360
000001ED
FFFFF8E0
00000258
000005FE
FFFFF914
FFFFFE4E
FFFFFB4E
FFFFFF32
FFFFFD8A
FFFFFC70
FFFFFCE9
FFFFF958
FFFFF9A3
FFFFFC26
FFFFFFB4
000001C3
000007A1
00000572
000001A9
FFFFF9C3
FFFFFD6F
FFFFFE78
000002E3
FFFFFA24
FFFFF258
FFFFF285
FFFFEA62
FFFFE878
FFFFFFCF
00000A40
00000437
00000250
00000436
00000126
FFFFF699
000004EA
FFFFFF06
FFFFFD45
FFFFFB86
FFFFF4CA
FFFFF047
FFFFF8DA
0000081F
00000788
000000CF
FFFFFF9D
FFFFFB35
FFFFFE0F
FFFFFCDE
0000003B
FFFFF6BF
FFFFF5A1
FFFFFA54
FFFFEF3F
FFFFF2B4
FFFFFA6A
FFFFFECB
000006FC
0000044B
0000127A
FFFFFF08
000002F8
FFFFF500
FFFFFD15
FFFFFF39
FFFFFCF1
FFFFFF20
FFFFF872
FFFFF7FA
FFFFFF49
00000BDE
0000083C
000001C7
FFFFFA11
FFFFFF90
000000F0
00000062
00000442
FFFFFAE5
FFFFFEB3
FFFFFE12
FFFFEEF2
FFFFE737
FFFFF632
FFFFE5EA
0000045E
00000328
00000427
FFFFFA6E
FFFFF9AB
FFFFEBFB
FFFFF494
FFFFF852
0000030A
00000440
FFFFFDA5
000001CE
00000C87
00001088
00000D4E
0000023F
FFFFFB08
00000058
00000088
00000866
00000563
FFFFFCC6
000000E6
00000527
FFFFF472
FFFFF6B5
FFFFFBB5
FFFFF1E0
00000BF7
FFFFFBE1
0000010A
FFFFF8D0
FFFFF9C9
FFFFEE1B
FFFFFAC7
FFFFFF9D
FFFFFE49
0000020C
FFFFFDC4
00000A69
00000CFB
000008F7
000000B7
FFFFFA66
FFFFFF6F
0000041B
00000787
00000E2F
FFFFFF0E
00000052
FFFFFF80
000002D0
0000079F
0000057E
FFFFF84C
FFFFFB91
00000895
FFFFFD87
00000053
FFFFFC63
00000396
FFFFFBA7
0000004E
FFFFFBF4
00000080
FFFFFF04
0000030A
00000684
0000056A
00000070
FFFFFE6F
FFFFFE31
FFFFFF83
000009AF
0000086D
000005F8
000002C1
FFFFFDC1
FFFFFB82
00000614
00000DD7
000004AC
FFFFFEF8
FFFFFBDA
000004E9
FFFFFD79
0000031F
0000007D
00000D32
FFFFFAEB
FFFFFC59
FFFFFA86
0000008B
FFFFF9BA
000001B2
0000096E
0000093E
00000933
FFFFFF59
00000108
00000967
000008D7
00000B94
0000032E
000003DF
FFFFFC7E
FFFFFF6C
00000EC1
00000E7D
00000B93
00000493
00001352
00000C5E
FFFFFF7D
000000C2
000003FC
0000098C
FFFFFD52
FFFFFE38
00000068
000009AB
0000054A
00000566
00000753
00000D25
00000745
00000293
000005CE
00000C6B
00000CC4
00000A06
00000602
00000717
00000595
00000C5C
000008FF
00000627
00000733
00000A71
00001172
000008B7
FFFFFFCC
FFFFFCF2
0000099D
00000561
000001C8
00000028
000001D6
00000160
000003CA
000005CF
00000803
00000825
00000413
000006E9
000009C8
00000E35
00000EAC
000005A3
00000ADB
000004CF
000003B2
000011DF
000007EE
FFFFFF3F
000000D3
00000ACC
FFFFFB43
00000713
FFFFF91F
FFFFFBCF
0000077B
000013DB
0000131F
FFFFFCCA
0000005B
FFFFFFDD
FFFFFF88
00000490
FFFFFF36
0000013F
00000227
000008CA
00000A7D
00000E5A
00000E61
00000829
00000E93
000005F7
000001DB
00000D59
000004DD
FFFFFF40
00000628
FFFFFE64
FFFFF5E1
000008BC
FFFFFBEF
FFFFFF55
0000068F
00001476
0000143E
0000079B
FFFFF9F0
FFFFFC4B
FFFFFC16
FFFFFC83
FFFFFE66
FFFFFFE4
FFFFFB5B
FFFFFD5E
0000072F
00000C3B
000009F6
000002D6
0000076B
00000290
00000233
000007CC
FFFFFEF7
000001EC
FFFFFCC1
FFFFF198
0000029A
00000649
FFFFFEF3
FFFFF8D7
0000061A
00000FD9
00000AA1
FFFFFB96
FFFFF52E
00000461
FFFFFC21
FFFFFAC4
FFFFFA1D
FFFFFABC
FFFFF7FE
FFFFF768
FFFFFCB1
FFFFFE77
FFFFFEBC
FFFFFF51
00000874
FFFFFEFF
FFFFF8AD
FFFFFAA8
FFFFFD95
00000133
00000168
FFFFF5C3
FFFFFF69
FFFFFF13
FFFFFD58
0000080F
00000A45
00000F8F
000007A6
000003D3
FFFFFA10
FFFFFDF8
FFFFFECB
FFFFF638
FFFFF894
FFFFF372
FFFFFBC7
FFFFF5EB
FFFFF6CB
FFFFF61B
FFFFFB6A
FFFFFC4B
FFFFFDE8
FFFFFF78
FFFFF924
FFFFFAB6
000004A7
0000089A
FFFFFC90
FFFFF6FF
00000BCD
FFFFFF81
FFFFFC9A
000002D3
000006CA
0000034F
FFFFF511
FFFFF3F9
FFFFFAB2
FFFFFAC2
FFFFF4D2
FFFFFA76
FFFFFDE1
FFFFFBC9
FFFFF9C4
FFFFF581
FFFFF167
FFFFF7D0
FFFFF9A0
FFFFF5C3
FFFFF678
0000022B
FFFFFE98
0000012E
000004B2
FFFFFA27
FFFFF768
FFFFFBB0
FFFFF8D3
FFFFFE74
000001ED
FFFFFF14
FFFFFF90
000007A6
FFFFF48F
FFFFEB7B
FFFFF7E2
000001F4
FFFFF72D
FFFFF992
000005E1
00000834
0000026B
FFFFFCFC
00000250
FFFFFB33
FFFFF668
FFFFF075
FFFFF42A
FFFFFD92
FFFFF8A2
FFFFFF86
FFFFF9D6
FFFFFA55
FFFFFB42
FFFFF91B
FFFFFC0A
0000019F
000000B8
FFFFFFF0
000001A2
FFFFFAA4
FFFFF072
FFFFEB84
FFFFFBDF
FFFFF986
FFFFFD47
00000122
FFFFFFC9
FFFFFDE5
FFFFFB81
FFFFFD2C
00000465
FFFFFAE2
FFFFF7DF
FFFFFCF2
FFFFFF5C
FFFFFFF5
000000FC
0000036B
000002D4
FFFFFBCC
FFFFFDC8
000009C7
00000867
FFFFFEB9
FFFFFE99
FFFFFFFE
FFFFFB36
FFFFFD14
FFFFF92C
FFFFF465
FFFFFD36
FFFFF3B9
FFFFF41B
FFFFFAE4
0000041B
00000DE7
000002B9
00000969
000008DA
0000005A
FFFFF77F
FFFFF510
FFFFF9B9
FFFFEBB6
FFFFF45B
FFFFF3E8
FFFFFAEA
00000041
FFFFF2C0
000007ED
00000935
00000140
000001BC
FFFFFE6C
FFFFFE7D
FFFFFED4
FFFFF646
FFFFF601
FFFFFD16
FFFFF225
FFFFF73D
FFFFFF03
00000197
FFFFFCE8
FFFFFD95
FFFFF94C
FFFFEB4D
FFFFEA1D
FFFFEECB
FFFFE7C9
FFFFEBC1
FFFFF02E
FFFFE8A1
FFFFF772
FFFFF4DF
FFFFF8A1
000004DA
FFFFFFDA
000001A0
0000018D
FFFFFEED
FFFFFF30
00000099
FFFFFE51
000001B8
00000573
FFFFF94B
FFFFF697
FFFFF86C
FFFFFEED
00000422
FFFFFC86
FFFFF8AC
FFFFF92A
FFFFF04B
FFFFEFB9
FFFFFEDF
000003DA
FFFFFB1B
FFFFF91A
FFFFFB3C
00000AEB
00000B6F
FFFFFDBE
00000233
FFFFFFA9
0000005A
FFFFFE94
