000001C3
0000004E
000000BA
00000111
000000A6
000001AD
00000210
000001EA
0000017B
FFFFFE1F
FFFFFF5C
FFFFFE2E
0000023D
000000DF
00000093
000000D5
00000086
FFFFFE13
0000008A
FFFFFF30
0000008E
FFFFFF06
0000011D
FFFFFE1F
0000011C
00000218
FFFFFE1D
0000002D
0000010F
00000006
FFFFFFDB
FFFFFFB3
00000272
FFFFFF59
000006B2
00000643
000005A9
000003E6
00000474
0000064E
000007A1
00000346
FFFFFBD0
00000F47
00000C02
00000E1D
00000E6D
00000AFB
00000821
000002AD
00000539
00000369
FFFFFEA1
0000001A
FFFFFEBA
FFFFFE50
000000B5
FFFFFFF3
0000018A
0000018B
0000054C
000002F9
000008B9
00000427
00000638
000009D8
000007D9
000004DD
FFFFFF02
000001DC
00000C45
0000120D
00001635
00000D6E
00000841
000006E1
00000912
00000B76
00000C9F
00000C88
FFFFFC66
FFFFFCA5
FFFFFEE4
FFFFFF12
00000176
0000003F
FFFFF4B6
0000003A
000006F8
FFFFFD1A
0000055F
000006EF
0000061E
000005BA
00000357
000008B1
0000050D
000008BD
00000435
000002D7
00000754
00000A4A
00000A4A
0000036A
FFFFFED2
00000892
0000068D
00001256
00000B97
FFFFF845
000003D1
FFFFFEEA
00000116
FFFFFE53
FFFFF00B
FFFFF9A0
FFFFFC46
FFFFFD6B
FFFFFC6A
FFFFFE49
FFFFF9BF
FFFFFB9F
0000015A
000002AF
000004B8
FFFFFA50
FFFFFE7F
FFFFFDD5
000004F0
000006D3
FFFFFE5A
00000828
0000024C
00000693
FFFFFEB3
00000A88
00000212
0000010E
00000F79
00000D12
FFFFFE05
FFFFFEAB
FFFFFAD3
FFFFFC88
FFFFFAD1
FFFFFB7B
FFFFFABC
FFFFFCE1
FFFFF7AB
00000020
000000B5
FFFFFEBD
FFFFFD01
FFFFF98A
FFFFFBD3
FFFFFB9E
000001C2
0000033C
0000004D
0000007E
FFFFFFA9
0000070D
0000075A
000007A6
000003E3
000004DE
000013A0
00000E04
FFFFFFED
000002B1
0000038F
00000397
FFFFFA90
FFFFF5E1
FFFFF9FD
FFFFFFD4
FFFFFAF2
FFFFF9C7
00000033
FFFFFFD4
FFFFFC0C
FFFFFFF2
000000BA
0000019D
FFFFFF44
FFFFFFDB
FFFFFC31
FFFFFE45
FFFFFDA2
FFFFF8A3
00000033
00000111
0000004C
000003E2
00000844
00000E08
000001B2
0000005D
FFFFFB3F
FFFFFE7B
FFFFF2FA
FFFFF612
FFFFF644
FFFFFAAB
FFFFF447
FFFFF7C2
0000001C
00000167
FFFFFE47
FFFFFFF6
FFFFFEF4
00000020
0000040F
FFFFFE0D
FFFFFE5B
FFFFFA00
FFFFF682
FFFFF7B6
FFFFFBBD
FFFFFC10
FFFFFDAF
00000254
0000010A
00000BEA
00000367
FFFFFE9C
FFFFF2B8
FFFFFE5D
FFFFEBC0
FFFFF296
FFFFF4C2
FFFFFAAF
FFFFF653
FFFFFE59
0000015B
00000223
000000C8
0000002B
FFFFF9C7
FFFFF7D5
FFFFF95F
FFFFFA90
FFFFF7F5
FFFFF23D
FFFFF327
FFFFF6D6
FFFFFC6B
FFFFFC8E
FFFFFAB4
FFFFFB87
FFFFFB3A
00000354
00000092
FFFFFC1A
FFFFF2A0
FFFFF529
FFFFF142
FFFFECE6
FFFFF7D8
FFFFFE67
FFFFFF31
00000233
00000527
0000024D
FFFFFFA2
000003FB
FFFFFD70
FFFFF48A
FFFFF44D
FFFFFB06
FFFFF38F
FFFFF445
FFFFEA39
FFFFF056
FFFFFD06
000003BE
000005D1
000001A3
FFFFFBD4
FFFFF802
FFFFFF72
000000ED
FFFFFBCF
00000250
FFFFF4C9
FFFFF0F4
FFFFF5E7
FFFFFD54
000004A4
000006FE
00000612
000000C0
000004CC
00000B46
00000395
FFFFFB3B
FFFFF90B
FFFFFD1E
FFFFFA52
FFFFF32A
FFFFF7BF
FFFFF37A
FFFFF7EF
00000312
0000027A
FFFFF8EF
FFFFFFFD
FFFFF73C
00000168
FFFFFD1F
FFFFFED0
000001C0
FFFFF67D
FFFFF760
FFFFFA6B
00000379
000003BC
00000140
0000035E
00000573
000008FA
00000EAB
00000554
000001CB
FFFFFF78
FFFFFE53
FFFFFEB6
FFFFF6EC
FFFFF5A8
FFFFF22B
FFFFFAA6
000003A3
000010AA
00000236
0000090D
FFFFF5D8
FFFFFEE4
FFFFFCF0
FFFFFCDE
000007FA
FFFFF61D
FFFFFB62
00000505
00000768
000005DF
000005B2
000006EE
000006F6
0000039C
000006ED
00000366
FFFFFD9A
FFFFF965
FFFFFEAE
FFFFFD36
FFFFF646
FFFFFCAF
FFFFF8D5
000000BD
00000CAF
00001057
0000066A
000005BE
FFFFF20E
00000513
FFFFFF6F
FFFFFD85
00000BC1
FFFFFA02
FFFFFEF5
000003FC
000000E0
000005A0
00000579
0000044F
0000057D
FFFFFE31
FFFFFD1B
000000AD
FFFFFCEE
FFFFF94B
FFFFF5DF
FFFFF86C
FFFFFFDE
FFFFFD74
FFFFFC1C
000008A7
00000AA2
000009E4
00000289
00000492
FFFFFD7A
000002AB
0000007E
00000097
FFFFFF51
FFFFFDAA
FFFFFFB6
000001BA
FFFFFD9C
0000034B
0000014B
0000009B
00000109
FFFFFA30
00000199
00000211
0000026D
FFFFFD98
FFFFFAEA
000002DC
FFFFFE16
FFFFFFAA
000009CD
00000D30
000002FA
FFFFFE4C
00000251
FFFFFBC4
FFFFFD1E
00000399
00000165
000001E6
FFFFF803
0000069F
00000157
FFFFFDE4
FFFFFF41
00000158
00000184
00000024
FFFFFFF8
FFFFFD9B
000002AB
00000278
FFFFFC30
FFFFFE3E
FFFFFFC0
00000B2C
0000014F
FFFFFE4B
0000092B
000004C2
FFFFFD28
FFFFFE53
FFFFFFF7
FFFFEEC1
FFFFFD84
FFFFFBBB
00000268
0000044B
FFFFF87D
0000016B
00000058
FFFFEEA4
FFFFF78B
FFFFFDF7
000000C7
000003DD
000003B6
0000070E
000003AC
00000283
FFFFFB46
FFFFFC4D
FFFFFAC0
00000383
0000067A
FFFFFE5E
FFFFFE57
000004F2
FFFFFE44
FFFFFD5E
000002F5
FFFFFF09
FFFFFB6B
0000019C
0000034D
0000008F
FFFFFC05
00000318
00000623
FFFFF239
FFFFF5A5
FFFFF859
FFFFF96E
FFFFFF3B
00000907
00000978
0000036A
FFFFFAD9
FFFFFCB1
FFFFFB57
FFFFFE88
00000320
0000067F
00000394
0000070F
000002A1
FFFFFD54
FFFFF40F
FFFFF5B9
FFFFFD99
FFFFF4EF
FFFFFCDC
FFFFFE04
FFFFFD5F
000001FD
000003FC
000003C0
FFFFFBE5
0000001D
FFFFFE43
FFFFFA25
000000BE
FFFFFC9A
000002A0
FFFFFA4A
FFFFF8FF
000000EC
FFFFFD0D
00000045
00000066
FFFFFE33
00000133
00000424
FFFFFB46
FFFFF760
FFFFF671
FFFFF610
FFFFF331
FFFFF9AE
00000210
0000015A
00000646
00000C34
000002D7
FFFFFD15
FFFFFC2F
FFFFFE44
00000258
FFFFFBD7
000001DC
0000013A
0000025B
00000029
0000008C
00000370
000000F3
000006D7
000002FE
000001CB
000001A8
00000122
0000029B
00000213
000005A2
000003FC
FFFFFB2F
FFFFFA36
FFFFFE22
FFFFFDD2
00000391
00000A42
000005D4
FFFFFA36
FFFFF46F
FFFFFA64
0000001F
000005E0
00000C0A
000006A8
000006A1
00000977
000003E1
000009FA
000002D0
0000037B
000002BE
0000022F
FFFFFD89
0000061F
00000B71
0000040E
000002D3
00000459
00000043
000003F9
00000338
FFFFFC1A
FFFFF9D3
FFFFFD78
00000528
FFFFF7E0
FFFFF8BB
FFFFFA6E
FFFFFF64
000003DC
00000810
00000BD5
00000664
00000709
000009D1
00000A70
0000027B
000003B6
0000034B
FFFFFCA8
FFFFFB27
00000269
0000044A
FFFFFEDE
FFFFFEEA
00000217
FFFFFEA3
FFFFFE16
000003C2
FFFFFDAD
FFFFFDF9
00000132
0000028C
FFFFF6D5
FFFFF720
FFFFF85E
FFFFF972
FFFFF9D7
FFFFFD94
00000246
00000730
000003B8
00000511
00000B31
0000007B
000000BC
FFFFFFE8
FFFFF651
FFFFF34A
FFFFF4C7
FFFFFB3E
FFFFF7E8
FFFFFABF
FFFFFF42
FFFFFF8F
000000D8
FFFFFEE5
FFFFFF98
00000229
000006AF
000006B4
FFFFFC75
FFFFF733
FFFFF6B0
FFFFF544
FFFFF519
FFFFF69F
FFFFFA99
FFFFFFE3
000000D8
000004EF
000006D2
000000ED
FFFFF87C
FFFFF60E
FFFFF10A
FFFFF7F0
FFFFF86C
FFFFF812
FFFFFB11
FFFFFDBA
00000286
00000325
0000011A
00000082
FFFFFF4E
0000027A
000000F0
00000124
0000038A
00000473
0000008F
FFFFF5F4
FFFFF9D2
FFFFFA44
FFFFF788
FFFFFFB9
FFFFFD0B
00000484
00000294
00000386
FFFFF1EF
FFFFF9E8
FFFFF48B
FFFFFC11
FFFFF334
FFFFF468
FFFFF775
FFFFFDB1
FFFFFB38
FFFFFE00
00000180
00000199
000000D3
00000216
000003CE
FFFFFEB3
FFFFFD32
0000039E
0000039E
FFFFFBE7
FFFFFE4F
00000282
FFFFFD7C
000003A7
FFFFFCBA
000000EE
00000484
00000665
00000B1D
00000A15
00000AAC
00000A9E
00000275
000004FE
FFFFFF3F
00000036
FFFFFE34
000001CD
000000AA
0000010B
0000016B
FFFFFEA1
FFFFFF59
FFFFFB9C
FFFFF742
FFFFF85D
FFFFF823
FFFFEF97
FFFFF2EC
FFFFF4E6
FFFFF486
FFFFF4CD
FFFFF950
FFFFF6EF
0000004D
FFFFFB69
00000069
FFFFFDE6
FFFFF49A
00000306
00000091
000005B8
00000391
FFFFFE77
FFFFFE31
0000022A
000000D4
FFFFFFB2
0000010E
0000004E
FFFFFF00
FFFFFF04
0000013E
FFFFFD98
0000006A
FFFFFECE
FFFFF491
FFFFF9C0
FFFFFE0A
FFFFFBF6
FFFFFDF7
FFFFF9B4
00000429
000007A1
FFFFFD71
FFFFFAA7
FFFFF819
FFFFFB83
FFFFF19C
FFFFF545
FFFFFE94
000001DA
00000106
00000066
0000021A
