FF79
FF7C
FF91
0031
0080
0064
FFC6
003B
FF7A
FFF9
001C
0008
002B
0030
FFB3
FFD6
0081
0053
005E
FFB6
006A
FF99
000A
FF9A
0080
0072
0053
FF81
002B
FFF7
FF75
FFE9
FFFC
0019
FFB1
0063
FFDC
02D6
02B6
0695
009F
02C1
0473
00BE
FECA
0050
0174
0187
0278
0020
01E5
021F
FFD8
FFCC
004A
FFED
0004
006F
003A
000A
023C
017F
01BE
0340
FD1E
FCA2
FE81
0003
FB1A
FE17
FC36
FB1C
FFA3
FCEA
FB8A
009C
0020
FDD3
0099
FBA5
FC19
FC51
0074
FFE4
FFD0
003A
00E7
00CC
007B
FF6F
FDE6
FF4B
FEB6
FD22
FD05
002E
0118
FECC
FB7A
FC88
FB46
FD13
FCCA
FC53
FBCB
FF34
010B
F981
F949
FE8E
026F
0052
004B
FFB2
004C
FEDC
FD17
FCD0
F8EB
FA7E
FF00
0326
0200
0202
01C4
FFFB
FEAA
FF43
FECF
FD9C
FDEC
FFC1
FFAA
FEC6
FE71
FF6C
FF25
0231
03EB
FF44
FFE9
0014
01A4
025A
FF7C
FEAB
F7E4
F9F6
FDD6
0136
FF1F
FF54
FF5C
FE13
FEF3
FCC4
FE94
FE07
FCDD
FF30
01F8
FFE5
FF0F
FDEC
FF44
FE94
03C1
012B
0037
FFE0
01F8
01D9
0287
01AE
F889
FBA9
FF72
00E2
0107
0013
FEEA
FE88
0035
FDA2
FC8F
FD6C
FE4B
FF63
FF0B
FE21
FEE3
005F
025A
02E3
033A
FFFA
001E
FBB3
FFBC
FC5C
FEC5
014F
FA38
FF85
FFBF
01AE
0281
0138
FF9D
FF15
FE74
FDB7
FCB8
FE03
FFED
FF4D
FEAA
00A5
0225
0282
00BB
0248
0310
02C0
FF69
FB53
FDB7
FD0C
FE60
FA74
FE3F
0206
FFCB
020A
0065
0121
FF6F
FF6F
FE7A
0023
00A8
0133
0212
027D
0260
02E0
037E
039B
05AF
0673
0392
0353
FFD9
FDDF
FF78
FD40
FF3D
F9DE
0040
FF7D
002C
009E
0019
FFDB
FE91
FE71
FC87
FECB
030F
0419
03E1
0335
0313
0463
0449
0496
06C5
06F9
00E1
FC8C
FF85
0196
FBBC
FEE6
021C
FD28
FEE2
0163
0033
00E8
01AE
00A3
01B6
FDE1
FB55
FD31
FE7C
0014
00BE
0279
02E3
04F2
04DB
036E
0452
0225
019C
FC98
007E
001F
FA31
FDB7
00E0
01AC
0107
006D
FEA6
0145
0105
00AF
016C
FE12
FAC8
F980
F9BD
FB3F
FBB1
FD48
FC98
FE23
FF3E
0099
FEC7
04C1
075F
FF64
003B
FF2B
FB33
0238
FFC7
00BA
FF78
0078
FF0A
FFEB
0088
019C
035B
01EA
FEDB
FD95
FCC3
FBB9
F93A
F712
F906
F939
F910
F8CD
FC35
00C4
0263
FE72
011D
FF33
FE8A
025E
FDA7
01F6
012B
01ED
0001
0192
0087
0339
0468
01DF
FFAA
FF04
FF17
FFA2
FEC9
FC8C
F945
F871
F9A7
F9B6
FB8F
FB8F
008E
0098
01E5
027A
FDEB
012D
FD80
04ED
0233
0065
009E
0096
00FD
021D
014B
009B
00B9
FED3
FED8
0046
0050
FCA4
FD39
FB93
F9AB
FBC6
FB22
FA08
0092
FF97
01B0
0077
03EF
032D
FCDE
002D
0253
FE08
00CC
01D6
01B7
008E
02C4
0235
013C
FE5F
002D
FFD2
0067
FE03
FE26
FB0F
FC16
FA8F
F965
FA1A
FB01
FF26
FF79
003F
0094
0106
FB28
FEF2
FEE3
FBCC
FECD
0070
0046
0041
0241
02A5
017B
0108
0027
0095
0007
FFC1
FDC9
FE61
FB55
F74A
F682
F994
FBCE
FF05
FFE0
02A4
FDFE
FCF7
FDBF
003B
FFD8
FF39
FD48
0103
019C
0267
01FC
0269
0206
00BB
0123
00F9
01AC
FFB7
0049
01BE
FDEF
F7F7
FAA0
FEAD
0106
FFEF
FBF4
01D6
FED7
F87E
FE3F
0035
FFC0
FE5F
FFD6
0099
0009
016C
03D9
02F7
001B
FF58
00E4
013F
FFFA
006A
01CD
FF02
FC31
F729
F688
FC5B
0222
012B
0095
FE88
FF86
FA13
FCFF
FE4D
FECE
FEA9
0198
0098
FF07
000A
0193
00B6
0072
014B
01A1
015C
0194
000C
01DE
FE54
FD8D
F985
F6CB
F9A5
FCEB
0171
007D
FF17
0437
FC20
FCD4
FF36
FFB6
0013
0173
0029
0132
029A
00A0
FF20
FF40
0229
017E
015A
009B
FFC8
FF5D
FDEB
FF97
FAFD
FAB0
FA3F
FCF4
0257
00F3
FF27
021B
0005
FB71
FDDB
FF46
00B1
FF33
FFE9
00C5
005C
0009
FFE8
001B
017C
FFD4
0172
0057
FFAB
FFF1
FEAD
FF0A
FCEF
F95D
F9D5
FB91
0021
002C
FFAE
FF98
01FF
FEB8
001F
005C
00FD
FF8A
FFF2
0068
025D
00AB
FED8
FF82
FFB7
0093
0201
0188
01EA
0106
FEAE
FC33
FCF6
FCF9
FCDF
FF59
FFE3
0026
0026
02F6
019F
0041
0006
FFF4
FF3D
01FF
0165
014E
0021
012B
007A
0098
0055
00A5
00CC
005E
008B
FF0F
FEE6
FCB4
FEA2
FDB1
FF46
02A9
FF81
FFA1
FFF5
0200
0064
FDD9
FBFC
FBCC
FD7D
0078
02EA
009B
FFE0
0063
00D1
00F6
0139
01BA
0073
00A7
FF94
FFDF
00CD
034E
04B0
002F
FFB6
FBEA
FFAA
0001
0032
0315
FEF5
FD34
F89B
F956
F98F
FCDF
FFA9
FC51
FCDE
FF1B
FED6
FE46
005B
FFE2
0031
004F
0015
FF39
FFBF
FF18
0516
016B
FF38
FF2D
000C
0043
0079
FFF4
006E
FE43
F9D9
F88F
F91A
F9C3
F74E
F70B
FCEC
FF8C
FCE9
F846
FD1F
00F0
0407
0238
FE03
0047
0395
0280
FF5B
0192
FF5D
FF79
FFA8
0007
FFB2
0009
0033
0025
0041
FC09
FC6C
FB6B
FE0E
FC7D
0157
00F9
FE85
FA7D
0064
FE86
FCDF
FBF4
FB8A
FE1B
005B
0129
000F
001B
0086
FFC5
0089
