FFFFFE00
FFFFFFD2
000000C4
000000F5
000001EE
000000A8
FFFFFE6F
FFFFFDDA
0000004A
00000067
00000167
0000017B
000003FC
00000560
00000485
0000047D
FFFFFF6F
FFFFFF1A
00000121
FFFFFDD5
000001F9
FFFFFF83
FFFFFFB5
000001E4
0000014D
FFFFFDC6
00000122
0000015C
FFFFFDBF
00000022
FFFFFDFB
FFFFFEE2
FFFFFFB0
0000014D
FFFFFD59
00000122
00000369
000000A8
000003C2
000002FC
000000B3
FFFFFD88
FFFFFD26
0000049F
0000115F
00000CDB
FFFFFF34
FFFFFFAD
FFFFFD7F
FFFFFFDD
00000207
000001C3
FFFFFDE5
00000075
FFFFFFC7
FFFFFE13
FFFFFF04
00000120
00000155
00000081
FFFFFCF3
FFFFFD02
000000A6
FFFFFD5D
0000071C
0000044C
00000591
00000913
0000008E
FFFFFCFE
FFFFFDE1
00000348
000004F1
FFFFFA04
FFFFFE46
FFFFF00E
FFFFF9AD
FFFFFFF1
FFFFFDF1
0000032B
00000531
00000133
00000134
FFFFFF8D
00000134
FFFFFEDA
0000006C
FFFFF613
FFFFF420
000002C6
00000849
000005C5
FFFFFF65
FFFFFEF3
FFFFFE78
0000036C
FFFFFD82
00000359
000004F4
00000802
FFFFFEB9
FFFFF97C
FFFFFDCE
FFFFFD2E
FFFFF873
FFFFF5B1
FFFFFA22
FFFFFD4A
FFFFFB47
FFFFFDB5
FFFFFFA7
000000B3
FFFFFEC4
0000008A
00000594
FFFFF676
FFFFFE57
0000047B
000009DD
000008F4
00000181
0000051C
00000698
000004D7
000005BB
00000EF6
00000E14
00000939
000004ED
000000D7
00000324
FFFFFB67
FFFFFBC8
FFFFFC8C
FFFFFF8D
FFFFFBD2
FFFFEFDE
FFFFF5FD
FFFFFB67
FFFFF8FC
00000234
FFFFFFA5
FFFFFF61
FFFFFD10
00000AAD
00000AEC
00000C17
000000A1
00000D32
00000E35
00000A08
00000C8F
000008DC
0000088E
0000040A
FFFFFF8C
0000087E
FFFFFFC1
00000076
FFFFFE33
FFFFF8D0
FFFFF932
FFFFFC91
FFFFFF0A
FFFFEF49
FFFFF3A4
FFFFF74C
FFFFFA42
00000056
000006AB
00000167
000003DC
000003C2
000002F3
FFFFFF0E
000000FF
00000553
0000061B
00000A13
000005B2
00000C6B
00000776
000003F6
000000B5
000003A6
00000228
00000073
00000426
FFFFFC53
FFFFF977
FFFFFD24
FFFFFD43
FFFFF5A5
FFFFF5E4
FFFFFE71
FFFFFF31
00000189
000008EA
000006C3
00000AD3
FFFFFD18
FFFFFA6D
FFFFFFE3
FFFFFD30
00000007
000002DD
000002E5
00000692
00000797
000008CE
00000851
0000058D
00000636
000005A2
00000171
000004DC
FFFFFE40
0000049C
000001D7
FFFFFBDB
FFFFFDD8
FFFFF580
FFFFFC6C
000000CE
FFFFFC56
00000418
000004C5
FFFFFE97
FFFFF92A
FFFFFDB7
FFFFF551
FFFFFADD
FFFFFF6F
0000036B
000006DE
00000551
000003FE
FFFFFCE2
00000536
00000575
00000400
00000783
00000403
000005DF
FFFFF978
FFFFFF85
FFFFFFBB
0000001C
FFFFFC73
FFFFFAF7
FFFFFB59
FFFFFF4E
FFFFFEDA
00000441
FFFFF26E
FFFFF95F
FFFFFB12
000008FB
000004F1
00000142
000003DA
000007BE
00000449
0000019E
000004D2
FFFFF415
FFFFDFF2
FFFFF045
00000322
00000868
0000080A
000001AA
FFFFFA10
FFFFFC3A
0000071F
FFFFFE4A
FFFFF994
FFFFFF75
FFFFF710
000002BB
00000133
000001CC
FFFFF252
FFFFF9D8
FFFFFEBA
0000112A
00000EFE
000001BC
000007C6
0000034B
FFFFFD76
FFFFFAE6
FFFFF2B4
FFFFE5E4
FFFFDA63
FFFFEA3A
00000365
00000BB9
000005C4
FFFFFD48
FFFFFBEC
000002D3
0000016D
FFFFF65D
FFFFFA37
000001F0
000000FA
000001B6
000000C4
FFFFFF99
FFFFFD5F
FFFFFA5C
FFFFFB78
00000E49
00000FFA
FFFFFFD8
FFFFFB54
FFFFF541
FFFFF336
FFFFF455
FFFFE931
FFFFDFDA
FFFFE3D3
FFFFF9C5
0000025E
00000584
FFFFFFAD
FFFFFBE9
00000213
00000088
FFFFFD85
FFFFFA29
FFFFF97E
FFFFFC2D
FFFFFB68
FFFFFDA3
FFFFFF69
0000007F
FFFFFDA4
FFFFF257
FFFFF324
FFFFFEC2
000001BC
FFFFF598
FFFFF603
FFFFEB43
FFFFF0B8
FFFFEFA1
FFFFECA1
FFFFE6D4
FFFFEF01
FFFFFE37
000006C4
000003A3
FFFFFE43
FFFFF76C
000000BD
00000753
FFFFF8B5
FFFFF96E
0000003B
00000174
FFFFFAAB
FFFFFC93
FFFFFDB8
000002EB
000009AD
FFFFF882
FFFFEED3
FFFFF357
FFFFF53F
FFFFF04A
FFFFF1F7
FFFFEF44
FFFFF5EE
FFFFF063
FFFFF5FA
FFFFFAAA
FFFFF739
FFFFFDF2
00000622
00000322
FFFFFE7A
FFFFFE08
FFFFFFA4
000006AA
FFFFFC95
FFFFF9B8
FFFFFA09
00000352
FFFFFF65
00000207
FFFFFF51
FFFFFF20
000004AC
FFFFF7D3
FFFFEEDF
FFFFEA66
FFFFEF1E
FFFFF42F
FFFFF470
00000178
FFFFFF4B
FFFFF519
FFFFF726
FFFFF83F
FFFFFC3B
00000078
00000100
FFFFFEBF
FFFFFB39
FFFFFF11
FFFFFD80
000003F8
FFFFFB0D
FFFFEDD4
FFFFF514
00000596
0000084F
0000016F
FFFFFE36
FFFFFC98
FFFFFADA
FFFFF57C
FFFFEAE6
FFFFEC40
FFFFF005
FFFFF717
FFFFF9CF
00000012
0000039B
FFFFF525
FFFFF341
FFFFF9BE
FFFFF9A4
00000144
FFFFFFC2
FFFFF9D1
FFFFF947
FFFFF82D
FFFFF56B
000005CD
FFFFF41E
FFFFF000
FFFFFAF2
000006FF
00000CE2
0000068C
00000053
FFFFFC05
FFFFFE3E
FFFFF1F6
FFFFF022
FFFFFE19
FFFFFBC1
FFFFF6E8
FFFFFB2F
00000021
0000016D
FFFFFA35
FFFFFA07
FFFFF758
FFFFF75F
FFFFFD39
FFFFFCA6
FFFFFBAA
FFFFF449
FFFFF81C
FFFFF68E
000002F5
FFFFFB14
FFFFF17A
FFFFFD1D
00000DF8
00000A4C
000003B1
00000024
FFFFFF52
FFFFFD2B
FFFFF9A0
FFFFFB7A
FFFFFF8C
FFFFFD9B
FFFFFB0A
000002B5
000004EC
00000285
FFFFFB0F
FFFFFC47
FFFFF645
FFFFFAA5
0000019D
000001B6
FFFFFA3B
FFFFF57C
FFFFFB82
FFFFF689
FFFFF965
FFFFFA2B
FFFFF581
00000043
0000082F
00000CD7
00000AA1
FFFFFEF3
FFFFFEBC
FFFFFAC0
FFFFFDF4
FFFFFFB8
FFFFFB1D
FFFFFBCB
00000A8B
0000083E
FFFFFEFB
00000027
FFFFFFEB
FFFFFDC6
FFFFF983
00000011
000001EB
00000096
00000106
0000025F
000005D3
FFFFFC5B
FFFFFE9C
FFFFFFF4
0000020B
FFFFFE69
0000043D
00001150
00000C9D
FFFFFDBE
FFFFFF29
FFFFF654
FFFFF70A
FFFFFB87
FFFFFAB8
000003D3
00000AAF
000005EF
FFFFFF3D
0000004C
0000043D
000000E5
000001F6
000001B1
000006B9
000001CA
0000043B
000002B4
000007B4
00000336
FFFFFC88
FFFFFF60
00000486
00000457
00001285
000010B4
000008C2
FFFFFE27
000003F5
FFFFFC9A
000002E7
FFFFFA03
00000354
0000031A
0000025A
00000219
00000197
0000066D
000004B1
00000029
00000298
00000569
000000E2
000002DC
000006C7
00000165
00000888
000003BB
00000492
FFFFFE05
000006BD
0000064D
000004D0
00000E5A
FFFFFCE1
FFFFFFE8
000002D2
0000026E
00000847
FFFFFCC4
00000045
FFFFF96E
FFFFFA5E
FFFFFAA7
000000E4
000006AA
00000787
00000345
0000048F
0000044E
FFFFFF9D
00000064
00000633
000002E8
0000097A
00000670
00000D2B
00000F5D
00000C8C
00000ABE
000004B9
000006E4
FFFFFF24
FFFFFF46
00000034
00000330
0000053D
FFFFFF00
000005C6
00000164
00000051
00000143
00000356
00000582
00000617
0000068E
0000050C
0000030C
00000071
000001CB
0000050D
FFFFFF8C
000003E8
0000062D
00000D4C
0000112B
000008D1
00000A43
000008E8
FFFFFCA9
FFFFFEF0
FFFFFF63
FFFFFED3
FFFFFA6D
FFFFF746
FFFFFD95
FFFFF8EB
00000450
000008C6
000002B2
000002DB
000001B4
000005FA
0000078B
0000051F
FFFFFEF4
FFFFFDB4
FFFFFA28
FFFFF83C
FFFFFD74
0000037F
000000F6
000001E6
00000740
0000088E
00000BBF
000000D1
FFFFFC99
000000BF
00000059
FFFFFFF4
00000580
FFFFFC7F
00000659
0000020A
000002AD
FFFFFF6F
00000623
FFFFFED0
FFFFF647
FFFFFFC0
000005E7
000000A3
FFFFFC6E
000004C3
FFFFF91B
FFFFFD54
FFFFFD5C
FFFFF959
FFFFEE7C
FFFFFCEF
000004B2
000005ED
000014D1
00000A82
0000043B
000000DE
FFFFFF68
000001D2
FFFFFA28
FFFFFFA4
00000880
000008C3
00000071
00000D0B
00000AF1
000007CA
FFFFFA0D
00000AD4
00000A21
FFFFFF23
00000798
00000806
FFFFFA98
FFFFF06C
FFFFE65B
FFFFEAAB
FFFFF31D
FFFFFBF5
FFFFF562
FFFFF3DB
FFFFFAF2
0000038D
00000670
FFFFFDD5
FFFFFDF3
FFFFFF97
FFFFFE46
FFFFFE6C
FFFFF9CE
FFFFF94A
FFFFFD09
00000CD1
000014CE
000008F1
00000AFD
0000015A
FFFFFEFF
00000995
000019C7
00001211
00000A51
000002AA
FFFFFD14
00000081
FFFFFA1B
FFFFFABF
00000135
FFFFFFA9
FFFFFFFD
00000161
000000C9
FFFFFFAA
FFFFFEB8
0000022A
000001B7
FFFFFEEF
00000241
FFFFFF0F
00000A07
00000936
00000609
00000D3A
00000D0C
000012FE
0000178B
00000DE3
00000566
000008E5
00000725
0000002C
000000A9
FFFFFD2E
FFFFFE45
FFFFFE0D
00000038
0000022D
FFFFFF73
FFFFFE26
0000008B
FFFFFFAB
