02E6
FFDE
0246
FF61
F9D8
0987
05DA
FF80
F51E
048F
FE24
0123
FE8D
06A9
0141
0898
0073
04F5
04BE
053B
0709
0094
0668
089B
0143
04C3
F9A8
F815
057D
FB53
FE93
01E3
FD3B
01B2
FE1D
FF92
000E
FC18
FD72
0003
00B7
FC3A
FF81
FD8F
FFDE
0166
001E
FE42
FEF0
003A
03F4
FFBA
041C
FFCD
FB91
FC46
088B
FAED
06D1
043C
0405
02B6
0563
0024
06BE
FA5C
F9E1
02E7
005D
0483
F8BC
0C14
06CD
04EB
03B1
05BE
0122
F9A6
03EA
0641
0181
0164
FAA2
028C
03B3
FA00
FF01
F6AC
FA10
05BA
064F
0034
FD92
044E
0394
F540
FE2A
0495
F857
04EB
FD3D
FAD8
083D
05C8
FC42
0624
021B
F9C1
FC98
05E6
0834
FA41
01A1
057E
0752
049D
FCC6
F6C6
FCC3
01DD
02C9
FF7D
FB7B
010B
0711
FF02
0224
FCAB
01D4
FD6A
FE34
055A
01DA
F4C7
FD97
0072
FEB6
001A
0981
077D
0780
FD2C
00B4
FA31
04DD
03F7
003B
003D
0699
FCC4
FF96
FC2D
01B3
0263
054C
F790
FCC7
FB51
FB6F
0261
FB2B
04BC
00C6
0430
FAB2
FD2D
FD81
0146
00ED
FDD7
0588
024C
FEA2
FAF8
0222
F54B
03BF
04EE
FCD1
047C
004F
05F8
FA84
FF03
0598
0282
00A4
0782
FE5C
F963
FA9B
FF69
013B
FF59
0341
FF43
FDF9
0110
FD8A
F914
0254
04B7
011C
03DA
F6EC
0451
02B9
FF94
00CF
0351
03E4
FDE9
0655
02A1
0755
01FF
0594
FB96
01BA
02C8
0187
077E
FD73
054D
0583
0670
079A
FE2E
002D
0470
FC3C
F5F0
01F2
04C3
FDEF
026C
004C
0474
FD7F
026F
01FC
FEF0
0359
FE4A
061A
06AD
FED1
FB1C
FB60
07E0
05CB
FA2F
F8BA
004F
07DD
FC20
0653
FF87
FEEA
FD0E
0464
0215
FF72
00A6
0765
011B
011B
04C9
FD23
01D7
FF46
0473
