FFFFFE4D
00000248
FFFFFE55
0000022C
000000FB
000000F6
FFFFFEE7
00000009
FFFFFFCC
00000027
00000102
FFFFFDD7
FFFFFDFA
FFFFFEAC
000003A9
000000F2
00000015
FFFFFF61
000000B4
FFFFFE6A
FFFFFED8
00000153
0000022A
000001B5
FFFFFEED
000001F9
00000107
0000019D
FFFFFF5E
FFFFFFFF
000000DB
FFFFFDBF
FFFFFEA6
FFFFFF03
FFFFFACE
FFFFF949
FFFFF649
FFFFFBFE
FFFFFCC0
FFFFF7A5
FFFFFC6E
000000D2
00000BDD
FFFFFD98
FFFFF973
FFFFF741
FFFFFA33
FFFFF733
FFFFF4BC
FFFFFA9D
FFFFFDFA
FFFFFC9A
FFFFFDE2
00000135
FFFFFDC6
FFFFFFEB
FFFFFDCB
00000100
FFFFFD62
FFFFFA60
FFFFF873
FFFFFC4A
FFFFF6D7
FFFFF867
FFFFEC69
FFFFEE7F
FFFFEFFF
FFFFE992
FFFFE964
FFFFECC0
FFFFF8FB
000004F5
000006CA
00000B49
00000B11
000003D8
FFFFFD69
FFFFF8F1
FFFFFA1C
FFFFF2D0
0000022C
00000286
0000018A
00000085
FFFFFFA5
000000B9
000007E1
FFFFF988
FFFFF435
FFFFFBF2
FFFFF70F
FFFFFD74
FFFFF5AD
FFFFE647
FFFFF14C
FFFFEED2
FFFFF38D
FFFFFD6A
FFFFFD0B
00000291
FFFFFEBD
0000013F
00000794
00000C02
00001043
00000265
00000288
000008BF
FFFFF878
FFFFFD85
FFFFF767
FFFFFFB1
000000FB
FFFFFF51
00000F1D
00000862
FFFFFF6A
FFFFFCA2
FFFFF6AF
FFFFFFC8
00000851
00000606
000001CD
0000088D
0000083C
00000687
00000B42
0000090F
00000532
00000438
000006A9
00000DE3
0000076F
000000FD
00000008
0000027B
000005EA
0000094A
FFFFFCCA
FFFFF413
FFFFFF62
000000FE
00000511
FFFFFB49
FFFFF63D
FFFFFE04
000001CC
000006E4
000003A4
0000052F
FFFFFED5
000005DB
00000F87
00000C59
00000B30
00000525
000007B5
00000271
00000136
0000081C
000008DA
00000881
0000034B
FFFFFC1E
FFFFFBF2
000005B9
FFFFF846
FFFFF2D6
00000024
000003A9
FFFFFF55
FFFFF9E9
FFFFFB46
FFFFFDEE
FFFFFF53
00000009
00000278
00000462
FFFFFE04
FFFFFF6F
00000543
00000609
FFFFFE1B
FFFFFA80
FFFFF8DA
FFFFFA01
FFFFF907
000002E5
000004E6
00000295
0000049F
000009E8
FFFFFBBC
FFFFFB90
FFFFFE01
FFFFFA1D
000001F5
00000837
FFFFFF2A
00000D01
00000690
00000661
00000654
000006DF
00000184
00000081
FFFFFBE3
FFFFF9AF
FFFFFF52
FFFFF722
FFFFEEA5
FFFFF237
FFFFF1F1
FFFFF9DD
FFFFFE33
FFFFFD0A
FFFFFF5B
0000004F
0000073B
0000097D
FFFFFD09
FFFFFAD8
FFFFFC9C
FFFFF630
FFFFFF18
FFFFFFA3
00000E4D
00001789
00000EB6
00000CEA
00000DA5
00000F2B
FFFFFE49
FFFFFF3C
FFFFFE53
FFFFFBC0
FFFFFF1B
FFFFF9F4
FFFFEFA8
FFFFF3C2
FFFFF6C2
FFFFFE8F
00000642
00000742
00000459
00000290
0000075B
00000FBF
000005EE
00000B8B
0000078C
00000560
000005CF
00000BFF
0000044A
00001163
00001015
00000DC7
00000E3F
0000060E
0000002D
FFFFFD2B
FFFFF819
FFFFFDDE
FFFFFD93
FFFFFC33
FFFFFBA3
FFFFF4CD
FFFFFFEF
000004B8
0000080C
000005F1
000007C2
00000AC4
00000AE1
00000E3A
00000051
00000C7A
00000D6E
FFFFFC98
000007D6
00000AA9
FFFFFDBB
00000B65
00000D95
00000255
0000099D
0000014B
FFFFFFA0
FFFFFF18
00000047
00000259
00000649
000006FF
FFFFFFB0
FFFFF5DD
FFFFFAF8
000002B0
000005B6
000004FA
00000539
000007FB
00000ACB
000004FE
FFFFFCB1
FFFFFBA9
00000029
FFFFFB94
00000790
0000054E
FFFFFEBD
00001766
000012AA
000009CA
0000052C
00000034
00000048
0000024A
FFFFFFE4
000007C8
000011C2
00000B5A
0000070F
FFFFFF58
FFFFFAC7
FFFFFC79
000000BB
0000031A
FFFFFDF4
FFFFFA27
00000359
000003E9
FFFFFEBD
000008F1
00000B77
00000841
000005C1
000005AF
000007C2
0000109E
00000B39
000005D9
FFFFF883
FFFFFC82
FFFFFAA1
FFFFFDAF
000001A5
000002F0
00001048
0000114B
000006AE
FFFFFF22
FFFFFEAD
0000005B
000004E6
00000511
000005B7
000005A5
00000182
0000000E
00000C71
00000E57
00000D3B
00000A03
0000030F
00000331
00000A0B
00000ABE
FFFFFA0B
FFFFFAAB
FFFFF465
FFFFF4AE
FFFFFBF7
FFFFFC1D
FFFFFD32
0000046F
00000616
00000A22
000003DC
0000001F
FFFFFFF2
000004ED
000008DB
00000545
000010E7
00000C94
000003B3
FFFFF82A
00000258
00000918
00000DDB
000003EF
FFFFFF96
00000390
FFFFFE42
00000175
FFFFF99E
FFFFF4B3
FFFFF590
FFFFF067
FFFFF5CE
FFFFF43B
FFFFF7EB
FFFFFDB9
000000EC
00000548
0000060F
00000354
000001F4
000005B1
FFFFFF80
0000075A
000004A6
0000050F
00000091
FFFFFC57
FFFFF586
000005FA
00000C1D
FFFFFFB5
00000072
00000145
000005F9
00000C9C
FFFFFFCA
FFFFF842
FFFFFCCD
FFFFFA5D
FFFFF906
FFFFFAC4
FFFFF73D
FFFFF8CC
FFFFFC37
0000039F
00000AFB
0000046D
00000244
FFFFFEEA
FFFFF9DF
FFFFFF65
FFFFFF45
FFFFFFC0
0000035B
FFFFFE5A
FFFFF52F
00000103
FFFFFED8
000001C1
000008A8
FFFFFEB4
0000056E
00001394
0000071A
FFFFF36D
FFFFFC54
FFFFFD7A
0000012A
0000015E
000000F2
FFFFFE39
000004A8
000005E8
00000616
0000051B
000002C7
FFFFFBBB
FFFFFD2F
FFFFFDEA
FFFFFCCC
00000397
0000027B
000004F2
FFFFFC33
FFFFF9D3
FFFFFE37
FFFFFB12
FFFFFFAF
0000019C
00000417
00000729
00000C84
FFFFFC6B
FFFFFF4F
00000175
000001C2
0000046D
FFFFFEAC
000005E0
000008D1
00000405
00000397
FFFFFDF3
FFFFFEB6
FFFFFBA5
FFFFF7A6
FFFFFD30
FFFFFA78
0000042C
00000721
00000801
00000445
FFFFF279
00000362
FFFFF714
FFFFFEDB
0000053E
0000045B
0000011D
0000023C
000006B7
0000000C
FFFFFE6C
00000256
00000249
000002C4
000002D5
FFFFFE44
FFFFF9FA
FFFFF5E1
FFFFF736
FFFFF9F9
FFFFFAD9
FFFFF8D5
FFFFFC64
000001C7
FFFFFDD7
FFFFFF80
00000505
FFFFFF84
FFFFF532
00000336
FFFFFA29
FFFFFE1A
FFFFF9E2
00000946
00000019
FFFFFF33
00000591
FFFFFD24
FFFFFC66
00000396
000005EE
FFFFFEF3
FFFFF63C
FFFFF495
FFFFF808
FFFFF478
FFFFF439
FFFFFC4C
FFFFFF19
FFFFFD13
FFFFFC66
FFFFFA82
FFFFFB88
FFFFFE34
00000626
FFFFFE72
FFFFF1A0
FFFFFE4D
FFFFFB7D
000001FA
FFFFFE18
00000812
FFFFFB17
FFFFFF66
FFFFFCCB
00000167
FFFFFFC8
FFFFFF41
00000078
FFFFFBD5
FFFFF76A
FFFFF865
FFFFF8F4
FFFFF40A
FFFFFC17
FFFFFFE2
000001D1
FFFFFB6D
FFFFFC41
000000DF
0000023C
00000661
00000082
FFFFF86D
FFFFEF28
FFFFF9E8
000000BB
FFFFFF1B
00000180
00000561
FFFFF87C
FFFFFE8C
FFFFF92F
00000589
00000132
FFFFFD10
FFFFFC78
FFFFFD46
0000018B
FFFFFA6B
FFFFFE15
FFFFFC3F
00000016
000000A7
FFFFFF8B
FFFFF9A7
FFFFFF50
00000520
000001FB
000006EE
0000026C
FFFFF4F3
FFFFF3D1
FFFFFE35
FFFFFE05
00000153
000002A3
00000328
FFFFF970
00000194
FFFFFE58
00000020
00000659
FFFFFE73
00000028
FFFFFF2F
00000799
00000581
000002C9
00000326
000002AA
FFFFFBD3
FFFFFDA6
FFFFFCF4
FFFFFF3C
000005FB
000002AB
0000083B
000005FE
FFFFFEBF
00000277
FFFFFC51
00000161
0000012C
FFFFFF7F
00000833
FFFFF852
000006A6
00000018
FFFFFB04
000002C5
FFFFFFF3
000003AA
00000659
0000073A
000008BB
0000065F
0000021D
00000150
FFFFFEBC
FFFFFE65
000002F7
0000054E
00000671
FFFFFE8E
00000295
FFFFFF41
FFFFF16F
FFFFFC3E
FFFFFBE5
0000020D
FFFFFF3F
FFFFFFCB
00000510
00000425
FFFFF412
FFFFF5B9
0000063F
FFFFFA5A
FFFFFBA7
FFFFFC4B
000002D1
000006F7
000008E7
000006E6
00000B91
0000040D
0000047F
FFFFF9DE
FFFFFB5E
00000748
00000396
FFFFFAB6
FFFFFE6B
FFFFFB07
FFFFEC2D
FFFFFC42
FFFFFD76
00000006
FFFFFF40
FFFFFF55
FFFFFE8F
000003BC
FFFFFADF
FFFFEEA9
FFFFFC5F
FFFFF200
FFFFF234
FFFFF806
000000D7
FFFFFC0F
000000D6
00000369
0000032A
00000778
00000917
0000027B
000005C7
00000074
FFFFF4B7
FFFFF065
FFFFF8A5
0000012F
0000005F
FFFFFE8B
FFFFFE10
0000018A
0000013E
000001FC
FFFFFDF0
FFFFFC87
FFFFF2E0
FFFFF39D
FFFFEE2B
FFFFED7E
FFFFF9BB
FFFFF36F
FFFFEFCB
FFFFF7BF
FFFFF9DA
FFFFFD70
FFFFEC7A
FFFFEF14
FFFFF6FB
FFFFF9BF
FFFFF6F8
FFFFF540
FFFFEE5E
FFFFECAB
FFFFF074
FFFFFD0D
FFFFFC78
000000CF
000001E3
000000CD
FFFFFE5F
FFFFFE09
FFFFFF5C
000001B3
00000513
00000EDB
FFFFFC5B
FFFFF952
FFFFFB36
0000034F
FFFFFC08
FFFFF636
FFFFFA49
0000073F
FFFFFDB2
00000295
00000336
00000B7B
FFFFFCC7
FFFFFC4F
000001BB
000000BE
FFFFFA7F
00000843
FFFFFEDF
FFFFFFD6
FFFFFFFC
FFFFFDE3
