0000013A
FFFFFF48
000001D9
FFFFFE9B
00000011
00000141
FFFFFFC6
00000156
FFFFFE68
FFFFFF58
FFFFFF35
FFFFFDF7
FFFFFF02
000000E7
000002E4
00000191
FFFFFE44
0000020D
FFFFFF65
0000021A
FFFFFDCA
FFFFFECF
FFFFFF80
FFFFFF72
FFFFFE15
0000016B
FFFFFF91
FFFFFE47
000000AD
FFFFFE66
000001B3
FFFFFFF9
0000007B
FFFFFD66
FFFFFDE0
00000007
00000331
00000125
0000000B
FFFFFB7E
FFFFFB03
FFFFFE83
FFFFFF45
FFFFFE9E
FFFFFE43
FFFFFA3B
FFFFFC5A
FFFFFFCD
FFFFFDF9
FFFFFBF4
FFFFFB8E
FFFFFC77
FFFFFF13
FFFFFDEE
FFFFFE73
FFFFFE0A
FFFFFFD9
0000020E
FFFFFDE5
FFFFFD70
FFFFFF04
0000003A
FFFFFCEB
FFFFFF72
000000B7
000006CE
00000373
FFFFFE98
FFFFFFA2
FFFFFE90
00000221
00000A90
FFFFFEDF
FFFFFAD3
FFFFFCCA
FFFFFB79
FFFFF989
FFFFFAF5
FFFFF9E9
FFFFFF45
00000501
FFFFFDFF
FFFFFED5
FFFFFE45
FFFFFFEA
00000222
00000AC1
0000024B
FFFFFEE7
FFFFF787
FFFFF73E
FFFFF3F1
FFFFF3E4
00000186
00000498
000004D0
000000B6
FFFFFF5D
FFFFF193
FFFFF4BC
FFFFF83B
FFFFF7E1
FFFFF9B0
0000014B
FFFFF424
FFFFF401
FFFFFC5D
000006FA
FFFFFC7D
000004D7
00000238
000001C2
000001A6
00000203
00000DAE
FFFFF8FD
FFFFF900
FFFFF7B7
FFFFF6AA
FFFFF8AA
FFFFF755
FFFFF817
00000121
00000D1F
00000C17
00000954
0000082C
FFFFF750
FFFFF793
FFFFF6E4
0000016C
000000DC
FFFFFDE1
000001F5
000008EA
FFFFF94F
FFFFF528
FFFFF6B5
FFFFFD1F
FFFFF610
FFFFFE02
FFFFFE25
000009AD
FFFFF5B7
FFFFFE5C
FFFFFDDB
FFFFFDA4
FFFFFA6F
FFFFF95A
FFFFF5D8
FFFFFFF6
0000061C
000001DE
000001E1
FFFFFE47
FFFFFCA0
FFFFFD4F
FFFFF5F7
0000000B
00000747
00000989
00000A48
00000BC1
00000356
00000618
00000994
FFFFF6C4
FFFFF605
FFFFFFBE
FFFFFB52
FFFFFA28
FFFFF37F
FFFFF4ED
FFFFF113
FFFFF972
FFFFF7A3
FFFFFD14
FFFFFBB5
FFFFFBA0
FFFFFD37
0000019F
0000008E
000003CA
FFFFFF5C
000001A5
000000AD
FFFFFC0E
FFFFFA5B
000005CC
00000A87
FFFFFF27
FFFFFDBD
FFFFFE93
00000899
000001FA
000001C1
000000D1
FFFFFA57
FFFFFCB7
FFFFFC46
FFFFF8F6
FFFFF353
FFFFEEDC
FFFFEF97
FFFFFA74
FFFFFFB7
FFFFFCE2
FFFFFD13
0000041C
000003FD
FFFFFCDA
FFFFFEC2
000001E7
FFFFFC9F
FFFFF88B
FFFFFF17
000006CB
000006D2
FFFFF8C6
00000269
000000AB
0000012B
0000000F
000000E8
FFFFF8FC
FFFFF971
000000A4
000002AA
FFFFFD9F
FFFFFC7B
FFFFF24B
FFFFF8C4
00000515
00000067
00000121
0000047A
0000021B
00000616
00000312
FFFFFA2E
FFFFFD6D
FFFFFD4A
FFFFF7D9
00000074
FFFFF988
FFFFF955
FFFFFC2F
000000AB
00000792
000005FD
00000B8E
00000397
FFFFFCF4
FFFFF7DB
FFFFFCE2
00000ACA
FFFFF90A
FFFFFB72
FFFFF6B0
FFFFFA5B
000000BC
000001E0
000003FF
0000035F
00000074
FFFFFC84
0000024E
0000052E
FFFFFF49
FFFFFACD
FFFFFD19
FFFFFA03
FFFFF5C6
FFFFFA9E
0000058C
00000838
00000FA0
00000B87
000007C2
00000C03
FFFFFCAB
FFFFFBAA
FFFFF7F2
0000077B
000000E5
FFFFFFE6
00000457
FFFFFF80
000007AD
00000447
00000601
00000659
000004DD
FFFFFC0E
00000781
00000CF6
0000045E
FFFFFF04
FFFFFB0F
FFFFFA64
FFFFF24E
FFFFFDD5
00000573
00000450
00000A23
FFFFFCA9
000002D8
00000B19
FFFFFDD7
FFFFFCC9
FFFFFFA0
FFFFFD74
FFFFFF6D
000003A4
00000242
0000091A
000003A3
00000538
000008B4
00000781
000002AC
FFFFFC31
0000062E
000009FB
00000A12
000000C7
FFFFFBBF
FFFFFC23
FFFFFA21
000001B8
0000053C
FFFFFBB3
FFFFFBA0
FFFFFE94
FFFFFE99
000007A8
FFFFFF30
FFFFFDC6
FFFFFD0C
FFFFF74E
0000017C
0000071A
00000379
00000068
000003A1
00000429
FFFFFBB8
000000B5
000002F7
FFFFFF08
00000247
00000A5B
00000A53
000004A7
0000078D
FFFFFE1D
000001D4
00000764
FFFFFA6A
FFFFF80B
FFFFF94A
FFFFFBA9
00000419
00000757
00000201
FFFFFE12
FFFFF601
0000053E
FFFFFF49
00000256
FFFFFF13
000001EB
FFFFFFB2
0000020D
FFFFF898
FFFFFE11
FFFFFB88
00000338
0000033A
00000888
00000E56
00000679
0000075B
FFFFF84F
00000012
000004CC
FFFFFF77
FFFFF321
FFFFF0CF
FFFFFECB
00000F31
00000417
0000000E
FFFFFEB3
FFFFFE80
00000A33
000003D1
FFFFFE47
FFFFFD1C
FFFFFE5F
FFFFF49C
FFFFF4B5
FFFFEF5D
FFFFF5DD
FFFFFF3D
0000038A
00000501
000002AB
000006C0
0000071F
00000403
FFFFF922
FFFFF280
FFFFF7DD
FFFFF8B9
FFFFF9B5
000001A4
00000933
00001642
000006A6
FFFFFEC9
FFFFFFA9
FFFFFFDF
00000779
00000B61
FFFFFC8A
FFFFFDF9
FFFFFB74
FFFFF98D
FFFFF7D0
FFFFF1D1
00000140
00000358
000008C9
000007F0
0000041B
000005C4
000004F3
FFFFF735
FFFFEC13
FFFFEE42
FFFFF0B3
FFFFF581
FFFFF68C
FFFFFB77
00000427
00000E7C
00000998
FFFFFF7B
FFFFFE23
000001D4
000004E7
000005AF
FFFFF91A
000001D9
00000343
00000079
FFFFFD0B
00000223
0000076A
00000918
0000086E
00000618
0000014A
00000255
FFFFF55C
FFFFEC26
FFFFEF72
FFFFF34A
FFFFF538
FFFFF8E0
FFFFF31B
FFFFFB8D
000009B4
00000C89
00000A5A
FFFFFE49
FFFFFDE1
FFFFFDC0
FFFFFD21
FFFFFE77
FFFFEDD0
FFFFF55B
FFFFFF82
FFFFFBB3
FFFFFDC5
00000694
00000C6A
00000C04
00000742
000004C9
FFFFFA98
FFFFF32F
FFFFEC2D
FFFFEC0E
FFFFE901
FFFFFB39
FFFFFBBD
FFFFF9CB
FFFFF7FF
FFFFF5CA
00000AA0
00000C56
00000E32
00000099
FFFFFF9F
FFFFF903
FFFFFC03
FFFFF9A9
FFFFE56A
FFFFF462
FFFFF971
FFFFFC4A
000003BE
00000404
0000047B
000003B7
0000006F
FFFFFD06
FFFFEEE0
FFFFECC9
FFFFF5F9
FFFFEE0F
FFFFEC08
FFFFFC0F
000001F4
00000580
FFFFFB13
FFFFF28D
000005AB
0000061F
00000AF8
00000024
FFFFFC29
FFFFF4A2
00000011
FFFFF76D
FFFFEBA6
FFFFFA70
FFFFF9F3
FFFFFC03
FFFFFFC8
000002B6
000001AF
000008C6
0000051D
FFFFF388
FFFFF103
FFFFFC44
FFFFFE89
FFFFF972
FFFFF5EE
00000423
00000781
00000550
FFFFFF4E
FFFFFA89
FFFFFF2F
00000DE3
00000D87
00000213
FFFFFF9B
FFFFFAC7
FFFFFAA9
FFFFF5DF
FFFFEEEE
FFFFF87D
0000000F
00000299
FFFFFE38
00000247
0000059D
00000835
FFFFFAB9
FFFFF6B0
FFFFFE31
0000085D
00000A30
00000214
0000008A
00000B20
00000AA5
00000674
0000005E
00000474
000001DB
00000578
0000037B
00000284
FFFFFF40
FFFFFBE7
FFFFFC14
FFFFF9CD
FFFFF665
FFFFFA50
0000055F
FFFFFF38
00000351
000003AD
0000014D
00000160
FFFFF935
FFFFFA0F
00000659
000009E4
000005DE
00000655
00000493
000005A7
00000B45
000000ED
00000269
0000030E
FFFFFDD5
000000F0
FFFFFE7F
000000D5
00000128
00000114
0000005E
00000085
FFFFFD31
FFFFFE38
0000069D
FFFFFE81
FFFFFE43
00000606
FFFFFB13
FFFFF6BB
FFFFF910
000003F4
000004BE
0000043B
00000005
000006B4
00000292
00000C19
00000DFC
00000716
FFFFFFD6
FFFFF8F2
FFFFFBAD
FFFFFC3F
FFFFFF11
00000030
00000124
FFFFFA53
FFFFF265
00000024
0000066C
FFFFFEB5
000001DB
FFFFFF12
FFFFFFDC
0000005C
FFFFFACF
FFFFFB78
FFFFF81B
FFFFFD90
000003C3
0000061F
000002F4
FFFFFE5E
0000025D
0000057C
000008B2
00000B9F
0000076B
000005BF
000000F9
00000331
00000107
FFFFFE7E
FFFFFE37
FFFFFA91
FFFFF3F9
00000B0F
0000067E
00000207
000006BB
0000000A
FFFFF2CD
0000001F
000001E9
FFFFF26E
FFFFEFDB
FFFFFD7C
0000033E
FFFFFF79
FFFFF970
FFFFF449
FFFFF8AC
FFFFF98E
0000043C
00000B9D
00000BBF
0000076B
00000ACC
000007FC
0000000E
FFFFFEDF
0000001B
0000010F
0000081E
0000061F
00000441
000001C3
00000F91
00000A39
00000023
FFFFFA77
000000F7
FFFFEF54
FFFFE703
FFFFF159
FFFFFE55
000007D1
00000250
FFFFF9D2
FFFFF4CF
000003F7
FFFFFFFA
FFFFFE2C
FFFFF65A
FFFFF827
0000058C
000003A0
00000226
FFFFFE12
FFFFFE84
FFFFFF08
0000044A
00000304
000007D1
00000CC4
000016A9
000005E9
00000858
00000482
000009C0
00000708
FFFFF6ED
000003C5
0000060E
FFFFFDC6
FFFFF9C8
FFFFF874
FFFFFB97
000001C1
00000565
FFFFFC3C
00000869
00000AD0
000000D5
00000042
0000001B
FFFFFE4D
FFFFFECB
FFFFFE9D
000001C3
FFFFFF92
FFFFFB96
FFFFFCEB
FFFFFB55
FFFFFC7E
00000308
00000829
0000081E
00000943
0000025E
00000708
00000AB7
00000AE3
000009E1
00000946
00000295
0000066B
FFFFFA76
FFFFF83B
FFFFFE4F
00000053
00000069
00000021
0000023B
