000003C9
00000799
FFFFFD7E
000000C5
FFFFF5E7
FFFFFC65
00000FE9
FFFFFBAA
FFFFFB79
FFFFFCE3
FFFFFCF6
00000428
000008EB
FFFFF8A0
000004E2
FFFFFB40
00000080
FFFFFB05
0000027D
00000B42
FFFFFEB0
000004C9
FFFFFBE2
FFFFF928
0000043A
FFFFFE79
0000032B
00000847
FFFFFBF4
FFFFFF69
FFFFF69B
00000540
FFFFF72F
FFFFFD4F
000000F6
FFFFF444
FFFFFDDB
FFFFFA7E
FFFFF838
0000090A
00000293
FFFFF6B5
000001DC
FFFFFF91
0000038D
FFFFF9C1
000010A4
0000104D
FFFFF97C
00000E70
FFFFF101
000007B2
00000744
00000104
000001C9
FFFFEF65
00000298
FFFFFD13
00000BBF
FFFFF631
FFFFFA35
FFFFFDCE
00000334
00000E14
0000011C
00000A10
000002AB
0000037F
00000240
FFFFF747
00000A79
000003C5
000003EF
FFFFF646
FFFFF78B
00000294
0000095F
00000156
0000004A
FFFFFA0E
00000812
00000525
0000073F
000003A9
00000121
FFFFF63D
00000B0A
0000026F
0000040A
FFFFF3D6
FFFFFEBF
00000D95
0000041F
000002C9
00000177
FFFFF9E5
00000D7A
000003CE
FFFFFE06
00001392
FFFFFEBB
00000048
00000727
0000042F
00000417
000018F0
FFFFFF5C
0000169B
00000E48
0000073B
0000076A
00000322
FFFFE5F9
FFFFFC8B
000007CC
00000CF9
0000018E
FFFFF761
FFFFFEE1
FFFFF27F
FFFFFF1E
0000002F
FFFFFD33
0000001D
FFFFFF09
000008B3
00000BAD
FFFFE533
