FFFFFFCE
FFFFFE20
FFFFFEE9
000000A7
00000145
0000015D
FFFFFE55
FFFFFF53
FFFFFEC4
FFFFFF64
FFFFFFAF
00000224
FFFFFFF3
00000609
00000BEC
000003F6
FFFFFE9F
000000D6
00000089
00000159
00000071
000001BF
FFFFFEEF
FFFFFF53
0000011B
FFFFFF6A
00000016
00000152
FFFFFF9B
FFFFFDE0
FFFFFF83
000000FC
FFFFFF0D
FFFFFCF7
FFFFFB3D
FFFFFAB5
FFFFFC1A
FFFFFADB
FFFFFA36
FFFFFFA5
000000B3
0000015E
00000156
00000329
0000027F
0000013F
FFFFFA6E
FFFFFA86
FFFFF8FD
FFFFFB10
FFFFFBF9
FFFFFC64
0000004D
FFFFFF68
000000C2
FFFFFE89
FFFFFDEF
FFFFFF7E
FFFFFB45
000006D4
000004F1
FFFFF893
FFFFF4C3
FFFFFC94
FFFFF57A
FFFFF1C7
FFFFEFBA
FFFFF1F3
FFFFF527
FFFFF29F
FFFFECCA
FFFFEF22
FFFFEED1
FFFFEE2F
FFFFF054
FFFFEF28
FFFFEF07
FFFFF54B
FFFFF5F7
FFFFFA73
FFFFFD7B
000001BF
000000D5
000000CF
FFFFFE03
FFFFFF6D
FFFFFD7D
0000098D
000008DC
FFFFFF2B
FFFFF78A
FFFFFED4
FFFFFCDF
FFFFF179
FFFFF668
FFFFFB59
FFFFF4F6
FFFFFE76
0000022F
FFFFF55E
FFFFFECE
00000514
FFFFFBE6
FFFFF8EF
00000C5F
00000139
FFFFFE64
FFFFFFAB
000002FA
000002D9
FFFFFCED
FFFFFFA3
00000187
FFFFFEB1
FFFFFBDF
00000B7C
FFFFF9EA
FFFFF897
FFFFFFBA
00000D0B
FFFFFCA6
00000446
FFFFFCD3
0000035B
00000397
000000CD
FFFFFDD3
0000017E
000005E2
00000823
000000F4
0000006C
000002A7
000001F7
FFFFFFB4
FFFFFB84
FFFFFF8D
FFFFFC5A
00001195
0000049D
000001CC
000001D4
FFFFF9DC
000009D4
FFFFF3F3
FFFFF05C
FFFFFC58
00000313
FFFFFDC3
FFFFFF1C
00000564
00000C14
00000C50
000003DF
000005E8
00000549
00000C7B
00001132
00000596
FFFFFFAB
FFFFFE30
FFFFFAD2
FFFFFDED
FFFFF2FF
FFFFF71F
FFFFFD2B
00000794
00000229
00000154
FFFFFDD2
00000128
FFFFF521
FFFFF490
FFFFFD53
FFFFFD16
FFFFF561
FFFFFE2A
FFFFFEAA
FFFFF993
FFFFFE29
FFFFFE4B
00000124
000002B3
000005C6
000004A2
000002D4
00000473
000005E9
FFFFFCBD
FFFFFFF7
00000901
00000B20
00000114
000001E0
00000542
FFFFF925
FFFFFFDD
FFFFF931
FFFFFED6
FFFFF79F
FFFFFA31
FFFFFEB2
FFFFFBD9
FFFFF67A
0000022B
FFFFFD78
FFFFF9E0
FFFFFE3B
FFFFFB75
0000036A
FFFFFD17
00000596
00000544
000002B7
0000027A
000006A6
000000E1
00000027
00000365
00000C58
00000E77
00000BAB
FFFFFB8C
000000A9
0000058C
FFFFF939
0000059B
00000620
00000244
FFFFF8CD
FFFFFFE2
FFFFF998
FFFFFEBB
0000001C
FFFFFD77
FFFFFE80
FFFFFD04
FFFFFFC1
000002D4
0000017C
000007EA
000004FC
000006ED
00000698
000006FE
00000648
00000103
0000074E
00001195
00001817
000003FC
000006A3
FFFFFDEC
FFFFF78F
00000CB8
000004DF
FFFFF7DE
FFFFFB04
FFFFF97E
FFFFF61C
FFFFFCD8
000002F3
FFFFFEA3
0000011B
00000111
FFFFFA91
FFFFF588
FFFFF7FD
FFFFFEC2
00000900
00000394
00000125
00000EDA
00000746
00000997
00000C52
000010EB
00001F39
00000AB0
FFFFFE45
FFFFFE7F
FFFFFBF8
00000224
FFFFFBBD
FFFFFF5E
FFFFFD23
FFFFFC2E
0000009A
00000388
000004B0
000002D6
000001C3
FFFFFC61
FFFFEF30
FFFFF3CF
FFFFF6F7
FFFFFFF3
000004A0
0000027D
FFFFF8E2
00000320
000009A6
0000115D
00000F96
00001066
00000E0A
00000CF3
FFFFFFD3
FFFFFA71
00000202
FFFFF70C
FFFFF66B
FFFFF4C7
FFFFFE80
000005AB
000001B8
00000810
0000023F
00000301
00000582
FFFFFAF1
FFFFF6AB
FFFFFBEA
FFFFFB7D
FFFFFD82
FFFFFDDC
FFFFFAB7
FFFFFDB2
FFFFFD1D
000000B0
000004C9
00000422
00000CDD
00000A64
000014E6
FFFFFE5E
FFFFFD5F
FFFFFA9A
FFFFFD7C
FFFFFC2D
FFFFFA7B
FFFFFEEF
000007B1
00000045
FFFFFC15
00000031
00000589
00000627
FFFFFEBC
0000019E
00000025
FFFFFA4F
FFFFF8E2
FFFFF6CA
FFFFFE95
000002FA
000002F1
00000592
000000AC
00000637
00000E04
000004B1
000009D2
FFFFF796
FFFFFFFD
FFFFFF0C
FFFFFAEE
FFFFFDF5
0000032B
00000168
000002C8
00000297
FFFFFE32
0000026B
000003D0
000003AC
000003D9
000006C2
00000294
FFFFFE06
FFFFF80B
FFFFF6C7
000002D5
000005F6
00000140
FFFFFF27
0000082C
00000D81
00000686
000007DA
00000727
00000012
000000BC
00000118
FFFFF6E7
FFFFF7A9
0000081B
000009EC
00000C9B
00000528
000000FB
FFFFFFEE
0000005F
000005D7
000005AA
000009C4
00000535
FFFFFE83
FFFFF614
FFFFFE19
000000A2
FFFFFD72
00000560
00000909
000005BF
000008B5
00000FD1
00000912
00000215
FFFFFC4E
000001E2
0000042A
0000004B
FFFFFEAE
00000BD2
00000E9F
00001068
00000C16
000002FE
FFFFFE8D
FFFFFF1B
FFFFFBC7
00000410
0000023E
00000102
FFFFFC6D
FFFFF9A1
FFFFFCF7
FFFFFEBD
0000004A
FFFFFFE5
FFFFF9D7
FFFFFC07
00000974
00001261
0000074D
FFFFF667
FFFFFC22
FFFFFD0D
00000322
FFFFFFCB
0000092A
00000D18
00000459
0000035D
00000BC5
00000575
FFFFFBAD
FFFFF840
FFFFFA87
000001E7
0000014C
000001B6
FFFFFC05
FFFFF939
000001CC
000000D4
FFFFFDB3
FFFFFFCB
FFFFFA48
FFFFFBCB
00000723
00000341
00000358
FFFFF5BD
FFFFFB37
000000A6
0000002C
0000022D
0000016F
00000F6E
00000837
00000489
0000088E
0000087C
000001F1
FFFFFAFD
FFFFF87C
00000030
0000011D
FFFFFB9A
FFFFFAE2
0000043A
0000051C
00000069
00000127
000000AA
FFFFFD67
FFFFFFA0
00000687
FFFFFFF1
FFFFF3D2
FFFFEAB8
000002CC
FFFFFAF0
FFFFFAF7
FFFFFC8D
FFFFFD7A
0000041D
00000F63
00000DA4
00000310
00000801
FFFFFFF5
FFFFFE32
FFFFFA92
FFFFFDBF
FFFFFAB2
FFFFF00F
FFFFF944
000008EE
0000046E
00000109
00000895
0000035F
FFFFFE2C
00000171
000004A1
0000047E
FFFFFE66
FFFFF943
FFFFFC39
FFFFFD66
FFFFFD5E
FFFFFD28
00000271
00000A06
00000F26
0000070C
FFFFFF2A
00000352
FFFFF916
FFFFF9AA
FFFFFA08
FFFFFD53
FFFFFB4A
FFFFF467
FFFFFAA4
000007BC
00000DAA
0000062C
00000572
000006DA
00000101
00000121
FFFFFFC8
0000076A
FFFFFCFB
00000957
FFFFFF29
0000003B
00000468
00000142
FFFFFDA4
00000432
00000C8E
0000044B
FFFFFC6E
0000005D
FFFFFA5B
00000037
FFFFFF61
FFFFFDDC
FFFFFB86
FFFFF4AA
00000146
00000586
00000632
FFFFFD24
0000027D
00000348
000003E1
FFFFFC8A
00000254
FFFFF799
FFFFFA5B
00000643
FFFFFC15
FFFFFE9C
FFFFFF2E
00000120
000006E0
00000307
FFFFF96F
0000060C
0000001E
FFFFFDDB
FFFFFE47
FFFFFD37
00000105
FFFFF7C0
FFFFFC3E
FFFFFCCD
00000201
FFFFFF88
000001A5
FFFFF5AA
FFFFFDA5
FFFFFDCC
0000009B
000004D7
00000372
FFFFF397
00000739
0000056A
00000234
FFFFFEF4
FFFFFB55
0000042E
00000DC2
FFFFFD81
FFFFF5E8
000005E0
00000149
FFFFFBEB
FFFFFBB0
FFFFFEBC
0000016D
0000025D
00000553
0000057A
0000070E
00000262
FFFFFE65
FFFFF8AC
FFFFFC46
FFFFFBD0
FFFFFB74
000002C7
FFFFFF8A
000000B3
000002CA
00000A2A
FFFFFFB9
0000018C
00000021
00000667
00000E94
FFFFFEF5
FFFFFAC4
FFFFFF5F
00000529
00000BAA
0000049A
0000065E
0000073F
0000074F
00000D27
00000980
00000819
00000345
000001A1
0000000E
FFFFFBD6
FFFFFA6B
00000270
00000583
FFFFFEF2
FFFFFAB0
000003AA
FFFFFFF1
FFFFFF43
FFFFFDC4
FFFFFE3B
FFFFF7E3
000006D9
FFFFFC04
FFFFF402
FFFFFE19
000002FE
00000911
000009AD
000009F9
000008DB
00000A9C
00000B70
0000061D
0000058D
00000B54
FFFFFB53
FFFFFED9
FFFFFD7D
00000456
FFFFFDA7
FFFFF4CE
FFFFF416
FFFFF71E
FFFFF871
FFFFF9D3
00000000
FFFFFF0C
FFFFFDEF
000004DD
00000381
FFFFF322
FFFFF8C7
000003CC
FFFFFD0F
FFFFF4B1
FFFFFE9B
00000246
FFFFF77C
FFFFF4DF
FFFFFD29
FFFFF64F
FFFFFF96
000003DB
00000303
FFFFFE42
FFFFFED2
FFFFF83F
FFFFF7B1
FFFFF8B5
00000151
00000340
FFFFFB4B
FFFFF7FC
FFFFFF1D
FFFFFF81
FFFFFE32
000001F9
000001E2
00000B5A
000002DF
FFFFFDE1
FFFFF8BF
FFFFFBA7
FFFFF8C2
FFFFF70E
FFFFFD0D
00000214
0000008D
00000091
FFFFFE2A
FFFFFA1C
FFFFFC0F
FFFFFD14
FFFFFC32
FFFFFF0F
FFFFFE3E
FFFFFD08
FFFFFED7
FFFFFC6F
FFFFFD9C
FFFFFF0E
00000067
FFFFFEEE
0000023B
FFFFFF33
000001B5
FFFFFA05
FFFFF1CC
FFFFFBB1
0000031E
FFFFFF82
FFFFF9C8
FFFFF3D9
FFFFFB41
FFFFFF9F
FFFFF815
FFFFF34F
FFFFFDE9
FFFFF498
FFFFE89F
FFFFF309
FFFFFD4E
FFFFFC9B
FFFFF8DB
FFFFF7B8
FFFFF828
00000229
0000008B
FFFFFE93
000000B5
