0000055B
FFFFF692
FFFFFFEF
FFFFFDA1
FFFFDA4E
000003C8
0000039F
00000337
FFFFFEB9
FFFFF7AB
00000769
00000F0D
000001C3
000005DC
00000574
00000257
000002C5
000002BC
FFFFF8CE
00000AC4
FFFFFFA3
FFFFFF86
FFFFFB27
FFFFFF10
FFFFF911
000002A5
00000875
00000143
00000218
00000998
FFFFFF64
000006E9
FFFFE878
000009A6
FFFFFABA
FFFFE6E0
000000B2
0000014C
00000644
00000E3B
000005FF
FFFFFC6B
FFFFF3D3
00000622
00001179
FFFFEF45
0000014C
FFFFECB6
00002556
FFFFED9B
FFFFF1DA
000008CA
000001B3
FFFFF344
FFFFFEE7
000001BA
FFFFFE1D
000007B6
00000F32
FFFFEF4A
000008AE
00000059
00000509
0000055F
00000115
FFFFFA4A
FFFFFDDA
00000611
000002C5
FFFFFB62
000008C5
FFFFF9FD
000004C4
FFFFFAE2
0000032A
0000058B
000003BF
00000369
000008AD
FFFFFC8B
000009B4
000004DE
0000081B
000002F8
00000188
FFFFF958
FFFFFFA9
FFFFFD3C
FFFFFEC8
FFFFEFF9
0000086B
0000116F
00000447
000001F4
0000066E
FFFFFFF5
FFFFF171
FFFFFC3E
FFFFFC17
00000663
0000000E
0000021B
0000089B
000002B7
00000528
0000059F
0000046A
000006F6
FFFFFF61
00000E1C
00000033
000005A6
FFFFE563
FFFFF68B
00000579
FFFFFD84
00000B49
00000281
000001E4
FFFFFB2F
FFFFFBF1
FFFFEEAE
FFFFEF27
00000390
000002CC
000002B6
0000081D
FFFFF26A
