FFFFFEF7
00000DDF
0000023A
FFFFFA46
FFFFF236
000003CE
0000060E
FFFFFF05
000003B3
FFFFF836
FFFFFA3C
000013FE
FFFFF75B
FFFFFFB8
00000ADE
00000347
00000396
FFFFFC46
00000079
00000CE9
00000139
00000083
FFFFF304
FFFFF749
FFFFFCA0
000000F0
00000BBC
0000040D
0000011E
0000071D
FFFFF90A
000002DC
FFFFF50A
000009C5
0000012D
FFFFFA98
FFFFF893
FFFFF9F5
00000454
0000158C
FFFFFD23
FFFFFFC4
0000061A
00000930
0000147F
00000011
00000670
FFFFF8F7
000017C0
FFFFFCEB
FFFFFC0D
00000BF2
00000175
FFFFFDAC
FFFFFF33
FFFFFD8E
FFFFFAD5
FFFFFA64
0000019E
FFFFFF98
00001053
0000080B
000008BF
0000117E
000000E4
0000034B
FFFFF678
000006C0
00000172
FFFFF912
00001053
000003AD
00000197
FFFFFDD9
00000CAA
00000263
00000CD8
FFFFFEBC
00000745
FFFFFE29
00000705
FFFFFD3C
FFFFFB3F
00000555
000001FA
FFFFF4FC
FFFFF61C
00000492
00000658
00000297
FFFFFF86
00001271
0000083E
00000275
000004C0
FFFFF8EE
FFFFF6B5
FFFFFFF6
000003B9
00000F0F
0000026F
FFFFFA81
FFFFFE43
FFFFF601
00000464
000005F4
00000508
FFFFF65F
FFFFFB90
00000F4B
000008E9
FFFFFBAC
FFFFF1CF
FFFFF8DF
00000142
FFFFF8C2
000005AD
FFFFF883
FFFFFE56
FFFFF3CD
000001DE
FFFFF9B0
FFFFF7E1
00000948
000001B2
00000760
0000095E
FFFFEAA1
