FFFFFDB1
00000142
FFFFFD20
FFFFFEE2
000001AB
0000000B
000001C7
FFFFF8F5
FFFFF8E7
000000EB
00000090
FFFFFAF8
FFFFFAFB
FFFFF8F9
FFFFFBEA
000002C8
FFFFF87F
0000016F
FFFFF928
0000034A
00000169
FFFFFB06
0000047A
FFFFFF48
000000B0
FFFFFFC1
FFFFFA5E
FFFFFE00
FFFFFA4E
00000255
FFFFFC82
FFFFFDE6
0000014D
FFFFF9A3
FFFFFE0C
000001C5
FFFFF9C1
FFFFFF2B
0000025E
FFFFF8F2
0000001C
FFFFF90C
FFFFFA51
FFFFF9F5
0000056A
00000118
0000011F
0000033C
FFFFFDA8
0000035C
FFFFF8BA
FFFFFE37
000001B1
000002A1
000000B0
FFFFF8D8
00000130
FFFFFE7C
00000273
FFFFFA2B
FFFFFA37
FFFFFC16
FFFFFEC8
FFFFFA84
000000AB
FFFFFC76
00000258
FFFFF8A6
FFFFF9DE
FFFFF9A8
FFFFFE44
FFFFFE01
FFFFF794
FFFFFB90
FFFFFC63
FFFFF9E5
00000139
FFFFF91B
000000C6
FFFFF55E
0000019B
0000010B
FFFFFD04
FFFFFC04
FFFFFB6E
FFFFFEA2
FFFFFABC
FFFFFBC1
FFFFFC3B
FFFFFFC5
FFFFFF22
FFFFFAD9
00000059
FFFFFF97
FFFFFD24
FFFFF82C
FFFFFF49
FFFFFCC4
FFFFFAB9
FFFFFADC
FFFFFC2C
000000F3
FFFFFFCD
FFFFFA4B
FFFFFF19
FFFFFEB5
FFFFFE58
FFFFFF76
000003CE
00000398
000001DC
FFFFFAE7
FFFFFF7D
FFFFF988
FFFFF87A
FFFFF8F6
FFFFFAD3
FFFFFC4A
FFFFFC32
00000207
0000047C
00000218
FFFFF83E
FFFFFF46
00000035
FFFFFD58
00000240
00000210
FFFFFFBA
0000017F
FFFFF8B4
000001FF
FFFFFF77
FFFFFA22
FFFFF8DA
0000036B
FFFFF8CA
FFFFFD25
FFFFFAB5
FFFFFC01
FFFFFC74
FFFFFA4E
FFFFFE9F
FFFFFAC5
000001D2
FFFFFBD6
FFFFF99C
FFFFF9E5
FFFFFB56
FFFFFE08
FFFFFBF2
FFFFFEB3
FFFFFF00
FFFFFB0E
FFFFFE05
00000145
FFFFFAA1
0000029F
00000084
00000398
FFFFF7E7
FFFFFC7B
FFFFFEB9
FFFFFCC5
000001B2
FFFFFC8A
FFFFFB79
FFFFFC3D
FFFFFF3D
FFFFFE95
FFFFFAEA
FFFFFA2D
00000062
FFFFFCCE
0000033B
FFFFFD19
00000430
0000022E
FFFFFA36
00000121
0000005D
FFFFFF93
000001F8
00000277
0000000C
0000057F
0000033C
0000017A
FFFFFC74
00000465
FFFFFA5F
00000050
FFFFFDC5
00000027
FFFFFB64
0000028A
00000335
FFFFFB06
FFFFFCBE
FFFFF94D
FFFFFC35
000001AD
FFFFFD99
00000016
FFFFFB14
00000034
FFFFFFC1
FFFFFEA4
000002F5
FFFFF847
FFFFFC52
FFFFFEC5
00000272
FFFFFCE7
00000121
000000E0
000000ED
FFFFFEB3
FFFFFB4C
0000028B
0000022A
FFFFF943
00000058
FFFFFE64
FFFFFA54
FFFFFF2E
000001C8
FFFFFD74
FFFFFF26
FFFFF9FE
0000043A
FFFFFB13
FFFFFAA3
FFFFFD0D
FFFFF840
0000022C
FFFFFFE9
FFFFFC3C
00000428
FFFFF916
0000058F
FFFFFA02
FFFFFF45
FFFFFFD2
FFFFFE54
00000000
FFFFFEF4
000003B5
00000504
FFFFF7BA
FFFFF8AD
FFFFF97C
FFFFFCD7
FFFFFE4D
0000035B
FFFFF951
FFFFFC20
00000EE0
00000034
00000009
000005C2
0000083A
000003C9
000002BF
00000981
FFFFF02B
000002D1
00001881
00000071
FFFFF88A
000001E6
FFFFFF53
FFFFFE26
00000670
FFFFFA4A
00000C3E
00000547
000000A1
FFFFFF39
FFFFFA4F
FFFFF7EB
0000055F
000002EB
FFFFF9B6
000005BF
00000723
FFFFFFE1
FFFFFF51
FFFFFC8A
000005F1
FFFFFB9F
00000F82
FFFFFBB3
FFFFFF2C
FFFFFCEA
000008A7
00000906
000000AE
000001FD
00000078
00000429
0000107D
00000368
FFFFFDF3
000015F2
FFFFF151
FFFFFA7C
00000657
FFFFFBC5
00000603
000005FA
FFFFFB2F
FFFFFEED
FFFFFE01
FFFFF90C
FFFFFDA3
00001B12
FFFFF94B
0000061E
FFFFFC55
000003DC
000004C1
FFFFF0AD
FFFFFE1D
00000142
FFFFFFBD
0000054E
FFFFFACA
00000322
00000CFC
00001528
00000630
000003E1
00000C39
00000A93
0000048B
00000533
00000455
0000030A
FFFFFF0B
FFFFFDB7
FFFFF77D
FFFFF672
00000055
00000A77
000003F0
0000058A
FFFFFB16
00000BB9
00000155
0000061A
0000055A
00000493
FFFFFC12
FFFFFE4A
FFFFFB10
FFFFFFE0
FFFFFF93
000000ED
FFFFFEE3
0000000F
FFFFFC9E
000004B7
FFFFF2DB
00000C62
000004A9
00000063
0000013D
FFFFFC71
00000902
FFFFFCD0
000002DD
00000851
FFFFFE7F
000000D2
FFFFFB38
FFFFFE4A
0000187E
FFFFFD95
00000007
0000064E
000004F1
0000048C
000003E5
FFFFFD52
FFFFFB79
000001FF
FFFFFEC3
FFFFFAC5
FFFFFF98
0000033D
FFFFFDFD
00000219
FFFFF94A
000000B2
FFFFFDAC
FFFFFEC0
FFFFFD54
FFFFFB91
FFFFFF9B
00000151
FFFFFEA0
000000F4
000001DC
FFFFFC52
000001BD
FFFFFF4E
FFFFFD5B
FFFFFDDE
0000004C
FFFFFF4F
00000197
FFFFFAD3
FFFFFDB2
00000197
FFFFFCC2
FFFFF9F9
FFFFFB57
FFFFF845
FFFFFDB9
000000E4
FFFFF844
FFFFFDF9
FFFFFB66
FFFFFC9E
000003D1
FFFFFA14
FFFFF905
FFFFF934
00000417
000002EE
0000023C
00000489
FFFFFB60
FFFFF8FD
0000025F
FFFFF9EC
FFFFFFE5
FFFFFDC5
FFFFFF02
00000181
FFFFFDB7
FFFFFF78
00000244
FFFFFCFB
FFFFFB7F
FFFFF890
00000038
00000116
000002EA
FFFFF819
FFFFFF23
FFFFFAC9
00000143
0000002A
FFFFF9DB
FFFFFD3E
FFFFF8F9
00000248
0000016E
FFFFF999
FFFFF931
FFFFFFAF
FFFFFF89
000000E8
FFFFFF28
FFFFFC86
00000132
00000065
0000015B
FFFFFC25
FFFFFED0
00000045
FFFFFB4D
000000E0
00000268
FFFFF932
FFFFFC78
FFFFFCB3
FFFFF986
FFFFF926
FFFFFB67
00000388
FFFFF946
FFFFFEA5
FFFFFA6A
FFFFFD1B
FFFFFC49
FFFFFD9D
FFFFFF88
FFFFFD6E
FFFFFAD5
FFFFFEE1
FFFFFEFF
0000017F
00000167
FFFFFA26
FFFFF8EE
00000186
0000011D
00000334
000000C0
FFFFFBB2
FFFFFAB8
FFFFFB34
FFFFFB01
0000000B
FFFFFCB0
FFFFFE49
FFFFFBD3
00000181
000002EA
FFFFFED8
00001548
0000090E
FFFFFB74
FFFFF9C6
FFFFF63E
00000F0F
000005A3
00000187
FFFFFF16
FFFFFF1A
0000116C
FFFFFF67
000004AC
00000A6F
FFFFFB7F
000006E0
00000024
000003E1
FFFFF303
FFFFFBC8
0000049A
FFFFEF0F
0000031E
FFFFFD83
FFFFF912
00000021
00000134
FFFFFD67
000002B5
FFFFF3CA
0000033B
00000CC2
FFFFFC96
FFFFFDC6
00000A84
00000136
000002FC
FFFFFE07
00000E8A
000005DF
00000761
00000A28
000001BC
000004D6
00000CFC
00001018
00000FE6
FFFFF71C
0000143A
00000142
0000087B
000008ED
00001B1D
00000669
FFFFEAEE
0000065C
FFFFF390
FFFFF00C
000005FE
00001292
00000023
00000856
0000111D
00000430
000002CE
FFFFFEDC
0000006D
0000028A
FFFFF30B
00000676
0000029D
0000053F
000010D2
FFFFFF97
00000542
000004DF
FFFFF652
00000729
FFFFF5DE
000004FB
00000723
FFFFF4ED
00000B20
FFFFFC9C
FFFFF33F
0000089F
00000343
00000045
00001FBC
FFFFFED0
00000D86
00000A55
00000302
FFFFF97C
FFFFFC88
000011D5
00000098
00001C60
000005E4
00000CDE
000000C1
FFFFFA9D
FFFFF76D
00000AB9
00000FC8
0000018B
FFFFF8BC
00000BE9
00000E85
00001451
00000308
FFFFEF0D
00000C73
00000600
FFFFFB4D
FFFFFBBA
FFFFF8C3
000005F3
FFFFFA34
FFFFFE8D
00000798
00000711
000003F0
FFFFFBEF
FFFFF545
00001741
FFFFDE73
000001C0
FFFFEA08
00000CFF
00000D5B
00001074
000002B6
00000DB8
000008E8
FFFFFF60
FFFFFFC7
FFFFFD30
FFFFF440
00000018
000006D9
FFFFF84B
000009D4
FFFFFF6A
000010C8
00000BFE
FFFFFFAC
FFFFFDE8
000002C2
00000BCE
000005D8
00000C87
00000053
0000070A
00000CE6
00000444
000007EC
FFFFFBAB
000011FA
FFFFFA2A
0000030E
00000451
FFFFE30C
00000310
00000418
FFFFF281
00000356
FFFFFEEE
FFFFF765
FFFFE81E
00000745
000002C3
FFFFE39D
000008DD
00000D40
FFFFF952
FFFFECE8
FFFFF42D
00000450
00000200
FFFFED68
0000076D
0000065E
000009FA
FFFFED2C
FFFFFDFA
00000DE2
FFFFEB3C
000000C7
FFFFF50B
FFFFFD00
00000052
0000042B
FFFFFE63
000006A8
00000568
FFFFFA81
FFFFF5B8
00000DA9
0000011E
FFFFFBA9
FFFFF187
000002E1
000005A4
00000028
FFFFFE32
000008FE
0000001C
FFFFFF53
000008DC
00000549
000002E3
00000500
00000645
00000866
FFFFF9A7
FFFFE124
FFFFFB80
FFFFF835
00000AFE
00000625
00000939
00000A7B
0000052E
FFFFFCE6
000000B4
0000058D
00000B5B
000008C8
000002B8
FFFFFE29
00000E22
000006B7
0000066B
FFFFF64A
FFFFF783
FFFFEDAA
000001E2
00000421
FFFFEEC9
FFFFF20A
0000054B
000006D6
FFFFF250
000003A0
00000864
00000652
00000522
FFFFE939
00000274
000006E4
000006DE
0000069E
FFFFF42C
FFFFDA7C
FFFFFF87
00000011
00000109
FFFFFA96
00001571
000004C6
00000439
000003BD
00000857
FFFFE752
0000001D
FFFFF2CC
00000C9D
00000411
00000FE0
00000445
00000708
00000DB0
00000704
00001812
000004E2
000002A9
000008DF
0000030B
000002BB
FFFFFFAD
000008C0
0000086C
0000016E
FFFFFA9F
00000364
0000075D
FFFFF988
000001BD
FFFFF452
FFFFF2BE
FFFFF779
FFFFF9BC
000005FE
000006E5
00000669
0000038C
FFFFEF4D
FFFFF477
FFFFFBA1
000002EC
00001CE7
00000B25
00001678
000009D5
FFFFEC2B
000009C6
000000A6
FFFFF814
00000AA2
FFFFF728
FFFFF2BC
00001038
FFFFF526
00000D8A
FFFFFC7D
00000AFD
000008F5
FFFFF23D
FFFFFE15
00001C37
FFFFE44E
00000B81
00000788
00000206
FFFFF372
000005D2
00000775
00000268
FFFFF927
000000A1
000003CB
FFFFF895
00000E41
FFFFFF03
00000956
0000011A
0000033F
FFFFF81E
000006B6
00000B31
00000782
000005DE
FFFFFA6B
FFFFF39D
0000029B
FFFFFE40
00000160
FFFFFE33
00000193
FFFFFE58
00000B25
FFFFFB6B
FFFFF07F
00000899
000001AD
FFFFFC76
00000105
FFFFF53F
000009D4
FFFFF6C8
0000002C
FFFFF19B
00000659
FFFFEF1C
FFFFF1C6
000007EF
000013B1
000004FF
FFFFFBB7
00000CFB
000008D5
FFFFF7AB
FFFFF874
0000016A
000000D1
00000D03
FFFFF369
0000043B
FFFFFF6A
000016A2
FFFFDD1A
FFFFF6DB
FFFFFFE9
0000114F
00000042
00000160
00001458
00000478
FFFFFE02
FFFFFE53
000007DF
FFFFF360
0000043A
FFFFFA8F
00000984
0000086F
0000048D
FFFFF3A6
FFFFF9FC
FFFFFE24
FFFFFC34
FFFFF557
00000B8A
0000010F
00000258
00000576
FFFFFA7B
0000070F
00000986
FFFFF558
FFFFFDA5
000000CC
00000939
0000025F
000007C4
0000031D
FFFFFB93
00002200
FFFFFC40
0000015F
00000326
FFFFEF46
00000660
00000E51
00001127
FFFFFF24
FFFFED55
000014DA
00000248
00000238
FFFFF1B9
00001450
FFFFF5D5
FFFFFFDF
000008BB
0000169D
FFFFFAE6
FFFFFA28
000007F2
0000036B
FFFFF5CA
00001266
00001476
FFFFF3A7
0000034E
FFFFF2D4
0000055C
00000516
FFFFF6C5
00000077
FFFFFB7A
000006CF
000001B2
000001E1
000007F5
00000E8D
0000003F
FFFFFC5A
FFFFFE7E
FFFFF956
FFFFFD1A
FFFFFCC1
FFFFF67D
00000368
0000023B
FFFFF5C2
FFFFFF0D
00000395
FFFFF752
000006EF
0000057F
000007E2
0000033F
FFFFFB34
0000074D
FFFFFB24
FFFFFC92
FFFFFCCA
000005AE
FFFFFDF2
00000211
FFFFFC0C
FFFFFD2C
FFFFFD0F
FFFFF78D
FFFFFBFE
FFFFFFDE
0000095D
000007C6
FFFFF8FA
00000DA5
FFFFF5B0
00000193
FFFFF8F2
00000794
00001BD2
0000064F
0000003F
000010D2
00000162
FFFFFB68
FFFFFAFB
FFFFFD6E
00001911
00000281
FFFFF4E6
FFFFFF6E
FFFFFB77
FFFFFBCD
00000E01
FFFFFD84
00000327
FFFFFC64
FFFFFA44
FFFFFCEC
0000026C
FFFFFB8E
0000011C
FFFFFAEC
FFFFFB2E
FFFFFA77
00000239
000004FE
FFFFFEB4
00000137
FFFFFE45
FFFFF8F5
FFFFFB1E
FFFFF9BD
00000306
00000048
FFFFFEC7
FFFFFD88
FFFFFC02
FFFFFFBC
FFFFFC4E
FFFFFB75
FFFFFCC9
FFFFFAA1
0000019B
FFFFF981
FFFFFC20
0000015E
FFFFF990
FFFFFEDD
FFFFFB91
0000007D
FFFFFBC2
FFFFF919
FFFFFB0F
FFFFF951
FFFFFB10
FFFFFCD1
FFFFFAB7
0000044D
FFFFFD3E
00000391
FFFFFDCD
00000442
FFFFFAB8
FFFFFCE4
0000012C
FFFFFAED
FFFFFEC6
00000064
FFFFFFC0
00000046
FFFFFD4D
FFFFFD92
00000262
FFFFFBE3
0000054B
FFFFFAB6
00000009
000000C6
FFFFFF86
FFFFFC1B
FFFFF945
FFFFFC2E
FFFFFCB6
FFFFFCE4
00000200
FFFFFA88
00000276
FFFFFFAA
FFFFFBDA
FFFFFD9F
FFFFFD3D
FFFFFC29
FFFFFAE1
000001F1
FFFFFB6C
00000284
FFFFFBB2
00000323
0000022D
FFFFFB87
FFFFFB13
00000082
FFFFFF39
FFFFFBCA
FFFFFE9D
00000054
000002F5
FFFFFA64
000001D7
FFFFFA3C
FFFFFEA0
FFFFFE6E
000001B9
FFFFFB50
FFFFFF00
FFFFF97F
000004F5
000001BE
FFFFFA2F
00000196
FFFFFC94
00000205
FFFFFB6B
FFFFFCAA
FFFFFF7D
0000020A
00000235
00000331
00000179
FFFFFB04
0000030E
00000240
00000073
000004A6
FFFFFDDC
FFFFFC14
FFFFFFFE
FFFFFDC1
FFFFFB4D
000002C3
FFFFFB6B
FFFFFF2E
FFFFFF76
FFFFFFD6
FFFFFF90
0000018B
000000BC
FFFFFA37
FFFFFA14
FFFFFE84
FFFFFD0C
000002E2
000001B8
FFFFFCB6
FFFFFF24
FFFFFBD5
000001C3
FFFFFBC4
0000033F
00000328
FFFFFA08
FFFFFCA6
FFFFFEE4
FFFFFF6C
FFFFFEFD
FFFFF992
FFFFFD58
FFFFFC3B
00000057
00000203
00000293
0000002B
00000083
000001FF
FFFFFAF0
FFFFFBC9
0000014A
FFFFFCDF
FFFFFEEF
FFFFFB30
FFFFFF80
000002CA
0000019F
000003A3
FFFFFA24
000003F4
FFFFFC19
FFFFF945
FFFFFF96
0000020B
00000343
FFFFFDD2
FFFFFD01
FFFFFF13
0000011A
000003E5
FFFFFB81
FFFFFB1D
FFFFFE1C
FFFFFB80
0000037C
000000B4
FFFFFDD1
00000184
00000063
FFFFFDC2
0000020B
0000029F
FFFFFF9B
FFFFFDEF
FFFFFB97
FFFFFA98
FFFFFFD1
FFFFF8BA
00000238
00000158
FFFFFDDB
FFFFFF6B
FFFFFF81
FFFFFF20
FFFFFB1E
0000016D
FFFFFE94
FFFFFA69
0000005D
FFFFFC0A
0000012B
FFFFFC2F
FFFFF911
00000420
FFFFFE09
FFFFFECB
FFFFF9D0
FFFFF8D8
0000013B
FFFFFAD7
FFFFFFC3
FFFFFC25
000004E9
FFFFFFF9
00000169
00000491
000002BE
FFFFFBEA
0000009B
FFFFFE30
0000032C
000003F0
FFFFFB68
00000128
FFFFFEF9
FFFFFAFE
FFFFFF01
0000028D
00000153
0000043E
0000003B
00000055
FFFFFC0A
FFFFFD9E
FFFFFC15
00000148
000001D4
FFFFFD5F
FFFFFA8C
FFFFFB5D
0000042B
FFFFFB0A
FFFFFD52
FFFFFFC3
000004FA
FFFFE53C
000007EC
00000CEF
00000349
FFFFF80A
0000028C
000006A7
0000046D
000001AC
FFFFFFD6
0000088D
FFFFF869
FFFFF2CB
FFFFFDDF
000007C4
0000038A
FFFFFE01
00000AE3
FFFFF7F4
000004E5
FFFFFF6C
FFFFF52D
0000074B
000002FE
FFFFFD2F
000000EE
FFFFFC86
00000747
FFFFFFF7
FFFFF837
0000050C
0000030C
000009CA
000029AF
FFFFF750
00000A5E
000001BF
FFFFF6C8
0000009C
FFFFF134
FFFFEF7B
FFFFFDA1
FFFFF4A3
0000114E
FFFFF273
FFFFFC55
00000345
00000644
FFFFFA5A
00000593
FFFFF6D4
000000C2
FFFFFB8E
00000211
FFFFF2F3
000003C2
0000017C
00001318
FFFFE857
00000331
FFFFF7B6
0000064C
FFFFFA9E
000006BB
00000218
0000087A
0000007F
000006F9
0000032B
0000079D
FFFFF87F
FFFFFA7F
0000029D
00000501
0000052D
0000075B
0000062E
FFFFFCCC
FFFFF758
FFFFFC7E
0000076B
000008F2
FFFFFEE7
FFFFF9F5
FFFFF8F5
FFFFFFA3
00000179
FFFFF233
FFFFFF46
FFFFEE07
000004A6
FFFFF876
00000117
FFFFFCFF
00000C9C
FFFFFB1E
FFFFEF8E
00000855
FFFFD598
000007B3
FFFFFF7E
00000137
FFFFFF2A
000006C9
FFFFFD45
00000C84
0000026A
FFFFF458
FFFFF948
000004D7
00000CA2
000017FE
00000B25
000003E1
000008DB
0000041B
000000C8
FFFFEFD8
000002C3
00000E76
FFFFEFE9
00000129
0000098B
0000062B
FFFFFBCD
00000CEC
00000405
000013C5
000000BF
FFFFFFB3
FFFFFBD0
00000128
00000AF6
000003E5
FFFFFA0B
FFFFF706
00000333
00001132
000000E0
FFFFF409
00000714
FFFFE8CD
00000212
FFFFFD93
FFFFF27C
FFFFFCD7
FFFFFBBD
FFFFFAFF
00000384
00000099
00000A3C
0000076A
FFFFE9A3
FFFFF4B5
0000028A
FFFFF1B5
FFFFFD4F
00000A9A
0000089F
FFFFFB72
00000415
FFFFFC7C
FFFFFF0F
FFFFF670
000005E9
0000085A
FFFFEDCD
00000B20
0000174E
00000EE9
FFFFF474
000002C6
FFFFFB54
000003B9
0000119C
00001271
00000798
FFFFE610
FFFFFFB1
0000087D
FFFFF61A
FFFFF39E
0000019B
000004A0
FFFFFB76
FFFFF6DE
00000BD2
00000363
00001F2D
FFFFED25
FFFFFF5B
FFFFF2F6
000004BE
FFFFE50C
00000637
00000001
00000C72
000002EF
FFFFFA20
FFFFFFCD
FFFFFD19
FFFFF327
00000BD2
00001193
0000012A
FFFFF7BB
0000149E
FFFFFAF8
FFFFFD55
00000257
0000013A
FFFFED65
0000040C
FFFFF8AE
0000084E
000018E9
FFFFFE25
00001834
FFFFFFB7
00000A63
FFFFF491
0000000F
00000290
FFFFFFF1
000002E4
FFFFEDDA
00001A76
0000049D
0000020C
000006F2
FFFFF614
0000089C
FFFFFDAF
00000360
00000A34
0000095A
00001005
000003FB
0000076E
000001D5
0000055A
00000570
00000A35
000002C6
00000A5A
00000C31
0000037B
000001BE
00000768
FFFFF950
000007F0
00000A81
FFFFF6AD
000008E1
FFFFFC83
FFFFE7E4
00000252
FFFFFFB4
FFFFEE6B
00000C8D
FFFFFED4
00000BA2
FFFFFD69
FFFFFF65
FFFFFDA3
FFFFF266
FFFFFFA6
00000842
FFFFFD6B
000012AA
FFFFFF8F
00000222
0000014C
00000983
0000089D
00000126
00000210
00000461
FFFFF999
00000267
0000087A
00000430
000003C5
00000B02
FFFFFFE4
00001010
FFFFEB43
000000F7
000004F0
FFFFE74A
00000AF1
00000E7D
00000183
00000BFA
00000F75
FFFFFC47
FFFFFA7B
00000845
00001102
FFFFDD4B
000003FF
FFFFF3D6
0000170E
FFFFECDB
FFFFF337
00000205
00000831
FFFFF7DE
0000054D
00000EBA
00000611
FFFFF79A
00000766
FFFFF51D
FFFFF541
000000DD
FFFFF76A
FFFFFCF3
FFFFFE18
00000439
000004E3
00000B9F
000000AB
0000014D
00000014
0000049D
FFFFFFD7
FFFFFA3A
FFFFFB0D
00000178
0000034C
0000034B
FFFFFEE1
0000040C
FFFFFF57
00000891
0000035F
0000089D
00000485
00000B26
00000020
0000081C
000001E9
FFFFE89A
0000013A
FFFFFC98
000002BF
0000030A
0000092B
00000EB8
FFFFF66E
000000DC
FFFFFB72
00000272
000006E9
000000C7
00000ADE
00000878
000004A5
FFFFFB6F
00000E55
FFFFFEE0
FFFFFA01
000000A5
FFFFF61B
00000487
FFFFFB88
FFFFE9D5
000004CA
FFFFFE93
FFFFFF29
00000C16
000006D2
00000451
FFFFFF48
FFFFEC75
FFFFFC1F
00000857
000008D3
FFFFFACE
00000027
FFFFF9C3
FFFFFE65
00000140
FFFFEC87
FFFFF652
FFFFF5DF
FFFFF730
000005BD
FFFFFBDD
FFFFF53C
FFFFFBD8
00000807
FFFFED61
FFFFFF06
00000075
0000112A
FFFFF785
0000000B
FFFFF992
000001A1
00000670
0000090F
FFFFFD4B
00000882
FFFFFF14
FFFFFE51
FFFFFEE3
00000017
000003FD
0000058A
FFFFF3AA
FFFFF6D9
0000095B
000006AF
FFFFFC54
00000793
FFFFE019
00000144
FFFFF462
00000D76
FFFFFD70
000004B2
FFFFFB90
FFFFF732
00000C02
00000256
FFFFEDA9
00000CAF
0000011A
000003C1
000018A0
00000F59
FFFFFD8A
FFFFFE59
FFFFDC61
FFFFFCE7
FFFFF144
000003F5
00000B88
FFFFFD31
FFFFF842
FFFFF3FD
00000192
00000ECD
FFFFFDE8
0000000B
00000AB4
0000040C
FFFFFF5E
FFFFFBE9
FFFFF886
FFFFFDA4
FFFFFA50
000001B3
FFFFDF1D
FFFFE52F
00000416
000005DE
FFFFF4FB
FFFFF7DA
FFFFF782
FFFFFEAE
00000654
000012EB
FFFFFCCC
00000915
00000425
00000F93
0000029B
FFFFED98
000008E7
00000602
00001065
FFFFF7F3
0000095D
FFFFF756
FFFFF302
0000047E
00000360
0000045B
00000C4D
FFFFFF86
00000432
0000047B
00000CD5
00000180
00000C13
FFFFF9FA
00000B1C
00000AB3
000008EF
0000034A
000005A3
00000656
FFFFEFDF
000005EF
00000D4A
00000669
FFFFFAB5
FFFFFCCF
00000E91
0000032A
FFFFEA38
000002DC
00000373
FFFFF2EF
00000C0E
FFFFF5E8
FFFFF1C5
FFFFFC0D
000012DA
00001920
FFFFFE3E
00000872
FFFFFD07
00000040
00000689
FFFFF906
00000044
000004C7
FFFFEAB0
FFFFF75F
00000B54
000001DB
000006E2
00000853
FFFFF9C7
000009C8
FFFFECE9
000003CF
00000284
00001055
00000AA6
00000626
00000254
FFFFFD0A
00000032
000007D0
FFFFFDC3
000003B2
000009E8
000011A2
FFFFFE51
00000D74
000001FB
00000639
000000E6
0000118B
00000363
FFFFEFED
00000D7C
FFFFFEE1
00000D53
000000B4
FFFFEE15
00000F47
00001357
FFFFEDF6
FFFFF8FC
00001E3C
00000114
00000312
0000020F
FFFFFE1E
FFFFF560
000007A9
00000525
FFFFEB0C
000007FA
00001265
000001D5
00000638
FFFFF287
FFFFFBDB
FFFFF6DB
0000017E
FFFFFB60
FFFFFDA4
FFFFF98B
FFFFF061
FFFFFFA6
00000541
00000DE6
FFFFF493
FFFFFC47
000005BD
FFFFF467
0000024E
FFFFFD91
FFFFF7FF
00000949
0000062F
FFFFFC3D
000000DE
000005B2
00000D3F
000004DF
FFFFF9D1
00001581
00000237
FFFFFE2A
FFFFFA58
00000532
FFFFFDF0
FFFFF9C5
00000A37
FFFFFBA5
00000748
FFFFFE67
000015DE
00000965
FFFFFC02
00000352
000001AA
FFFFFF7E
00000624
FFFFFBB2
0000020E
FFFFF12E
00000AB3
00000A82
00001ADD
000006FF
00000361
000009EE
FFFFF91B
00000087
FFFFFF08
000012C6
FFFFFFFC
0000046F
00001457
0000014F
FFFFFB00
00000193
FFFFF700
FFFFE436
FFFFFF24
00000475
FFFFF97C
000000BA
00000368
FFFFFB4A
000000E5
000003B3
0000009B
0000035A
000002D7
0000044B
00000281
FFFFFF5E
000003D8
FFFFFFD8
FFFFFA0A
00000498
000001C4
FFFFFC16
FFFFFAD0
FFFFFD0E
00000235
0000049C
FFFFFC06
FFFFFCCD
FFFFFFA5
00000107
FFFFFC84
FFFFFF7B
FFFFFE61
00000123
FFFFFD5F
FFFFFA66
FFFFFC80
000001DC
00000202
FFFFFA19
FFFFFD8C
FFFFFDA5
00000196
FFFFFED4
0000001B
FFFFFF50
FFFFFFA0
FFFFFE2F
FFFFFD62
000003F5
FFFFFC1F
000001D0
FFFFF8AE
FFFFFF7F
00000398
000003B6
FFFFFE58
00000108
00000013
00000379
FFFFFF38
0000020F
000001E6
FFFFFF2F
FFFFFAD7
FFFFFA5D
FFFFFB8B
000002B0
FFFFFA22
000000C8
0000019E
FFFFFFB5
0000018A
FFFFFA40
FFFFFAA9
FFFFFD43
000000BC
0000014E
FFFFFED2
FFFFF912
0000019E
FFFFF96B
FFFFFE95
FFFFFB2F
000000B9
FFFFFAC0
00000451
FFFFFB34
FFFFF832
FFFFFFF0
FFFFFD4A
FFFFFC15
000002B3
FFFFF905
FFFFFCBB
FFFFFF7C
FFFFFB1A
FFFFFEAA
FFFFFA83
FFFFFD83
FFFFFF07
FFFFFB49
FFFFFC2E
FFFFFB06
00000416
FFFFFCCA
FFFFFB20
FFFFFE00
FFFFFF3A
0000024D
FFFFFE58
FFFFFB3D
00000195
0000027D
FFFFFEEB
00000303
FFFFFE5A
00000179
FFFFFA2C
FFFFFEF6
00000026
FFFFFC62
FFFFFD2D
FFFFFABA
00000010
00000344
FFFFFB26
0000033C
00000053
00000113
000004A0
FFFFE16A
FFFFFD9C
00000054
FFFFF023
00000161
000004C8
00000162
000000A0
FFFFF7BD
0000077B
FFFFF525
00000BAB
00000A61
00000DD9
FFFFFEBB
0000067E
00000438
000000D0
000007BE
0000021D
000000F1
00000734
FFFFFC02
00000090
000006EC
00000300
00000F8B
00000204
FFFFFB2A
00000291
0000072D
FFFFF138
FFFFFF09
0000032E
FFFFEC46
0000025C
FFFFF5C2
FFFFF206
FFFFFF80
0000081E
FFFFF21A
FFFFEFC1
000003FA
00000445
FFFFECDB
00000AB4
FFFFF8A6
FFFFFAE1
0000075F
FFFFE4C7
000001BF
00000728
FFFFF22C
0000028C
FFFFFD54
000001A7
00000386
000009CF
FFFFF187
FFFFE6EC
000002CE
FFFFFAE0
FFFFFB78
00000254
000006DE
FFFFF99B
FFFFFC3F
000000D8
FFFFFE47
000006BB
FFFFFB80
00000601
FFFFF753
FFFFF254
000007FA
00000277
00000878
FFFFF952
000003BD
0000017C
000004AF
000000F2
00000679
000008CD
000006DC
00000AFC
00000151
FFFFFED6
FFFFF734
FFFFFDBC
000004E4
000005F2
00000030
FFFFFBAC
0000077C
FFFFFC6B
FFFFFE50
FFFFFDEB
00000A1C
FFFFFA58
FFFFFFE8
0000098F
0000067B
0000068C
0000023E
FFFFFD25
000000DE
00000707
00000923
000001D0
0000048C
FFFFF155
FFFFF735
000004B8
00000E4F
FFFFFF06
FFFFFDEC
FFFFFF22
00000716
FFFFFB9F
FFFFF8A0
FFFFE95E
0000029A
FFFFF8B8
00000AAF
FFFFFBBE
FFFFF7AE
FFFFFABA
00000612
00000980
00000317
00000769
FFFFFEFB
FFFFF5F7
FFFFF771
FFFFFB4B
FFFFEBAC
FFFFF797
0000003A
FFFFF65D
FFFFF43C
FFFFF7BE
FFFFFBB8
00000481
0000026C
FFFFF1F5
FFFFFCC9
FFFFFA44
FFFFFD48
FFFFF095
FFFFF02B
00000316
FFFFF2B0
FFFFF537
FFFFF886
FFFFFB5A
FFFFFA19
FFFFFF4B
FFFFFB1E
0000036E
FFFFFE87
000001A1
0000043B
00000933
00000561
0000044C
FFFFFAF7
FFFFF969
FFFFF47E
FFFFF821
000005F5
FFFFFB64
000007B1
FFFFF896
00000706
00000339
000009E1
FFFFF7D9
FFFFFA39
00000496
00000427
FFFFFC7A
FFFFFE88
FFFFFC46
FFFFFC37
00000A62
FFFFFB1D
00000A34
FFFFFDEC
FFFFFF9B
000000B6
00000330
FFFFF8A8
FFFFF636
FFFFFBEE
FFFFFAE7
FFFFF902
00000BB6
FFFFFC36
FFFFECDB
FFFFFD94
00000724
FFFFFB3D
FFFFF80C
00000A45
FFFFFFB6
0000074D
00000AAC
FFFFF2EC
FFFFFA62
FFFFFC5B
FFFFF375
FFFFF211
00000083
FFFFEEF3
FFFFFCA0
FFFFFD3A
FFFFFA4C
00000C66
0000004A
00000755
00000452
00000588
000007B6
000003F0
FFFFFA47
0000038A
FFFFFE1D
FFFFF9F5
00000968
000003B9
FFFFFE00
000001B9
FFFFF131
000006F3
FFFFEC62
FFFFF9DE
000002AB
FFFFF788
00000714
000000B9
000002B9
FFFFFF49
0000076A
000005CE
FFFFFC21
FFFFF9AF
00000260
FFFFFDE4
FFFFFEBD
FFFFF986
FFFFFB5C
FFFFF5B5
FFFFFCDE
00001321
FFFFFEFF
FFFFF516
00000C95
000006DE
000008ED
00000D29
FFFFF4A3
000009CE
00000D87
00000677
00000B9F
FFFFFC06
00000A21
00000B17
000000D2
000003D7
0000023D
00000C55
0000047B
00000B22
00000E0D
FFFFFD1F
00000B22
00000A7F
FFFFFD10
00000B29
00000634
FFFFFAEA
000009EE
00000C59
00000AE0
00000BAC
FFFFFE2B
00000C0D
00000317
00001143
FFFFFF8D
00000F58
FFFFFDA7
FFFFFEE0
00000AB2
FFFFFE49
000009E4
FFFFFD55
FFFFFE55
FFFFFD53
FFFFF725
FFFFFAAF
00000ED2
FFFFEAE1
0000028E
FFFFFEF7
000005D0
000009CB
00000691
000010DE
000012C8
00000349
FFFFFB56
000004B4
00000596
FFFFFDE4
FFFFFC7E
FFFFF6C8
0000059A
FFFFFF90
FFFFFF19
00000952
00000831
00000633
00000123
FFFFFC20
0000080C
00000B30
000005A7
0000045E
000002C4
000006EF
0000021A
00000B26
000005BC
000005F6
00000BDC
FFFFF687
0000066C
000002B6
FFFFF967
00000A20
00000B0B
FFFFF399
00000694
FFFFEC82
0000095F
00000BAE
00000B8A
000016FF
FFFFFFCD
00000082
FFFFF847
FFFFF6BE
000000B4
FFFFFB0C
00000482
FFFFFB30
FFFFF9CD
FFFFFC6C
000008DA
FFFFF6F0
FFFFFFE9
FFFFF63B
FFFFF9B9
0000095E
000012C3
000003B9
FFFFFCA3
FFFFF9E8
00000DD1
000004C0
000003B9
00000A2C
0000039D
000006BA
0000033F
0000033D
0000035B
FFFFFFA9
00000574
00001A57
0000011F
FFFFF2CC
FFFFE6EF
0000027F
00000040
FFFFF73E
FFFFE65D
FFFFF5A9
00000940
FFFFFEE5
000007F4
FFFFDB61
000008FF
000007C2
0000089B
000001CF
FFFFF9A8
FFFFE3D1
000002B6
000005E4
FFFFFAE4
000005C5
000003EC
00000570
FFFFF2B1
0000040B
FFFFFFC0
FFFFFA54
FFFFFDC6
00000121
00000803
FFFFF5D7
00001093
0000029A
FFFFFF54
0000138B
FFFFFC6C
FFFFFBE0
00001D2C
FFFFE355
00000057
00000F71
FFFFF7EF
FFFFFC85
FFFFFEBC
FFFFF73F
000008A6
0000034E
FFFFF7AE
FFFFFF40
00001802
000008CB
00000A5C
00000C10
FFFFFF24
FFFFFF82
FFFFFFD4
00001EA2
00000161
000008CD
FFFFF127
00000233
FFFFF9AD
FFFFDE06
FFFFFC28
0000085F
FFFFFD31
00000975
FFFFFF54
00000C41
FFFFF1BE
FFFFEB34
00000761
FFFFE364
000001D3
FFFFFB62
FFFFF5CD
FFFFE056
FFFFE7C6
FFFFFCF6
FFFFE63D
0000068E
FFFFFEDB
FFFFEA67
FFFFFAF4
000003D1
00000AC4
0000081A
FFFFEEBA
00001E30
00000994
FFFFE744
FFFFF75E
000006D9
FFFFF1E7
FFFFF0AD
000005C4
00000331
000001BD
000000D3
FFFFEEB6
000006FE
0000055E
00000121
000008F3
FFFFF133
0000040A
00000D9A
000005F6
000010C1
FFFFEBDC
000001BD
00001D7A
00000F33
FFFFFFC4
FFFFF896
0000023D
0000035E
FFFFF2D5
FFFFFD52
00000034
00000E73
00000DE1
000005DE
FFFFDE52
000001D5
FFFFFD17
000009C3
000003E7
000001B9
FFFFF831
FFFFF8E5
FFFFFC04
FFFFFFA0
FFFFFFCA
000001CA
FFFFFA3C
FFFFF8F9
FFFFFE78
FFFFFA39
00000152
FFFFFB2A
00000139
FFFFFF06
000001CB
FFFFFF46
00000022
FFFFFFFA
FFFFFC95
FFFFFB0F
FFFFF718
FFFFFD1B
FFFFFBA9
FFFFFC0C
FFFFFF48
FFFFFF7B
FFFFFCF0
FFFFFB50
FFFFFCC0
0000028D
FFFFFA23
FFFFFDD2
FFFFFABC
FFFFFDF4
00000213
FFFFFBC3
FFFFFC8B
FFFFFBFF
FFFFFAB8
FFFFF945
FFFFFFAE
FFFFFEF3
000005AA
FFFFF84F
FFFFFC77
00000259
00000426
FFFFFF3B
0000001B
FFFFFC5A
000003E3
FFFFFC71
FFFFFD32
FFFFFB96
FFFFF976
FFFFFAD7
00000232
00000208
00000241
000000E9
FFFFFFFD
FFFFFACC
FFFFFB9E
FFFFFDF4
00000106
FFFFF8FA
FFFFFF85
00000021
FFFFFCC8
FFFFFAC7
FFFFFD62
FFFFFD62
FFFFFF56
FFFFF95B
00000298
000003D3
FFFFF850
FFFFFDD2
00000067
FFFFFCAF
000006F6
FFFFFB59
FFFFF87E
00000270
FFFFFA18
FFFFF81C
FFFFF7D7
FFFFFD39
FFFFFA6F
FFFFFBC2
FFFFFC8D
000001D1
FFFFFC0D
000000F3
FFFFF905
FFFFFAAC
FFFFFFCC
FFFFFF7A
00000147
FFFFFE68
FFFFFF60
FFFFFF7B
00000134
FFFFFCF1
FFFFFF7F
0000017E
000003F4
FFFFFD6B
FFFFFB81
00000328
FFFFFE27
00000035
FFFFFBC8
00000204
FFFFFE7D
FFFFF8F3
FFFFFAE7
FFFFF837
00000386
FFFFFAAF
FFFFFC69
FFFFFDA9
FFFFFF6A
FFFFFDAA
0000009E
FFFFFFCC
FFFFFAD7
FFFFE4E3
FFFFFCF8
00000AD2
000010C7
FFFFFE6A
FFFFF9C3
0000050E
0000045B
000009B8
00000917
FFFFED71
FFFFFF30
FFFFF94B
FFFFEC6F
FFFFFF04
00000605
00000735
FFFFFBA5
00000015
000005BF
00000156
00000990
0000051B
000007BC
FFFFFF53
0000000B
FFFFFFA5
FFFFFDAD
0000029D
00000323
0000015E
0000059B
FFFFFFE5
000001D6
00000335
0000056A
00000917
000004CC
FFFFF31C
0000040B
FFFFF3C8
FFFFED7E
FFFFFFB2
FFFFF955
FFFFF74C
FFFFF1BB
0000097C
FFFFE715
FFFFFFB2
FFFFFC9C
0000051B
000004AE
FFFFFEA2
FFFFFCAA
FFFFFE59
000002BF
0000009B
00000500
00000CE6
FFFFE1D7
FFFFFBAD
FFFFEF96
FFFFFA2F
FFFFFF3A
00000D9F
00000737
000007F3
000007A1
000004A9
FFFFF785
00000A70
00000279
FFFFFF58
FFFFE7D6
0000066F
000004C8
FFFFFFF6
FFFFF7E0
000003D8
FFFFEDC8
000003CA
00000B1F
000002C6
000000C4
000004CA
0000097A
00000131
FFFFFB67
FFFFEB9C
0000027E
FFFFE7F9
FFFFFE17
0000026B
00000613
00000323
000010DB
FFFFFFAF
FFFFF967
000009D1
FFFFE712
000006CC
00000AC7
00000B0A
00000433
000004D4
FFFFFFC3
000010DA
00000270
FFFFF44F
FFFFF526
00000759
00000096
00000C64
00000490
000001AF
FFFFFD45
0000039B
00000682
000003D3
000004E1
FFFFFCBD
0000004A
FFFFFDA1
FFFFFDE3
FFFFFC60
FFFFFC20
000003AC
FFFFFEF7
00001638
00001B7C
000002BD
FFFFFC68
00000466
000003B7
00000618
FFFFFC6B
00000DEA
00000196
FFFFFB97
FFFFF526
00000A64
FFFFF175
FFFFFF7F
000002A6
FFFFF7BA
FFFFFC8A
FFFFED03
00000355
FFFFFC39
000004C5
000009DE
000004FC
000001FA
000004EB
FFFFF325
000007A2
000003C7
0000069A
00000731
0000136B
000004A6
000008DD
0000056E
00000823
0000068A
000007C9
FFFFFF2E
FFFFF3FF
00000B73
000009E9
00001046
0000040E
FFFFFA06
FFFFFC15
000009D9
0000001D
FFFFF425
000028F8
FFFFF330
00000A1E
00000AB1
00000469
000007E1
00000C70
FFFFF83D
FFFFFABF
FFFFFFB9
00001BD6
FFFFF98B
FFFFFFA3
000001E0
FFFFFC7F
FFFFE49F
000004E6
FFFFF8FE
00000558
0000014E
FFFFF7C7
FFFFFD49
00000AB8
00000D47
00000301
FFFFFBFE
000006EC
FFFFF542
FFFFFA90
000001B6
FFFFFDA1
00000798
00000117
FFFFFB1B
FFFFFDD6
0000005C
FFFFFB16
00000A0A
000009D2
00000D2C
0000062C
FFFFFC62
000004FB
00000CF4
FFFFFF94
FFFFFF0D
000000B5
FFFFFEE9
0000105C
FFFFFB20
00001F77
000006CE
FFFFFCD8
FFFFFDAF
00000206
000006AB
0000022A
FFFFF970
FFFFFE2F
FFFFF781
00000699
000005A8
00001298
FFFFFFBA
000003A8
FFFFF905
FFFFF885
000005C2
00000137
00001044
FFFFFBFC
FFFFFCFE
00001668
FFFFFD09
0000057F
FFFFF9D9
000008D1
FFFFF843
FFFFFC72
FFFFF6E0
FFFFFF67
0000097E
FFFFE721
00000B3D
FFFFFC6A
00000209
FFFFFE68
00001636
0000002C
00000CE4
FFFFFC05
000002BA
FFFFFABC
FFFFFEEF
00000491
00000159
FFFFF5FF
FFFFF837
00000734
0000004F
FFFFFC94
0000014B
00000333
0000024E
FFFFF899
FFFFFB66
00000768
00000524
000008B3
000000F8
FFFFF6C4
00000A6E
00000DFE
FFFFEE50
00000A5A
0000068D
00000BFF
FFFFFCFB
FFFFF6A6
0000038A
FFFFF59D
00000AE9
FFFFFDF0
FFFFEAEA
FFFFF13B
FFFFF99A
00000A12
FFFFFEDE
00000885
000002AB
00000718
FFFFFD56
FFFFFB25
0000157E
FFFFFB52
FFFFFE6E
00001796
FFFFF234
FFFFF7AB
FFFFFCF2
00000510
000007D5
00000148
FFFFF5D0
00001918
FFFFFB30
0000093B
00000551
00000E56
FFFFFC33
0000045B
FFFFF9F7
FFFFF825
FFFFFB43
000003FE
000008B7
FFFFFAB0
000005BE
0000022A
00000680
000004DA
00000B69
00000171
FFFFF718
FFFFFE6F
FFFFFDFF
000008C5
FFFFFF62
000007D8
0000091F
000005AB
00000ED4
000006B9
FFFFFCB7
FFFFF3DD
FFFFFD61
FFFFFDE7
0000081D
FFFFFB9E
00000587
00000C14
00001077
FFFFFAA4
0000060D
0000022A
00001A18
FFFFFD76
00000078
00000AE2
000007FF
FFFFFC73
FFFFF832
000001C9
FFFFF9FC
000008A3
000003C2
00000AF9
00000AD9
FFFFFF8F
FFFFF35E
00000836
00000928
00000753
FFFFFAD2
0000123E
00000CFA
000000B3
FFFFFD67
FFFFEF5A
0000050B
0000000C
0000043C
FFFFE338
FFFFFA5B
000003BB
000000F8
000000FE
FFFFFD0A
FFFFFEF8
FFFFF785
FFFFFFA1
FFFFFD1E
FFFFFB66
FFFFF618
FFFFF163
FFFFFB3B
FFFFF75C
FFFFFCE7
FFFFFB0C
FFFFF233
FFFFF787
FFFFF998
00000597
FFFFE9FF
0000019C
000004D9
FFFFFA47
FFFFF38A
0000090B
0000066D
00000C62
000018A6
FFFFFD2B
FFFFFEE7
00001EBC
FFFFED57
0000086E
00000AD5
FFFFF2FE
00000D8B
00000849
00000AEB
000002D6
FFFFF484
000006AE
00001648
00001371
0000082D
000005E4
000008ED
FFFFFBC6
00000528
FFFFF139
00001700
FFFFFC1F
000007A0
000008E0
FFFFFB79
FFFFFF73
00000830
0000022D
0000016A
000001D5
000008C4
FFFFFF8F
FFFFFD2F
00000D26
FFFFF852
FFFFF1CB
FFFFDB93
00000B08
0000053D
00000563
FFFFFB56
FFFFF641
00000931
000003E7
FFFFF92A
000001BF
FFFFFB29
FFFFE981
000001BE
FFFFFE23
FFFFFAD4
FFFFF42C
00001CFD
FFFFFED0
FFFFF419
0000038C
00000B21
00000637
FFFFE7B0
FFFFF69D
FFFFFD3F
FFFFF5A4
00000D99
FFFFF02E
FFFFFC3E
00000A6E
FFFFFFFE
000006D0
FFFFFEC5
FFFFFD13
00000CB1
FFFFF7FF
FFFFFBAC
FFFFE5DC
0000063A
00001CE1
0000116E
00000837
FFFFF4A2
000011D8
00000141
00000113
FFFFF48D
000005C6
000001CC
00000A8C
00000833
FFFFF0F4
000000BA
00000639
000011E4
00000488
FFFFF306
FFFFFC0E
FFFFFAAB
FFFFE4B7
000002BF
00000285
FFFFFD5C
FFFFF583
0000045E
FFFFFC4C
FFFFF84E
FFFFFA8B
00000DD2
000014B9
00000E6F
000004E7
FFFFF6C5
000001AE
FFFFF686
000001A8
FFFFFCCC
00000182
00000879
FFFFF6E1
FFFFFA53
000005BA
000009B7
000005C1
FFFFFEDF
000004FE
FFFFF861
FFFFF136
000002F7
000003E0
FFFFD4D9
00000BEE
000003A6
000016B6
FFFFFCA6
0000032C
00000EEF
000002DF
FFFFFF89
00000CA6
FFFFF8C2
00000A54
FFFFFABF
00000CC8
FFFFFFC3
00000227
000000B8
0000039B
FFFFF1BD
FFFFFF52
00000373
FFFFFDFC
000010E6
0000147D
FFFFEE82
FFFFF785
00000D54
00000737
000003FD
00000579
FFFFF2CB
000010A6
FFFFFAE7
FFFFFEA7
00000211
FFFFFEBF
FFFFF677
00000545
FFFFEFE5
FFFFFE6F
0000077B
FFFFF035
FFFFFF13
FFFFF737
000003D1
FFFFFC76
00000869
FFFFF884
00000700
00000D9B
00000AC1
00000D3C
000007EF
FFFFFC45
0000196F
00000CC3
00001318
FFFFF58E
00000336
FFFFFCEC
FFFFFCBF
FFFFF6DE
000002C7
00000A09
FFFFF5B5
00000A85
00000516
0000015D
00000BA5
00000007
FFFFF377
FFFFFF31
00000B26
00000320
00000E33
000002BA
00000807
FFFFFE1D
FFFFE1D7
FFFFFA36
000009E3
FFFFF9AB
000006F7
00000155
00000CA3
000000A6
FFFFF328
FFFFFCF1
000009B7
FFFFF93F
FFFFFA1F
00000148
00000AF2
FFFFFB8E
FFFFFBE3
FFFFFE77
FFFFF82D
000002F5
000000EB
00000046
000001A4
00000125
0000010F
FFFFFF5F
FFFFF9DA
000003C6
FFFFFEF5
FFFFFFD2
0000005A
00000112
FFFFFE1A
FFFFF993
FFFFFD46
FFFFF8E7
FFFFFF4D
FFFFFF49
000000E3
0000024B
FFFFFE3A
FFFFF9E7
FFFFFB55
FFFFF85E
FFFFFB3E
00000096
00000016
FFFFFCD7
FFFFFED4
FFFFFEC9
FFFFF78A
FFFFFB7E
FFFFFECB
00000294
FFFFFB97
FFFFFA8D
00000193
000003CA
FFFFF93C
0000000C
FFFFFDE8
000000A9
0000014A
0000015E
00000407
000004C9
FFFFFBE3
0000002F
00000094
FFFFFA87
FFFFFDE8
FFFFF884
0000036A
FFFFFB7A
FFFFFD25
00000549
FFFFFBD7
00000066
FFFFFA66
00000359
000004C6
000001A8
FFFFFEB2
FFFFFD31
000002EA
FFFFF9E6
0000019E
FFFFFE97
00000226
000002F5
FFFFF8AE
00000479
FFFFF9E0
00000464
FFFFFC6F
FFFFFE59
FFFFF9F7
000000F7
FFFFFCC2
000000FC
FFFFFD9F
FFFFF9A3
FFFFF8D3
FFFFF8D0
000000C3
0000012B
FFFFFDA0
000001BD
FFFFF7BB
0000021A
FFFFFD4B
FFFFFB09
FFFFFB35
000000E4
0000029D
0000060E
FFFFFA5B
FFFFFACF
FFFFFD94
FFFFFE98
FFFFFD9E
000000D7
FFFFFDC4
0000005E
FFFFFB47
FFFFFF64
FFFFFEA5
00000147
FFFFFBA7
FFFFF9F5
00000060
00000338
FFFFFC6F
FFFFF932
FFFFFE54
00000169
FFFFFB17
0000026A
FFFFFA0A
FFFFFDA9
FFFFFE1B
000002C0
0000001A
FFFFFBF9
FFFFFCD4
FFFFF4FC
FFFFF889
00000C14
000005B5
FFFFF7D7
0000016E
FFFFFF55
FFFFFB0F
000005EC
FFFFFB39
0000063D
000002D3
00000C8E
00000855
FFFFFACD
0000085F
0000099B
00000F15
00000497
FFFFFD5D
00000D3B
000002BF
FFFFF55D
0000057A
000003EB
000005C5
0000042F
FFFFFA4D
000006F1
FFFFEC81
FFFFF9D0
0000084D
FFFFFAC8
0000099F
FFFFF78E
000001B1
000000C4
00000148
00000617
000002E9
FFFFFD0D
FFFFFCA8
000004AC
0000099D
00000262
FFFFFCFC
00001623
FFFFF388
FFFFFB40
0000080C
0000025C
FFFFF7F6
000001B3
FFFFFF99
FFFFFEF9
00000ED0
00000543
000006F9
FFFFF653
00000898
00000F08
FFFFEAE5
00000075
00000E9A
FFFFF1EF
00000A01
000007F4
00000B7B
FFFFF431
FFFFFD77
000007DE
FFFFF47A
0000081E
00000185
000005F4
000001BF
000006E0
00000688
00000B81
0000063B
000005B0
FFFFF12C
00000AAB
00000705
FFFFF9DC
FFFFFF76
00000580
FFFFF22B
00000D7F
FFFFF30A
000002CB
FFFFFA93
00000913
000002A7
FFFFF6B9
00000003
FFFFE97C
FFFFF7C4
FFFFF65C
FFFFFBE6
00000360
000003D6
FFFFF801
FFFFF09E
00000913
FFFFFCD7
00000C5F
FFFFFF82
FFFFE96C
000002FC
00000B8A
000004AC
FFFFFB1B
00000D23
000004B2
00000216
FFFFF2EA
000006F6
0000024A
00000BD4
FFFFF9C4
000002A1
000000F8
00000F84
FFFFE986
0000116E
FFFFFCF2
FFFFFCA3
FFFFFAE0
FFFFFA52
FFFFFE67
000003B1
FFFFFF46
00000114
00000244
FFFFFE26
FFFFFADD
00000299
FFFFFFC9
00000214
FFFFFD2F
00000014
FFFFFA64
FFFFFA34
FFFFFE2A
FFFFFB6B
00000235
FFFFFDE2
00000395
FFFFF9FB
FFFFFC00
FFFFFA52
FFFFFC47
00000251
FFFFFC36
FFFFFD36
000002BC
0000028F
FFFFFCFE
FFFFFEF8
00000206
000004FF
000003EA
FFFFFA84
FFFFFFEC
FFFFFBCE
FFFFFA98
FFFFFB78
FFFFFCDE
FFFFFD06
FFFFFEF0
00000124
000004B3
000001C3
FFFFFB16
FFFFFB09
FFFFFD92
FFFFFC23
00000186
FFFFFB9F
FFFFFAE6
FFFFFD0E
FFFFFF57
FFFFFE04
FFFFFC85
FFFFFBD6
FFFFFE40
FFFFFD1B
0000000B
000001A1
FFFFFF68
FFFFFCA9
FFFFFA17
FFFFFF55
00000290
0000027C
00000381
FFFFFA8C
FFFFF843
FFFFFFCC
FFFFFDF7
FFFFFED1
FFFFFC34
FFFFFAF0
FFFFF921
FFFFF84A
0000012C
000000FE
00000333
FFFFFE04
000001FF
FFFFFAB1
FFFFFBF0
FFFFFF8F
00000004
FFFFFC7A
FFFFFC02
FFFFFCD7
FFFFFE4F
FFFFFA6A
0000026D
000001D9
0000021E
0000034F
FFFFFDF0
FFFFFF3A
000003A1
FFFFFB9D
0000031A
FFFFFE42
FFFFFF1E
FFFFFE6B
000001F3
000004D1
00000001
FFFFFD5B
00000410
FFFFFEB0
000003C8
FFFFFD8E
FFFFF8A8
FFFFFCF6
FFFFFA5A
FFFFFDE8
FFFFFB00
FFFFFA48
000005E0
FFFFFD17
00000094
FFFFF9A7
00000362
FFFFFBDB
FFFFFBA3
FFFFFFA2
FFFFFAC8
FFFFE85E
FFFFF3E1
00000579
FFFFFCE0
00000246
000003C3
0000026B
000004E5
0000067D
0000018B
0000016D
00000C60
FFFFFDC0
000008FB
00000B0D
FFFFFE5D
00000827
0000085D
000015C9
000008F0
FFFFFC32
0000067D
00000676
00000ADB
00000513
FFFFFF57
00000C74
000003C6
00000141
000008BA
FFFFF5E9
FFFFF0E3
FFFFF95B
FFFFFD76
FFFFEEC9
000001FE
00000218
FFFFFC67
FFFFFDAD
FFFFFD6B
FFFFF7B9
FFFFF093
FFFFF8D4
FFFFFE5E
FFFFFC01
0000036F
0000013D
000006C0
FFFFF00A
FFFFF029
0000067E
000001DB
FFFFF121
00000441
0000056D
00000637
FFFFFE91
0000153E
000003D7
FFFFE11C
00000D5F
FFFFF58E
FFFFF785
000003D0
000011E4
000000C2
000000F3
00000134
00000F26
FFFFF4FF
000006B2
0000084B
FFFFFBB2
FFFFFB13
0000063B
FFFFF9B4
000009B5
00000185
00000677
FFFFF8D3
0000067F
00000101
00000681
00000594
0000096B
000008AF
00000013
00000544
FFFFD591
000005CD
00000431
00000421
FFFFF83D
00000089
0000055D
FFFFF6F7
FFFFFBF7
FFFFEB3B
FFFFFF69
FFFFE8FE
FFFFFAC3
FFFFFAD8
000002EC
00000075
000001E9
0000008C
00001063
FFFFFD3D
FFFFFD2A
FFFFFB7C
0000062D
FFFFF0AE
FFFFF74B
FFFFF9A3
00000991
FFFFF3F5
00000145
00000121
00000234
00000371
0000077A
FFFFF487
FFFFF97F
0000104D
00000720
FFFFF5C5
000002A8
00000077
000010CD
FFFFFB36
000003B3
FFFFFFA4
0000002E
000002FC
FFFFFF61
00000288
000003C2
000006BF
000010FB
000001A5
FFFFF72F
FFFFFD3F
00000294
00000561
FFFFFF25
FFFFF9E0
00000413
000006D5
00000317
000000EB
FFFFFE6C
FFFFF786
0000071A
FFFFFEA7
FFFFF99C
FFFFFD88
000005CD
00000BB5
FFFFEB53
000007EF
FFFFFD54
000000EC
000012DF
FFFFF833
000006A5
000006F2
FFFFFA2A
FFFFFABE
00000996
00000E0E
000003A8
FFFFFFF4
00001297
FFFFEE8F
FFFFFAA1
0000096A
FFFFF54D
00000D45
0000032D
FFFFF507
00000264
FFFFFD32
0000076F
FFFFEE43
00000AF1
00000311
000002AB
000016EA
00000660
00000730
FFFFFEB1
FFFFFFE9
FFFFF5A5
0000011A
FFFFFECB
00000578
00000D5C
000003F4
FFFFFC1E
FFFFFE33
0000065C
000013D6
00000749
00000869
0000079A
FFFFFD62
FFFFFFBA
00000A5C
00000259
FFFFF9FC
FFFFF45A
00000A18
FFFFF588
FFFFF2B1
FFFFFE29
FFFFFE57
0000138D
000009C4
FFFFFDA6
000002B2
FFFFF966
FFFFF9E7
FFFFF9BF
FFFFF937
000004F6
FFFFF295
FFFFF2F6
FFFFF598
00000036
FFFFFD09
FFFFFB77
FFFFFC13
FFFFF8C0
FFFFFB6C
FFFFFB55
00000B99
00000931
FFFFF760
00000355
000012D4
000009C6
00000364
00000503
000006C8
0000004B
FFFFFB17
0000044C
FFFFFE87
00001074
000001B2
FFFFFCE3
FFFFFA1F
000007E4
FFFFFE69
00001537
0000055B
FFFFF692
FFFFFFEF
FFFFFDA1
FFFFDA4E
000003C8
0000039F
00000337
FFFFFEB9
FFFFF7AB
00000769
00000F0D
000001C3
000005DC
00000574
00000257
000002C5
000002BC
FFFFF8CE
00000AC4
FFFFFFA3
FFFFFF86
FFFFFB27
FFFFFF10
FFFFF911
000002A5
00000875
00000143
00000218
00000998
FFFFFF64
000006E9
FFFFE878
000009A6
FFFFFABA
FFFFE6E0
000000B2
0000014C
00000644
00000E3B
000005FF
FFFFFC6B
FFFFF3D3
00000622
00001179
FFFFEF45
0000014C
FFFFECB6
00002556
FFFFED9B
FFFFF1DA
000008CA
000001B3
FFFFF344
FFFFFEE7
000001BA
FFFFFE1D
000007B6
00000F32
FFFFEF4A
000008AE
00000059
00000509
0000055F
00000115
FFFFFA4A
FFFFFDDA
00000611
000002C5
FFFFFB62
000008C5
FFFFF9FD
000004C4
FFFFFAE2
0000032A
0000058B
000003BF
00000369
000008AD
FFFFFC8B
000009B4
000004DE
0000081B
000002F8
00000188
FFFFF958
FFFFFFA9
FFFFFD3C
FFFFFEC8
FFFFEFF9
0000086B
0000116F
00000447
000001F4
0000066E
FFFFFFF5
FFFFF171
FFFFFC3E
FFFFFC17
00000663
0000000E
0000021B
0000089B
000002B7
00000528
0000059F
0000046A
000006F6
FFFFFF61
00000E1C
00000033
000005A6
FFFFE563
FFFFF68B
00000579
FFFFFD84
00000B49
00000281
000001E4
FFFFFB2F
FFFFFBF1
FFFFEEAE
FFFFEF27
00000390
000002CC
000002B6
0000081D
FFFFF26A
000000CB
00001358
00001609
0000098F
00000B75
000000C3
00001FF7
0000072A
FFFFFD88
00000528
0000091B
00000EAF
FFFFFBB8
FFFFFE5F
FFFFF82C
00000020
00000579
00000DCD
00000508
FFFFFC6F
FFFFFDCD
FFFFFE76
FFFFFCE6
FFFFFC45
00000EB6
000006A9
FFFFF4B4
FFFFF861
0000004B
00000165
00000348
FFFFFDD2
0000011A
000007C9
0000039C
FFFFE3DD
00000439
0000097A
FFFFFC84
0000090E
FFFFF240
00000211
FFFFFE38
FFFFFFE2
FFFFF881
FFFFF74D
FFFFF487
00000F91
FFFFECC1
FFFFEC3C
FFFFFEAB
FFFFF776
FFFFFC5B
FFFFF9CB
FFFFFAF5
000000E5
000003A0
FFFFFA01
0000077E
000001CB
00001BEA
00000756
00000A67
00000580
00000563
FFFFFC0E
00000639
FFFFF4CE
00000964
00000B24
000007D2
00000C2C
00000509
00000997
FFFFFDF1
FFFFF857
00000EB6
00000BF7
0000099D
0000071A
00000824
0000035E
FFFFF7CF
FFFFFD3C
000000D7
FFFFF4E4
FFFFFA39
FFFFFE94
000008E7
FFFFF994
00000267
FFFFFD43
00000ACF
0000011C
FFFFFEE0
00000648
FFFFFAEC
00000006
00000012
000001B2
0000180D
000007E1
FFFFFE62
000002CA
FFFFFDE2
0000055E
FFFFFADC
FFFFF709
FFFFF3FE
FFFFFBDE
0000147C
00000007
FFFFF041
FFFFF809
000009D3
000001D6
FFFFF2AA
000007C8
00000465
0000064C
000000F6
FFFFF5CA
00000A0F
FFFFF93C
0000122A
00000389
00000B2C
000001D3
FFFFFE32
FFFFE64C
FFFFF469
0000008C
00000F58
000007C2
FFFFF21E
FFFFFCB3
00000103
000008F1
000002FF
FFFFEABB
000008BC
0000005D
FFFFF930
00000A93
0000089F
FFFFF9B2
FFFFFFA8
00000776
FFFFFE1D
FFFFFC2D
000009DC
00000254
FFFFF502
000003BC
0000029D
0000015C
FFFFFD78
000005E0
FFFFF720
0000024B
00000456
000000FE
00000895
000010E5
FFFFFDAA
0000064E
00001248
00000164
0000092F
FFFFF5C7
FFFFF1AA
000005BF
000002B9
FFFFE85D
00000005
FFFFFB0E
FFFFF996
FFFFF3A0
00000635
0000081B
FFFFFDC6
00000037
00000757
00000852
000004E6
00000DF1
FFFFF874
00000E13
FFFFD85E
000006A7
FFFFE991
FFFFFEF4
FFFFFCDA
00000BCE
00000231
00000A0C
000003D0
00000148
FFFFF3D8
FFFFFA2D
000002EB
FFFFE482
FFFFF2C9
000007F7
000002AF
FFFFEF03
FFFFF390
00000642
FFFFF4A9
FFFFFDE5
00000E5C
0000033D
FFFFF6BE
00000D62
00000CFB
0000025E
FFFFFBC3
FFFFF3B3
000007D2
FFFFF0B5
FFFFFBA3
000008E4
0000066E
FFFFFD59
000006B3
FFFFFFE3
00000058
000009B7
FFFFF64D
000007C8
00000348
000006C2
000001FE
FFFFF737
00000428
000005BD
FFFFFE7A
FFFFF82E
FFFFEDCA
00000464
000015F8
0000099C
00000005
FFFFFD48
00000B5E
FFFFFE94
00000479
FFFFFFE0
FFFFFE48
0000004B
000002B6
000003D5
FFFFF89F
0000040F
FFFFF16A
0000017D
FFFFFEF7
00000DDF
0000023A
FFFFFA46
FFFFF236
000003CE
0000060E
FFFFFF05
000003B3
FFFFF836
FFFFFA3C
000013FE
FFFFF75B
FFFFFFB8
00000ADE
00000347
00000396
FFFFFC46
00000079
00000CE9
00000139
00000083
FFFFF304
FFFFF749
FFFFFCA0
000000F0
00000BBC
0000040D
0000011E
0000071D
FFFFF90A
000002DC
FFFFF50A
000009C5
0000012D
FFFFFA98
FFFFF893
FFFFF9F5
00000454
0000158C
FFFFFD23
FFFFFFC4
0000061A
00000930
0000147F
00000011
00000670
FFFFF8F7
000017C0
FFFFFCEB
FFFFFC0D
00000BF2
00000175
FFFFFDAC
FFFFFF33
FFFFFD8E
FFFFFAD5
FFFFFA64
0000019E
FFFFFF98
00001053
0000080B
000008BF
0000117E
000000E4
0000034B
FFFFF678
000006C0
00000172
FFFFF912
00001053
000003AD
00000197
FFFFFDD9
00000CAA
00000263
00000CD8
FFFFFEBC
00000745
FFFFFE29
00000705
FFFFFD3C
FFFFFB3F
00000555
000001FA
FFFFF4FC
FFFFF61C
00000492
00000658
00000297
FFFFFF86
00001271
0000083E
00000275
000004C0
FFFFF8EE
FFFFF6B5
FFFFFFF6
000003B9
00000F0F
0000026F
FFFFFA81
FFFFFE43
FFFFF601
00000464
000005F4
00000508
FFFFF65F
FFFFFB90
00000F4B
000008E9
FFFFFBAC
FFFFF1CF
FFFFF8DF
00000142
FFFFF8C2
000005AD
FFFFF883
FFFFFE56
FFFFF3CD
000001DE
FFFFF9B0
FFFFF7E1
00000948
000001B2
00000760
0000095E
FFFFEAA1
FFFFFBF7
00000312
0000036F
0000047A
FFFFEF65
FFFFF739
00000129
FFFFFEA7
FFFFF294
000012F2
FFFFFCED
00000413
FFFFF57C
FFFFF26F
FFFFFC07
FFFFFAFE
00000481
FFFFFFCD
FFFFF8B2
FFFFEEC3
FFFFF6E8
FFFFFED1
FFFFEBDB
FFFFFE8A
00000453
FFFFFC79
FFFFF8B4
0000073C
FFFFFBC9
000001ED
FFFFFD79
FFFFF7D8
00000B74
FFFFF33C
FFFFFA86
FFFFF434
FFFFFF8A
FFFFF98F
FFFFFCFE
FFFFFEDC
FFFFE431
00000206
00000A2D
FFFFFB34
000006AA
0000023E
FFFFFA6F
00000C06
FFFFFCDB
000005FF
0000138C
FFFFFB64
FFFFF806
00000396
0000034B
00000556
FFFFFB8A
FFFFF172
00000769
00000190
FFFFFC92
FFFFFFD0
00000085
00000F31
FFFFFA8E
FFFFEFF2
00000C82
FFFFF1DF
FFFFFD79
000001BE
FFFFFED6
00000454
FFFFF393
000000B3
000002E4
00000855
FFFFF742
000009D4
00000502
00000201
000008B2
FFFFFE91
FFFFFC29
00000E73
FFFFFFC1
FFFFFBBB
000008A9
FFFFF9EA
000003CA
FFFFFE0A
FFFFFF84
FFFFF909
00000245
FFFFFECE
FFFFF9EB
FFFFFE20
FFFFF1CF
000004A9
000004A9
FFFFEB49
0000014F
FFFFFB71
FFFFFDE7
FFFFF880
0000014D
FFFFFCFD
FFFFFC8D
FFFFF91B
FFFFF52D
000009AA
FFFFFE42
000002B4
FFFFFE4E
00000668
FFFFF921
FFFFF4C0
FFFFF1EA
00000094
0000073B
FFFFFBF6
00000083
FFFFFB99
00000FB1
00000758
FFFFFB23
FFFFF064
FFFFFDFD
FFFFEFE6
FFFFFDCF
FFFFFD60
FFFFFB01
FFFFFFB9
FFFFF60F
000004BC
00000791
000000D5
0000047C
FFFFFE98
FFFFFFAA
00001822
FFFFFFDD
FFFFF7C8
FFFFF8F8
00000473
FFFFFFE9
00000787
0000038E
00000DD4
FFFFFD37
00000305
00000532
FFFFFBD4
000006C3
000005D3
FFFFFEBB
0000071B
FFFFFF15
000001B2
000007AE
FFFFF0E8
FFFFF2F0
0000073D
000005E2
FFFFF7CC
0000025E
00000713
FFFFF3BF
000001FE
FFFFEF07
00000344
00000AA1
FFFFFF24
00000912
00000ED4
FFFFFD84
FFFFFC5D
00001DD9
FFFFEF71
FFFFFB13
FFFFFF0E
00000164
FFFFF6DC
FFFFFC7F
00000963
FFFFFBF6
FFFFFE32
000010A4
FFFFF45B
00000F35
00000335
00000162
FFFFFE20
0000020B
FFFFF830
FFFFFB02
FFFFFA5A
000001C2
000008DE
00000251
FFFFFFE0
0000010C
00001033
00001287
0000086B
000005D8
000016E1
00000929
0000028C
00000650
0000022C
FFFFF4F1
FFFFFC0E
000010A7
00000362
FFFFFA45
FFFFFF7B
000011D0
FFFFF61C
000007AB
000007E4
00000538
FFFFFEA5
0000003C
000005D2
FFFFF570
FFFFFF25
FFFFFD8C
FFFFF9B3
00000882
FFFFFA4A
FFFFFE6A
00000472
FFFFF9CE
00000348
000003BA
FFFFFE31
FFFFF892
000001F1
FFFFFDF2
FFFFFF47
FFFFEE93
FFFFFA48
0000006C
000006C2
FFFFF4CA
00000177
00000429
0000010F
000000D6
00000AE4
FFFFFA16
000006A7
00000D11
00000988
00000757
00000EF7
FFFFFF7E
0000060E
FFFFF913
000002EB
FFFFEC2E
00000226
000008FB
FFFFFE8E
0000059D
FFFFFFB4
FFFFFF4D
000023CF
0000072F
FFFFF7A6
00000C3E
FFFFF8C6
00000748
00000013
00000099
000002BE
0000095B
FFFFFF66
FFFFEE22
00000226
FFFFFE89
00000A2D
FFFFF8A9
00000437
000003B6
00000218
00000978
FFFFF3B7
000001C9
00000002
FFFFFEB2
FFFFF4AE
00000686
FFFFF71C
FFFFF8AB
00000166
00000254
FFFFF7E7
00000E75
FFFFFAA0
FFFFFC47
00001F47
FFFFF14C
FFFFF6C6
FFFFE8DD
000012C2
FFFFE793
FFFFFCB2
FFFFF836
00000255
00000282
000006A2
0000008D
FFFFF52D
00000D13
FFFFF29C
00000B7C
FFFFFDFD
000001C6
00001E23
000002AF
FFFFF9C4
00000F3A
FFFFFA5E
000009AE
000008CF
00000F3D
000004BC
FFFFFCB8
00000482
FFFFFE7D
FFFFFB66
00000018
00000A91
0000027E
000005DF
0000000F
FFFFFE2D
FFFFFE9C
00000CCD
00000A51
FFFFFB3F
000000F3
FFFFFB62
0000105B
000008F3
000004E1
00001D43
00000AB3
FFFFFFA6
000004F6
00000ACF
FFFFF880
00000031
00000E8A
FFFFF729
FFFFFF06
000009B8
000002C9
000001E2
FFFFF8A5
0000048C
FFFFF9AD
00000BE6
FFFFFC76
0000156E
000014DF
00000050
FFFFEA39
FFFFF97E
00000785
FFFFFC56
000001A4
FFFFFD7E
00000733
FFFFEE14
FFFFFB1A
FFFFFCEF
FFFFF56C
00000434
00000C56
FFFFF84B
000018E4
0000105E
FFFFFCEF
00000AA2
00000A3A
0000074A
0000207D
FFFFFADE
00000FFC
00000386
00000316
FFFFF318
00000488
FFFFFBD0
FFFFF82A
FFFFFCD9
FFFFF498
FFFFFF70
0000073C
00000D5E
00000A4D
FFFFFA2D
FFFFFECE
FFFFFD08
000010AE
FFFFFEE8
00001025
000006F5
000000CF
0000061C
FFFFFF17
00000767
FFFFF7A7
00000C32
000019F7
00000337
000000BD
FFFFF83B
FFFFF4BB
FFFFFC12
FFFFF9FD
0000094F
FFFFEE7D
FFFFFFB8
FFFFF0BD
0000085C
FFFFFD9B
000001F1
000005EA
00001895
FFFFF51F
FFFFF404
000003F6
FFFFFC6C
000000B0
FFFFFCF9
0000037F
FFFFE829
00000706
FFFFFDEC
FFFFF2D4
000010D7
00000A8A
000008EB
FFFFF83F
FFFFFA68
FFFFFC00
000006FD
FFFFEDA4
00000867
FFFFFCB0
FFFFF853
FFFFF31F
00000AE4
00000787
000006EE
000005F2
00000901
00000B65
FFFFF6B2
00000C96
000004E1
000008E7
000009CC
FFFFFD26
FFFFF23E
00000A66
FFFFFE26
FFFFFFA4
000007E0
000007EB
FFFFF648
00000119
FFFFF7EB
00000378
FFFFFC92
0000038B
FFFFFE32
000014D3
00000070
FFFFF965
000007A0
00000915
000003EA
FFFFFDA2
FFFFF7FF
00000DA0
00001103
000007A3
FFFFEA9B
0000043E
FFFFE2E7
0000058A
0000032B
FFFFFFAD
FFFFFE3F
00000A00
0000101E
FFFFEFF4
FFFFFD81
FFFFFBD5
000007C3
0000001B
00000370
000008B5
000007D3
000006BF
00000258
FFFFEBB4
FFFFE026
00000351
FFFFFC87
FFFFFAB5
FFFFFD8E
FFFFFD71
000002B3
FFFFFAB5
FFFFFF81
FFFFF9E2
00000118
FFFFF8C9
000002C5
000001E3
00000011
FFFFF838
00000274
0000040B
000001CF
FFFFF743
FFFFFFBC
FFFFFA39
FFFFFEA9
FFFFFB2F
0000014E
000006AF
FFFFFEEB
FFFFFE2A
000002D1
FFFFF959
FFFFFE7D
00000051
000004E2
000001A7
FFFFF9CE
FFFFFEE2
FFFFF948
FFFFF8CD
FFFFFAB7
FFFFF9C5
0000007D
FFFFFD95
000000DC
0000011F
FFFFFF58
00000321
000000CB
FFFFFF0F
FFFFF966
FFFFFD12
000002B1
FFFFFBBF
FFFFFF20
FFFFFDD2
00000168
FFFFFF7B
FFFFF7BB
0000009E
0000032F
FFFFFDDF
FFFFFA26
FFFFFE10
0000040A
00000317
FFFFFFF0
FFFFFB07
00000057
FFFFF975
FFFFFF06
FFFFFB24
FFFFFCD7
FFFFFDBB
FFFFFA3B
FFFFFE04
FFFFFBF9
FFFFFDCE
FFFFFA5E
0000048E
00000054
FFFFFC13
FFFFFB3F
FFFFFD40
FFFFF821
FFFFFC75
000002D7
000000E5
FFFFFCF0
000000B7
FFFFFDCE
00000445
FFFFFB6A
FFFFFB00
000005C7
FFFFFAAB
FFFFFF1B
FFFFFB33
00000402
FFFFFBA8
00000079
FFFFFA19
000003B5
FFFFFF38
FFFFFE85
FFFFFD68
FFFFF942
FFFFFB5C
0000009E
FFFFFDBB
00000061
FFFFFB0D
000001FB
FFFFFED1
FFFFFF9C
FFFFFABE
FFFFFBEA
FFFFFC6F
FFFFFBC0
000002AC
FFFFFAD1
00000419
FFFFFD86
00000242
FFFFFCF5
00000232
FFFFFE86
FFFFFE2B
FFFFFA41
00000223
FFFFFF78
000003C9
00000799
FFFFFD7E
000000C5
FFFFF5E7
FFFFFC65
00000FE9
FFFFFBAA
FFFFFB79
FFFFFCE3
FFFFFCF6
00000428
000008EB
FFFFF8A0
000004E2
FFFFFB40
00000080
FFFFFB05
0000027D
00000B42
FFFFFEB0
000004C9
FFFFFBE2
FFFFF928
0000043A
FFFFFE79
0000032B
00000847
FFFFFBF4
FFFFFF69
FFFFF69B
00000540
FFFFF72F
FFFFFD4F
000000F6
FFFFF444
FFFFFDDB
FFFFFA7E
FFFFF838
0000090A
00000293
FFFFF6B5
000001DC
FFFFFF91
0000038D
FFFFF9C1
000010A4
0000104D
FFFFF97C
00000E70
FFFFF101
000007B2
00000744
00000104
000001C9
FFFFEF65
00000298
FFFFFD13
00000BBF
FFFFF631
FFFFFA35
FFFFFDCE
00000334
00000E14
0000011C
00000A10
000002AB
0000037F
00000240
FFFFF747
00000A79
000003C5
000003EF
FFFFF646
FFFFF78B
00000294
0000095F
00000156
0000004A
FFFFFA0E
00000812
00000525
0000073F
000003A9
00000121
FFFFF63D
00000B0A
0000026F
0000040A
FFFFF3D6
FFFFFEBF
00000D95
0000041F
000002C9
00000177
FFFFF9E5
00000D7A
000003CE
FFFFFE06
00001392
FFFFFEBB
00000048
00000727
0000042F
00000417
000018F0
FFFFFF5C
0000169B
00000E48
0000073B
0000076A
00000322
FFFFE5F9
FFFFFC8B
000007CC
00000CF9
0000018E
FFFFF761
FFFFFEE1
FFFFF27F
FFFFFF1E
0000002F
FFFFFD33
0000001D
FFFFFF09
000008B3
00000BAD
FFFFE533
FFFFFBA3
000002B7
00000312
0000024E
0000068E
000004F3
0000010A
00000018
FFFFFF70
00000C0A
FFFFFE67
00001173
000002C2
00000901
FFFFFB63
FFFFFFD0
000001C9
000006D9
00000065
FFFFF62F
FFFFFA8D
00000219
000001E4
0000046B
0000060B
FFFFF672
FFFFF766
FFFFFE45
00000281
FFFFFFFB
FFFFF868
000002EE
00000AD7
FFFFF04C
0000022D
00000D17
000006E8
FFFFF2BB
FFFFF566
FFFFF30A
00000436
FFFFEB7D
00000C21
FFFFFDEE
FFFFF29C
00000B97
FFFFE409
00000D69
FFFFEE7B
00001163
FFFFFDA1
FFFFF8BB
FFFFFF96
00000EC5
FFFFF6AC
FFFFFC4B
00000AC8
FFFFDCCB
FFFFFE3E
FFFFFB04
FFFFF6DC
FFFFFAA5
FFFFEA1B
00000F3E
000000CF
FFFFFD77
00000CA0
FFFFEA68
FFFFFB0B
00000282
0000070D
000009B4
00000683
00001367
FFFFE734
FFFFF7EE
FFFFF0F7
000015CE
FFFFFC3C
FFFFFED3
FFFFEE82
FFFFFD9F
FFFFF0AA
00000A66
FFFFFCCB
00000049
000002F8
000000F7
00000BAD
FFFFEBE8
FFFFF7E9
FFFFFAA1
000009A3
00000116
FFFFF5EC
00001436
00001304
FFFFFE7F
00001AAF
FFFFFE53
00000473
000002B3
FFFFF75E
000004D2
000006ED
00000F85
FFFFFD2B
00000765
FFFFFDF2
FFFFFBBA
FFFFFBBC
FFFFFFDE
FFFFF64C
00000DC4
FFFFFA12
00000217
FFFFE947
FFFFFB76
FFFFFE09
00000243
00000437
00000394
000002CE
FFFFF6F8
000009CA
FFFFEEA4
000012A1
00000687
FFFFFBE5
00001410
000003EB
00000C59
000015CA
00000AB2
FFFFEA0B
00000665
00000286
FFFFF9A2
FFFFF648
00000EB0
0000072A
FFFFFDD9
FFFFF4F8
FFFFFC99
FFFFFA98
00000E13
FFFFF791
FFFFFCEE
0000087C
00000174
FFFFFC27
00000151
00000484
FFFFFC72
00000600
FFFFEF66
0000027E
0000086B
000006B3
00000166
FFFFFB8D
000003E5
FFFFF9E0
00001124
FFFFFC15
FFFFFDEC
FFFFFB9A
FFFFF808
000002D6
000002CC
00000092
00000419
FFFFEACA
00000FE9
00000927
FFFFF109
00000B67
00000FDA
FFFFF99E
FFFFFF21
FFFFF84A
00000DF5
00000215
00000299
FFFFFFF0
0000104D
FFFFFE7A
00001645
000004CE
000000AB
00000CEC
FFFFFAFA
FFFFFB0E
0000090E
0000006F
00000079
0000018A
0000037B
0000041F
000007CC
FFFFFB5F
0000054A
00000949
FFFFFC08
00000105
000006CC
00000B78
0000027E
00000832
0000019B
00000AC5
0000009D
FFFFEAF2
FFFFEDDE
FFFFEBA9
FFFFF7C9
0000021B
FFFFFDC1
FFFFFD09
FFFFFC59
00000CA4
FFFFF97D
00000B49
FFFFFE33
FFFFEB14
0000039F
FFFFD63D
FFFFFC78
FFFFFBC7
FFFFFFD1
000006C7
0000012A
FFFFED9F
FFFFF72E
00000663
FFFFFFD7
FFFFFADB
FFFFDCB0
FFFFFB2B
FFFFFAE0
00001A2B
0000124D
FFFFFAD9
FFFFF9AB
000014B9
FFFFFF91
0000067E
FFFFF4E1
FFFFFD28
00000349
00000141
000002C6
00000234
FFFFFF6F
FFFFFEC1
00001156
00000040
0000004C
000009B5
FFFFFA88
FFFFF46B
00000BE4
00000619
FFFFFE9D
0000081F
FFFFF24C
00000795
00001BAA
00000E39
00000D82
FFFFFB16
FFFFF910
0000067C
0000001E
0000002D
00000932
00000575
000002F9
FFFFF62C
FFFFFB86
FFFFF63A
00000312
00000BBA
FFFFF50B
000002F0
000012E1
FFFFF9CF
000011F7
FFFFFA8B
00000837
FFFFF75B
00000BAC
000000F2
FFFFFD5B
FFFFF5B3
00000AFF
00001321
00000393
0000041F
00000B88
0000066F
FFFFFE0F
000006DD
FFFFFDC0
0000156A
FFFFFE4A
FFFFEEC5
000009B4
00000ABC
00001EE5
000005C9
FFFFFD4A
00000EB1
FFFFF1E2
FFFFF93C
FFFFFF94
00001FA1
FFFFF75C
FFFFF95E
00000D4E
000002DA
FFFFF89B
FFFFF740
000003A2
FFFFFECD
FFFFF610
000014E6
FFFFF9F6
00000255
000016E0
00000B68
00000873
000007CE
000003A0
000004E7
00000342
00000347
FFFFFDF3
00000C51
000004FD
FFFFFFAB
FFFFF614
FFFFF3F6
000007E7
000011C0
00000170
000000B4
FFFFFDF7
00000E64
000007BB
0000082C
00000D64
000009A4
FFFFFB69
00000DB5
00000448
00000FA9
FFFFFDD0
FFFFFDE8
FFFFF642
000000A1
000000D3
0000019F
FFFFEF4F
00000193
0000044E
00000083
FFFFFE5D
FFFFF462
00000401
00000064
FFFFFBBA
00000FA3
000005F6
FFFFFF77
000000D3
FFFFFC78
00000C3C
FFFFFD39
000005AE
FFFFF92F
FFFFF932
0000186A
FFFFF2B8
000000AF
000003BE
000002A2
FFFFF8D7
FFFFEB6B
00000238
FFFFFF0B
00000710
FFFFF9D0
FFFFF3AA
0000047A
000012DC
000002CC
00000564
0000153A
0000073E
0000058D
FFFFF39B
FFFFFE08
000000A3
0000027A
FFFFFEE2
FFFFF279
000005F6
FFFFF273
00000367
00000920
FFFFFF0E
FFFFFDD9
0000016F
FFFFF885
FFFFFC75
FFFFF6C7
000004B9
FFFFFA30
FFFFEFDD
00000701
00000149
000012EF
00000C26
00000EEF
00000E3C
00000579
000002AD
00001775
FFFFF8E2
00001055
FFFFFAD6
00001AEC
00000BB8
FFFFFCFC
00000B1A
00000A57
000000DA
00000591
FFFFF798
00000671
00000B2A
FFFFFB3B
FFFFF9EC
0000124D
000009AC
0000031E
00000D1A
000003EE
FFFFFC54
FFFFF888
00000833
FFFFFCDD
FFFFFBF0
00000D7D
FFFFF916
FFFFFFA0
FFFFF925
00000E6E
000003BE
FFFFFD56
FFFFFB26
FFFFFF75
FFFFFE7C
00000A49
000006CA
000002BE
00000977
00000186
FFFFFE57
FFFFFD47
0000092F
FFFFFEB2
00001A8C
00000665
0000156B
FFFFFACD
000000F5
0000051A
FFFFF87A
FFFFF96E
FFFFFD45
00000B03
FFFFFFF7
000010D7
00000366
00000019
000000CC
00000324
FFFFF392
00000294
FFFFFB0A
00000CE0
00001B84
00000902
000003B7
FFFFF4DD
FFFFFAC9
0000002A
FFFFF896
00000BC6
FFFFF64E
FFFFF746
FFFFF813
00000063
0000006D
FFFFFE13
000000E9
FFFFF3FD
00000588
000006C7
FFFFF724
0000042F
FFFFFE5D
00000299
000003C3
00000E0C
FFFFFBCD
000002DA
FFFFFF0F
000002DF
00001618
000006FC
FFFFFB55
FFFFFF19
FFFFFB7D
FFFFEEE9
00000274
000003C2
00000218
FFFFFB64
FFFFE802
000004E5
000002BC
00000908
FFFFFF3F
00000C75
000006A6
FFFFFDC0
FFFFF51E
FFFFFDB9
00000011
00000C69
FFFFFE76
00000B30
00000558
00000C78
00000F5F
00000637
0000018F
000002C2
FFFFF3E9
FFFFF119
FFFFFF90
00000778
000004F1
FFFFF64D
000002C4
FFFFF00A
00000424
FFFFEA3E
000000E1
00001BB3
FFFFFA6C
FFFFF776
000005A5
FFFFFFBD
00000C71
00000523
FFFFF3C8
0000051D
00000576
FFFFFCE1
FFFFFB3D
FFFFF151
FFFFFB00
00000106
FFFFF2ED
000008A6
FFFFFFB3
00000104
0000015E
FFFFF848
FFFFFB53
000005E1
0000037B
FFFFF954
0000014C
FFFFFA64
0000076B
FFFFF791
00000150
FFFFFA30
00000285
0000076F
0000021F
00000672
00000A14
FFFFF96A
00000348
0000052F
0000007B
00000403
FFFFFA15
FFFFFD91
0000009B
000002F4
FFFFFE27
00000370
00000235
FFFFFD6F
FFFFFBCB
FFFFFF48
000005C1
FFFFF92F
000001A6
FFFFF7EF
00000503
000006AA
00000B3F
FFFFF0F3
FFFFF84C
FFFFFD7B
0000035D
00001015
00000C0A
FFFFFDD6
FFFFFD33
0000003C
00000878
0000072B
000004CE
00000122
FFFFF750
000012F5
000002A5
00000DD1
FFFFF558
00000822
00000495
00000342
FFFFED54
FFFFF5B2
FFFFFD8B
FFFFF70E
FFFFFFF4
0000007B
000002EB
00000542
FFFFFE4E
FFFFFCA1
00000668
00000AD3
FFFFF63D
00000107
0000069A
00000587
000003ED
000005B3
00001563
0000016F
000001D5
FFFFFF49
FFFFF9DA
00000AE5
000003CC
FFFFFDC3
000008E1
00000394
FFFFFD9B
00000018
FFFFEEED
FFFFE9F2
00000577
FFFFFA14
FFFFFC01
FFFFFBE8
FFFFFC5D
FFFFF39E
FFFFFBF5
0000079D
FFFFFCE8
FFFFF554
FFFFF9A2
FFFFFBE3
00000BC7
000002F5
FFFFF71F
0000164B
0000013B
FFFFE44A
000000FD
00000521
FFFFFEAD
000001FB
FFFFFD6C
FFFFF5B6
000006A6
0000168B
FFFFF406
FFFFECE3
000000AB
00000410
000008C5
FFFFFD22
000005CB
00000293
000006D6
000001DF
00000D6B
00000E1E
00000402
0000021C
FFFFF4A6
0000018D
0000028D
FFFFFF59
00000E8A
00000B6E
00000457
000002DC
000006F0
FFFFFECF
0000066A
00000177
FFFFFF6F
FFFFF6D3
00000551
00000AFF
FFFFEF64
0000003C
000000CD
FFFFFCDB
FFFFFE37
000001DC
000007E9
FFFFF918
FFFFFE38
FFFFEE4D
0000089F
FFFFEA4A
000000A1
00000258
0000086A
FFFFFEC7
00000230
000009CA
000012A1
00000578
00000B67
000000C3
0000060E
FFFFDD48
00000268
0000035A
FFFFFD5D
00000914
00000564
000000B3
FFFFF617
FFFFFC7D
00000083
FFFFEE5E
000003AA
000008B1
00000668
FFFFFCA7
FFFFFF1A
00000547
FFFFFFD8
FFFFFADF
FFFFFA7E
FFFFF931
000000D4
000002F1
FFFFFBC8
00000328
FFFFF82A
FFFFFF9F
0000014C
FFFFFA54
0000019A
FFFFFE0A
FFFFFDFC
FFFFFBF3
00000191
FFFFF8B3
00000330
FFFFFA23
00000369
FFFFFE76
FFFFF997
0000035F
FFFFFEC6
FFFFFD78
FFFFFFD4
FFFFFBD4
FFFFFBEE
FFFFF9C4
00000056
00000357
FFFFFCBE
FFFFFC2A
FFFFFB52
00000368
FFFFFB9F
FFFFFB54
FFFFFC53
00000290
FFFFFE5F
FFFFF95D
FFFFFA15
0000048A
0000038D
FFFFFFBB
00000325
FFFFFB91
FFFFFDDB
0000003C
FFFFF90F
000000ED
000002B7
000002BC
FFFFFB37
000002F7
FFFFFA06
0000024D
FFFFFBD5
000004B9
FFFFFE80
FFFFFBCB
FFFFFC1D
0000014D
00000177
FFFFFB0A
000003CC
000002CC
0000005A
FFFFFD2F
FFFFFFDC
00000297
FFFFFE2A
FFFFFBD3
FFFFFE32
0000025F
00000320
FFFFF9BF
FFFFFB87
000003F9
000002CC
FFFFF95C
FFFFFD9E
00000236
00000160
FFFFFBF2
FFFFFDA5
00000234
FFFFFD05
FFFFFD03
FFFFF958
00000003
0000002E
FFFFFE89
FFFFF8F6
000000EB
000001E2
00000292
FFFFFDEB
FFFFFB56
FFFFFBFD
00000362
00000244
FFFFFC7C
00000453
FFFFFF29
FFFFFD1D
FFFFFC38
FFFFFFA8
000000D4
FFFFFFD8
00000359
FFFFFF5F
FFFFFD84
00000141
000002AA
FFFFF9FF
FFFFFCF2
000000C8
FFFFFCA6
FFFFF953
FFFFFFD7
FFFFFC68
0000025C
FFFFFCF7
FFFFFC0E
00000020
00000077
FFFFFAA4
FFFFFD26
FFFFFCC0
000010E8
000009AF
FFFFFBDD
00000116
000003EF
00000288
0000068E
FFFFF3B7
000002D9
FFFFFF0F
FFFFF5E1
FFFFFFB7
00000873
0000048C
FFFFFED4
FFFFF6EE
00000271
000001C2
00000305
000001B2
000007F0
00000A4E
00000279
FFFFF5DA
FFFFFFA1
0000085B
00000083
000008C0
00000B63
0000011E
FFFFFEA1
0000159E
FFFFFD5D
FFFFFDBA
FFFFFD9B
FFFFFB5A
00000D21
FFFFEA87
0000022B
000006B3
FFFFF33C
FFFFF890
FFFFF940
000002B8
FFFFE9D8
000013FC
000004AD
00000262
FFFFFE2F
00000835
FFFFFEE0
000000E5
FFFFFC3A
FFFFFEF3
FFFFF5AC
00000FD2
FFFFE7F6
FFFFF967
FFFFF001
000001E0
00000384
0000123F
000005F8
0000025B
00000174
FFFFFB63
00000417
000006F2
0000033F
FFFFF5D2
FFFFE359
000005CF
000007B1
FFFFF44D
FFFFFEB9
FFFFFBD9
FFFFF5E5
000004C8
000011D4
FFFFFFF6
FFFFFDDA
FFFFFCE8
00000C10
FFFFFCA6
000000FA
FFFFFE1B
FFFFFA10
FFFFF436
000005D4
00000194
00000138
00000390
00001303
000002C8
FFFFFC07
000008AC
FFFFE795
00000328
00000896
00000A0B
000003BA
000008A6
FFFFFFEF
00000B88
00000D0E
FFFFFB15
FFFFFCE4
FFFFFE15
000005A2
00000F04
00000497
00000076
00000EA6
00000183
0000089C
000001D6
FFFFFF58
FFFFFB10
FFFFFEA1
000003F5
FFFFFCCE
FFFFFD52
00000173
FFFFF8DE
00000461
FFFFD7F8
FFFFE9AC
FFFFFF8E
FFFFFD7A
FFFFFD32
FFFFF922
FFFFFEE5
000000C3
000007ED
0000085C
FFFFF986
00000C8B
000008D2
00000731
00000806
000003F5
FFFFF7FD
FFFFFEC9
00000241
FFFFFFAB
00000287
00000126
FFFFFBC2
FFFFFD25
00000478
0000086A
0000012E
FFFFFC58
FFFFFD4A
FFFFFABC
00000479
000004A5
FFFFFD70
000004BF
00000351
00000350
FFFFF574
FFFFF465
000000D4
00001225
FFFFDA0D
FFFFFF6F
FFFFFF66
00000042
FFFFFC0E
FFFFF06D
FFFFFA97
FFFFEB50
000015F7
FFFFF6B5
000002F6
FFFFFE17
000008B5
00000806
FFFFFCC1
000004CF
FFFFF7EF
0000076C
000001A6
FFFFCC0C
FFFFF73A
FFFFF55A
0000089B
00000341
00001235
000008AD
00000786
FFFFFC20
00000612
00000ABE
FFFFFFDD
FFFFFE6C
FFFFF01E
FFFFE6AA
000004E2
FFFFFB73
0000032A
FFFFF423
000002F8
FFFFEAEC
00000486
000007B6
00000585
00000069
00000A5B
000006E0
0000060C
FFFFFFB9
FFFFF8AA
FFFFF961
000003D6
00000611
0000068A
000003A2
0000026B
00000A20
FFFFFEE1
00000E36
00000C96
FFFFD3C6
00000896
00000302
00000C52
000005CE
000007A1
00000577
00001163
00000C36
00001157
FFFFFC0A
FFFFFC3B
FFFFF34C
00000640
0000035D
000006CE
00000663
00000402
FFFFFE3A
FFFFF4AB
FFFFFD1A
FFFFFB6B
FFFFF64B
FFFFFFB6
FFFFF5D2
FFFFFA16
00000776
FFFFF816
FFFFFC80
FFFFFF6D
000007DB
00000290
FFFFFCFB
000002A3
00001051
FFFFFFA2
000001C0
FFFFF70D
FFFFFB60
000013DF
00000524
0000060C
0000026C
0000086B
00000215
0000087A
00000871
00001061
00000680
FFFFFFA1
FFFFF3BB
00000240
FFFFFCC1
FFFFFA92
00000DE6
00000F76
00000736
00000A8F
FFFFF740
00000865
FFFFF55D
FFFFFB52
FFFFF9A3
FFFFF5CF
00000025
00000088
FFFFF4A4
0000158F
000009D3
FFFFFA85
FFFFFD6F
FFFFF92F
000010B7
00000767
00001168
0000040A
0000114D
FFFFFB60
FFFFE965
00000675
000007E0
FFFFFF56
00000A28
FFFFF738
0000036F
FFFFF557
FFFFFFC6
FFFFFBE2
000004E3
0000067A
0000066F
00000CB2
000001E0
00000352
FFFFFAEE
00000B6C
FFFFFFA4
FFFFF30F
000003E8
00000676
FFFFFF60
00000FCF
00000FBB
0000040E
00000993
00000A79
00000C82
FFFFFBF0
00000ABA
000004D2
FFFFFA83
00000AF4
FFFFFF99
00000330
0000012F
FFFFFFDA
000003E3
FFFFFC3A
FFFFFB2B
00000603
00000335
FFFFFC03
00000443
0000029E
000002CB
000002BE
00000C48
FFFFFF50
00000AF5
000002E7
000002C9
FFFFF41C
000004C4
00000420
000002EE
FFFFEF70
0000054D
000004A9
0000093E
00000396
FFFFEA10
FFFFEFE9
0000059F
00000239
FFFFFE3C
FFFFF994
00000534
FFFFFB5C
FFFFFB59
00000A4A
00000042
00000337
0000056C
0000075B
000004E7
FFFFE3E4
0000001B
FFFFF2F9
FFFFF28B
0000075E
FFFFE830
FFFFFACB
FFFFFF72
FFFFFDDE
000004D8
00001180
00000036
00002095
000000F2
FFFFFF1D
00000386
000006B8
000000B8
FFFFF866
FFFFFE14
000000D3
FFFFFB52
FFFFFB7A
FFFFEE7C
FFFFFE50
0000008E
FFFFFEF9
000002D2
000002EE
000004F5
00000C52
FFFFFDE2
FFFFF395
FFFFF7A1
FFFFFE8E
00000234
00000C6F
FFFFFEDF
FFFFFA9D
FFFFFE28
FFFFFF1F
00000B9C
FFFFF939
FFFFFDD1
000002C5
00000738
0000102D
FFFFEC75
FFFFF011
FFFFF562
000002D9
FFFFFF8C
FFFFFFC0
000006C1
0000082F
00000A5B
0000120D
0000017D
FFFFEE87
0000110E
FFFFFAC7
FFFFFA72
FFFFFE48
FFFFE538
000023FA
000003E0
FFFFFA8E
000007F3
FFFFFF57
FFFFFF71
000008DE
00001398
FFFFFC1D
000002D4
FFFFF64F
00000841
00000DDE
FFFFF779
00000846
FFFFFC67
00000651
FFFFF4A1
FFFFFDBD
FFFFFA45
00001920
FFFFFA7E
00000015
FFFFFD41
FFFFFE4B
000007ED
FFFFF98A
FFFFFB75
000006D5
000001FB
000008F5
000009ED
FFFFFD61
FFFFFE39
FFFFFE16
000015E2
000001EC
FFFFF512
FFFFFC88
00000A65
FFFFFDEA
00000483
FFFFFF66
00000171
00000962
FFFFF74D
00001346
FFFFFA55
00000187
FFFFE3B7
FFFFF7AD
00000B2E
FFFFF60A
00000049
00000708
00000A37
FFFFED51
000001D4
000002E0
FFFFF998
00000453
FFFFFE3E
FFFFEFA6
00001AC5
000005EF
0000023E
FFFFFA7B
FFFFF9CF
FFFFFD89
FFFFFAFB
00000086
0000005F
FFFFFB82
FFFFFEB3
000001D2
FFFFFFBE
00000495
000003BF
FFFFF961
FFFFFBC3
00000537
00000221
FFFFFBF7
FFFFFE28
FFFFFCBB
FFFFFBB8
FFFFFCC2
FFFFFE8C
000003A8
000001B8
0000034D
000000A6
FFFFFA5D
00000088
FFFFFF43
000000F2
0000022F
FFFFF957
FFFFFAB6
FFFFF98A
FFFFFDE9
0000002F
FFFFFC59
FFFFFAAF
FFFFFDAA
0000002B
FFFFFC3B
FFFFFD67
FFFFF90E
000000B3
00000071
FFFFF9F7
FFFFF944
000000E8
FFFFFEB5
000003F3
0000012B
FFFFFFD0
FFFFFD42
0000017D
FFFFFC77
FFFFFB5A
FFFFFC12
000001F1
FFFFFD52
00000493
00000500
00000253
FFFFFF12
FFFFFE22
0000041D
FFFFFF04
FFFFFD58
000002E0
00000477
00000109
FFFFFCA7
00000041
00000058
0000039D
FFFFFBEF
000001E7
FFFFF981
FFFFFD74
000002E3
000002FA
000003EF
FFFFFBA2
000001C8
FFFFFA2E
FFFFFCAB
FFFFFC24
000000D0
FFFFF975
FFFFFB5B
FFFFFBEA
FFFFFAB0
FFFFFE44
0000016F
FFFFFB9F
00000355
000002DF
FFFFFE69
FFFFFFCC
0000034D
00000380
FFFFF9C9
FFFFFC15
0000033D
FFFFFD9C
FFFFFE41
FFFFFB74
FFFFFE8B
FFFFFBB4
FFFFFD0A
FFFFFBB7
FFFFFB5E
FFFFFC97
0000035B
FFFFFBDB
FFFFFB23
FFFFFA3F
FFFFFFE5
FFFFFC53
00000033
FFFFFCEB
FFFFFC4A
00000157
00000497
00000008
FFFFFA7D
FFFFFFD5
000001F3
000001CA
FFFFE8AC
0000013A
FFFFFCF5
FFFFF420
000005E4
FFFFF75D
000003FF
000007E1
FFFFF2CF
000007DA
FFFFF4C9
0000083B
0000103F
00000FB0
00000C18
0000044A
FFFFFD58
000002C2
000010B9
00000200
FFFFFD72
000003AA
00000155
FFFFF33C
00000593
00000685
000005A2
000008A6
0000055A
00000760
00000B3E
FFFFEF66
000001BB
FFFFF48E
FFFFFBB4
00000449
00000312
0000036D
00001030
00000CED
FFFFFFDD
0000028B
FFFFFA81
00001157
FFFFFA23
00000AC6
FFFFFB31
000012D8
FFFFEE6B
FFFFF8B1
000006D3
000006EB
FFFFF8C0
00000823
0000036D
00000872
00000C72
FFFFFE1E
00000030
FFFFFC21
00000927
000000B4
FFFFEF67
0000049C
00000799
FFFFF492
000008E7
0000008A
0000014D
FFFFFA00
000003BF
000004DA
000003E6
0000008E
00000870
FFFFFC71
FFFFFB6F
00000380
00000801
00000CD0
00000152
0000097D
00000130
FFFFFF23
00000499
0000051E
FFFFFEF9
00000625
000005B2
000007A2
FFFFFFCE
0000085D
00000364
000004C8
00000C90
FFFFF44A
00000026
FFFFFE01
FFFFFC8B
000004C9
000002F8
00000010
000000E2
000004AB
FFFFF2B5
00000A6E
FFFFF7C2
00000540
000006F4
FFFFF624
000001E0
000009D8
FFFFF242
FFFFF915
000000DB
00000A9C
00000592
0000042C
00000B9E
0000002E
00000063
FFFFF361
000001CB
FFFFFBAA
000003B2
FFFFF644
FFFFFC15
000005AA
FFFFF1C8
00000A43
0000034B
000001E4
000005F9
FFFFFBF2
00000222
0000074E
00000F03
000006B5
FFFFF4FB
0000087A
00000A66
FFFFFBB9
FFFFFEA2
000006C3
00000112
000002F7
FFFFEB25
000006C8
FFFFFC90
FFFFFF13
00000313
00000CE8
0000019A
FFFFFA73
FFFFFC62
00000453
000001B4
00000A57
0000041C
00000B03
FFFFFC71
00000A9F
00000A36
00000C6E
FFFFFB25
FFFFF8D1
FFFFFB60
000004EC
FFFFF9F4
000005EB
00000195
FFFFF69A
FFFFF9A6
FFFFEBD8
00000891
FFFFDA18
00000BEC
00000803
FFFFF788
00000313
0000000B
FFFFFF83
00000BAF
00000A97
FFFFEF59
000009AD
FFFFFDAB
FFFFEAEA
FFFFFDE2
FFFFEE97
0000037B
FFFFFEF8
FFFFFD40
00001308
FFFFFA3B
0000012C
00000A1C
0000038B
FFFFFBF4
000001FD
000004CD
FFFFF4B1
FFFFFE91
FFFFF958
FFFFFB78
FFFFF1CD
00000502
FFFFF64B
000000D1
FFFFFE51
000008B8
FFFFFC1F
00000C52
0000085E
00000717
0000049C
0000063A
0000032F
FFFFF94E
0000027A
00000798
FFFFFE1F
000008D8
00000C56
FFFFFD3B
00000CD2
00000050
FFFFFFCE
0000059A
0000052E
0000086E
000000C4
000006AB
0000012C
00000461
FFFFF86A
00000090
0000026C
000001DE
FFFFFD9D
000008D9
00000364
0000011E
FFFFFE79
00000526
00000A8A
000004C3
00000145
FFFFFA1E
0000061D
00000410
FFFFFF0C
FFFFF36A
00000925
00000693
FFFFFC40
FFFFF801
FFFFF9AF
000006C1
FFFFE905
FFFFF803
000001D6
FFFFF952
FFFFFD40
00000879
000005AB
00000471
FFFFF5F9
FFFFFE16
0000073D
00000AE3
00000410
FFFFF869
00000098
000005A6
FFFFF880
FFFFFE93
FFFFFC34
FFFFFCE3
FFFFF7CA
FFFFFFB2
000006D5
0000063E
0000068B
00000661
000001FD
FFFFFADE
FFFFF438
00000B4D
00000974
FFFFE60E
00000B4F
FFFFF97F
0000143B
00000A32
FFFFF8D8
000005FA
FFFFEF2E
0000059F
00001A3D
FFFFECDF
000004DD
FFFFFE8A
00000978
FFFFF6E4
000007C3
000006EF
0000066B
FFFFF670
00000AB6
00000488
00000192
00000C61
00000E18
FFFFFAD0
FFFFF50C
00000BB1
FFFFF813
00001128
FFFFFE2D
FFFFF964
00000C53
000004D3
FFFFFDA0
FFFFFB1A
000002B3
FFFFF364
FFFFFF45
FFFFF405
000004D4
00000906
000001EF
FFFFF2C9
FFFFFF1C
0000000B
00000663
00000137
00000168
0000025F
00000626
FFFFFD2E
000004EB
0000034D
FFFFF93A
0000122B
000008EE
000010A0
FFFFF94F
00000C66
000003D0
FFFFFC92
FFFFFC7E
000004FB
00000366
00000F44
0000090C
0000096D
000006B8
000003E5
00000D5A
FFFFFA45
FFFFFE9A
000009B1
00000024
0000119F
00000862
00000784
FFFFFCA4
FFFFE5EB
0000059A
0000063C
FFFFFF88
000001D4
00000799
00000240
000001BB
FFFFE5BA
000005E9
00000649
FFFFFE16
0000010B
000002CE
FFFFF319
000002D1
FFFFF821
00000234
00000EA2
0000077E
000008F3
00000880
000008F5
000008DA
00000270
FFFFFEBD
000004EB
000001FA
FFFFF94A
FFFFEE8B
FFFFFE54
00000957
00000B59
FFFFFC69
00000B6D
000002EB
FFFFFADC
000003DA
FFFFFF9B
0000089D
0000046E
FFFFF9D6
000001AA
000004FE
000001E8
000004EE
00000B42
FFFFF94E
0000064A
000003D8
00000136
0000074B
00000856
FFFFE970
FFFFFFF8
FFFFFA9A
FFFFF5E6
FFFFF465
00000812
FFFFF9EC
000000BB
FFFFF9E2
00000216
FFFFF4A7
FFFFF61F
FFFFECE4
00000071
FFFFF98C
FFFFF872
FFFFF82D
000008CD
00000455
FFFFF4BB
00000FAC
FFFFFBF3
FFFFE932
FFFFFF3D
FFFFFC0A
00000390
FFFFFD57
000002A8
FFFFFF7F
000000E6
00000893
000000A4
FFFFF982
00000AF8
000006BB
000005BC
FFFFFC10
000004D4
0000095C
0000198F
00000926
000004F5
000001EE
0000072A
0000045C
FFFFFFF4
000001A4
0000010C
FFFFFFAF
FFFFFD99
000009D5
FFFFE4FE
FFFFFF3D
FFFFF67D
00000BDD
00000655
000008CB
00000BFE
00000541
00000565
FFFFFA77
00000218
FFFFF459
FFFFFECD
00000577
000008C7
00000556
0000066D
FFFFFF6E
00000CC5
000003A0
FFFFEFDF
FFFFFC0F
000005DF
FFFFF317
FFFFFD90
00000856
0000079E
FFFFF5F7
000008B4
00000419
FFFFFFCF
000002A1
FFFFFB5F
FFFFF57C
00000401
00000C29
00000294
FFFFFED6
000007AE
0000049C
00000C63
0000090B
000001B8
00001808
FFFFF9E6
00000764
00000020
000005C4
FFFFFBD8
000009AA
00000CB3
FFFFFA49
000004BD
FFFFF962
FFFFFEF9
FFFFFD03
00000406
000007E5
FFFFF80F
000008BA
FFFFFC22
FFFFF606
FFFFFDB8
FFFFFD95
000002CA
00000BBA
000005A1
FFFFFE44
00000909
00000272
00000066
00001D9E
000003A8
FFFFF400
00000198
FFFFFCBC
00000ADF
FFFFFFCA
00000533
FFFFFB91
000002E6
FFFFFB11
000002C6
00000C50
0000037F
000009D9
00000134
000000CB
FFFFEFF4
00000515
000009B4
00000580
00000D65
000006C0
0000028B
FFFFFD14
FFFFF62F
FFFFEA03
00000C6D
00001867
000001F0
FFFFF943
00000670
00000300
0000052C
FFFFF774
00000B96
FFFFF9CC
FFFFF8FD
FFFFF606
FFFFF626
000000A6
000016AE
00000E2A
000006A0
0000061B
00000274
000005A0
FFFFFD6A
00000576
00000179
0000049F
00000235
00000072
FFFFF5FC
00000230
FFFFFF55
000002B9
00000A49
00000337
FFFFF4DF
FFFFFCD2
FFFFFDEE
0000096D
FFFFFB37
00000954
0000021B
00000BCF
00000436
00000A62
FFFFFC99
FFFFFBD9
FFFFEE36
FFFFFDFC
FFFFFBB4
0000074C
FFFFE19A
FFFFFF52
FFFFFC9F
FFFFFC6D
FFFFFC3B
00000739
0000047B
000003DA
FFFFF63E
FFFFFFF4
FFFFFD5B
FFFFFD2D
FFFFFF26
FFFFFD60
00001151
000004AB
FFFFFB1A
FFFFFDC0
000000C7
00000960
FFFFF057
FFFFFCCF
00000305
00000454
FFFFFEC7
00000197
FFFFF795
FFFFFC70
000002E0
FFFFFC9F
FFFFFA60
00000416
FFFFFF1E
FFFFFF2A
FFFFFE89
00000356
FFFFFC21
FFFFF912
0000040B
FFFFFAB2
FFFFFA3B
FFFFFC13
000000FE
0000020D
00000233
FFFFFEA8
FFFFF996
FFFFF588
FFFFFA4B
FFFFFDCB
FFFFF9B7
FFFFFFBC
0000037B
FFFFFF64
00000092
FFFFFE5F
FFFFF7EB
0000005C
FFFFFD95
0000013E
0000016A
FFFFFC58
000002EB
FFFFFDCC
FFFFF994
0000010A
FFFFFA80
FFFFF9E6
FFFFFC18
FFFFFD66
000002D0
FFFFFD41
FFFFF9E9
00000164
000003DE
FFFFF794
FFFFFCC9
FFFFFE93
FFFFFDE8
00000429
FFFFFD97
000004EE
000000E9
00000403
FFFFFA0C
FFFFFF43
FFFFFD4A
FFFFF875
FFFFF828
FFFFFC8D
FFFFFC5A
FFFFF707
FFFFFDB0
FFFFFD38
000002EC
FFFFF975
FFFFF782
FFFFFB40
FFFFFC5F
FFFFFE87
FFFFFE9C
FFFFFF72
FFFFFAE1
FFFFF844
FFFFFDDC
FFFFFFAF
FFFFFFEB
00000020
000001A2
FFFFFC0E
00000295
FFFFFB80
FFFFFF61
0000036F
FFFFFCDD
FFFFFD23
00000315
FFFFFC5A
0000044B
FFFFFF07
FFFFF934
0000010B
0000006C
FFFFFE4C
FFFFFB89
FFFFFF65
FFFFFB77
FFFFFD4C
000001EF
0000028F
000002F5
FFFFFC9C
FFFFFD73
FFFFFF51
FFFFFEB6
FFFFFC48
000001E6
FFFFF881
FFFFFFD9
FFFFFB6C
FFFFFDFF
FFFFFD63
FFFFF9E2
FFFFFB0B
FFFFF8E5
FFFFFCC4
FFFFFB3A
000002C7
FFFFFF3E
FFFFFDB2
000006DE
00000303
00000ACB
FFFFF5C2
000000AC
00000497
FFFFFCEC
000006FA
00000F90
FFFFFA69
0000087B
FFFFF639
000000D1
FFFFF4E9
00000CC3
00000399
FFFFFD8B
00000801
FFFFF3D2
000003CC
FFFFFA6B
FFFFE9A5
FFFFFCCC
FFFFFF57
0000021F
00000107
00000539
0000017B
FFFFFFB0
00000093
FFFFF87B
000013A3
000003F1
FFFFFF9B
00000636
FFFFFF68
00000A5B
00000CCA
000003ED
00000347
0000037B
0000084B
000005CF
00000EE3
0000079F
FFFFFC48
00000ABF
FFFFEBBC
000000DC
00001731
000005DC
FFFFFD17
000015BF
00000C42
0000089C
FFFFFC9C
FFFFEB3C
FFFFFAD2
00001534
00000C5F
FFFFFB64
FFFFEFFD
0000167F
000000A9
FFFFEE1E
00000C44
0000069A
FFFFFEF1
FFFFFC08
00000139
FFFFFF9D
0000056F
00000353
00000F9A
0000046B
FFFFF34D
FFFFF41B
0000034E
0000032F
FFFFF56A
0000076A
FFFFEDFF
0000092F
000001D1
FFFFF879
00000661
000003DE
FFFFF70A
000015C9
000001B6
00000551
000000D2
FFFFFF99
00000799
FFFFFA1D
000006B7
FFFFFF86
000017C6
FFFFF3AF
000001A3
000003F7
FFFFFB8A
FFFFF355
000005E6
FFFFF6A7
000008AB
FFFFECE1
FFFFF04D
00000A75
0000040C
00000650
00000199
FFFFFD84
FFFFFBDA
FFFFEDCB
FFFFE8DE
0000041B
FFFFFF4B
000000BC
0000007F
0000016D
00001833
00000533
FFFFF974
FFFFE401
000015DC
FFFFF4D2
FFFFFFCE
0000004B
000002CF
00000919
00000876
000004E1
FFFFF65C
FFFFFCC4
000007A0
00000E32
000006C3
FFFFF017
000001B5
000007A1
FFFFF071
FFFFF953
FFFFFD0B
000003FD
FFFFFE7C
FFFFEB0E
FFFFFE4B
FFFFFF55
00000351
0000082C
000009B4
000003BE
FFFFFE5E
FFFFFB62
000005A2
0000078B
FFFFFBA8
000001BA
00001552
FFFFF5DC
000004C6
00001371
00000107
00000075
00000C15
FFFFF681
00000117
FFFFFC1B
FFFFFF01
00000475
FFFFF4C3
FFFFFC24
FFFFF666
00001A2C
FFFFDE7D
FFFFF97F
00001566
00000077
00000490
0000090C
0000058C
0000004C
00000378
FFFFFC9D
FFFFF8E8
000017D3
FFFFE3AA
FFFFF747
FFFFEF4F
FFFFFA21
00000112
0000042E
00000D6A
0000004B
00000622
FFFFFDCF
FFFFF572
00000140
FFFFFEC0
0000074C
FFFFEFC0
00000647
FFFFFCB0
FFFFF597
FFFFF59F
0000057C
FFFFF075
000006CD
FFFFFA05
00000823
FFFFF70D
00000900
000007BE
000005A9
FFFFF798
000004B5
000005AA
FFFFEBE6
FFFFFFF0
00000354
FFFFF7BC
FFFFFEB0
00001254
0000000F
00001494
0000048E
FFFFED59
00000A83
000000CC
00000103
00000A5C
00000173
00000579
000009E9
0000036B
FFFFFB93
000003A1
00000388
00000FAB
00000E99
00000279
FFFFFB8C
FFFFF88E
000001B0
FFFFFC9F
00000AA0
FFFFFFFC
00000006
00001F20
FFFFFDE9
000002B3
FFFFF96E
FFFFFD27
FFFFFAA3
FFFFFD37
FFFFFD6A
00000147
FFFFFCEF
000002EB
FFFFFCC5
FFFFFE29
0000004E
00000347
000003A3
FFFFFFF8
000000B7
FFFFFE66
FFFFFDBA
000001F5
FFFFFC20
00000478
FFFFFC4E
FFFFFBD4
FFFFFFA5
FFFFFD95
0000043C
FFFFFEBE
FFFFFAA9
FFFFFCF8
FFFFFA96
FFFFFC1B
FFFFFB57
00000224
00000490
0000014C
FFFFFA0D
FFFFFB28
FFFFFDA2
FFFFFBBF
0000012F
FFFFFCBE
0000006C
FFFFFEFA
00000135
FFFFFF32
000002CF
FFFFFDE8
FFFFF96A
FFFFFB71
000003A1
FFFFFE87
FFFFFCA2
0000020B
0000016E
00000252
FFFFFB4A
0000001E
FFFFFCEC
FFFFFFC7
FFFFFE9A
FFFFFA32
FFFFFA28
000000BE
FFFFFD84
FFFFF90B
FFFFFBD6
FFFFFD3D
FFFFFE38
FFFFFD24
0000002A
FFFFFF56
FFFFF971
FFFFFCB8
FFFFFA30
FFFFFC44
0000010E
FFFFFC25
FFFFFFEF
00000044
00000091
0000025B
FFFFFCD4
00000100
FFFFF9C0
FFFFFF83
000000BB
FFFFFEE4
FFFFFECE
FFFFFE5E
FFFFF99B
FFFFFC33
0000030C
FFFFFA41
000002B7
FFFFF9D5
00000165
000002DC
FFFFFFB7
FFFFFBA4
000002CC
FFFFFE2A
000004C8
000001AA
FFFFFB55
FFFFFA8E
FFFFFA54
000002B0
FFFFFACA
00000349
000004FA
000002C3
FFFFFE6C
FFFFFCDA
FFFFFEBD
000001E3
FFFFFD11
00000455
FFFFFC32
FFFFFCE0
000001D7
FFFFFA2C
FFFFFA93
FFFFFF87
000001FC
FFFFFF5F
FFFFFA4C
00000244
FFFFFFAB
0000006D
00000052
FFFFFC87
0000020D
0000040A
00000373
FFFFFC35
000003EF
000002FA
FFFFFFF1
00000488
FFFFFE95
FFFFFB9E
FFFFFA55
FFFFFD79
0000022D
FFFFFB26
FFFFFE7C
000004D4
00000284
FFFFF96C
00000226
FFFFFAD4
00000511
00000127
00000534
FFFFF9CA
FFFFFF40
FFFFFD46
FFFFFC92
FFFFFF73
FFFFFE02
00000041
FFFFFA0C
FFFFF9A7
0000039E
0000047A
FFFFFE55
000001DD
FFFFFE9E
FFFFFBA4
000000B7
000000DB
FFFFFD8A
FFFFFF8D
FFFFF8DA
FFFFFA36
0000013F
FFFFFC96
FFFFFF5B
000001CD
FFFFFB31
FFFFFF59
FFFFFC41
00000711
FFFFFFC0
FFFFFC9B
000001F0
000003BE
FFFFFFC9
FFFFFF62
FFFFFD2A
00000061
FFFFFD44
00000184
FFFFFB1C
FFFFFA35
FFFFFAE6
00000139
FFFFFDBF
000002A8
FFFFFF17
FFFFF7E7
00000163
FFFFFBC6
FFFFFEB4
000001F5
FFFFFD9C
FFFFFF28
000003F3
FFFFFB8F
FFFFFD39
FFFFFD4E
FFFFFED1
FFFFFB3F
FFFFF951
FFFFF782
FFFFFA63
FFFFFC01
FFFFFA9E
FFFFFF54
00000199
00000433
FFFFFAF2
FFFFFEB2
FFFFFE99
FFFFFC29
0000003D
FFFFF7C9
FFFFFBCE
00000494
FFFFFB3C
000003E4
FFFFFE22
FFFFFF91
00000058
FFFFFB05
000001E4
000003EE
FFFFFE8F
0000010D
FFFFFDCA
FFFFFE32
0000026A
0000015C
FFFFFC0C
FFFFFBD8
FFFFFBE9
FFFFFF15
FFFFFDF8
0000000A
0000037E
FFFFFC8A
FFFFFC8A
0000032B
00000041
FFFFFEDF
FFFFFDEB
000003F3
FFFFFE83
FFFFFA50
000001DF
FFFFFFD9
FFFFEA72
00000367
0000075C
FFFFF3D7
00000248
00000C01
00000526
000001F2
00000503
00000783
FFFFFF21
000003A4
0000038B
000002FB
00000889
FFFFFF5C
00000D97
000003F1
00000C94
0000052A
FFFFFD50
FFFFFE83
00000B0D
000000D1
0000048E
FFFFFEB6
00000F05
00000561
00000899
FFFFFC34
0000023A
FFFFF12A
0000025B
0000004F
FFFFEC5C
000006D9
0000050B
FFFFF931
00000D23
00000384
FFFFF60A
FFFFF4D4
00000010
00000FB8
FFFFEF12
00000F8B
000001A4
00000BDB
FFFFE114
FFFFE772
00000C37
0000074C
FFFFF4C7
00000178
FFFFFE7D
00000AD2
FFFFF5C7
00000F83
FFFFFAC7
FFFFFA8E
00000980
FFFFFBAF
000002B2
FFFFFB97
0000044A
FFFFFECE
00000A36
000005AA
FFFFFB7F
FFFFFCDE
00000650
000001B5
0000053F
FFFFF8DA
00000493
000002CE
00000CA9
0000004A
000006F5
FFFFFD85
00000290
00000130
00000C9B
000000F6
00000A58
00000131
0000043B
00000825
FFFFE37D
00000601
000002E8
000009B3
00000060
0000035E
00000883
000002C7
00000451
FFFFFFD3
00000361
0000030F
FFFFFDB6
FFFFFF91
FFFFF9DC
00000924
0000066F
00000705
FFFFF964
FFFFFBC6
000000C4
000007DF
000000A4
FFFFE747
FFFFEDB7
FFFFFEFD
000000C0
FFFFF6C9
000001EA
FFFFFE85
000004FA
000004DA
FFFFFA7C
FFFFF0B5
FFFFFD4F
000012B1
0000059D
000003BD
FFFFEBCA
FFFFFAA9
FFFFF94E
FFFFFDC1
FFFFFBB4
00000624
FFFFFF03
00000AA5
000000C8
FFFFF96B
FFFFFEB8
000006D7
FFFFFE10
00000A08
00000DAD
000003FC
FFFFFAE7
0000112A
FFFFFDA3
0000033F
00000190
FFFFF9DD
00000986
FFFFFD9B
000009AE
00000359
000007F4
FFFFF848
00000933
FFFFFCD7
000004F4
FFFFFFE4
00000483
FFFFFFDA
0000065A
00000687
FFFFFCCF
00000499
FFFFFD6C
FFFFF8CF
FFFFFCCF
00000D9D
0000060D
00000392
00000197
00000696
FFFFF9F5
00000AAB
FFFFFFC4
00000D51
00000C12
000007E5
000007B8
FFFFFACD
000002DE
000006D6
00000B39
00000514
FFFFFA21
FFFFF852
FFFFFAE2
000005A7
000001A0
FFFFFA88
000003C1
