000004A0
FFFFE16A
FFFFFD9C
00000054
FFFFF023
00000161
000004C8
00000162
000000A0
FFFFF7BD
0000077B
FFFFF525
00000BAB
00000A61
00000DD9
FFFFFEBB
0000067E
00000438
000000D0
000007BE
0000021D
000000F1
00000734
FFFFFC02
00000090
000006EC
00000300
00000F8B
00000204
FFFFFB2A
00000291
0000072D
FFFFF138
FFFFFF09
0000032E
FFFFEC46
0000025C
FFFFF5C2
FFFFF206
FFFFFF80
0000081E
FFFFF21A
FFFFEFC1
000003FA
00000445
FFFFECDB
00000AB4
FFFFF8A6
FFFFFAE1
0000075F
FFFFE4C7
000001BF
00000728
FFFFF22C
0000028C
FFFFFD54
000001A7
00000386
000009CF
FFFFF187
FFFFE6EC
000002CE
FFFFFAE0
FFFFFB78
00000254
000006DE
FFFFF99B
FFFFFC3F
000000D8
FFFFFE47
000006BB
FFFFFB80
00000601
FFFFF753
FFFFF254
000007FA
00000277
00000878
FFFFF952
000003BD
0000017C
000004AF
000000F2
00000679
000008CD
000006DC
00000AFC
00000151
FFFFFED6
FFFFF734
FFFFFDBC
000004E4
000005F2
00000030
FFFFFBAC
0000077C
FFFFFC6B
FFFFFE50
FFFFFDEB
00000A1C
FFFFFA58
FFFFFFE8
0000098F
0000067B
0000068C
0000023E
FFFFFD25
000000DE
00000707
00000923
000001D0
0000048C
FFFFF155
FFFFF735
000004B8
00000E4F
FFFFFF06
FFFFFDEC
FFFFFF22
00000716
FFFFFB9F
FFFFF8A0
FFFFE95E
0000029A
FFFFF8B8
00000AAF
FFFFFBBE
FFFFF7AE
