000001F1
000001CD
00000091
000001CA
FFFFFDE3
FFFFFF67
000001E8
00000027
FFFFFF14
00000077
0000015D
00000183
00000645
00000697
00000115
00000078
FFFFFFCE
00000217
FFFFFE04
FFFFFEFD
FFFFFE92
FFFFFF26
FFFFFDFA
000000BB
FFFFFED0
FFFFFDD9
00000229
00000243
FFFFFFE0
000001EF
000001BA
000000FB
00000114
00000000
0000006E
000000A5
000004ED
00000372
00000773
00000277
00000494
000007B0
000006D7
FFFFFCB7
FFFFFA6E
FFFFFBB3
00000766
00000821
0000082E
000007A3
00000379
00000037
FFFFFFDC
FFFFFF89
FFFFFEF5
FFFFFE03
00000131
FFFFFFC0
FFFFFDDF
FFFFFA64
FFFFFCF4
0000030B
0000066B
00000168
00000181
FFFFF9FB
FFFFFE09
000003DE
00000493
0000061C
00000863
FFFFFFF8
FFFFFB92
000000DB
000000A3
000002E2
000002C7
FFFFFF67
000004E0
FFFFFDB3
FFFFFB69
FFFFFAB4
00000105
00000132
FFFFFF23
000001EC
FFFFFE89
FFFFFED6
000009D3
FFFFFD39
FFFFFF66
000001E5
FFFFFA07
FFFFF505
FFFFFC13
FFFFFC16
FFFFFCFE
000000D6
FFFFFCE9
FFFFF7B8
FFFFF548
FFFFFE4D
FFFFFF83
FFFFFF04
0000030D
000010D9
000010BD
000001DA
FFFFF4AF
FFFFFB53
FFFFFB45
FFFFFF8A
FFFFFFA6
FFFFFE10
FFFFFD92
0000098B
000005CE
FFFFF98F
FFFFFACE
FFFFF95F
FFFFF5B7
00000213
00000052
0000017D
FFFFFF25
FFFFFBA8
FFFFFE5F
FFFFFB85
FFFFFE8B
00000169
FFFFFAB3
FFFFFC00
FFFFFEA0
00000105
0000097B
00000F35
00000748
000004BB
00000F04
000009FE
00000088
FFFFFE87
FFFFFEC4
0000005A
FFFFFC2B
FFFFF558
FFFFF9AB
FFFFFD0E
FFFFFF32
00000615
00000C62
000009EC
000006EC
0000028F
00000100
FFFFFA36
FFFFFDD0
00000114
FFFFF7A5
FFFFFAB8
FFFFFC37
FFFFF816
FFFFFE06
FFFFF6F4
FFFFF8CB
FFFFFD57
00000D1E
000009AF
FFFFFE1D
FFFFFA3E
00000562
FFFFF00A
FFFFFDAE
000008FA
FFFFFE60
000000CA
000006D2
00000385
00000477
000003B5
000004DB
000001A1
FFFFFD5F
FFFFFBAF
FFFFF7A1
FFFFFAE4
FFFFF8C5
00000218
FFFFFE29
FFFFF5F1
000004BD
000001BD
000000F5
00000B2A
000004D9
FFFFFA1F
00000025
FFFFF627
FFFFFDF6
FFFFECF8
FFFFF7E9
FFFFFCB4
FFFFFBA0
FFFFFB59
0000065E
000006B9
00000A94
000007EE
0000050D
FFFFFC37
FFFFFE4B
00000362
00000236
FFFFFDBC
FFFFFB68
FFFFFFC6
FFFFFE40
FFFFFD4D
00000BCA
00000F35
0000040E
000005E7
00000C36
FFFFFEF0
00000220
FFFFFB34
00000696
00000323
FFFFF670
FFFFF6B0
00000538
000001E7
000000C0
00000319
00000218
000008AD
000003D4
FFFFFE11
00000081
0000029C
0000063E
FFFFFE92
00000143
FFFFFE43
000000D7
000005B2
00000315
00000C73
00001460
00002180
00000A4E
00000ACD
FFFFFFE5
FFFFF9DB
FFFFFFBC
FFFFFEF3
FFFFF7BB
FFFFF285
FFFFFC10
FFFFFAA5
00000141
000005B4
000004E2
00000786
000001F1
FFFFFFEB
FFFFFB83
FFFFFECA
0000073B
FFFFFDF6
000000D3
000000C8
00000111
000005AA
0000006A
00000578
00001625
00001A11
00000682
FFFFF4D6
FFFFFE8D
FFFFFB8D
FFFFF65C
FFFFF594
00000274
FFFFFA53
FFFFFB65
FFFFFF8B
0000068D
00000A2D
000008C4
0000011E
000003AB
FFFFFB87
FFFFFC4D
FFFFFBD5
FFFFFDA2
FFFFFD10
00000364
000001F2
000004B8
000002C3
00000061
FFFFFE8C
00001024
000013ED
00000968
FFFFF7C4
FFFFFF4F
FFFFF63C
FFFFF68E
FFFFF696
FFFFFBFC
FFFFFD77
000003F8
00000406
0000025D
00000640
0000032F
000000BA
00000400
0000036B
FFFFFB96
FFFFF9A3
00000394
FFFFFED0
FFFFF954
FFFFFB72
FFFFF832
000001B2
FFFFFDB2
0000025E
000010F5
0000125C
0000190B
FFFFF5E0
FFFFFFC8
FFFFFDE0
FFFFF76A
000000D7
FFFFFC35
00000637
0000051F
00000667
00000391
00000220
FFFFFE84
000003A0
000004E5
0000062C
FFFFFA4D
FFFFFB9B
FFFFFCBB
000000CF
FFFFF838
FFFFF7EF
00000232
00000529
FFFFFE01
000004BC
0000085F
FFFFFD97
00000201
FFFFEC5D
FFFFFFF6
FFFFFDA3
FFFFF8EA
00000272
FFFFFEDA
00000F23
0000018C
00000B26
00000476
000003BA
00000088
000005B9
00000578
000000A4
FFFFFAA1
FFFFFE1C
FFFFFEF4
FFFFFE1C
FFFFF636
00000087
000001EC
FFFFFB7C
00000275
0000025A
00000026
FFFFF8F1
FFFFF7E2
FFFFF9C1
0000042A
FFFFFD75
FFFFF52E
00000123
0000017E
00000C1B
000006C5
0000011B
000004B5
000006A0
00000AB3
000005BC
FFFFFE4E
FFFFF9C6
FFFFFC15
FFFFFD6C
00000293
00000150
FFFFFDF3
FFFFF914
00000362
FFFFFCB5
000001EA
FFFFFEB3
FFFFFF68
FFFFFC18
FFFFF2EB
FFFFF635
00000016
FFFFFD34
FFFFFD0C
FFFFFCEE
0000040F
000001C7
00000181
000002FD
000001F9
000006B2
00000B8F
000004A6
FFFFFEF8
FFFFFB8E
FFFFF854
FFFFF77D
000000BE
00000334
FFFFFF3F
FFFFFB24
FFFFFC9E
FFFFFD08
FFFFFE40
000000C6
FFFFF6E5
FFFFF9AE
FFFFF2BF
FFFFFA4A
FFFFFDFF
FFFFFE35
FFFFFBDB
FFFFFFB9
FFFFFF5E
FFFFFC30
FFFFF727
FFFFF99D
0000042B
0000043A
00000603
000008AA
0000051D
FFFFFDB4
FFFFF9B4
FFFFFB86
000000D6
FFFFFF70
FFFFFE07
FFFFF74C
FFFFFB5A
FFFFFA84
FFFFF9E9
FFFFFFB2
FFFFFBE7
FFFFFC58
FFFFEEF1
FFFFF825
000001FA
FFFFFF6D
FFFFFF8C
FFFFFE2D
FFFFF8F8
FFFFF665
FFFFF92F
FFFFF829
FFFFF8B6
000002E4
000007D6
00000958
00000112
FFFFFB18
FFFFFC17
FFFFFFE7
FFFFFF9D
FFFFFEF2
FFFFFF72
FFFFFE37
0000024D
FFFFFA6D
FFFFFCD4
00000422
000002EF
FFFFF34D
FFFFF512
FFFFF23E
FFFFF9DF
FFFFF6D0
FFFFFA4A
FFFFFB39
FFFFFACE
FFFFF90A
FFFFFE77
FFFFFA0B
FFFFFD84
FFFFFF13
FFFFFE7E
00000014
00000161
FFFFFDB9
FFFFFDC3
FFFFFED7
FFFFFFE6
FFFFF8E9
FFFFF8BF
FFFFFF60
FFFFFF99
FFFFFB50
FFFFF93F
FFFFFCF3
000000A7
FFFFF4C5
FFFFED70
FFFFEFBF
FFFFFF95
FFFFF37C
FFFFFAE7
000002C9
FFFFF946
FFFFFA6E
0000019C
00000123
00000632
00000026
FFFFFFD5
FFFFFA3F
000000B5
FFFFFD7F
FFFFFD97
FFFFFCE7
FFFFFB8A
FFFFF963
FFFFFE1D
FFFFFF7E
FFFFFD1C
FFFFFD9E
FFFFFE10
FFFFFF18
0000069B
FFFFFA0F
FFFFF07B
FFFFF514
FFFFFFF3
FFFFFF81
FFFFFF47
FFFFF8D0
FFFFF2D4
FFFFFB1B
FFFFFE39
FFFFFCF9
000004E4
000003E5
FFFFFCF5
FFFFFC6F
FFFFFCD0
FFFFFE34
FFFFFB57
FFFFFC2E
FFFFFDBD
FFFFFCFF
0000026A
000000BC
FFFFFD67
000000E3
FFFFFECE
FFFFFDFC
000000DE
0000056F
FFFFF2DF
00000390
FFFFFEBF
FFFFFD72
FFFFFBCF
FFFFF1C9
FFFFF6DA
FFFFFAFB
FFFFFD8A
FFFFFE80
FFFFFF5C
00000886
FFFFFE5C
FFFFFDE2
FFFFFDDD
FFFFFE32
FFFFFC8D
FFFFFFF9
FFFFFE5B
00000538
00000386
000001AF
00000266
00000202
000000B8
FFFFFFAE
000007E4
0000055D
FFFFF81A
00000173
FFFFFE3B
FFFFFC44
FFFFF71D
FFFFFAE3
FFFFFB36
FFFFF835
FFFFFB90
0000032D
FFFFFCB3
00000129
00000105
000002BC
00000362
0000016F
0000012A
00000142
00000574
00000894
0000023F
FFFFFD62
FFFFFD4F
0000011C
FFFFF974
FFFFFFD6
000001C3
000001B7
00000603
0000021A
000001B5
00000107
FFFFF9E8
0000057D
000003CA
FFFFFC7D
FFFFFDAD
FFFFFD90
000004DD
00000233
00000148
00000101
00000828
00000657
0000074D
000004A0
000008C8
0000096C
000002BB
0000011F
00000457
000000D7
000002AA
00000325
FFFFFDAB
00000663
00000256
FFFFFF8F
00000141
000000A1
FFFFFE01
FFFFFDF9
FFFFF781
FFFFF125
FFFFF326
FFFFF406
FFFFFFEA
00000865
0000095C
000009D2
00000C55
000007B3
0000050E
0000004F
000008BD
FFFFFB97
00000070
00000741
00000935
00000076
0000036A
000004F8
FFFFF5A6
FFFFF781
FFFFFD6F
000001CD
000001D4
00000147
000007A5
00000321
FFFFF040
FFFFEE3C
FFFFF8FD
FFFFF749
FFFFF3FE
FFFFFA0B
FFFFFBA5
00000009
FFFFFE95
00000925
0000029D
00000939
00000B61
000008B8
00000A94
000007E0
000007F7
00000C46
000010A9
000014C4
00000E69
FFFFFAD9
FFFFFA82
FFFFFFAF
00000177
000000F5
00000145
00000309
000001C3
FFFFFFFB
FFFFFDF6
FFFFF8BE
FFFFF6C7
FFFFFB9A
FFFFFB18
00000444
00000814
FFFFFAFF
FFFFFBD0
FFFFFFF6
00000549
00000C8A
000006A4
FFFFFF23
000000A7
FFFFFF58
0000022E
00000798
FFFFFC88
0000002C
FFFFFE06
FFFFFFE9
0000004C
FFFFFDF4
000001DE
FFFFFE24
FFFFFA3A
FFFFF91B
FFFFFCD0
000000B5
FFFFFFCF
FFFFFA22
FFFFF503
FFFFFC61
0000004A
FFFFF72C
FFFFF800
00000212
FFFFF94D
FFFFF1EC
FFFFFA20
FFFFFFAA
FFFFFECC
FFFFF69D
FFFFF69F
FFFFFB9A
FFFFFFB7
FFFFFDDC
FFFFFE52
FFFFFFA3
