00000147
FFFFFEE1
FFFFFDBA
FFFFFFBA
FFFFFDCF
FFFFFE13
FFFFFDFB
00000135
FFFFFF9D
FFFFFFD1
FFFFFFD3
FFFFFF82
0000018B
0000010C
00000118
000002F5
000000E0
FFFFFE8B
FFFFFE8D
FFFFFE58
FFFFFFE0
000000AF
FFFFFEFD
000000CA
FFFFFE09
FFFFFDD6
0000000C
00000018
FFFFFFDB
000001AB
00000061
FFFFFE4D
FFFFFE13
FFFFFF3D
0000005D
00000047
00000759
0000048B
00000449
00000590
0000040C
000006EC
FFFFFF11
FFFFFFF5
00000290
000006F1
00000214
FFFFFF34
00000095
0000049A
000003EC
FFFFFFF8
000001B7
00000083
000000C1
FFFFFF90
FFFFFECF
000000FA
000001AB
0000017E
00000366
FFFFFEDA
000001B0
000003DA
000003CC
FFFFFDA0
FFFFFBBD
000001FF
FFFFF504
FFFFEDE1
FFFFEDDA
FFFFEEC1
FFFFF5E4
FFFFF91A
00000284
FFFFF9D2
FFFFFEBF
0000019D
FFFFFDAB
FFFFFDF4
FFFFF8E0
FFFFFBB1
FFFFFDBB
00000147
000001CF
FFFFFE04
FFFFF833
00000484
00000C1D
00000408
0000064B
000001FD
FFFFFFCA
FFFFEF78
FFFFF734
FFFFFA08
FFFFFAC9
FFFFFF3B
00000088
FFFFFA49
FFFFFE5A
FFFFFF9E
000002A4
FFFFFFFB
00000524
00000985
000002AE
000004EC
FFFFFD84
FFFFFA93
FFFFF964
FFFFFE16
0000005F
00000265
FFFFF622
00000878
00000045
FFFFF771
FFFFFDBA
FFFFFE39
FFFFFAF6
00000431
00000824
00000A8F
00000363
FFFFF8AA
FFFFFCB5
FFFFFFB4
0000073F
000006EE
FFFFFB49
FFFFFFEC
FFFFFEEB
00000043
FFFFFDEC
0000093D
00000D0A
000004CF
00000A5E
00000BBB
00000203
00000239
FFFFF7BC
0000082F
FFFFF79C
FFFFF154
FFFFF869
000001CC
0000012E
000004E9
000010AE
000010FA
00000C07
000000CD
FFFFFF83
FFFFF942
00000161
00000507
FFFFF503
FFFFF832
000000A8
FFFFFC04
FFFFFFBA
FFFFF6CD
00000026
00000171
00000F35
00000B34
000000B7
000001C1
0000070C
FFFFF656
FFFFFE74
FFFFFCF5
FFFFFE89
0000007D
000007B2
00000C19
0000035F
00000433
000003A6
FFFFFF35
FFFFFF32
FFFFFF43
000004C1
FFFFFDCD
FFFFF7E9
FFFFFECB
FFFFFF45
FFFFF9F8
00000137
000004DF
000005C2
0000075D
00000BC3
FFFFFCC2
00000049
FFFFFB4D
000002EE
FFFFF674
00000307
00000A6C
FFFFFE3F
FFFFFF21
00000AED
00000815
00000648
FFFFFF61
FFFFFE42
FFFFFEAF
FFFFFE3D
0000040F
0000002C
0000018D
FFFFFA8B
FFFFFD72
FFFFFC1B
0000017E
000006C1
00000854
000008FE
000008B8
000006D1
FFFFFCE4
000004D3
FFFFF9B9
00000942
00000B9B
00000768
FFFFFF01
0000047A
FFFFFF0B
00000273
0000022E
FFFFFD3E
FFFFFCA3
FFFFFD60
FFFFFBAB
FFFFFB30
FFFFFE5A
000000D3
FFFFFDC8
FFFFFD48
FFFFFCCE
FFFFFD5B
000002ED
00000765
000008C0
00000EF6
0000164D
000005EE
00000C4D
FFFFFE62
FFFFF9AB
00000EFC
00000783
FFFFFBA6
FFFFFF84
FFFFFF83
FFFFFC33
00000282
000000AB
FFFFFA44
FFFFFCD6
FFFFFAA2
FFFFF6AC
FFFFF49F
FFFFF745
000001DE
00000080
FFFFFB18
FFFFFB33
0000014F
000005A3
0000064F
00000917
00000FD0
000014E3
000008D3
FFFFF9C5
FFFFFE06
FFFFFAB9
FFFFFE3A
FFFFFFE4
0000030C
00000030
0000012A
0000046C
00000476
0000029E
FFFFFB85
FFFFFD1A
000000D1
FFFFF6F8
FFFFF562
FFFFF68E
FFFFFCA2
000001B5
FFFFFFC0
FFFFFBC5
0000012F
00000865
00000375
00000518
00000F9F
00000FC4
000006BE
FFFFF5D9
FFFFFC9A
FFFFFBB8
FFFFEF8C
FFFFF9A1
FFFFFBAE
FFFFFA88
000000CC
000001DA
00000554
000004E5
FFFFFF9F
000004F6
00000781
FFFFFE2A
FFFFF987
FFFFF9C6
000001CC
FFFFFDFF
FFFFFE21
FFFFFCB0
FFFFFDA0
000004F7
FFFFFE21
FFFFFB93
00001185
000015B5
00000F9B
FFFFFEBC
FFFFFFCE
FFFFFABD
FFFFFA87
FFFFFD3E
FFFFFC45
FFFFFD9F
000008A8
00000133
FFFFFE2A
0000036E
000006AA
00000BC8
00000B72
00000602
0000006A
FFFFFB81
FFFFFC42
FFFFFAFF
FFFFFC9A
000000B9
000002E1
FFFFFE49
FFFFF4B1
FFFFF6EA
000002A2
0000041C
00000A7D
FFFFFBEC
FFFFFF5D
FFFFFEBB
FFFFFC33
000000D9
FFFFFB75
000003D1
000001E3
000001A5
00000092
000005B6
000008C5
00000778
00000AC7
00000679
00000094
000001EE
FFFFFD01
FFFFFBFC
FFFFFD9B
000000F3
FFFFFCE8
FFFFF36C
FFFFF55C
FFFFFA37
FFFFFCD0
FFFFFCEC
00000128
FFFFFEA4
0000046F
FFFFFE16
FFFFF401
FFFFF6EE
FFFFF82D
00000BDA
000007D3
00000281
00000116
FFFFFBB9
00000222
00000501
000005F4
000007BF
0000082F
0000052A
FFFFFE04
000000CA
FFFFFDAB
FFFFF8F5
FFFFF7D0
FFFFF3A8
FFFFF52E
FFFFF595
FFFFFCF7
FFFFF7FC
FFFFF97B
FFFFFBA6
00000378
000002D3
FFFFFD83
FFFFFA39
FFFFFEB7
0000078D
00000420
FFFFFC88
FFFFFA2B
FFFFF580
FFFFF9F3
FFFFFB48
000006B4
000003D3
0000074E
FFFFFFB7
00000051
FFFFFD34
FFFFFEDA
FFFFF8CF
FFFFF551
FFFFF70E
FFFFF777
FFFFFFCA
00000070
FFFFFE85
FFFFF639
FFFFFBC5
000000AC
00000319
FFFFFC9E
0000051B
FFFFFD23
FFFFFE3A
FFFFFA9A
FFFFF3B4
FFFFF2F1
FFFFF0A9
FFFFF23A
FFFFFB1D
00000794
0000022F
FFFFFEE9
FFFFFDA7
FFFFFF20
00000111
00000113
FFFFFB51
FFFFF85D
FFFFF684
FFFFF6E6
00000132
FFFFF86B
00000057
FFFFF7FC
FFFFFD9B
FFFFFEE9
FFFFFF35
FFFFFD9D
0000007B
000005A2
0000053F
00000157
FFFFF940
FFFFF6CD
FFFFF80D
FFFFF7C7
FFFFFC46
FFFFFC1A
FFFFFC69
FFFFFA1B
FFFFFD9E
0000028C
FFFFFFF0
FFFFFF17
0000013C
FFFFFC00
FFFFF631
FFFFF72E
FFFFFD3F
FFFFEF0A
FFFFEA2C
FFFFE73B
FFFFFEA4
FFFFFD41
FFFFF8C1
FFFFF69E
00000408
000006AE
00000693
0000088B
FFFFFF33
000002EB
FFFFFEC6
000001AB
00000131
FFFFFAF2
FFFFFB88
FFFFF5E0
FFFFFD04
00000132
FFFFFD56
FFFFFDA1
000006BF
0000047A
FFFFF8EC
FFFFF4B7
FFFFF9F6
FFFFF85C
FFFFF264
FFFFEA5B
FFFFF643
FFFFFF8F
FFFFF295
FFFFF6C1
0000088B
00000391
0000010A
0000008F
FFFFFFA7
00000657
FFFFFE18
000006E5
000003DB
FFFFFC7C
FFFFF986
FFFFF7C7
FFFFFFA6
00000070
0000019A
00000397
0000016D
000005FF
FFFFFEC4
FFFFF7B0
00000001
FFFFFECB
FFFFF8B3
FFFFFD84
FFFFFC89
000001C9
00000218
FFFFFADB
FFFFF924
FFFFF8F2
FFFFFCC5
FFFFFCC8
FFFFF6EB
000001B8
000001A6
000008E7
0000064A
FFFFFD4F
FFFFFEF3
FFFFF9E4
FFFFFF74
FFFFFF9C
FFFFFF7F
000003CC
00000295
00000688
000003A4
00000447
00000420
FFFFF9DD
FFFFFE48
FFFFFEE2
FFFFFA86
FFFFFEBE
FFFFFFDA
FFFFFD47
FFFFF86E
FFFFF95B
FFFFF75E
FFFFFE5B
FFFFF94F
FFFFF903
FFFFFBDB
FFFFFB7E
0000052A
FFFFFC57
00000008
FFFFFB6C
FFFFFB9E
FFFFFBB3
00000358
FFFFFFE9
000004D6
000005B4
00000561
00000539
000002B1
FFFFF90A
00000260
000006B7
FFFFFEE1
0000005A
0000006C
FFFFFFA9
00000376
FFFFFAE2
FFFFF568
FFFFFC5C
FFFFFDFF
FFFFF7B3
FFFFFA05
FFFFFF9B
00000844
00000607
000004AF
000001D4
000001B7
FFFFFE1B
0000018E
0000039A
00000504
0000008E
000005F8
0000012F
FFFFFD64
FFFFFD0F
FFFFFF4F
0000029C
000002F5
00000202
00000153
000001A5
00000F6E
00000252
FFFFFD06
00000284
000001B2
000005ED
000004C2
000007FA
00000746
0000072A
0000056A
0000067D
FFFFFD8D
000003DC
000003AF
00000754
000005F0
00000BB1
00000ECB
00000CE2
FFFFFE10
FFFFF76A
00000267
FFFFFDA9
FFFFFFD0
FFFFFEA4
FFFFFEC1
FFFFF921
000005B4
FFFFFC53
FFFFF919
FFFFFEB2
000002C0
00000587
00000C03
000005BB
000007C8
0000067D
0000036F
00000342
000000D0
00000706
0000006C
00000C81
0000089B
000013E1
00000C9A
0000023F
FFFFF9F2
FFFFF929
00000152
FFFFFC5E
FFFFFF0A
00000152
FFFFFE32
000001C7
0000037F
FFFFF7A7
FFFFF928
FFFFFC01
FFFFFA6E
FFFFFB99
000002BC
00000447
FFFFFBF6
FFFFF762
FFFFFC84
000003AF
000002C0
00000311
00000B55
000006EC
FFFFFFF8
0000063C
000005C0
00000641
00000712
0000035F
00000040
00000082
FFFFFFDA
00000219
FFFFFE15
0000021F
0000049C
0000051C
FFFFFFE7
FFFFFE63
FFFFFFA0
FFFFF45B
FFFFFEAF
FFFFF3A1
FFFFF82D
FFFFFBA8
FFFFFB39
000003CB
FFFFFFB2
FFFFFBE4
0000015D
FFFFFD9A
FFFFF0C4
FFFFFBB0
00000231
00000097
0000000E
FFFFFC60
FFFFFE31
FFFFFF56
000001D2
FFFFFF0F
FFFFFFE7
FFFFFE1B
000000B9
FFFFFD37
FFFFFC1D
FFFFFC81
FFFFFC66
FFFFFE83
FFFFFD69
FFFFF9D8
FFFFFC8E
0000012D
FFFFF92D
FFFFF927
0000029C
FFFFF70E
FFFFF01B
FFFFFD00
FFFFF9ED
FFFFF967
FFFFFA4A
FFFFF89A
FFFFF979
000000D9
00000067
00000108
0000001C
