00000048
00000386
00000B2C
0000013C
FFFFF9C1
FFFFF41F
00000FCD
00000192
0000056C
0000000C
000010C6
00001481
FFFFF9E3
0000009D
FFFFF7F4
FFFFFB1E
0000105F
00000D92
000003A7
000004EF
FFFFFFA8
FFFFF49C
FFFFF052
000004E8
0000105F
00000106
000005F4
00001009
00000790
000009EE
00001515
00000DD3
FFFFFAB4
FFFFF2C5
000007A3
FFFFF49B
00000F58
00000BFA
FFFFFC96
00000155
0000064A
FFFFF486
00001783
FFFFFB37
FFFFFDD2
FFFFF832
000014FF
FFFFFA4F
FFFFF9DF
FFFFFBDB
0000021D
000002DA
FFFFFCAF
000005B1
FFFFF7D7
000000E6
000005A2
FFFFEFF0
FFFFFCA0
FFFFEF9D
FFFFF007
000006B2
FFFFFC53
FFFFF9F5
