FFA1
0074
FFA0
0082
FFCE
FFF2
FF76
0012
003E
0047
007F
FF9E
FED3
FF62
0092
00C5
FFED
FF96
FFED
0086
0059
FFCF
0018
004D
0012
0033
0025
FFAE
0002
005A
0050
FFF0
FFD2
FF1C
FC15
FCEE
FEFB
FFAE
FEBE
FECD
FDF0
0037
FF0D
FBB2
FF64
FD92
FCD5
FD9C
FC59
FD7D
FDB8
FD67
003E
FFB2
003A
FFC2
FFA0
0083
FFB3
FB4A
FB84
FE09
FE48
FD6B
019A
0270
00B9
FF55
012F
FC24
0009
FCD4
FBFE
0086
FF18
FAA6
FCA1
0360
01D9
0089
0247
02B4
008C
007D
0054
0015
FD0F
FA90
F9F8
0117
00D1
005E
FF57
01BA
04BA
060F
009D
0096
013C
0059
007F
FF78
FD51
FCFE
FD0D
FEAB
FE89
0205
0277
FEC2
FFF2
000B
FFC0
FFF8
FC60
F93E
FB19
FE35
01CB
02E4
02DF
031E
02AC
0250
022D
0133
0141
FF62
00AE
011E
FFF8
FF2E
0112
FE0C
FEBF
FE3F
FEB7
FEF0
FE5A
04FF
FFA5
FFC4
FC29
FCA7
FD79
FA03
FEC9
012A
0125
FF74
FF88
00A5
011D
0048
0173
000F
01B2
01C8
00AE
01C5
008D
FF40
FEE0
FE13
0067
046C
03AA
0458
FFFD
0065
FD3C
FE6C
FF29
FD25
FE3F
FDD4
FE3A
FD58
FE16
FE71
000F
0031
0075
013B
0151
017C
FF4A
FF43
FE4B
FEBE
0036
00A1
FE57
0171
00D4
033E
FF6D
FC99
FE36
0011
017E
FE60
FD56
FBB0
FEA5
FEF5
FEBA
FE7A
FF27
0132
FEB7
0160
0041
01DA
00FD
FF94
FCF7
FF50
0124
FF73
01A1
00C8
0101
019E
FE11
FB52
FFA2
0104
01C5
FCDB
FE72
FD7E
FE5E
FFD4
00CC
FEB1
FFB9
01BE
008D
010F
026A
015E
0117
00E2
FFAE
004F
0023
FFEA
FF9A
FF02
00F7
FF77
0042
FCF7
02E2
031B
FEED
FF2E
FD26
FE1D
FED2
007A
FF9F
FE85
FECD
000B
0059
008C
01D9
0219
019E
0299
0312
01CC
0100
030D
FF12
FDA8
FF13
FAEC
00A6
FDC8
0104
0122
FF31
00E7
00C8
003C
FF44
FF68
FE4D
FF44
FEB4
FF03
0052
FF57
FFAE
FFCD
00BD
012F
00B0
01C6
036E
03B7
FCC6
F9AC
FDA3
FE97
000A
FBFE
FF55
00C2
FE74
FFAA
00ED
01C5
0121
0096
002A
005A
0145
FFD2
FF45
FE50
FE49
FD8F
FCEE
FF9F
0047
005B
02B8
014E
0051
0041
00A2
FC45
0079
FF0F
FF53
02C2
FED7
0197
0130
FFF3
FF98
00D0
FF83
00D2
01C2
01AB
FEB5
FE3A
FE26
FE11
FCC9
00A6
0223
0323
0253
016B
06EF
022E
FE88
FC02
FE3B
FF8D
FD93
FF45
FDF1
010D
01F0
0096
0140
019C
02A3
0360
033D
036B
00BC
00BF
FFA1
FEE3
00C5
002F
0278
03A8
038B
023E
02DD
0653
06AD
0498
FE3E
FD69
FA94
FE6B
01C0
0156
01C6
023A
018B
01F6
02C8
0586
04E3
03E8
020D
004D
003A
0175
019A
0232
012D
01B8
0143
FEC1
FF59
0844
0A15
0427
FEC8
FDCF
FE4A
036C
0165
00AA
00C8
00C3
025A
03A6
0459
0526
049A
040F
0473
01F0
0114
023F
00FD
01FF
0171
00A4
00E4
FEA2
0170
06AC
08B4
054C
0026
FC06
007B
01FD
FE86
FDDB
011B
0135
01B1
0430
0544
05D8
06EF
04ED
02C9
02A6
0282
02D0
0190
00E0
021B
0105
0112
0165
FF84
06F6
098D
05C3
0080
FBF5
03F9
FEAD
FF4B
FF9D
FF14
00C0
00F5
01A4
027B
03CD
0410
02EF
015C
005A
008E
0000
0026
0079
015D
0258
0241
0095
FFF3
0464
02FC
06EB
FA9C
FD86
0100
FE1F
0204
01B6
007E
0005
0130
0041
0098
0016
0364
0241
FFDB
FECA
FEE0
FE94
003B
003C
0074
019A
023D
022F
009D
0083
0048
03FF
FE8A
FA90
FDA2
FF2C
015F
0115
005C
0143
002A
003B
01AA
00A0
0093
00DD
0082
FD96
FD45
FEA7
FFCA
FFC9
00E0
0082
01AD
0304
FD75
FE3B
0268
00E2
0043
FCF4
FFDF
0264
0113
018D
0064
035D
00B2
FFD9
0153
00B9
01D5
00F4
FF99
FE73
FC98
FC52
FE12
FE5C
00E4
01D6
FF11
FFF2
FE21
FC5F
0044
FE44
FD60
0112
0071
0232
0020
0078
01CF
018C
006E
0112
FFB0
0138
0182
0136
FEA6
FDFB
FD41
FF13
FD77
FEB9
FECE
FD7C
0051
01DF
FD50
FBE5
FF99
0096
FDBD
FECD
013F
0116
000E
0179
03BD
02D4
01F4
016D
0258
031A
036A
020E
FEA8
FDAB
FD48
FD51
FD0F
FE81
FDB7
FDE5
FE3C
FDEC
004C
FC65
FBEA
0118
FF94
004F
FF10
FB41
FE20
0031
007B
0302
04AD
039D
02A3
027A
0151
0159
FF92
FE9C
FDB6
FC56
FE67
FF56
FE08
FF71
0034
FFFC
FEA7
FD7F
FA33
0005
FF9F
FFC4
005A
FA2B
FB49
FD6E
FFE9
0158
02C6
01E6
0216
0340
032F
01DF
011D
007A
0203
FCF1
FE00
FF20
FDF7
FE76
002B
FF95
00B5
0358
FE99
FF8A
FFB7
0010
01CF
FD1A
FE8C
FD44
FE5B
FD2B
FBAC
FA97
00D1
FF25
FCEC
FFF6
01A5
01AE
00AC
FF62
FDDA
FC52
FDEB
FB44
F994
FB3F
F83F
01A7
027A
FFE2
0083
0063
002A
FD87
04C2
0281
0010
FC83
0071
FF81
FE19
FB60
FCF5
FD93
FDB9
FAD4
FE70
FE85
FF52
FD07
FD18
0010
FDD6
00E5
FF85
FEF0
0063
FFBF
0018
0025
006A
FFD2
FE8A
FE05
00D7
01B3
005D
0018
FC5B
FD09
FD8C
FA03
FCEE
0032
00FC
00D3
00EE
0232
0271
FCFD
FE04
FB25
FFAE
FFAD
006C
FFC7
FF78
FFA6
0012
FFF9
FFE2
0014
FFDD
0043
FFF3
0026
FF71
FFE5
FF98
FFAB
006D
001B
FFF1
FF74
FF7A
FF71
FFF0
0039
0031
0048
0061
FF80
FFAE
FF7A
FF87
FFC7
008A
FFF4
FF8C
000B
0034
0029
FF78
004C
FF8C
0047
0045
0058
006C
0007
FFEF
FFE3
002B
005D
FFB4
FF8A
0029
0026
FFBC
FFF3
FF96
0089
008F
FF72
008A
0023
FFB7
004C
FF8A
FFC1
FF94
0029
0039
006A
0043
0020
FFF8
FF97
000A
0034
0075
FFD3
007B
0079
FFE2
FFB6
0002
0024
FFA5
FFF5
0084
FFD9
004B
008B
0065
FFA4
FFE7
FF98
0031
0027
0065
0064
FFC7
0000
0010
000B
FF97
0043
FFA1
FFCA
FF93
0039
FF8A
0046
007A
0032
FFB4
0004
FFD8
0024
FFF8
0007
FFE3
FFD0
FFF4
FFF5
FFF0
0053
FFCC
FF5A
FFE3
006E
FFA5
006F
0029
FFE4
0025
0017
FFB0
FFAB
FFCA
FFCE
FF7C
FFD3
FFBB
FFF1
002C
006C
FFEE
003A
FF8F
0000
0058
FFA1
0016
FF45
FF43
FF4F
FFEA
FFB6
0021
FFF9
FFEC
FF90
0052
FFB5
FFB3
FFE5
FF61
0039
001B
0013
FF7A
FFA4
FFDD
FF96
FFA4
0011
0070
FFB3
000E
FFA4
FFC5
0002
FF88
FF92
FFCE
FF99
FF9D
FFA3
FF84
FF99
0059
FFC7
005F
FF91
FF5A
FF9C
FFA2
0083
FF73
FFE3
0065
FF72
0069
0042
FFDB
FF82
FF9B
0084
0004
0071
FFD6
FF8A
FFA3
FF96
0052
0004
0040
FF9B
FFFA
001F
FF89
003F
FFE4
FFFA
FF8E
FFAC
FFDF
004A
FFA9
0042
0075
002A
002C
FFE6
FF76
0001
FFAE
0043
000A
005C
FFCA
FF98
0014
FFF0
FF9D
001D
FF98
0023
003C
0060
0011
FFA6
0035
0049
FFED
FFC4
FFB0
FF6F
FFE3
0005
FF92
0024
FF85
002A
FF9A
FF8F
FFAF
FFC6
FF85
0023
0040
FF77
FFD3
0049
FF8E
FF9A
FF5C
FFD1
FFEF
FF82
FFCA
0005
FFF4
0017
005E
FF8F
FF9E
0011
FF8F
FF69
FF5C
002C
FFB4
0004
FF6E
0072
FFFF
002D
FF96
FFF5
FF91
FFE5
FF7D
FF8D
0030
FFE8
FFA2
FFCB
0008
FFCC
0022
0023
FFEC
0024
FF9E
0028
FFEC
FF8C
0089
0068
0024
FFA9
FFE0
FF9C
004F
FF9B
FFAB
FFFF
0015
FF5F
FF89
FF85
FFA5
FF8E
0026
FFE0
0049
FF8D
FFC8
FFE3
FFB5
003E
FFE2
FFCE
FF8E
FFD4
0030
FF99
FF5C
006B
005C
FF90
FFD0
FFAB
FFD6
FF7C
FFFB
006F
FFD4
0072
FF67
FFDF
FF96
005B
FFE5
FFE5
0065
FFAD
0078
004F
FF8B
FF82
007C
FF83
FFD5
0011
FF5C
FF71
FFDE
FF86
0036
0057
FF66
FF8B
0070
002E
0014
FF78
FFD0
0011
FFEB
FFDA
0020
FFEC
0022
FF9A
0049
0029
0058
FFC7
0028
FFE3
0017
005D
003B
FF91
0049
FFBA
FFDB
FFBB
002A
FFF7
FF86
005F
FFBE
0001
FFDB
FFD3
008E
0074
002A
FFB4
0002
0072
003A
008D
FFDF
0064
001C
FFAF
FFFB
FFC6
FF68
004B
FFAC
0044
FFD3
FFF9
FFF9
FFB2
FF76
FFAD
0005
007A
FFEC
FF90
0023
0014
000A
0061
FFFE
FF9E
0055
0092
0003
FFB9
004C
0029
FF6A
002B
FFEE
FF9B
FFC9
FFC6
FF71
FFA8
0002
0061
0073
FFD9
FF82
FF83
FFAA
FFBA
FFA0
FF80
0044
0033
006D
004A
0046
FFCD
FF7B
0027
FFF0
FF82
001C
0005
FF8B
FFA9
FFD0
002A
FFE0
0062
FF8F
FF57
FFAA
0078
FFF0
FF9C
0049
FFC8
FF75
FFBB
0022
0067
0004
FFE8
0051
002C
FFAA
FFE7
FFE4
0046
006B
FF57
FF96
0009
FF83
FFBC
004A
FF64
FFDD
0008
FFF3
FFA6
FFBE
FFC8
0053
0069
FFAE
007B
0027
0064
0019
0003
003D
FF85
001C
FFEA
005F
0018
0052
FFCF
0001
FF6D
0066
0037
FF65
FFEF
FFAC
FF71
FF78
FFA7
0055
0023
FFD2
0050
001F
FF7A
004F
008C
FF8D
FFE0
FF74
FF93
FF74
0043
FF9A
006C
FF77
006F
004B
FFD0
003D
FF77
0069
006B
FF79
004F
005E
0043
FFC7
0047
FF78
FFC5
001C
0009
FFA6
0007
FF82
0053
0089
FFBA
002F
0027
000E
007B
FFB0
FF5E
0061
FF7E
FFF2
FFF7
FFF4
FFC1
FFFF
0033
FFD6
0069
0026
0056
FFB8
FFB9
FFAD
0022
FFBE
FFAD
FFFE
FFDC
FFE4
FF82
FFB7
0054
0002
FF6C
0014
FFC5
FF4A
0025
004B
0000
000B
FFF0
0058
0010
FFDA
0056
FF66
FFC0
FFC3
004D
0050
FFF1
FF75
FF81
0009
FFCD
0059
FFB7
FF71
FFC0
0061
FF64
FFEC
FF9C
000C
FF7D
FF91
FFAB
0014
FFC3
FF85
0029
FF70
FFE9
FFC6
FFA7
FFA1
FF7B
FF9D
0083
0088
FF7E
FF7E
FF82
FFFD
000A
FFB9
000E
0051
FF98
0059
FF88
FFBB
FFA6
FF91
FFCE
004D
005C
FF96
0048
0070
FF9C
002D
FF6A
0069
007B
007E
0055
006C
FF84
FFEE
001B
FFBD
FFCF
0009
003A
FFD3
FF9D
0031
0015
FFAD
FFC2
0082
FFD9
002C
004B
FFE9
001D
0078
0072
FFD2
FFEA
FF8F
FFFB
0008
FF9D
FFF5
FFA8
0037
000A
FFBC
0054
0075
0000
0065
FFA7
FFB4
0081
FF78
005F
0010
0044
FFCA
FFB1
0033
0008
FF92
FFAD
FFC3
FFC5
0070
0038
0089
0045
0009
FFD4
FFFC
007E
0040
FFD0
FFB2
FFC2
FFA6
003D
FFC2
FF7A
FFA5
FF9C
FF71
0041
0016
0053
FF85
0051
0073
FF6F
0026
0050
FF99
0087
FF7E
0088
FFDC
FFD2
0087
FF8A
FF8B
FFD8
0000
000F
004C
006D
FFF0
0075
FFD5
FF81
0060
0014
FE60
FE84
FE3A
FEAB
008B
FFB9
0035
FF96
FFCC
FFFB
FFE6
FFE1
FFEA
FFD4
0080
008B
FFB5
FFF0
004E
FFD3
FFB8
0083
00FF
0185
0110
01D0
01AE
03DF
044D
013F
FE0E
0293
05B5
05CE
0423
0317
03B3
00F2
009B
0007
FFE7
0078
FFE8
FFC8
000D
FFD0
FFDD
0499
0416
02F4
046B
045F
0311
03B0
0408
0346
FCDA
FC9D
FCB2
FBEE
FC43
FCEF
0094
01F4
00E1
012C
0233
01B6
0171
FF63
FFD9
FF9A
FFB8
0006
0073
0395
FD50
FEEC
019C
0311
01BE
FFB6
FDE8
0107
FF12
0293
004F
FF42
FF46
FE96
FF73
FF34
FCF9
FFEE
0156
0199
019D
FE12
FBBF
FFEE
FFB2
FEAC
FE49
FE0B
03EC
0142
03EC
04DF
00AF
FE40
FF7C
0122
008A
00D4
00D1
0120
000D
0240
013E
00FC
00D3
0033
022C
008C
FC31
FD27
FADD
0062
FFC0
0076
FF6F
FDD5
04A9
00BC
035F
025D
0267
01BB
025D
0230
FEC5
00C0
01CD
0090
014C
01B7
015B
0187
FFF7
00DA
00BF
FE65
FDE7
F9D6
F815
FE4F
FFAF
FEA1
010C
0231
05F4
025B
02AE
02A2
FEF9
FDB9
00D8
01C4
FFA9
0136
0170
0040
01A6
0035
00DF
0240
02FD
01B2
0044
FD83
F977
F744
F7BC
FE09
FFE4
FE47
FFA8
02FD
03D5
0245
01EF
00A5
FD06
00BB
018F
02BF
014B
01E4
FF58
0039
007A
015C
0193
028C
0202
01D8
0151
FF7D
FE38
FA68
F7B3
FE77
0490
000A
0033
0290
01CB
FF5A
FEF4
FDBF
FF31
00D7
FF9A
FFF0
FF6E
FFBA
FF8F
0143
0240
02EA
0211
0193
01D5
0241
004D
FF68
0085
FCD9
F862
FE70
0105
01F3
FFE7
00D0
0422
01AF
FEE1
FFD1
FE94
0033
0094
FE9E
FDB9
FFDC
FEF3
FF21
015E
0243
0455
04AB
038F
0105
FEF8
0087
037A
FD40
F795
FD7A
0086
02D2
014B
002A
00D7
03D9
01FB
FF7B
FE20
00EC
FF77
FEDE
FF83
FE94
FC8F
FD06
0015
0338
03CB
02E8
0222
024E
012B
01A0
0187
0072
FBC3
FDEB
0169
0624
0479
FFB0
FCE3
0091
01C9
FEFE
FE91
00FF
FF2B
FE17
FD44
FE0D
FB43
F9DA
FCB1
FEEB
0132
0171
0275
021F
028B
027D
021C
FF34
FB89
0044
0096
019B
05D2
0155
002E
011C
0357
FFEF
00E7
00AE
FE3A
FDA8
FD15
FC6C
FAA9
F85C
FB4B
FD7B
FE4D
0041
005C
017C
03CE
0361
032D
FDDA
F96F
FFF9
FF87
034C
0559
0072
038F
0253
03D4
0213
009D
FFD1
FF45
FD7D
FCD7
FC78
FCF7
FBFD
FC24
FC70
FDC2
0027
FFA2
010F
0312
02D5
00C8
0050
FA02
0061
FF45
FCA2
FF77
0025
0466
0544
0284
04A0
0171
FE25
FBA1
FC72
FE56
FE3F
FEA2
FE4D
FBCA
FD52
FF08
0014
01A5
01B9
00DC
00AB
009E
0135
FDFD
0209
FFC2
FD4F
FBCE
00C1
0133
0210
00C3
0418
025F
0008
FCD9
FCB9
FEFC
FF3F
FE36
FDFA
FC5B
FF9A
FF40
FF37
01BD
00E9
000B
FFD5
FFD5
003F
FC15
FDA0
00FC
FD7F
FF8B
FE06
FFDE
043B
03C3
03DE
02F4
0166
FD2E
FCE1
FF99
FEC2
FE17
FC90
FD67
FFBB
0050
0075
0080
013E
00A8
FDAA
FDC9
0030
FF14
FE8F
FFDB
FB5A
0178
FDDE
FEFF
03E6
0342
02AF
0207
0193
FF8B
FE08
FE03
FE0E
FDA9
FFB4
FF43
0197
00AC
FF70
007E
FFD1
0359
FFC8
FD5E
03EC
FD34
FC4E
0053
FB82
0008
FC46
0147
0138
024C
02CB
028B
0376
01DE
FE90
FB9E
FD22
FE8B
FE44
00FE
0206
02DB
00FC
01F3
0236
02A6
FF1A
FC65
0486
FCF6
FC1D
0035
019F
0174
FF56
00D8
0024
0253
0329
0398
043D
03FB
0140
FE63
FC55
FE49
FF5C
019E
0194
01D1
0140
0228
01D3
0260
FEAE
FC0F
0310
FFE1
00FB
FFC7
0257
03D7
0141
01F8
02BE
009A
00F4
016D
0304
03D7
00DC
FF7E
FE4B
FF6D
0039
0157
012F
018B
0197
0034
01F0
019D
00AC
003D
011F
00F2
001F
FFA1
0028
002E
02A7
01D9
0405
01F6
012B
018F
01FE
038C
020A
00D0
0003
00CF
01E5
02AE
00F3
0079
FF82
00AF
FFDB
0185
0153
009A
FC54
0289
01D6
0002
FCED
FFC2
0250
FFFB
0287
01E5
01D0
0285
02F6
02B2
01C1
01BF
012A
0030
FF76
FFE3
FEFC
FF6B
FF78
FEA5
FF41
0221
FF38
FEC6
FB49
FABF
02CB
FF78
0030
FD3F
FEE4
FFC4
FEDF
FFE0
00B3
01B1
009C
008F
00F9
01D7
0157
0230
01D4
FFAD
FFBA
FD86
FE57
FD68
00B5
0132
FCF8
0158
FAA6
F95A
004F
006F
0079
018D
FAA6
FEFC
00BC
FF13
0096
0148
01B0
008B
00D9
02C3
0002
FFB5
0083
FED5
0044
00BA
FE41
FC8A
FCE6
01E7
0338
03E1
FF67
FF83
FF89
0079
FFD1
0235
014C
FFB1
0272
FECA
FECC
FE91
FF02
FE48
FEA4
FE25
FD2B
FCDB
FC40
FDAE
FAA4
FDA8
00D8
02A7
0530
0004
0162
FEC1
0110
0034
FF92
005D
0039
0029
FFD8
039D
0355
0305
03D2
0496
0196
FBFE
FC7D
0086
FEF8
FF3A
00BD
FF37
FC2F
FEEC
0222
03D7
0407
0154
0464
0356
FE0A
FF9E
FFF8
FF7F
FFFE
0061
FF78
FF76
FF0B
02F3
0357
02CF
01A4
FE31
FDDF
01DC
FF56
FDB6
FE57
0353
037B
00D3
04C4
0404
FFE7
FDC1
FB75
FFB0
0072
0018
001D
0028
0020
0066
0003
FFE9
0044
FFE9
0046
FFC6
0014
FFA5
FFBF
004A
002F
0002
0041
FFE6
FFE9
FF9B
FF78
FFE6
FF9E
FF7A
FFA2
FF9F
005D
0088
FFC9
0004
006B
007F
0073
01AA
0215
0011
004A
00BF
019F
0122
010E
0174
0303
FFCF
FF67
FCA2
FEE6
084A
0642
063F
04A8
03A7
0305
0026
0067
004A
FF83
001A
005F
00A0
0315
028E
00AC
0145
010E
00CE
FDFA
FEBF
01D7
FD3E
FE75
FE84
FEFA
FFE3
0370
02CB
05C4
0558
08F9
099C
03BB
FFD9
FFAA
0023
FF96
0042
FFA8
FD8C
0310
0390
0286
00F2
0105
FE40
FD68
F874
FB81
FCFA
FF93
FEBE
FCFF
FCB7
0055
004C
FF8D
FDE5
0141
019E
0199
0287
FD91
00CC
FFFC
0060
0035
FCBB
FFE3
0157
0026
FE59
FB6B
F7DF
F8CC
F94A
FAB1
FDE8
005C
FF8F
FEA9
FFE7
0040
FFC1
FFDC
FF4A
FFF1
00A5
046B
FEB2
FB63
F9DC
003E
FFCB
FFA7
0150
FEEB
FE81
FF33
FCB4
FA9A
F687
F74B
FAED
FF57
0069
0074
0030
0198
FFBC
007E
00FD
0114
006C
014F
FF74
00E6
01C1
FC5A
FD64
0033
FFAB
FD89
0035
FE4B
00BB
0273
FD7F
FB1E
F5F9
F50D
FC24
FFDD
0005
0064
01A7
023E
012A
01DF
FFE0
0021
0222
0061
FFBB
FE9C
FFC7
FF9E
FF58
004D
FFB0
F91F
FFA6
FD88
FED7
FDFB
F963
F780
F5F9
FA64
FEBF
006A
0212
0255
01D2
01A1
004A
0141
0122
000A
0175
0195
008E
014B
FFC7
FDB3
FF16
FF64
0409
F89F
0010
001D
FB24
FBC6
00AD
FA03
F884
FC1C
FE59
02FD
03FB
044E
01F6
FFAF
FDF3
FEDD
FE61
FF25
FFD3
021C
00C0
FFE7
01AE
00F2
FDA3
FB72
FD49
FA61
0102
FBAD
FCDE
FB5A
FAD9
F74F
F9DA
FCB5
0094
03B2
03A7
0438
01E6
FE72
FCCD
FC08
FD83
FDE3
FF1B
0103
006C
00AF
0051
FDE0
FA2C
FA0F
FD84
FC19
FC92
0166
FDA5
FC65
F914
F82E
FBDC
FCB6
FF0B
02C8
039B
0329
01D2
FFA8
FCD5
FCBC
FF32
FEBE
FE13
FE60
FFF4
FD49
FB0F
FBD7
F9C8
FB33
FD55
02BA
013C
FAE7
FAC6
FB3F
FA05
FCCE
FD04
FD39
00EB
0169
039E
033E
01A1
FF63
00B2
FE33
0006
00D0
FFEE
FFA1
FCC8
F9F1
F814
F872
FADE
FD09
0015
FF96
004A
FA71
FB6D
FAEE
FB69
FCDB
FE2E
0094
00BB
0427
03CD
02E9
0025
FF6D
FFEA
0057
00FB
0129
02A5
0238
FF7F
FC89
F99B
F8CF
FD18
FBA1
02FA
0171
FB65
FA16
F9EA
F92A
FC18
0069
FFD2
0005
0092
01A0
034A
0188
00E8
015E
FFC8
00AC
0033
0102
00CC
0106
FEC8
FABE
F9AA
FB18
FE17
FECE
01CA
FDCA
FDCB
FE54
FC10
FDF9
FB00
FFFB
0103
FFEF
0151
000D
010B
0227
FFE0
00AA
006B
002A
00B8
FFD8
0142
00C6
FE61
FDA6
FEC2
FDB4
FA9B
FE13
00F7
FF07
010F
FEFE
FE86
FC5E
FBC4
FED0
0139
001E
0182
0056
00C5
00BE
005C
0025
01B1
00B1
00F3
009A
0078
0356
0101
0039
FF04
FB72
F890
FCF0
009E
FD43
FC86
FBFE
FED5
FD69
FB4F
FE69
00B9
FEA1
009E
01FF
00CF
FDFE
FF7B
FF6E
0118
0088
0066
FFD7
FFE4
0069
00B1
0171
FE4F
F956
F83D
FB5D
004D
FCEC
FC17
FED4
00E3
FE27
FC45
FF87
0154
0158
0355
0108
FF0C
FDBB
FF35
0143
0162
FFF8
FEC2
FE5A
0020
FF83
0120
0248
FEB4
F965
0085
FB76
FC54
FCAB
FCE5
FE35
0154
001E
FE77
0116
0178
020B
FEEE
FF6E
FE3D
FDA3
0012
00ED
010A
FFB7
FEAF
FDE0
FF9A
FF7A
FE93
FFCA
FC50
FB63
0115
FE38
01B3
FBCC
FCC3
FC73
0090
FFDC
FFCC
01E7
008F
FFF4
0028
00B1
00B4
FED6
0014
0066
006F
FE74
FDF5
FFB4
FF99
FF85
FFB1
FF13
FD16
FE58
013F
0311
0045
02CD
FFBB
F7FC
FE11
FF7F
003F
FFDA
FF19
FE57
FF96
0016
FFF1
FF90
004F
0066
FF95
FF56
FE96
FF1D
FD8A
FE7C
FEC3
FC24
FEA8
0127
0199
00C7
020A
FF41
FC2C
FD61
FC7E
FD16
FED8
FE02
FE6B
004A
FF62
FF1E
0107
0120
0097
0062
0010
FEF7
0001
FEE6
010C
FDF5
FD8C
FD72
FDFE
FE30
02DA
FED7
01C2
FFA7
FAF8
FFD0
FE22
FCEC
FE20
FE5E
FEC2
FFFA
00B5
0025
0123
0216
017C
01C0
0279
0112
0153
FF87
FF48
FDBF
FF8E
0196
FF37
0159
0319
FEA2
FF76
007C
FA93
00D0
0030
0077
0001
FEDB
0104
0027
0069
0032
0174
0028
0076
0194
0294
0094
FF40
FFC3
FFB9
FEC7
FD1D
FD4A
FD45
FF5C
0263
0001
0001
FFF8
FB36
FB6B
FB36
0107
FF2A
FFC5
FF6E
FEAA
FE72
FEB4
FF57
FEA9
FF7C
0186
012A
0016
0174
FD3E
FCB9
FC9A
00DE
030A
00F4
0364
01EA
0003
FF8B
0089
0264
FD5E
FE30
FF98
FEB4
FE5F
FE3C
FE71
FD81
FF65
FE7B
FEF5
00C6
FFE2
FFF6
02DA
0492
011D
0150
00B2
05FA
04D0
01C9
0103
0032
FFAE
FFE2
FFE8
FF77
00E5
0699
05C2
0465
01DC
00A3
0159
01AE
01F8
03FD
01C6
0627
03AD
04CD
06D6
04EC
0227
012A
FD0E
FBEC
FEF4
01BD
FE30
FFF4
004F
0009
0045
FFBF
006D
FE66
FF32
01E0
01B6
FFF0
FFB7
FE69
0313
0376
FDD4
021C
0616
0412
040C
033C
008D
FD3B
FBED
FC2A
FF6B
FFB2
FF8C
008D
FFD6
FFEB
0081
0078
0049
FF72
FFDF
000B
003D
FFEF
FFB0
0075
0003
FEDC
FFF2
FFB7
0055
0025
FF8C
FF98
0053
FF8F
0011
0050
0052
002D
FFC8
005F
FF8E
0005
0023
FFDD
FF6F
00A4
00AA
0098
000D
00B0
00B0
FFFB
0213
01ED
01EE
FF88
029A
054E
04BA
FF84
00A9
0114
00CB
0119
0115
FF85
0042
FFA0
0012
008A
FFC6
002E
040D
0458
FEC0
FFE3
0007
0079
FFA6
01BE
008F
FF52
FD0B
FB79
FAFE
FE8D
FEB6
FEDE
FE59
FFF4
0063
0071
0291
FEB4
FF78
0028
FFA2
0047
0022
FF15
04B4
0321
FBA5
FC3B
FFA6
0525
0126
029B
0394
0418
02CB
03C8
03B3
009E
00D0
0022
FFB9
0383
0150
FE07
0008
03DF
0356
FEFE
0009
0018
FF6E
FD53
032C
FD73
FC8A
FCA7
FE64
FF8A
00D2
005C
023A
008D
FFD8
0070
01C5
FFC4
0034
0252
0103
0291
02FA
0351
008A
01DE
02E8
02F2
0029
FFD3
FFC7
FD56
00CE
FE7C
FBCE
FD4C
0046
FDF1
FEE1
FF8D
FF4C
FCFB
FF49
0064
FF99
00E5
0133
0375
030E
02A6
0166
0398
02BB
0062
013A
0179
FF7C
FF74
0181
002F
027C
0130
019C
0251
01D7
00DB
FFBA
FE74
FD70
FE5A
FF65
FEE6
FECF
FE00
FCE3
FE60
FFA5
FF6B
01E5
02C2
0201
032C
03A5
FE26
FD0D
FF46
0525
FD36
0282
019E
048A
029D
024E
00DB
FDFB
FEEF
FF95
FFC4
0083
FFA8
FE49
FD92
FDBF
0007
FEAE
FE2F
0027
0322
03B8
0238
0153
FE2D
FE9F
0493
05B1
FDEC
0202
016F
01CE
FFDF
0032
FE90
FE6A
00E6
00A1
02D0
02E4
023B
FFE9
006B
FF7E
FF40
FFAA
025C
017E
03A5
0461
02D1
FF28
FF71
0449
012D
03A9
00D7
001B
FF58
FF87
FED5
FE1A
FDDD
007A
0012
0086
03FE
05E5
0486
FFAF
0017
FF5F
FF25
0078
0248
013F
01B7
01C9
03DB
0575
0344
FEC7
0202
FE55
0084
02C7
FF48
FE50
FF77
FECB
0004
00C0
0109
006A
0412
089A
0590
00F0
016C
0093
0164
0159
0463
0303
0359
0205
0303
00D1
048E
FE4C
0096
0473
FEB4
FECF
FE0E
FCC9
FFBB
FFCF
FEF1
FED4
FE1D
00C3
032C
0587
0134
FFB5
0035
FFF4
01CD
02CF
0230
0247
0151
FED2
0280
007C
0358
FE1E
FFE0
013F
FD8C
FB61
FD2F
FE6A
FE5E
FF39
FE31
FE88
FFD4
0058
034D
030C
FFAF
FEAE
FF20
00ED
02BC
0237
01BD
0048
0003
FC35
FD40
00AD
01C6
FE5E
FE5B
014C
00ED
FC0D
FAFE
FE0F
FECE
FE64
FCE2
FEDF
FF4F
0188
02B7
FFFE
FE0D
FCE4
FDB6
0009
021E
018B
FF04
FDC4
FEE2
FF11
0026
0022
005D
00A6
0151
0199
02CF
FAA2
FBBF
FE7E
FF24
FF76
FD9E
FE1C
0024
0241
027B
FF1C
FD13
FCF5
FBAC
FF75
016D
FF2D
FEE9
FDFC
FFD0
009D
0552
0173
0324
FFE7
0187
01FE
02C0
FB98
0187
0349
FF63
0108
FECF
FFFB
00ED
029F
02EA
FEDB
FCDD
FBED
FBBD
FF01
0139
0126
00D4
0031
FF96
03E1
0812
0256
0293
0115
FE0C
0306
FD70
0117
037D
0386
FFDC
00A3
FFE9
FFC2
024D
02A1
02E0
FE81
FB28
FCDB
FC42
FFC6
026C
0239
001D
02C2
027B
04EC
04BA
02AA
0265
05D7
FFF8
0401
FBFA
0414
051D
02A7
005A
014E
00CF
01A4
0336
0446
0273
FF67
FD2E
FD83
FE26
0244
004D
01ED
0131
01DB
01A7
023A
0005
FF3F
FE1F
04D3
0431
033D
FD1D
011A
02D7
0330
01AE
00FC
02F9
0409
0532
0449
03E6
0111
FF2C
00D4
002F
0104
0068
FFE5
FEF6
FF9A
00B4
01AD
FF4F
FCF2
FC8C
FFAD
FE5C
052D
009E
FE5A
034B
0439
010F
01C2
02BC
039E
04BA
029E
02AA
0218
01A4
019A
0024
0284
00A8
FDDD
FF64
000C
0135
FE6E
FCFA
FC25
FE94
FE67
FF96
0488
027C
FFA6
0352
02B0
00ED
02C1
0397
044F
024F
020A
0274
0373
0245
0289
0007
019E
013E
FEDB
003B
0055
00BC
FF28
FA4C
FD2B
FD60
FE88
FD39
FF1D
046A
FEE7
010F
FC44
0054
FFD2
FEC1
FF4A
005C
0238
01AE
02BF
0287
03A8
030F
024F
00DA
007A
FF21
FE8D
019F
FF1B
FB8F
026B
04B0
0052
FD9B
FE9C
01F3
FE6E
FCEF
FBC0
FED1
FECD
FE38
FF93
FFD7
02D9
02CF
0405
03E1
04EF
029C
0253
FF4D
FF09
FE21
FEB8
0086
0001
FD34
026C
03E4
FF87
001F
002A
04A9
029C
FE46
FF1C
FF1B
FEE8
0085
0179
017B
035A
028B
0383
03CF
031D
00EE
FFF6
FEA9
FD87
FDB9
FD82
FDD5
FDF8
FF67
03E7
0060
0069
FFD4
FF99
FEAA
053D
0126
FE4A
FE91
FD43
FFA3
007D
FF76
00AB
03AB
0439
03B1
02D1
0013
003B
FF08
FE87
FD87
FE20
FC3D
FAFB
01BD
FFE8
FD48
FFF4
FFBD
FFC5
FE06
FCFB
FCC5
FBBC
FFD4
FF90
FED9
FF48
FFCC
0123
030D
0266
FFAC
01DC
FFF6
FED0
FDE3
0130
FCFD
FDC0
0040
FF85
02AC
FDDB
FF29
FFF9
FFD7
FFB8
FFD2
00FD
FB8F
FB0D
FD46
FED8
FDFE
FC54
FFC4
0035
FDF9
FE8B
FA86
FCDC
FF77
0044
FE80
FD47
FB16
FA1E
FDDB
FDA3
FC4E
0119
0001
0052
006A
FF7B
0033
002D
018A
020A
FF83
FEAF
0033
FF3D
FF8A
FD4F
FBC6
FEC6
FBDD
F938
FC10
FECA
FE6A
FBB1
FBFE
00DF
FDDA
02E5
FFC2
006D
FFA7
FF7C
0071
0045
FFCC
FF8E
FF80
FFF8
FFCC
0082
FFA2
FFEB
0037
007D
00DE
01EE
021C
01CD
004D
0034
FFC2
FF98
0035
FF93
FFEE
FF8C
0086
FF9D
FF96
FFAA
FF7D
FFE1
005E
000C
0066
FF83
FFB6
0012
0194
0187
01B2
FEE6
FE86
FFC1
00B4
02B2
0478
028A
FE24
FDDB
FEB2
FE64
FD62
FDB5
FFC4
FF8D
FF85
FFA8
FFC3
FFFE
00BE
FFAA
FEE9
FFA0
FFC5
0072
00F4
0065
006B
FE39
03CC
024E
0109
0188
FD5C
FD45
00CE
F8A7
FA24
FC07
FC85
000A
00EF
0067
FF93
FFCF
007F
0014
02D3
01B8
FEC4
FE2F
FDCC
FE9C
FCE3
FDB2
FB87
FAF8
FBE3
FBDD
FBAA
F9E0
FC3D
FC69
007C
FE7D
FCFF
FC68
FFB5
FE8F
FE4B
0031
FBA7
FFF1
001A
FFA5
03DF
04FE
FF07
FE87
FD41
FC17
F94E
F87F
F99D
FC42
FEFE
0029
FFCF
006F
00B8
FF8C
FE98
0078
00E3
FF88
FE38
FA84
F7B3
FCDB
013C
FD8E
FF78
0046
0335
FEA8
0107
048B
0301
FE9B
FECC
FEF2
FCCB
FE7C
FD2A
FEC7
00EC
FFDE
00F7
003B
0037
003A
0022
FFB8
FDD8
FC5C
FAA2
FE69
FD5F
FBAE
FFCA
0168
FDCB
FDA5
FFC0
04B6
0338
FEB4
FEA5
019E
01E3
FF18
FF05
FE4E
0017
01CA
0270
035F
033A
02B9
0101
0277
FEC7
FDE9
F96E
FAC7
01D8
01DB
00A1
0420
006C
01FF
0105
FF97
0121
FF58
002A
029D
0336
001C
015B
0079
01E2
00BB
027D
026F
024E
036F
038B
0383
0074
FD8F
F9C7
F93E
02FB
018C
FC4F
0534
FE0E
FD88
FE0E
FF8C
0083
02DE
0451
02CD
01FF
02BE
032B
018C
02A6
0179
0134
0073
010C
02CC
02B0
02BD
02E5
FEBD
F942
FB5C
00B8
01A0
00D2
0489
FE9F
FFCF
FEF0
017F
0294
032B
0347
022D
0263
0364
0319
002E
FF7F
009E
00ED
01C3
0062
0234
02BB
03A4
02E6
00B0
FD07
FEBA
03C6
0501
00E9
02AD
FF6A
FB24
FC63
00BA
020F
0413
047E
0335
02E1
01E2
FFA9
FC5F
FC98
FF7A
00DE
0286
0225
0273
0185
0138
FFDA
FE6C
FEA8
FD91
025A
0535
019A
FD1E
FD39
FD6E
FB87
FE6D
00AF
0362
01C6
00AA
FFE8
FF60
FAA1
F85A
FD66
0094
0092
023F
0174
0113
00B0
FF7C
FF81
0111
FF97
FEBC
0235
0149
003C
00F9
FFD2
FCE2
F946
FB27
FDA0
FEA4
FC56
FB45
F9EF
F94F
F942
F8D2
FF44
0189
0288
0168
01A6
0017
FFA3
003C
004C
00A5
FD9D
FEFA
FD52
03B4
FE2F
0049
04DB
FF37
F98A
FA91
FAE9
F947
F8B5
F8BB
F8D0
FCB1
FC11
FE37
01B0
013E
02D2
007B
FF4F
FDC7
FD93
0075
0119
01DB
FCEB
FE12
FE53
0111
FEEF
FD9F
012D
FE6D
FD47
F84D
F973
F9EE
F763
F817
FC88
FFE3
00AC
0032
0153
00AE
00DD
0108
FFDC
FFF9
FCF7
009E
0013
FF34
FD6C
FF4A
0278
027F
FF92
FDE8
FE5F
FEC4
FE31
FA2D
FB3E
FD25
FCFB
FD5E
FFA8
03AD
0209
020E
0177
0140
014E
01ED
0001
FE2C
FEDF
0271
0130
FE9F
0041
FE00
FEF6
00DF
00F7
FD70
FDE7
FDD7
FAEF
FB80
FCD7
FE3F
0057
01CB
018F
03A9
0283
02E4
00BB
00C2
0280
015F
0000
0000
0004
0346
00A7
FCEE
FE1A
FD97
FDE7
FF6E
FF72
FD09
FEB0
FC0F
FD43
FF30
FED7
FEE5
00F4
032E
0227
03D9
048E
0251
FFB0
FF02
0007
FE5A
FEE8
FF83
FF5A
0170
0071
FE0C
0146
0280
0102
FC6A
01AC
FDE6
FD17
FFB8
FE0B
FF35
FFA4
00C9
017B
00EC
028F
039B
02F6
01AC
FEAB
FE1F
FE3F
FE73
FE3A
FF7C
FE3B
FF27
FFC3
FE8F
FFF6
021A
077D
00D3
FF0B
FF85
FD2E
0056
0150
FE95
020E
0289
024E
0207
0175
01D1
02A8
014A
FE5D
FE77
FDFD
FBFF
FB8A
FEB4
FE55
FE7D
FF1B
FF68
FE86
FEE8
02B8
0285
FFBE
FDA4
FCE3
02E6
00FF
FEF0
FF87
01C9
0094
006C
011E
01F3
02A0
FFAF
FE07
FF26
FD36
FA7E
FA6D
FD48
FE57
FDFD
FE45
FEF1
FDF2
FD91
02D3
00B0
0116
00E2
FE75
01FF
FE6E
FFE7
FF91
FFD9
FFE3
01CF
034E
011B
FF91
FE3C
0022
FF1B
FDA1
FBE2
FDB9
FEE2
FD97
FFEB
FF3B
FC5E
FD72
FDED
FEAD
013D
01E6
01A0
0127
FB2C
FF59
045B
0232
0013
00D0
00C2
01F6
0004
FF38
FF4B
006A
FED9
FEA0
FDF5
FD3C
FE81
FC12
FE67
FEE4
FCD3
FCD8
FBC0
FDCC
015D
FFB4
FFAF
FDE5
F81B
FCE0
FFEC
00FF
02A1
013D
011F
005E
014B
01C4
0048
FFC2
FE91
FFC4
FDC7
FE2F
FC49
FC80
FFFF
FF82
FD6F
FE8B
FCCC
FE7F
FFF6
FF87
FF8C
014C
FD9B
0283
FF7D
FE69
FD41
FFC5
FF12
FEC2
FF7A
FEF2
FE0E
FF34
0107
FF07
FF6F
FC01
FC0F
FCAF
FE5F
FCC8
FDE9
025C
FFCF
0205
FFDA
FFF2
0004
FC4C
0383
0333
FE71
FC86
FD87
FF87
FF5F
FE17
007C
0079
FEB0
0100
03C4
0206
FD6B
FAFF
F990
F9D6
F835
F98D
FBCF
FD89
FF34
022C
FFA0
0016
FFD4
0034
0175
FB6F
FB2D
FCEB
00FA
0352
01AD
0001
0001
FF07
0174
03C7
01CD
0070
FDC1
FD8B
FB1C
FB27
FB98
FDCD
0146
009A
0290
004F
0086
0034
0042
004F
FF99
041C
0496
0503
04C4
02C4
002E
06D0
FF12
FF68
0729
039B
03B4
0635
0314
FE50
FFD7
FEB6
FFAB
FD99
0045
0065
005E
0039
FFF7
FF7A
FF93
0066
0025
0000
0076
001A
FF82
FF92
FFEF
0028
0091
02DB
02DA
FE36
FE95
FFE8
FF9F
0088
FFE4
FF9B
0059
0007
FF71
FFF3
FFDC
FF74
004F
FFC5
006C
FF84
0008
00D1
0177
033C
02E7
013C
FFCD
031D
0008
00FE
01E6
02E2
FC9F
FD19
FFD3
0756
0568
0514
03AF
039D
0464
0060
000E
007F
003A
0075
FFE3
0090
0284
0322
0480
042C
0548
048B
0307
0278
0420
0045
03CE
0538
015F
FD4D
FFC5
FF77
0107
00A9
0346
04EF
01DA
FEEC
FD37
FFB6
003A
0032
FFED
FD9F
01DE
FE1D
FE00
007E
0167
FF78
0171
FFE5
0164
FD84
FFFB
FEE6
FDD9
FEC8
FE91
FD75
0051
FDCF
FECF
FF49
00DA
0129
FC55
FEB4
FFAE
FFC4
FFE3
FD1C
FA14
0162
023D
0364
02DD
020A
0148
019F
00F2
0226
026C
0086
FDBA
FE6B
FF2C
FEED
019B
0084
0039
FF5A
0103
FC78
FD1F
FB5D
00CA
008C
FFF0
00EC
FDBD
0117
00EA
027D
00BA
02AE
01F6
032E
00C7
FFD5
FFAB
009F
FF48
FF31
FF93
0045
0095
FFDE
0128
01F7
02B8
016D
FF2E
FDB0
0143
0031
FE20
FE06
FE00
0425
030D
0122
0347
0397
0247
013A
000A
0028
FE32
FCE6
FD17
FBF5
FBEF
FC27
FD00
FE33
FF37
016B
00FD
0240
0234
FFEB
017C
FF7E
FA6A
FDA6
FD9C
0300
02DC
0094
0453
037B
02EC
0198
00C0
FF35
FF08
FE13
FC2C
FC8A
FE68
FEE1
FE5F
FF18
00AC
016E
0003
021A
FE92
01C7
00E7
0523
FB6A
FF1E
FFC2
0367
01AF
0073
0216
017D
030F
0191
00E5
FFB2
0094
FF11
FE0E
FB83
FE3D
FE18
FDEE
FE77
FEB9
FF34
FF1F
FE9A
FF69
FF4C
FAB4
FE6F
FBCE
016A
017F
019F
0132
FD8E
0160
00B9
0167
FF6A
FF91
FE8C
FF9C
FF70
FCF7
FEA9
FF95
FF64
FFA0
001F
00F9
FE6D
0088
0094
FF09
FE23
FC22
FEE8
FF3F
009F
FFB0
FEFF
FFC6
FECC
00BC
01CE
00FB
0003
FEF7
FFCF
0005
FE3E
FE21
FEFF
01D6
01CC
013A
FECB
007C
FF48
FF9E
0202
FCF3
FE3E
FCCC
FE81
00AA
00E1
FE69
FC1D
FD28
FEEC
FF6B
FF91
00EE
0028
FF0F
0034
FDEC
FB33
FC0E
0071
0084
00B6
00AB
FE44
0079
FEF3
FE3C
FC36
FC6A
FCFE
FDC4
FEF7
001E
FFEA
FF85
F8E2
FBDD
FE20
FF6A
FFD5
012E
0168
017B
0351
FF75
FB06
FCB4
010C
001B
0002
FF38
FF0E
0109
FFF5
FD8F
0323
FF72
FBB9
FCE9
031E
014D
FFAA
FE36
F9F7
FD6F
012B
00DE
0185
02A2
02C5
01F7
0100
FE11
FB94
FF46
FFE0
00CA
0029
FF23
FE68
00F4
017A
034C
0151
0117
0134
0318
01CF
FE75
FF9A
FDC9
FF4C
01E2
0010
035C
030D
03BE
0425
02EA
01D5
FF77
FF0A
FFA4
002E
00D8
0039
FFAD
0055
0182
0414
02F9
0243
01E9
03E1
01A5
01C5
FE2A
03AF
01E1
FF84
018D
FFCB
019B
01EE
03A1
0269
0232
01CF
005C
015A
00FB
009D
005E
0082
00F9
0073
01E5
02FE
0376
0215
06AE
01E2
036D
0069
FCF1
0200
0228
FE45
00DA
0091
006F
00CF
01C4
004E
0008
FF88
004A
02A5
026F
0215
003E
00F2
020E
0215
03B6
029B
01B0
021C
097B
01E6
FF0B
0014
FBB3
0486
FFE0
FED6
0039
FECC
FEDF
FDE6
FEC7
FF37
FE29
FEB9
009E
02A6
0265
0123
0018
027B
00D6
00F7
02FB
0399
0165
0169
08D0
0659
FEA4
FA57
FE0D
01F5
01C5
028B
0163
FEE9
FF2C
FE62
FDF9
FACF
FC0D
0001
01D8
02CD
01D4
012E
FF52
0238
FF9D
FFF4
0216
FF66
FFC9
022B
051A
FF56
0303
00A8
FCBC
0076
019C
0100
FF8B
FF56
0129
FE38
FD1F
FC9D
002E
FFE9
0215
044F
039D
01C5
0036
0049
FE24
0157
002C
FE29
FD9E
FD01
FF57
032F
02A5
0001
FE9D
0233
01C0
FF86
FD13
FDC5
0066
FE49
FFB7
FF3A
01C2
02CD
00C5
0454
0495
0291
00A6
0142
FF35
00DE
0065
FED5
FE58
FC1D
FBF0
0572
0141
01A6
0148
FF8E
042F
FF62
FEDE
FD62
FEE3
0053
012C
012D
0217
0213
02CE
040E
031E
00D5
0186
00C6
0177
0128
FFC1
0003
01B3
FDE6
FE8C
05E5
FFB8
01C7
006F
0048
0172
0286
02CE
010D
003D
010B
0143
021A
0198
028D
0243
01C3
02E7
016F
0068
00BB
02EA
FED5
013E
004B
005B
FE91
FDE2
FE4C
FECD
0033
007C
FBBF
FA73
002B
FFBA
FFC5
0013
012E
0315
0246
020B
0370
01D9
0304
0291
020E
0126
0002
0226
0087
0319
0092
FE7E
FB60
FF66
FF1F
0021
0038
FF7A
FF31
F99C
FA02
FC55
FCFB
FD9F
FF20
02F2
007A
0206
01C4
022A
039E
0233
009C
0040
016B
00B7
FFAE
FFA8
0022
FD2D
00FC
0739
04F9
0034
FFB1
0031
FE07
0066
FFC5
FA13
FADA
FBED
FABC
FD20
FC84
FD56
FDF3
FF09
FDAC
0033
FD33
FD3F
FF5E
FDC4
FE94
FF3D
00E2
0077
FD60
FF7B
01FB
0079
FFE8
0014
002A
0064
FFE0
FEDD
FC16
F8EE
FB17
FA2B
F8A4
F86D
FA5C
F88D
F3F0
FB01
FB5C
F91D
FA7F
F88F
F6F2
F946
FC41
FD17
FC48
FF93
0009
0063
FFF5
0068
004B
008F
FEEF
FE9F
FC66
FB1A
FBAD
FBFC
FAD0
FA87
F9C0
FB79
F725
F9DD
FCDA
FDB2
FACD
FD2B
0113
FF34
FDF6
FCE5
FFF5
002F
0050
0037
007E
005B
0009
0054
FFDD
0085
0066
0049
000D
000A
0008
FFF5
00C6
00E0
0143
019B
0050
0068
0022
0023
FF7B
008B
007B
FFB5
006F
FF79
0091
FF75
0070
002A
FFFD
FF70
FFBE
FF76
000C
000C
026E
02A7
01A9
FFBF
FD77
FE06
FD45
FFE6
03BC
041F
FF23
FDA0
FE92
FE8C
FF7F
008E
FF9F
001E
0044
0068
FFD1
0085
0022
FF5A
FF87
FF4F
FFC6
00D5
0419
03A1
01F9
018E
061E
0260
FFF3
008A
012C
FFCF
FF5E
FC6C
FEC3
FFA8
FC46
007B
013F
0161
0029
000B
004B
0014
027E
0311
00C1
041C
0509
03BA
058F
05D2
05D1
034C
03D3
01B9
0103
006D
0099
00DE
00B3
FE1F
FF97
FD4F
FE18
FE40
0026
02EA
FEF1
FFBA
0043
FF19
03B9
022E
FFB3
027A
0477
016B
01CF
027A
019D
036A
025D
018C
010F
01C4
01B6
0131
0206
FE82
FE7A
FDA1
FEE4
FBB4
FB4A
FEC1
0026
FBCB
0087
FF94
02F0
0046
FE2B
FD3D
FE17
FF10
FD5D
FF24
003E
00F3
0157
0307
0333
03E0
0406
023D
021A
FFF1
FF52
FF90
015C
FFD8
FDF4
0192
FCE9
FBF9
FF81
0266
0051
FDFB
FCAC
006B
007D
FF3C
FF80
00BC
037D
02A5
0368
0434
03A0
04C2
033B
0171
014E
0043
FF34
FFFB
0025
FF9E
0003
FBE4
FDE0
FE9B
0032
0419
FFE2
FDBA
008D
FFC0
00AC
FFF4
01E9
003C
0230
032C
0312
0323
0536
0427
03CB
02D0
0284
0119
016D
00AE
0116
FF46
0142
015E
023A
FF0D
0074
016D
FD6D
FF0A
FF3F
FD51
FD5D
FFA4
FF9E
FF8A
0110
0043
00F8
0061
0287
022A
0346
03B4
0317
0319
0335
0119
039F
029A
FF41
010A
005C
02E4
0008
FD5D
0353
0166
FEEE
FD2F
FEBA
FFE3
FFEF
FEA3
FCB3
FC7E
FC5E
FAEC
FC54
FECA
00C9
02E2
038B
0219
01F3
0039
0300
03DE
FDB2
014C
FD5D
003F
FFD0
FCC7
0062
014D
FDD2
FC96
FE2C
FE03
FDDA
FAF1
FAB0
FAAC
F80B
F6D2
F9BA
FC51
00A7
0126
0189
00F9
01DF
0203
0193
FF47
FB3F
002C
0115
01AC
FFA4
002B
FB70
00BB
FC9C
FAE9
FD67
FB6B
FAC1
F99B
F993
FB5E
FA09
FA2E
FC86
FE4B
FE4B
FFC8
FF5A
01F1
0239
01E9
00C1
FE60
FD6C
01A4
FD6C
038E
FF98
FDAE
FA01
FDF4
F9C4
F974
FB3C
FD3D
FC84
FD58
FEE5
FF1F
FF55
FE12
FF9D
FE92
FE28
FE6E
FF0E
01DB
026B
00DA
FDF5
FC5A
FDF0
FE72
FC2E
0021
FE6C
FDF4
FE2E
FFA1
FB08
FCC5
FDB3
FF71
007B
00E6
0026
0160
0263
028D
00B7
FDEB
FD99
FD9A
FEC3
FFEA
00A3
00C9
FE95
FCA0
FE47
FF75
FF09
FFBB
FEA4
FDB1
FE71
FEED
FCDB
FEC6
01F9
0453
01B4
01AD
0076
0127
0246
0187
014C
FF69
FE8F
FE08
FEE6
FE87
FEF3
FFD7
FE3F
FC26
FD0B
0089
024F
026A
FE8A
FCE7
FE1D
000D
FFF9
0313
03D2
02F4
00C6
00B0
FF71
0125
FF09
0065
FFFA
0134
0169
FEAE
FEC1
FDCA
FCA2
FFAF
FC47
FE09
0133
FCC3
04E1
024A
FF81
FE77
0003
0275
0183
0309
0287
0106
FFFD
019D
00A6
003F
0004
010A
FF7E
0094
00D5
0043
FE24
FD0D
FD72
FFC8
FFF1
FF4F
0267
FE7C
01EB
0176
FFFF
FD49
FF58
01EE
01B5
01A8
0096
FF8C
0281
01E7
FF62
FF49
0048
FFF4
008D
00D9
0053
FF84
FCFF
FE6C
FCBB
FCD0
FCAF
FD1B
FF9F
00EB
FFC5
04FA
0283
FDFE
FCE4
0256
0093
00CE
0061
00D1
025B
00BA
FF7D
FEEA
FF73
FFFB
0033
00D5
0095
0087
FF11
004E
FF58
FE13
FF9A
FFAA
0126
02B6
01CC
04D6
FD53
FFBD
FDD4
FFD7
00AD
FFF1
0085
01D3
FFE3
0157
FF14
FE30
FF62
0130
FFB9
014C
00B4
0148
00AF
FF41
FFE8
FF2F
0115
0131
0150
0254
0073
03CB
FF8B
00BB
FFA1
0469
0089
0226
01CC
023B
00E9
01AA
FF6D
FFCD
FF9B
0104
0170
00E4
0121
0098
01A8
FFC0
0189
0113
0287
02C5
0140
015E
FF01
005A
FF40
02EA
0805
057B
007A
FEAE
FFAE
003C
FFD1
FEFD
00F0
00A4
008D
022B
0125
00CB
0139
01DB
01D9
01A0
0036
025F
04AB
0537
0333
01F6
0532
012D
FF12
005D
08B0
00B9
007D
00CA
005D
FFB0
003E
0003
00E4
018C
00B5
00C0
FFEE
0027
0187
0139
01EF
01CA
01FD
0208
031A
0268
04B2
017A
FD38
0155
FFDD
FF7F
06D6
0043
0032
FF38
0020
0245
006C
0156
0203
02C3
01C0
0258
004D
009C
00BB
01C3
02F8
024F
01D6
01CB
052F
05B3
0420
0027
FE0D
FF99
FF9D
FFF9
FEF1
01AD
03E8
FF5E
0087
011D
025C
02A0
FF98
00FD
0120
00F8
0102
0086
0225
0488
01CC
FFBE
0030
0611
0335
0292
0883
04FE
01A5
FF8B
FFDA
0049
FDB3
FD03
01CB
FEBF
0207
0179
0163
03BE
02AE
005E
FF7A
FFB6
FFBF
01D3
FFF1
FFB2
FF01
FDC8
0002
FF15
FC9E
FB21
FF1B
FE41
00CE
0013
FFEB
FFFA
0083
000D
FC01
FA8B
FA07
FD47
00BB
FE91
00B4
FD83
FCFA
FE53
00D8
01D2
0177
FEF0
FC63
FBB0
FCEB
01DE
0282
015E
FFCE
00BF
FFED
FF72
004A
FFBE
0007
0086
005A
0004
0087
FFE9
0046
00C3
FF5F
FEFC
FFF7
FE36
FED2
FEAB
FF09
FF4A
0035
FF54
FFF2
0057
FFC1
0050
0056
FFED
0069
0053
0008
FFDE
FF83
0071
FF81
FFE0
FFC9
FFDC
0010
FFB6
FFE7
FFD7
FE25
FEF0
00FD
00FF
0034
0067
FFB4
008B
FF90
0017
0014
000B
0030
0051
FFA6
008A
FF8F
FFD0
FFAF
FF77
FF03
FEEE
FC58
FC4E
FDF8
FE61
FCD2
FCB7
FC1D
FB68
FCC7
FB3E
FE5B
FB6D
FA80
FB24
FB3E
FCCA
FCB8
FC8A
FFBF
0018
FFEE
0052
FFA7
FFC5
FFCB
FE4B
FE08
FE78
FDA3
FBCC
FE9A
029E
001E
FD1F
0171
FE60
FEF8
004C
FFEE
FDFE
F9A7
F7BF
F7A2
FD06
FCC5
FD87
02DA
031B
0008
FFB7
FF84
FF74
0186
FA3F
FA46
FE90
FC71
FB00
F9E4
FE5E
FFFD
01AE
FEB8
FCF6
FBE8
FB13
FC6C
FC5B
FA3F
FC33
FA43
F968
FC73
FFEC
0330
014C
FED0
FF7A
FFE1
FF1B
0223
FACB
FDCB
0004
016B
01BB
0075
00CB
FFA5
FF19
0065
006D
FDB2
FDB1
FF83
FFD9
00D1
0064
0125
FDF8
FDC3
FCF4
0039
FDB1
FC0F
0094
0086
0036
FD1D
FE38
01E2
FF3A
0074
0050
030E
0043
FEFB
004F
0024
FFF3
FFCE
FF79
FED3
FF94
0213
013B
FF72
FF72
FDEA
FF2D
00C7
00AE
FCAE
029D
FFF3
00D0
FFC7
03A5
0103
FF60
00E3
0061
0136
00CE
0107
FFA6
00C3
00A9
0015
FE24
FEE4
FFE2
FF9E
FF38
FE98
018B
FFD6
FCBD
FA7B
FEDC
FCE3
0234
FFE4
0312
0165
0398
03B9
003F
0182
FF72
0044
0142
FF5D
00D5
002D
01F3
FEF4
FD4F
FE76
FFD0
FF38
001B
FFED
00BC
FF0A
FA79
F892
F9CB
FDCB
0015
FBA9
055D
002B
0001
03FB
001D
FE25
FDC1
FFBD
0286
0229
0021
011F
0118
00B1
FFA6
FF18
0069
00B1
01A5
FFB2
FE2C
FD0D
F739
F34C
F730
FC3C
FC7C
0277
0323
00C0
FF9A
0264
018D
FCE4
FEF6
FFBB
0150
00F0
FF7B
00E3
002A
0041
00FE
01C1
02ED
049F
030B
FE40
FBEF
FAAC
F65C
F3FB
F5C6
F9FC
FCA5
0287
00C5
0281
FE22
FEFF
00A6
0017
0026
FEC8
FF1F
FF21
FEE4
FEF7
FF20
FEB6
0021
02AB
05E3
0510
0333
FCC2
FC04
F850
F57C
F430
FD12
0194
020B
0317
FFAE
0668
010B
FEF3
FDF9
FFD7
FEE9
FFB3
FE66
0020
00B3
00EE
FEC5
FE03
00F9
031F
04B2
045B
01D9
FDAC
FB6D
F996
F700
FB1E
FF8D
FE3A
013C
00A8
033F
04BD
0173
FDA2
FD34
FE81
0113
0072
FF38
FFB3
0130
032B
FFE8
FDE4
FF22
0332
0370
03A8
FFFE
FB02
F8A9
FBB2
F8AB
020E
0196
FFCA
0331
FDA2
022F
0643
0041
FC21
FF75
0074
FFE6
FF87
FF25
00CF
026D
0018
FEF7
FD1B
FF65
02E4
0362
026D
FCA2
F99C
FA88
FC13
FF1D
026C
055E
046C
04C1
FF1D
FE2E
0546
FF6E
0310
008A
FF03
00A3
008E
0135
009B
00DE
00A4
FDDF
FF4B
00ED
01D2
043C
0195
FFBA
FB07
FEAA
FF23
02BE
00CA
0865
0AA2
043E
FF39
FE35
0125
0047
FFCE
013D
0055
FEE9
0051
0137
00DD
00C6
0006
0018
01C5
03C2
03AF
03CE
FEAF
FF33
FDAD
FEEC
0137
03D7
0316
032F
0A77
053D
02BF
FCB2
0232
FE54
FCDC
FDDB
FE97
FF9A
FED2
0071
FF71
0049
0185
011C
0221
04D3
0492
021B
FEBA
FF0B
002A
00D0
00D7
02B1
0200
0474
09AA
046C
0006
FB0E
050C
FCE5
FE31
FD6B
FED2
FDAE
FF5A
FE52
FF53
0049
0155
0206
02DA
0373
01CF
0008
FFE1
FE43
FFB1
012E
016B
00CA
017B
0743
0397
047E
0155
FCB0
0281
01EF
0328
FDB7
FF81
00C2
0057
FEB8
FE20
FECE
0216
0314
011F
014F
00FB
000B
00CF
009C
FFE3
01C7
0090
0031
01D5
03F3
0360
0405
FDA3
0298
FDCB
05CD
04EA
FF3A
FE41
00D8
FF79
FF1B
FEE7
007C
0130
0252
021D
0180
008C
FE73
FEA4
FFD7
00B7
FFF7
FF9D
00F3
FDC2
FFF0
0262
0213
FFAC
FC01
FFB6
05BB
0416
0083
FDAF
000D
FEF0
FF2B
006E
00BE
0228
00AC
0083
FF61
FEF7
FD40
FEF2
FF7D
FFC4
FFB4
FF47
FF71
FF49
FD66
00C7
FDC0
FF83
02B3
0193
01FA
010C
019C
FD3B
FDA5
FF9A
FFC3
002E
00E0
00B4
FF2C
FEA9
FE73
FEC3
FEFE
FFA8
0040
FEA8
FEFF
009B
009C
FF15
FE91
FDEB
0062
FF8B
FF79
02C1
03D9
FFEB
0198
01C7
FFEF
FF5B
FF26
0026
FFC4
FF14
FE53
FEE4
FEE9
FF0A
FF6B
002A
0132
FF37
00AF
0116
FE16
002C
FDC9
FB78
00C2
0057
003C
FC94
FF89
FF48
FFC7
FFBC
0112
FE83
0182
0183
00FC
0045
FF6F
0028
FF5F
FE98
0008
023D
014C
FF49
0405
01AB
FF09
FFB5
FE56
FBFF
FFEF
FFBB
FFB9
FD14
FB69
00E9
014F
0001
FF22
FE3F
FF69
FFFC
FF4B
FD5A
FF74
0065
FEB8
FE3E
010C
FFDB
0086
0042
0312
0284
FFAC
0277
07FD
0363
FFEB
FFC8
0061
FBD5
000D
055C
0460
00A5
FFC8
FFE6
FF95
0034
FF4B
FECD
FE91
FFA5
FD6D
FD38
FE9F
0014
FD6B
FF14
FBA1
FAE7
FA4B
FA4E
02AD
02E0
0030
0072
0073
0067
FDE4
FC38
009B
028B
017A
FFD0
FE9B
FC3E
FC7B
FDF1
FC30
FA07
FB87
FCB6
FC0B
FEAC
0058
FE38
FE34
FD8B
FCF7
01E8
017A
FFE2
0075
FFC8
0069
FF9A
003D
0271
02EF
FD10
FCFA
FE69
FDF9
0029
FCE3
FC39
0211
F78D
F7CA
FCF3
02BF
01A7
00B4
FEEB
0277
009E
FFFB
FF8F
0016
0037
FF82
0031
FFF1
FFA1
0002
FFC6
FFD6
FF76
0019
FFDA
FFB7
FFCD
FFB8
FF80
FF9F
0037
FF96
FFDC
FFEC
FFDE
FFE3
0040
FFB6
0006
FF90
0018
FFDF
0011
002E
FFB4
0005
FF89
FF82
00AD
FFE0
FFA8
FFF7
0179
0166
0102
003E
FFB1
0021
0118
0156
0084
00EE
00A1
0079
010A
00CA
FFC8
FF89
0015
0023
FFCA
FF98
FFB6
FFA8
00BC
FFEF
FDED
01AD
01D4
00D6
FE92
FDBF
FC90
FB6E
034A
0798
09A2
0808
02F4
01AC
FF4A
030C
017C
0090
FED8
00FF
01F1
0015
0040
005B
FF7E
007E
031E
040F
FDEB
FDF5
FC9E
FACE
F881
FCC6
FE5B
FCE0
FE77
FD4E
FD76
00BC
03F1
021D
FD73
0049
FBF3
FE3F
FFE3
00D0
0011
F9C3
FB6D
FFEA
FFA1
0021
0312
FD3A
FDF9
FFC2
005F
FE44
FD46
FD69
FF40
FC73
FEF5
FF4D
FEBF
007F
024A
01AA
0025
034C
020E
0144
00FD
FE9F
FA33
F51C
FC47
00B1
0008
FFA3
02AC
013F
FDAE
0101
01E9
0013
FE7B
FD89
FCDA
FD60
FDFE
FCC5
FEF2
00FF
0086
FFF9
0049
00A1
003B
0401
0305
0200
026B
FB8E
FF27
0086
FFC5
001B
FCCD
FF41
FCAE
FD68
FF5F
FE69
FD81
FC55
FE3D
FE10
FE22
FDBB
FECB
00B7
FF7C
FF4E
FF71
003F
FFEF
0131
0209
015B
0257
FF4D
01C4
03C8
FFDF
FC2D
FC66
F9FE
FA5F
FC4B
FD2C
FED0
FDBE
FD5C
FF4A
FEE0
FFAB
FE04
0027
005E
0033
0044
FFE0
0086
00D2
0173
00FF
00EC
FFBC
FC3B
0073
013F
FFE0
FB0C
FE7F
0177
FD9B
FD63
FF5E
00A2
FC79
FDA2
FE9D
FF11
0080
00BD
00B2
0092
FF8F
00B7
FF2D
FF70
FF4B
005B
02E7
0133
FED6
FF0F
01F9
FD90
006D
FC5C
FF17
009D
FA68
FCA4
FF22
01DC
FF8A
FF96
FEDF
FFDA
FF16
008C
0142
0326
0079
FE96
FEA7
FE48
FE3D
0261
02A5
0368
0006
FF40
FD61
FD2A
FFD4
0080
FC12
FCAC
FD5C
FE88
0148
FF47
012F
0088
FFF0
0111
0066
012C
02F5
04CC
FF78
FF1C
FD9F
FF59
FD09
FFF1
FD27
003A
FDC8
FDE6
FFA5
FFB2
000E
00BB
FED2
FAB7
FEFF
02C4
03A4
0224
0009
01F5
0099
0050
0136
0229
0448
04DD
0009
FDD7
FD39
FF26
FD95
FDB9
FC01
FC01
FA41
FD67
0290
0042
0092
FF3A
FBBC
FFDF
FF5D
0346
0405
0307
01E6
01FE
FE49
FED4
0265
03A4
046A
03C5
00D2
FEAA
00DB
003C
0004
021A
0035
FFF7
FE5F
FBA5
FC85
FDBC
0283
00D2
FCFE
00D3
FD38
01AC
005D
FF5A
00D0
0016
FD79
FE52
01B4
03B9
03F1
0312
0253
0073
0214
0051
02F2
0188
FD67
F9A9
F98F
FAB2
0345
01AF
00A3
FF9B
01B9
0321
FE7E
0019
FDA5
FAD4
FE36
FF0F
FE1A
FF34
013D
02EE
0449
009C
0123
0042
FFF5
FF3A
FC58
FAB4
FB3F
FB21
FEC0
0066
07E1
0385
0091
FF37
026A
00B1
FD18
FB82
F87E
FBFC
FE0C
FFDA
FE57
00FD
027A
0442
045C
FF55
FFCE
FD39
FCBD
F9CD
F87A
F92B
F845
FC91
FE32
0000
04A7
01A7
FF37
000A
01E5
FCC0
FE44
FBDC
F8C8
FD85
FE3B
0216
FFE6
0211
0262
0319
0209
FD8E
FD72
F8FC
F970
F860
F99B
F958
F8CC
FD63
FE89
FF32
0450
0205
FF9A
00B9
FF1E
FCC8
FAE3
FB15
FCAB
FDF3
FD94
FFF4
02A0
02A7
0289
0145
000A
FB60
FADB
F8D4
FA40
FB5F
FC72
FB45
FCC1
FD9E
FD17
FD4F
04C6
025D
004D
FFA3
FF41
FF87
FC12
FB09
FCA0
FDF2
FE70
04E4
0342
0194
0129
0085
FD26
FAA1
FA2B
FBE5
FDB7
FD64
0049
FF99
FFE3
FF5B
FFD1
FFCD
02BA
03E1
0266
00CB
0180
008C
FEE0
FA02
FE11
FEE0
FEB8
0426
0302
028E
00F7
00A1
FCBD
FE08
FF90
FF24
FFFB
FE4A
020C
0058
0075
02A8
01F8
0658
0525
04C4
0006
FE3D
FDC0
FC95
FE45
FE47
00F9
008C
0073
0042
0172
0234
0188
FE83
FF59
FFF7
0294
02F3
045C
033A
03D0
0243
007E
01FE
044B
082F
05CC
01DC
02FD
FE6A
FBA4
001B
FE7F
0349
03A3
0281
0050
006B
0187
FFB7
00B1
FFA8
0065
0102
00F0
028E
04C2
04BA
0353
01B9
0104
01F9
026F
0342
0704
FFCF
02EF
014B
FE51
0252
000E
05B4
02F5
0194
004A
005B
00A3
FE6E
FFB3
FF2F
0124
00C4
0177
01EC
044F
036C
021A
02CC
FF7C
0024
0332
0476
0490
0016
FFA5
FFE2
0079
FC75
FEA2
FF89
FFAA
FEC5
FE43
FFDA
FF7E
FF21
01D3
00E7
FF67
FF70
01E8
02AD
01EE
03A2
036A
00FD
027F
0040
00C2
035D
05C9
007F
0060
0029
FFB0
FAE8
F8A0
FC0D
FFBE
FEF2
FEBC
00AD
001D
00DB
0108
FF62
0050
FEAE
FD4E
FD28
FFE1
01D3
FF89
00C4
036F
008D
02BC
07E5
0515
FF96
0021
0073
FFD5
FD8E
FD8C
FC57
0013
FEF3
FE43
00B3
FE75
FD34
FCDF
FCCC
FE43
FADC
F498
F996
FADD
F99F
FF81
0291
0316
03F2
00BF
02A2
0305
FFBB
FFBA
0086
001B
FCBB
FAAB
FCC3
FE18
FD97
02E2
FEEF
0010
FD0C
F6E7
F586
F7F5
F6AC
F3AA
F64E
FB1F
FB3B
FACA
FF81
FFA0
0116
002C
004B
FF9B
0084
003E
000C
004F
0027
FF2C
FFD5
0007
006E
FEFC
FD52
0167
01CF
FD28
FB8F
FD52
FFB7
FFAA
FBB6
FC1F
FF90
00A8
0168
01EA
FFA1
006B
FF73
FF94
0074
0077
FF89
FF78
0006
FFC0
FFCF
0012
FF97
002A
003F
0049
FFDB
0018
003A
003F
0041
FF9E
FFD8
FFF7
0033
FFCB
FFFB
0029
FFB4
0003
FF89
FF9D
FF77
001B
FFA1
FFB3
FFDE
0034
0128
0203
01D6
0178
01EA
020D
0293
0220
00F3
FF08
0402
034E
0433
02E1
0232
023E
0123
0213
02AA
FF92
0008
0062
FFE1
0050
005D
0086
017E
01C2
0164
00A4
01A2
014A
0267
0460
009D
0196
00BF
FE7C
00CE
042E
02DE
0535
0502
0519
02D0
0116
03A3
0387
02CA
FF95
FFBF
FFB5
0067
02C5
023F
0293
0252
009D
0049
0268
FDCD
FF8E
FF78
047B
0416
00D1
02C5
0356
0398
05B3
037F
049F
01F0
FE04
FF52
0330
048A
019E
FFE0
002E
0063
03FF
05C0
FE3F
FE1D
FEBF
FC57
001D
00C1
0252
0492
01B6
0020
00C8
035E
0152
019E
0398
010A
FF9F
0038
FD92
FCEB
FF4A
01D0
0567
FE1D
FF9A
FFE6
0511
03A4
007E
FFAC
FF44
00CD
FDFC
FEB5
FFEF
0254
0184
02B2
00DD
00D9
025D
0202
02F8
0298
01C6
02C7
0232
FE6E
FEF4
0333
00D0
FD66
FF7D
0195
0118
04D8
FF89
FEB7
025B
0041
FF60
FF3C
01C3
02C1
02DD
02AB
007E
01D0
0302
02A3
02BC
00CA
00C4
02A5
0202
0080
0055
016F
0191
0193
0037
03A0
FF5A
03A7
FF43
FEE0
00DB
FFE7
0239
007E
029A
02AD
0266
0196
0315
0225
023A
FFBC
0248
0015
007D
0119
0228
FFBB
FCAB
FD4E
FE70
01C2
01D8
0270
FF80
02A8
FE6F
FF69
000A
0125
00ED
0180
0267
0235
032F
04B3
04C2
013C
00E8
FFE4
FFA7
0058
00B1
0041
0079
FFCD
FD87
FCD8
FEEF
042B
009D
0156
0189
0231
00D9
FFE9
019A
01D6
0160
013E
031A
0149
0319
04E2
026D
002C
FEB4
FEB3
FE0A
FE45
FEDB
FD9D
FF0F
0176
0113
00D8
FF0B
FEA9
006F
00E6
019B
023C
023D
0085
0252
0079
0097
00FC
026F
0231
01B6
0493
01F6
FD1F
FEA5
FEF7
FECA
FE53
FFF2
FE30
FEAE
0283
01AB
FE54
0385
0059
00AF
0264
0172
01A3
01EF
006F
00FD
0045
FF9C
FFAB
FF2F
0126
FFF9
0110
FF84
FE19
FF1D
FE95
FE84
FEE5
FF26
FF08
FF35
FFD0
05BD
01B2
055B
0276
FFC0
0113
01B0
FF52
00B6
0045
FF4F
FF67
FEFD
FF74
FDD1
FDAB
FD85
FD0B
00B1
0005
FFAD
FFFD
FF4D
FE40
FE8D
FE54
FD8E
FD66
FF55
013D
02A7
01F8
01F6
FFDD
00F8
00F8
FCD0
FD66
FDDA
FE34
FE6C
FF9A
FC80
FC1C
FD81
FF4F
0052
FE5E
FF56
FF51
FE69
FEE0
FED4
FD65
FD9B
FC6D
0060
FFD1
0079
0140
00D8
0097
018A
0095
F9C1
FA81
FCF8
FE89
FDE4
FE1F
FE55
FE0E
FE09
00C3
00EC
FFE6
FE60
FE26
FECF
FDD2
FEAA
0010
FC4A
FDD7
FFF7
00E5
0238
0183
0142
01E3
FF7B
FC32
FADB
FCC0
FDF0
FE67
FE2B
FDCF
FE5A
FE7D
009F
022E
0081
FE5B
FE3C
FE00
FE61
FE38
FFFD
FFEB
FC0C
FD46
0279
FF9F
FF25
040A
FFBA
03E1
0165
FE11
FD2B
FD64
FD26
FDD3
FDEE
FE1E
FFF2
0073
0034
014F
FEDC
FC5B
FC60
FE25
FDC6
FFB5
0018
008D
FEED
0055
028A
FFBE
0020
060A
FF72
03AF
FD31
00FE
FC76
FCCE
FE3D
FE1C
FFB4
FE3F
00A2
0088
0195
011F
FE77
FD56
FC76
FEF3
FE6F
018B
0103
FFCE
FFAE
FF79
0063
FFAE
FF8C
0435
02C7
0251
FE49
FF0D
FB25
FC6B
FE65
FF5A
FEDC
FE98
014B
FF08
FF2F
FDC5
FD28
FE93
FDB9
002E
00BC
022D
011B
009C
0105
FFA4
0033
0067
FCA0
040F
FF85
0270
FFD8
FC83
FBA8
FDA3
FEF5
FF5A
FE66
FEF7
FF48
FCB2
FF59
FE04
FE16
FFE7
0098
019F
0237
024B
0275
0259
0519
02EE
03C9
04D0
0067
FF28
FFF4
01EB
FF46
FFAD
0040
00FB
0119
017B
006B
FF74
FEBD
FF1B
011D
00DE
0108
028D
01C6
02AA
0359
04B4
035C
03F6
0515
05D1
02AE
058B
FF53
0101
FF75
FF52
02AC
FFBE
0366
FF52
03DC
035B
0219
0210
01A0
0156
0265
028D
03C2
0467
03E0
026F
0393
0281
02EA
037C
038F
0359
02DB
067D
01DF
005B
FF1B
0078
020E
FE69
0027
03A1
03E9
03A7
03B3
03EB
0125
01EA
0201
0201
0362
03B0
02AB
0298
035D
00CD
0231
007D
01AC
033C
00F6
03FA
FFCC
01A8
0059
0035
061F
01ED
FEDB
0357
0358
02CD
0195
01A1
0169
0241
01DB
0144
01AE
0324
02B5
028A
009B
FE88
006F
000B
0367
03D3
039C
0250
FF0F
FF9B
FFBD
FFE6
FDD7
05E7
013C
FF80
0142
0069
FFD0
FEC9
FECE
FFA6
00FB
00C7
0195
0350
0152
0248
026E
0010
FF9D
00DA
FEB7
FEC7
0421
FFDA
0195
FFC3
005C
000C
FD97
FD2F
FE33
FCF5
0180
00B7
01FD
FFDD
FD7B
003F
0199
02A3
0221
02C4
0435
04C0
0090
026B
FEC9
FF00
FF56
FEAF
0543
FDB4
0002
FFE4
004A
FF8F
FFEC
FFF8
FBC7
FABE
FCDD
01AC
02E5
FF31
02B2
04E4
0172
02CB
02D1
00AB
02A4
056D
0330
049D
0248
012C
02CC
0296
01B0
0194
001E
FFA8
0090
FF81
FFF3
0066
0133
0167
0116
0082
01FD
011C
0341
0114
0066
0482
00AE
FCC4
FE73
0389
024B
0119
FF67
02D8
002B
021C
000C
FF82
0023
008E
0072
FFF4
FFCD
0088
004B
0074
FFE9
FF92
0071
0008
FFEE
0068
FCC8
FDAE
FFC1
005B
FF76
0017
0068
003F
FFC6
FFC1
FF76
006A
FF8F
FFFE
003D
0091
FFAD
FFCD
002B
008A
FFAD
005B
FF50
FEB4
FDE4
FEDA
FECA
FE40
FD84
FCA8
FF43
FF2F
FF80
FEAA
FEF3
FEBC
FFE6
FF35
0059
004A
FF71
FFC0
0086
FFB7
FF6E
FFE6
FFCC
FFF8
FF26
FE97
FE8E
FD6A
FE2B
00B3
FF5E
FE01
FB0F
FB1C
F986
FB56
FB65
00C5
024A
0450
03C5
FF23
FEB0
011C
018F
0181
0018
FFD2
FFB7
002B
FF83
0048
FF39
015F
00BE
0063
02F4
00BA
FF9F
FDCF
FC83
FBC1
FD62
FE41
FDED
0079
006A
FEEF
FBE4
FF36
FF41
001B
002D
008E
002E
FF7E
002B
0147
0025
0504
02B0
FE9D
FF6B
FF03
FEFA
F9F8
FE57
002E
FE11
FC57
FDC9
FF04
FE85
FDBB
0120
015B
FE15
FFB3
014E
048C
050B
03A7
01AB
FFA4
0017
FF7B
0067
00B5
02D0
0157
FF90
00FF
FEBA
FF75
0039
006E
FFCA
0028
FF92
FE9B
FDDE
FF6D
FFD8
0009
0290
FE77
FF3F
032F
0450
006A
FBAA
FC65
FF86
02E0
02AB
02DB
01F5
FDEF
FEED
FEAD
010C
0288
01A5
00F3
0053
0184
01B2
0182
0069
00F8
0147
FF2D
00BE
00FF
FF63
FFC8
01B1
FF19
FCC1
0385
008C
0324
02CF
01D4
FF29
FE7D
FF9A
FFBC
012F
0142
0137
0075
022F
029E
029C
0238
002A
008E
013A
FF77
0236
012E
FCFA
FC36
FDD8
FEE8
01D2
0340
002B
018E
027D
01DB
0028
0047
FEFB
FFAC
FF70
004B
00E8
0207
0185
033F
02A8
01E5
007F
008E
FFC6
FF51
FF73
0001
FDA5
FB0D
F86E
FBA8
FC30
0147
00A7
00FF
0275
0338
02DC
0085
01BB
019E
01C6
01F8
0212
01C4
016A
00F0
0164
0027
FF0E
FEE1
000E
0096
FF1E
FE8E
FF21
FF28
F709
FD78
FF8C
052F
FF9D
00A0
FEF8
05D7
FF41
0122
02B3
0000
00C9
00DB
FFF9
FEFC
FD93
FC80
FC61
FC89
FE9E
FE1B
FFDA
FFB1
012C
FECF
FEDC
FEC4
FCB2
FFEE
02DB
04F0
00E2
00BD
FD4E
FF01
FDA7
000B
0016
FD7B
FE2C
FE41
FB82
FD1C
FAEF
FCB5
FE03
FE1A
FF43
FFE0
FF19
FE7A
00FD
0160
00FF
0146
0267
FF1B
FEB3
FFB1
0048
FED8
FBC2
FB7A
FDE9
FE3A
FDB3
FAB3
FCE2
FCBC
FCEA
FDA1
FFBD
00C5
0373
0099
0125
00DF
00C8
FEB3
FFF0
FDCE
01B8
0247
008D
FE42
FC0D
0088
FDFB
FE80
FD03
FB7D
FDBF
FACE
FB99
FBDF
FD07
FF30
FF9C
00C3
0166
03AF
02DB
FF63
0136
00DC
0023
FF71
FFAD
0077
00F3
00F0
0379
FCC3
FD7B
FFEE
FE70
FF67
FF5B
FD49
FFA1
F919
FBF1
FF1F
0276
0238
025D
0189
024E
039A
01CD
0123
01EB
00CC
010C
FE52
0018
0126
FE5C
01B1
0263
FF21
FFAB
FD89
FF3D
01CD
00AB
019C
0156
FAD6
FCF1
0010
02BE
03DC
03EE
043C
0332
0216
0201
0225
00C5
0112
FFF7
FE0D
FFB9
016C
0078
0158
0103
FD32
00A9
FF73
FFAC
02DD
042D
01EE
0001
FB84
FDA5
0002
0209
03CB
04A4
049B
051B
039B
0153
0125
FF0C
FE6F
FF83
0037
FF30
01AC
01FF
037B
01BB
0130
0172
FFB9
FF6E
027A
03FB
015A
FD5B
FB5A
FBD5
FE49
002F
FFDC
FFF5
02D2
0484
03EF
FF9D
FFFA
FD8A
FE61
FFAC
000D
003A
0058
00F0
01F8
FDBD
FD72
FCE9
FC1E
0194
01EE
0661
FFE1
FCBF
F82F
F7AB
F78E
F8FB
FA21
FC5A
FCF2
FD0A
FCA8
FBFB
FEB1
FEB9
FF9A
FF6A
0040
0120
01D2
0062
FFDE
FA14
0187
FD83
FEAE
0051
018F
0298
FEAB
FCDB
FA30
F87F
F53F
F51A
F6DB
F668
F6DB
F6F3
F758
FC45
FD7B
0109
008F
00D1
00B3
01DB
02EF
0003
FCC3
FBBD
0169
FEF1
FE5D
FFEF
0286
00F6
0566
001D
FE2B
FE48
F9DA
F7AA
F966
F919
F89D
F97D
FD17
FF9A
FF9D
0193
FFE3
01B5
02DD
0256
010A
FE74
FD9B
FCDF
0332
FBCF
003A
FF60
00E8
0247
0743
0486
012D
02E6
018D
FF4D
FD62
0064
FFBB
01B6
0014
FFA3
000E
01AA
FE7E
005B
00CE
00E0
FF90
FE20
F9D0
FE08
0413
FB66
FF8F
001C
00D9
01E2
04A2
0489
03C4
0238
02D2
0159
FF55
0115
02D8
016A
FFBD
FF08
FFC1
FF1A
FDA8
FE3F
FEE6
001B
FEA7
0002
FEB7
00BA
031D
FBBA
003E
0035
FFBE
058C
0528
0449
0437
03A7
0281
017F
0162
02CA
026A
FFDE
0096
005A
FF16
FDAA
FCE0
FCFE
FD83
0040
FEEE
0054
0314
04D8
0244
FEA9
FFA9
0024
0068
01E0
053B
0676
023A
035D
0375
015A
025D
049A
0304
0113
0138
012F
0079
FDDB
FFE2
FCE8
FCC5
011E
0269
03D0
0623
0399
FECC
FF60
0063
FFE0
FF92
0192
FE84
040C
06C4
0630
0320
052F
04EA
0473
0197
0258
02CB
FF18
002E
00A2
FE57
FF0A
01E7
01B0
00B4
03FC
044D
073E
FDB1
FE56
FFB0
000C
0055
0010
016D
014C
FF64
0145
0171
0188
0038
03C7
03A3
0241
06C6
0748
0342
FFE8
0039
01A9
0391
0190
FE6A
FF74
022A
02A8
FFFA
FFF6
0005
000A
0053
0005
0052
FFCD
00BC
0179
01AA
026E
0241
0150
0197
FFAB
01D2
062C
0237
015C
029F
013D
FD4A
FB77
FC18
FB79
0081
FF73
0058
006B
FFEF
FF99
0010
0023
007C
005B
FF99
003C
0075
FF8B
FFEE
FF7A
FFF1
01CE
013D
002E
FF55
001E
0057
0017
0078
FFFF
007C
0055
006D
FFD9
008B
FFC9
001F
0050
FFB1
FFA1
FFD6
010A
0174
0394
03B7
0265
01E0
0477
0551
04B5
0389
FED4
0230
FFDB
0415
0518
032B
04BA
029E
0339
0389
FFF4
FFF4
0037
FF9C
FF85
FFE7
00A9
00DD
01E3
033F
02A4
0550
0387
018F
039F
05CF
03EB
0448
03AA
0457
048A
05E1
0655
0770
0464
0275
03F3
035B
FEB7
FEAF
005F
FF7F
FFAA
FFC1
FE13
0259
02C1
FD48
FF90
017E
04BE
04AB
01AB
0303
02A1
04F5
0414
0594
0459
0435
06D5
0866
042E
0557
014D
FF9F
FEFA
FD5A
001B
FFF8
0057
FF7B
FCFB
FF12
FEEA
FBC0
FC54
FE9C
FF1E
0041
00F1
00B1
0044
013D
030F
036B
03B7
03EA
031A
02E4
022D
0226
FE68
FCBC
FA3C
FCBF
000D
01E6
000B
FFB5
FE12
FF67
FCBC
FB6A
FA8A
FCFB
FE32
FE6A
0144
0212
02C2
0340
026B
0233
0116
028A
01D2
01BA
FFF0
0255
00B5
FF8A
FE57
FE48
00E8
FF66
FFCA
FDD5
FF83
FA83
FE4A
F9DF
F92B
FD7A
FEA3
FE87
00ED
0494
0382
0393
038E
030B
01BE
010B
0108
0206
00DF
FEDB
0129
00F9
02A3
0360
FBD9
FE6F
FFF8
FCFA
FCBB
FA83
FB2E
FCA2
FB6D
FD51
FF0F
FF3E
025D
02E9
0245
0241
03FE
0450
01FC
FE17
FF40
FF67
FF97
FFE8
0095
FD5A
FC38
FD2D
FA68
FF9E
013E
FD71
FB06
FCEB
FBC5
FDB5
FF0D
FEEE
013E
024E
021A
0234
01DD
01CB
00B9
FF96
FDEB
FC64
FB44
FE8F
FE0F
FF52
FDAE
FC34
FA10
FAB2
FADC
01E9
FF54
FEE1
0106
FD7D
FAB2
FD9C
00EC
0092
02FC
0353
03AF
02D6
0134
FF25
FCF2
FA92
FAD1
FB3D
FBA4
FED6
FED0
0030
FDCA
FD2C
FDD6
FCF0
FC14
FB0A
FF85
FF2B
FF2C
FC0E
FC53
FF63
01C6
01A6
03A2
03F7
02F6
00EC
FEB8
FCA8
FC50
FBCF
FBF4
FC44
FFA3
0153
0304
0054
FDFF
FEEF
FFE8
FEEE
FD34
FB12
FFB3
FE3E
FC31
FAF3
FC03
FFE0
0270
0211
0375
0303
0015
FD6B
FE23
FF68
FF20
FEE5
FEA8
FEDA
00E1
0403
03E2
02FF
FFDB
0127
0568
01AD
FE7C
FEAA
FF33
FCC5
FB6E
FEDD
FDAF
FE59
01E0
01D2
0310
01BC
FFF4
FF17
FDF7
FDE8
FDD8
FD9C
FE36
0203
0159
02A3
01D6
01A3
FEA7
01F9
02D8
FF81
FD71
FD62
02BF
FE94
FE48
FFC6
FF58
FDFF
FF9C
01BF
011C
FFDE
FF98
FDC4
FD63
FD9A
FE3C
FFFC
00A2
0163
0097
0163
FFB4
FF8F
FEA4
FF0C
00DD
FF5C
FDF7
FF63
0177
FEA8
FC03
005B
FFC4
FE5A
01C9
010C
002B
FF0F
FF08
FEB7
FCAF
FE62
FEC9
01CF
014D
FF7C
FFEB
FE39
FFC4
FF2C
FF46
FD51
FF5A
011E
FD22
FF22
016B
FFEA
FA4E
FC2C
FCD6
FF45
0153
01CE
0099
FE8C
FF15
FF25
FF56
00C4
0122
00F2
016F
FE8A
FF41
FF0E
FF6C
002C
FCB4
FCE6
FE57
01FA
FACA
FDE1
FE26
FFD4
FA4F
FC23
FC0C
FE4F
FE02
FECF
FF59
FD6B
FE9A
0127
0031
FFB9
00D0
FFB6
0094
FF52
FE30
FECB
FEA8
FE13
FD8A
FD77
FDFD
01CB
FB8C
FD2E
FFBC
FE34
FB5A
0080
FCB8
FD36
FEEA
FC52
FD62
FDFB
012D
026B
0181
0045
0024
001A
FF66
FED2
FE24
FE54
FF35
FF8D
FEAC
FF2F
FE77
FE86
FBAC
FCDF
006E
FF83
FB4D
FF42
FF4F
FE3A
0045
FDA7
FCA5
FF6C
00E3
0020
FEDC
FE52
FF27
FEC3
FDD5
FDD9
FD6D
FE54
FF07
FE8C
FEDF
FFE8
FEFE
020A
FB7F
FB99
00B4
FB90
0199
FF77
FE58
FD5E
FE55
FDDE
FDF0
FE6F
005C
FF09
FF73
FE49
FF39
FF35
FFED
FF88
FFFE
FF67
FFC5
FFE3
02B1
01B6
00D0
0254
FEAF
FD60
FFF7
FE92
01CE
016F
0261
002B
FDCC
FD1D
FDDA
0128
0049
FF3F
00C7
022E
024A
0163
0079
017E
0191
0244
014D
0095
0463
0277
01EF
0658
01BD
00D1
0111
FFCB
FC61
01C5
04E9
03B0
01FB
0149
0168
01E0
01D4
01B8
02C2
03F5
0353
0282
019B
0203
0278
00AE
02BF
01CC
029D
0461
0167
01FD
0394
FE1A
007D
FEE7
FC51
03D0
0530
02BE
008B
006B
00D1
0108
0152
01D3
0265
02D1
02C6
01B0
016C
0274
030A
0055
02DA
0246
03A0
0508
FCFC
0006
02CC
FDCB
FFC6
003E
00FF
02D4
0284
0365
00BF
FF76
01CB
FE89
008F
FF90
0219
0232
01C5
009D
01F6
0163
0135
01FE
04C2
03AE
066A
0613
FFDF
FF78
009C
FF82
FFC3
000A
FDC5
FD84
FA5B
008A
0205
009F
0058
01DF
028D
010A
0235
00F1
00BE
0232
02F7
01E3
0456
03CC
058C
FF8C
02D7
065C
0143
FD40
0012
FFD2
FF6F
0063
0344
015B
FBBD
FFDF
0329
0263
FFF2
009B
02AE
00D9
FF57
00E1
0206
0124
0063
0166
00DD
02D5
03C3
013D
0291
06DA
0622
01D9
FFD3
0058
FFA0
000D
0017
02B2
03C9
04A8
03DC
02C7
0524
0388
0558
0486
0483
03C9
03F0
00B3
0012
037B
00FA
FFFB
04D4
0023
008F
03EE
FF73
FFDC
0080
FFFE
0065
FF70
FFB9
0003
FE56
FF2A
FE47
FE06
FDB5
FD04
FAA5
006A
015A
FBA7
FF91
01FF
0395
FF9F
001D
0223
015D
FC79
FB2F
FD9E
FFB0
FFDF
002B
FFA0
000B
007E
0033
FF70
FF71
001F
FFA1
FF71
008E
FFAC
007F
005A
00B0
009A
FEA8
FFBE
FFFF
0082
FFBD
005A
0083
007A
FFD5
002C
FF7A
FF87
008F
FF7E
FFA8
FFCB
001D
0061
0003
00F9
024C
01DE
00D5
FEE5
0000
FF3E
0037
0004
006A
0026
FE03
0017
01D8
0204
024F
01CA
013C
0234
FFF4
FFD0
FFDC
FF92
FFA2
FFA2
0068
0234
0180
00DC
031D
0396
02A2
010C
0093
00F7
FEAE
0478
058C
0441
FFFE
FFD3
FD6C
0408
04D7
0155
016B
01AC
FD44
FC88
FFEB
0066
004D
FFE8
014B
01D3
FFC1
00F1
00C8
01C0
01AF
022C
FE46
FCFB
FB08
FC0A
FB63
FB8A
FD90
FCB3
FDFB
01C4
FF69
014D
016D
FF8C
00A0
FD20
00DC
006F
FFA9
000E
FFDE
FAF2
0286
046A
0237
FFDA
FEF3
FD62
FC1A
FCC8
FC10
FF6A
FD9B
FDE3
FE97
FEC2
0091
0160
010B
00F9
010C
0229
FEF9
FF2C
FBA1
0201
002C
FFFB
0419
FD16
031A
FF01
FDF1
FCA0
FC97
FD16
FE91
FD83
FCA9
FF7F
FFEA
0018
0097
013C
024A
014E
0190
0240
022F
05B5
04F8
015A
00DF
02ED
008B
00E6
000B
FDAE
050E
0036
FE4A
FE88
FCE9
FB29
FC8E
FCBD
FD88
FEE1
FFE0
FFAE
001D
FFFA
00BA
00BB
FF21
FE4A
FF0B
0081
05F8
04D4
034C
01BE
FF6C
FEE1
FE01
FEC8
00A7
FFB3
FD67
FF24
FE1C
FC0D
FAAC
FE2B
FF13
FEFD
01DC
015D
0157
02DE
0226
0006
0153
00A4
FFF0
FDD8
FFBD
01AB
036C
030D
04B0
FDE4
FBD5
FF06
FDFD
FDA6
FEB6
FEEF
FCE1
FCEC
FC68
FF0F
FEC5
0089
014F
0318
015F
0280
00C7
0043
00D6
0108
FF30
FE58
FF45
0315
02A6
FF5C
FF4F
FE81
FEF9
FD73
FE96
FED4
FF00
0163
FD68
FD23
FEA0
FDD0
FEA5
FF8C
00A3
02D0
01AE
0039
FF8F
FEB7
FF66
FF0C
FDD4
FC6A
00B8
0412
01D6
027A
FF38
FEFA
005C
00CB
008C
0237
0065
FFB5
FF31
FE45
FEE7
FE39
FFD1
FEF0
00A3
0289
00A6
FF0E
FD69
FD00
FBE5
FB1E
F967
F98E
FE67
01B6
04A0
0260
FF13
FDDB
FF3B
FE20
FF08
012D
0060
FF48
FFDE
FD38
FD69
FD9E
FF9A
FEA9
FEB0
FEFC
FF1E
FD02
FCF3
FC42
F90E
FA63
F7B3
F775
F732
FE48
006A
011E
FEC1
FDE7
FE57
0092
FF69
0191
FF92
FE9C
FE83
FD93
FFB7
0042
0232
0041
FE88
FD48
FD83
FC5D
FC81
FBCE
F906
F896
F946
F864
F9A0
FF4D
0043
0135
0417
FF48
FD15
0028
006B
014C
01EB
FF5A
FE0D
FE7F
FED1
FE85
01A6
FF9F
FE3D
FDE2
FF61
FFD3
FF29
FF13
FB13
FC92
FCCB
FF39
FCC8
FFC7
01EA
0320
01A3
FF16
FD1A
0087
0241
01D2
017C
019A
FFC9
0018
FFC7
FF2C
00EA
FE73
FE92
FE5C
00AD
FFA9
FF49
FF0A
FC06
FD75
FFBE
FFA1
028B
00AD
03DA
0318
013D
0025
02C5
018B
01F7
01A9
0012
0106
FF99
FF99
FFBD
015D
0274
0059
FDE6
FF84
0292
0226
FFD4
FEFB
FD99
FF19
FF09
0063
03CD
055F
02A2
0364
FF21
FFA6
030B
0265
0127
0331
00B5
00B8
FEDD
FFCB
FEA5
00BA
00AA
FFE0
0098
0111
0275
0213
0109
01B6
FFEA
03A5
010C
0096
04A6
06FA
02C4
FE15
0068
FD2E
0578
01AB
026B
0305
02B9
02A4
010B
FFA8
FFE2
00C4
FF0D
FF7C
0154
0141
0176
0082
01DE
01B8
006B
0297
004C
FF58
FFAB
04AA
00E8
00D8
FBD0
FE6C
0193
0669
054B
03C2
0299
01E4
002B
002D
FDEE
FDD1
FEBA
0097
00E4
01E5
0214
FF84
0116
0188
01DC
01F8
FED0
01D2
0386
07CA
FD83
041A
0288
FD97
FF83
0730
0563
0413
02DB
0128
0056
01D4
FF23
00AD
FFA4
0059
01AF
0457
03E9
01B2
0324
012A
02E1
028C
00DC
02A0
0289
0685
0418
0118
0007
FC96
0259
0674
044A
023B
0165
014A
031C
03C6
019C
02C2
0127
FFC9
01DA
01DD
03FA
035B
0618
0416
03AB
01A8
0360
03A1
007D
02A3
06FE
0118
0362
00D4
0166
0810
0164
02AC
FFF6
01A5
032D
02A2
02A1
0194
014C
0117
0267
01CE
0143
01D3
034F
02DA
01F7
03C8
044B
0559
035C
04B4
0784
FFF4
03BF
0187
FF2F
0328
034A
04D4
FF14
FFC7
00BA
017E
014E
00C4
007E
00CD
FFE2
012A
0008
01E2
0361
036C
0236
05F7
03A7
03EB
0116
026E
030B
FFB1
FF8F
FF7D
0444
FFDD
048F
052F
0361
004D
0297
0262
022C
00DD
015B
FF68
0035
FFC2
FFA6
0157
02F5
0247
0256
0532
026F
FFBF
FF00
0292
04F0
FFFD
001B
FFD0
01B2
FF3F
02E6
01DF
0062
002D
0087
0252
FEF7
FEB9
FD5A
FD79
FEEB
FCDA
FD00
0117
0184
FE96
FE96
FF6C
FEAA
FD11
019C
0661
0426
0026
FF70
0085
0187
0168
FEE2
FB76
FB4D
F9B5
F96E
FDA5
FA12
FADE
F87E
F90F
F7E3
F76E
F6F9
F8B2
FBA8
FC82
FE5B
FD54
001A
FF3A
FF7C
00F5
0288
FF9F
0042
FF81
003C
0073
0003
FF31
FCFA
FA39
F8F8
F9A8
FB21
FAB6
F95F
FA2F
FA92
FBD5
FDF1
FAC2
F8E1
FA5C
FB51
FDAF
FFA5
FD47
FC9D
002C
FFA8
FFFC
FFE0
FFCC
0087
0002
0000
FFC5
FF93
FEE5
FE2A
FE3E
FDCC
FF14
FF4E
FDFF
FD23
FE9D
FF62
FBB5
FB0B
FC4B
001F
FDFA
FFD1
FD34
FF9F
FF98
0031
0088
0069
FFE1
FFAB
FFAA
0048
001B
007D
0021
FFDB
FF9D
000F
007F
0096
000C
00C6
00C7
FFAE
FFC0
FFFE
FF8B
001C
0008
0082
005F
FF97
0007
0008
0067
FF78
0090
FF78
FF99
0078
0134
00ED
0191
0170
0182
01FA
01E4
019F
008D
FEA5
035A
0513
03E0
02B8
02FC
0298
0237
0224
01F0
FFFD
0072
002A
0031
0029
FFC3
002C
0372
0431
FFB4
006F
0160
027D
0392
0452
0202
0240
FF99
FDD6
FEBE
0246
03A4
0450
003B
033A
039B
021A
0595
03F4
0328
FF83
005F
FFA4
0033
028F
046F
0390
FE41
FEF3
FEBA
FFFE
FF0D
01E9
03F3
0620
048E
0025
012A
00A3
01D5
0205
FF64
01DE
0329
0165
03E9
057D
0502
0117
0070
001B
FFF6
022A
0204
FD98
FD3B
FFC1
FE0F
FFB1
016C
032F
0450
0270
FF63
FF49
012A
0169
0190
0102
FF3D
FF5C
FE65
FE8C
FF41
FF36
0198
02F9
0153
001C
FF7D
0389
00E7
FBBD
FA23
FCA1
FE48
FCE4
FDF7
FF48
001E
FE13
FF5D
FE97
FF0F
01A3
022B
0304
02CE
02D2
0360
01B8
FD6F
FD79
0079
02EE
0011
FF88
012D
0101
FED8
FBF2
FC30
FDEA
FE32
FD98
FD33
FEB6
FE0C
FE7A
FF02
FE60
FFC4
0134
03F9
0472
03FC
02B8
0263
02F0
0199
001C
FF7A
FF91
0046
FF59
04A0
FE69
FE65
FD3C
FDB1
FF8F
FEB7
FFF9
FDAD
FEA2
FED5
FFAF
00A2
01AE
02FC
03AB
03E5
0614
03C3
02DA
02F2
044B
01AC
FFF9
00BD
FD4A
009D
04F0
0385
FDD9
01DE
FEAD
FE96
0076
0040
FF4F
FF7D
0166
007C
02DD
03FC
03FB
048E
05AE
0527
0322
03AE
0305
01E8
0423
0467
024F
FD1F
FE81
04B0
0113
013B
02DE
03E7
00D0
007A
00F2
FFE2
013F
025B
02BF
0121
032D
03A9
0364
0244
01DA
FFFC
FE94
00E4
01DC
005B
037E
0493
0452
01A7
00ED
FDA1
00B1
FF9C
0270
0143
0184
0055
0234
0048
018C
0161
0257
01D6
01B6
0263
022C
FF56
FEE7
FCC5
FE53
FEF6
001F
00F4
02A2
050C
0382
FEA6
04E3
00A0
0075
04CC
FEC0
FF62
FFF9
FFA9
00DE
015D
002B
FF25
FEB3
FFB7
FDD8
00A1
FF7E
FC9F
FB7F
FBC0
FCAE
FEA0
FF69
FFEF
01F2
052E
091F
0442
0794
0087
00AA
0017
FEF9
FD87
FEF0
FFF9
0108
0081
FE5B
FFA1
FDA7
FD05
FD19
FD5A
FEDE
FD12
FCD0
FE36
FE57
FFAB
FE9D
FFC4
0026
0197
02A5
00B5
0108
FF13
00D7
FF6D
0030
FE29
FBD2
FF0E
FF86
FD3E
FDEE
FEB0
FD2C
FDB7
FF2E
0085
0030
FDCB
FE29
FE65
FFB2
FFF1
FE9A
FE2C
FF85
FF8B
FFB5
0011
FFB8
01E3
01A8
FDB8
009D
FD85
FB1E
FCE6
FE8C
FD99
FCE6
FD08
FDFC
00AE
0154
0211
00ED
FF34
FD12
FE38
FFCB
FDD9
FE0B
007A
FF47
FD77
FF97
01FD
051B
01EF
0133
FDC7
FCE0
FD94
FDBD
00A2
FFF9
FFC0
FEF2
FE8B
FF5D
012A
017D
021C
0099
FE32
FE52
FDD5
FF3F
FDAC
FE5F
FEA5
FCD0
FE03
01F0
019A
00E2
038B
FEC8
FE8C
FCA1
FFFB
FF10
0204
00FC
0152
FFC9
0083
0282
0241
0187
0074
FDF5
FE27
FED7
FE79
FD46
FBE6
FC8C
FC70
FE78
004E
0157
01F1
026E
042C
0016
FBE5
FB45
0105
FF98
0225
036C
011D
0119
00CA
0273
01F3
0093
FEE8
FDDE
FDB6
FEB5
FED4
FC94
FC61
FCA2
FC03
FDEC
FF81
0046
0189
0023
035A
021D
FD0D
FAEE
FE49
0050
01D1
0261
00F9
01F8
00F9
025E
FFBB
FF5A
FD84
FD2C
FF16
FFA1
002D
FDE7
FD17
FDD1
FCCC
FFCB
FFF9
017A
020E
FE5C
0384
FE8B
035C
FCF8
FB39
0099
01AA
0195
0191
0161
012C
0134
FED8
0112
FF78
FE12
FF4D
FF4D
0007
FF73
FF25
FFCA
002F
03ED
01F7
0123
0227
010C
01B2
0013
03E6
FF29
FFE2
025A
052F
0468
03B2
02A9
0174
0228
00CE
0187
012D
FFE8
0005
FE95
FF65
0116
0129
029A
03CA
031B
0299
FEF3
0273
FFF8
FE9E
FE1E
009B
036D
03E5
0581
029F
05AD
0459
0079
02B1
0218
0234
015D
01D2
017F
0179
009E
00E7
021F
01E2
0130
00FC
02C4
0280
FE72
031B
0580
013A
FDAD
FEEA
01D7
01AB
019F
0444
068A
02AA
0176
038C
0133
0294
0205
01F4
0167
014C
00D0
01A8
0231
0152
FF9C
FF00
FFD6
FFC2
FF4F
00E7
FE30
0254
FFCA
FF8A
03C8
FF6C
FEB0
00E9
0010
0059
0251
022E
002B
0213
020D
02A6
001C
01E0
0291
0130
00C8
FF39
FEAD
FDD0
040C
01CB
021E
014F
FAAE
0005
FFD5
FFDC
FFA3
FE28
FBFE
FD36
FE2D
FDA5
FF7C
FFBF
FE84
0041
0380
027F
0140
0263
024C
021E
0376
015A
FF50
00AD
004A
FE12
04A7
0013
FF03
0014
0088
0090
FE83
FE69
FBEF
FC87
000C
FFED
FF0C
FFAC
FEEE
0087
0240
01E7
FFCB
0226
034F
043B
033E
0338
FE16
FEFF
000A
FE07
030E
FE5B
00F5
FFCE
FFD8
FF92
005F
01E8
0037
FC62
FCB6
016B
0319
0104
03D0
04EE
012B
0130
FF03
FE29
FFA3
02A5
00E5
0201
FF32
FF40
00CA
02DA
0254
0095
001F
0089
FFF6
FFDF
FFF0
003D
0164
0125
00EF
0049
01C8
004F
037D
01E4
00C7
02F8
03C3
020A
019C
0346
006B
FFC2
FE06
0095
FF89
025E
0048
0028
FF72
0001
FFD4
000E
FF75
001E
0028
0023
0011
FF85
FFEE
FFBF
FFCD
FF82
FF73
FFC2
0056
FFB1
FFA9
0006
FF7C
FFAE
FFC4
FFAE
FF72
0070
FFF4
FF9A
FFAC
FF98
001E
FF81
001E
0072
FFE8
FFED
0087
FF9B
FF16
FF62
FF7C
FFCA
0021
004A
03EF
0280
FB7D
FCB6
FF7F
00A9
0139
00B4
0093
0022
FF7F
005E
0089
FF89
001D
FF7D
001D
000C
0047
000C
00A4
FF4D
FEF1
FCF6
FCBD
FAB1
F980
F7EE
F9E6
FA2F
F9BC
FD63
FC1A
0243
FF69
FF92
01D3
01E3
017B
FF67
0002
0069
FF6E
FFEB
036C
0379
0068
FDCE
FDFD
FF58
FA8A
FA27
F934
F94F
F84C
F8CC
F97D
FA39
FBC2
FE57
FF82
005B
FD12
FC93
FDE1
FC66
FCD0
0258
FF64
FFEB
FFAA
FF91
03A4
03E0
01B3
FEC3
019C
FC62
FDF9
F8E7
FA07
FE56
FDDA
FED0
0068
FFC5
0001
FE3E
FC7D
0173
FE0C
FBE8
FD28
013E
FF3E
FEE6
FE98
FB21
FFBD
006B
04AB
042D
0468
0480
02DA
019B
FEBE
FE01
FBE9
FA8C
FC3B
FD64
FF4C
0057
FEF2
FF53
FDF2
FF7F
FFB6
FE93
FF7A
0083
FFF4
F9D3
FA41
FC7B
0022
FCE7
FF66
0325
035C
FF2B
FDF8
FF3F
00D3
FC5B
FC49
FD48
FEE9
FE36
0119
004A
0145
013F
0305
00D3
00AF
FF70
FF7C
00AC
FEB9
F69E
0088
0089
FFD6
FB26
FEB9
02CE
030F
FB86
F997
FEE2
FE3E
FD63
FCF6
FD83
FFE1
00DC
0213
00CA
0251
01F0
0136
019B
00FD
FEB2
FFBB
004C
F99B
F8C4
010C
0089
FE56
F936
FF2B
044E
0455
014F
FBFC
FBCD
FE66
FC15
F9C2
F997
FD83
01F3
0118
01D8
01AB
0249
01BA
FFEC
FF25
0008
FF9E
FE2E
FBC8
FDC0
00BC
FF44
FDEB
FE80
FE9A
0398
0531
0251
FBCA
FBBB
FC01
FC3D
FDEF
FA2C
FC8E
01EA
040C
0361
0276
0287
01E5
00A9
FF0D
FF1A
FF8A
FE4D
FE84
FD5B
FDF2
FC99
FD5A
02DC
FD9E
00C2
03D8
FE45
F9E3
F895
FC16
FD5C
FCE4
FD9F
FE95
00DC
0456
03F9
0280
00F3
FFD6
006D
FEC8
FF8B
021B
0215
058D
042F
FE57
FF30
FDEA
0212
04EE
FD70
032F
008D
FE43
FC25
FC7C
FE63
0085
FE95
FCAE
0166
036E
025E
024C
018B
020D
0046
FF79
02FA
0237
0413
04CB
02CE
FDDD
0350
FFA6
001C
0203
FF6D
04AE
FEB1
004D
FF26
FD64
FE54
FF60
FF11
FE7E
024B
04DF
02D5
0236
02BA
00E0
FE75
FC48
FE00
FE3D
FE94
FDFB
FCB8
FD62
FE90
0249
FF6D
FB34
01E2
01D6
F97C
FEDD
FDB6
FEB6
FF89
FEB2
FF81
0062
02F9
04B5
01D1
010E
0098
FD70
FCEB
F9E4
F9E1
F837
F915
FACA
FDFF
FD91
FFD1
0042
0069
FE9D
01C7
FCE6
FC8D
FB95
FC57
FFC5
00CF
FEC0
FECF
012D
03A1
0459
0286
027B
FF1D
FD78
FD50
F700
F9CB
FBEC
FB1D
FC48
FEBE
FC7C
0009
0081
0009
00C2
00DC
FFBD
FEC9
FE74
FE47
01CD
013C
00F4
002B
02C3
0429
0359
01FD
0391
011B
FFAB
F8F2
F82A
FDEE
0064
FC3E
F90F
FB43
FE45
FF91
FF99
0172
FDBD
FE7F
FFD0
0529
FF1A
FA2E
FDA5
FF78
0052
0165
0148
0354
02D1
012A
0343
FFD3
FB09
F920
FADC
FCCF
F9AF
F985
FC98
FB33
FF5D
FF0A
FF79
0322
FD9B
FF4D
FFC4
0156
FE2B
FC2D
FD72
FFD6
FF24
00CA
01BC
02BB
02D0
00FC
0018
FBAB
F9AF
FD33
FDF0
FF3C
00F9
01AC
029F
029D
029A
FB94
FD59
028C
023A
FC29
FF7F
00BD
FD11
FFBB
FFBE
FF7A
FF89
012C
00E3
024C
035B
FE34
FBA7
FBCE
FB1B
FC46
FAFC
FC80
FDD2
FF59
0200
022D
03DB
0147
0223
FD17
014A
F9AE
FCD0
FEA6
FE89
0052
FF1D
FDBC
FDEB
FFDB
001F
015C
00F8
FD80
FAD7
FBA6
FC69
FCF1
FB19
FD48
FD50
FDF8
0247
0393
0218
0431
0038
000F
039F
FBFF
FD18
0049
028B
004F
0048
FE08
FFB9
0056
FFF0
FF62
009D
FD34
FCD4
FF27
FD61
FD1F
FACF
FD4B
FB1D
FCCB
0179
00BC
02D9
0307
0216
FD86
029D
0048
FEBF
023B
0303
0155
FF9F
00B3
0159
FF26
FFD6
FF6B
005A
FE6A
FB9D
FD79
FCA6
FA7E
FB4A
FBF2
F9AF
FDD7
011C
029B
0055
004D
0255
00F6
00BE
0094
FF13
025F
0305
024B
016D
0234
0080
FF4F
FF9C
FFFC
0071
FE5E
FC4E
FD36
FC60
F9E7
F98C
FA9E
FBFE
FF8D
04C3
00CD
041B
0058
FFA6
FFD8
F9EF
F8AD
FDE6
027A
0242
0228
00F0
01AE
015B
0105
010D
FFDF
FE47
FE49
FCF0
FDE0
F99C
F843
FC74
FAEE
020A
FF9D
0318
00A2
04D2
FF7F
0067
0062
FBE9
FAA3
FAD3
0082
FBCB
FFEE
000D
00AB
FE9C
FD15
FE93
FD44
FCF9
FEC8
F885
F9BB
F8CC
FBCA
FCC2
FE77
01BC
0340
03FE
04A8
0447
FFC0
FFAB
FFCC
FF7B
0229
01CC
FF53
FA39
FDA5
00C1
0077
F9C4
FB39
FE07
FE5E
01A4
FDE7
FE3F
FCE7
FC05
FECD
0227
019B
0166
009A
FEA0
0052
FF7B
000D
0036
0073
FF9D
02CA
028A
FF04
0095
0487
027F
0393
FFEE
FF5C
03DD
000E
0731
0743
0480
0732
07F5
0513
0112
03A4
FD50
FB82
FFF6
FF84
002B
FFCF
FF89
0039
002F
0069
FCF2
FCE2
FD3D
FD15
FDBF
0114
FF7A
03BB
064C
02B8
07D9
0269
032F
04F4
0425
0448
FFDF
0088
FFBE
FFB3
FFF3
005D
006D
001D
FF99
FFE6
0085
0061
FF84
006C
001C
FFF0
0041
0069
0028
005F
FDAD
FE8E
FFA1
FF3C
0086
FFBD
FFEB
0084
FFEE
006F
FFF2
FFB7
007D
0025
FFDE
0059
FFF1
0080
0041
FFB8
FFF2
FFA3
0001
FFA3
0015
011C
FEA4
00E1
FF55
0248
05C4
0355
FF23
FDDA
FBC3
FC71
FBE7
FF3D
FEBD
FE6C
FFCF
0011
FFF7
FFAE
002C
000A
FFFD
FCA9
FCEC
FCD9
FDDD
FD3E
FD6C
FA0D
FB6F
FB5C
F9BC
FAC4
F8EE
FBB0
00B0
FF98
0186
00C2
00FF
FEAB
FFD9
FEBC
FC38
FE77
FFFF
006B
0065
FFDC
000B
FEDE
02D3
FE25
FC9D
FE35
FEB2
FCAD
FF87
FD65
FEFF
FE87
FE02
FDCC
FDCA
FF1E
00F8
FF15
015F
00CB
014A
FFAF
FE18
0237
00B8
FFF3
FF82
00AA
0011
05DD
FF2E
FDCF
FC0D
FEFB
FEB9
00DB
00F6
00B0
00A4
FEDA
000A
01A2
01EA
0162
008F
00FA
00C6
013D
0210
0192
04B5
042F
0510
FED6
FFF7
FFBB
0042
032C
FAA6
FE87
FEAD
FFF8
FE27
FFE7
000F
0267
01E8
01AC
00E3
0142
01A8
032B
0191
0240
034C
021B
027A
005E
00F3
01C1
02FE
FE99
003E
0114
0090
FF78
FCB5
FEA5
009F
FF54
FFF9
0123
001C
00FB
00C6
01BA
0199
020A
02EB
034A
030F
039B
046E
0149
018E
039F
03BA
0226
0157
FFCE
0084
FE55
FF57
0062
FE00
FF57
001F
FE19
0068
FE3B
00B3
FEAB
0045
0008
0131
0362
0332
0284
0295
025D
01F0
009D
015A
0350
002C
0214
009B
FFB7
FB89
FA58
0062
021C
FE51
007E
01EF
00AD
FF98
FEBC
FF79
FF3B
FF49
0163
010A
01CC
03C5
01EF
0321
02BD
0182
017E
002A
017B
029B
0153
03CF
051D
0456
FFE5
FF28
010C
FE97
FEE7
0335
FF75
0048
FF83
FF49
0019
0055
0144
0118
0145
00BE
018A
009E
0111
0125
00D1
007C
00AC
FF39
02AE
033E
FC91
03DC
FEE6
FEC6
021C
02A0
FF74
00BC
00C8
00C1
0017
0053
FF68
0196
00C4
02BA
008C
FFEC
FFB9
0150
0251
02D1
01C8
0219
0237
0095
FEE8
02BA
00AE
0159
FCAC
FCD4
03DA
061E
0394
0219
02A4
00AE
0032
FFDF
FFFD
01EC
02F3
04AE
01F1
FF86
00D6
019F
01E2
028B
0142
02A8
02AC
04E9
035D
0967
020E
0002
FD10
FDB7
0584
04FA
05D7
02E2
01B6
FEEF
FF5F
FF57
00AA
0173
03F1
04B8
033C
FF55
0094
0092
026F
0290
0205
00E9
03A7
002F
01A7
0527
FD39
019F
FE56
FB3A
04EE
02E6
028C
0004
00A3
002B
FFF9
FE2D
01E2
03E3
043B
03B4
024C
0074
FF76
0079
0223
033F
00E7
00CE
FFA4
FDBD
FE85
0140
FCD7
014F
02B2
FA89
00C6
FEE3
FF0C
0249
FEFC
FF51
FEFD
FF3B
018C
017A
031B
033F
014B
008E
FFE8
FFAA
FF48
FF6A
FE61
FD2C
FDCC
FFF2
FE07
FAEB
FCD1
FFEF
0245
FEF2
FEEE
00F7
0012
01B2
008B
00D4
0025
FF06
FFE6
01CF
01D1
0346
0043
FFB0
FEE4
FFE4
FE78
FE67
FE0A
FEDC
FE76
FEE1
007D
FC11
FC36
FE91
030A
FF3A
0067
01F7
FF9F
0102
FF89
002C
FEA6
00D5
FF8C
01BA
0240
01AB
0027
FF4A
FE98
FFF8
FDE9
FD68
FE0D
FEF8
0195
0096
FF07
FD0F
FF6A
FFF3
04B1
FD42
01F7
02DB
0066
006A
FFD7
003C
0145
0082
0113
005C
00C3
0036
FF89
010E
0072
FD28
FDFF
FE7C
FFC1
FE02
FFF8
002F
F908
F9C3
00A2
0144
02B7
FF75
00AE
003E
0046
0156
FFD2
FF63
00BE
02F8
0254
00BD
FF8D
FFE9
005A
00BA
FF81
FC7B
FDC6
FF2F
FE24
FF5F
FEF2
FF59
FAD6
FD30
FC53
01F5
FD4B
0175
00A0
FF95
0193
00C1
FF5E
0154
013E
017F
FEB6
FDF8
FF64
FE99
FEDE
FFB2
FF58
FF8D
002A
007A
FFBC
004B
00F4
009B
FE6D
FF5E
FC91
0003
035A
0041
FE3F
0176
017A
027D
0112
00FC
0155
0028
FF53
FDDF
FF97
FF04
0013
FFB2
FFF5
009B
010C
0259
01B5
01AF
00C9
FEEE
00FF
FF2B
0180
FF57
FEAC
FFC9
FCAC
0124
0103
03B3
023E
0095
017E
FF92
0048
FFBB
001D
008D
00ED
FFA4
0044
011E
0108
01CD
0201
0082
FEC0
FE30
FEAA
FC04
FF73
FF07
0077
FEA6
FF44
0092
0032
014E
029A
003C
005A
FFFF
01F4
0152
00C1
013C
0042
008D
015E
0068
FF80
013E
0002
01F0
0349
FFC9
00C9
02EC
FEDB
0071
FFDB
0370
046A
00A9
020B
00AB
005A
027C
0021
006F
00F0
0068
0252
0148
0118
016B
006D
00CB
009B
0259
FE63
00DA
03DD
014D
0146
023B
FFA7
0004
0082
FEEB
0674
FE95
FEA9
FF81
FFEB
00DA
FEF0
0165
017C
022C
01A1
008C
009C
013E
FD90
FF00
FF98
004E
FD8A
FF80
0291
FCED
F7BA
FBF1
006C
FF88
0038
03BC
FF54
FB0F
FDB2
003E
FF56
008C
01B0
01BD
004C
015A
027D
0198
0185
02F0
0356
0162
026C
0010
005D
0031
02B2
04E5
FDC3
FE23
FF79
FF77
FFB3
FFCB
01A1
0353
0219
005F
FF81
FFC6
00F6
0377
03B4
022D
0398
037F
00AB
0199
0654
031B
FF21
02FA
0119
FFA0
03DA
023C
000C
FFF7
FFC6
0091
FF7C
0086
FF94
FE7E
FF06
0214
0227
0140
0269
FEF4
0203
0373
FD66
05EA
04C3
0358
FEDB
FFAF
FDF9
FF69
FE0E
FE8D
FDE5
0069
0039
FFDB
0014
FFA7
FFCD
0021
FFFA
006D
0039
FF9C
FF7A
000E
0090
0044
007C
00A8
00BC
FFC7
FFF1
FFA5
0051
FF98
006F
FFD8
FF9A
FFF3
003C
FFA3
0019
0019
FFD8
001F
0047
0083
FFF0
0127
0179
02AB
0271
005E
FFB6
01C8
FFA9
FF79
FE18
FF7E
0627
03B8
047A
0337
0268
0306
0167
035D
0309
006E
FF98
0002
FF9F
0044
0040
0096
01F5
0271
01CD
0016
011D
FFB9
FF47
01F7
00C8
00A7
039F
007A
0596
0725
0358
0514
04D1
03A1
FF9E
008A
0260
0239
0282
0068
FF93
0019
FFC5
02FF
04EF
040C
0178
01A1
02B2
034F
0063
FDD6
FC8E
01F8
00A9
FF54
0216
01EC
FFBE
020D
029D
0153
FF1C
FE61
FE28
FFB6
00F2
FF45
FF95
0031
00D5
0484
07D3
0456
045E
0396
00B2
033E
01AC
022F
01B8
0171
018B
0214
03B1
0070
FE9B
006D
0151
FF57
0195
FFF9
FEB8
FE0F
00A2
03EE
FFE1
FFD8
006A
05D9
04A9
03B1
05C5
04C3
04CD
FF76
0059
FFCC
FF53
0088
015C
0089
0077
00CD
FE68
FF9C
FFD8
FFFA
0121
0058
FD79
FBD5
FD60
02FD
FE01
0031
02E2
00C5
0276
0187
0195
0409
01C2
0110
009D
00E4
015E
0117
FFB5
FE5F
FE3A
FDBB
FCC3
FFE3
FF7B
FFBE
FF13
FD55
FDFC
FE0D
FA92
019E
017B
FFA8
05C9
0079
0061
00A6
FFCE
005B
01A0
00A7
FEC1
007D
0043
013D
FF7D
00A7
FE28
FDD5
FC79
FD44
FED5
FF8C
FF26
FF6A
FD85
F850
FAA9
FF85
0303
0224
060C
FEF8
00B3
0048
FF73
FFC9
FFDA
FCE8
FD1D
FF39
00AA
01F7
0183
0142
FF06
FD97
FE44
FDA6
FEFA
FFDF
FEDA
0102
FDE9
F9BD
FEB0
FEFD
03E2
0126
0377
FF44
0065
0306
FFCB
017B
0015
FE34
FD20
FE42
FFE1
0223
027A
02A3
011B
00B4
0010
FF5C
FF30
FE77
002D
01F1
FF39
FE72
0013
FF8A
FFF0
00E1
020C
FE36
0250
01E4
FFDF
FEE1
FE2F
FE81
FD41
FFAF
FFFC
0172
04E0
03AD
01C9
02D0
037E
02BD
01B4
019E
00B0
0294
0171
01AD
0107
0182
0075
00C9
0123
FFAD
01C1
055A
0266
FE73
FFFE
FC41
FCCF
FDBB
FFC0
007A
03A9
0320
018B
01C4
02F7
0390
0247
0209
00EA
FF9D
FEB0
0212
00AD
01BB
0569
00A5
016C
0136
00AC
0326
0249
FD36
FF79
FDD8
FDC1
FD62
FC60
FF6A
00C9
02B4
016A
00F0
01D7
014E
0018
0088
0062
FE8A
FCFB
FA38
FF1F
0407
041D
02C7
FFDA
02CB
032A
FFA5
FE92
FC75
FB66
FC5B
FD60
FB3C
FADA
FD45
FEDC
0071
00D9
01A0
0162
FF8D
FFFD
017D
0051
FECF
FDB7
FC8E
FF83
FF72
FD7B
0165
0285
041C
027D
FBA7
FB29
FCE3
FA62
FCF1
FD43
FC8C
FB5B
FD28
FFBC
02A2
00D6
0187
0112
011F
00C7
001B
0182
FF93
0001
FE63
FFA9
0140
FD32
00EB
01CC
04D4
0136
FD69
FDE1
FE4F
FD97
FE2D
FE1B
FBC8
FC0A
FF44
0229
0501
01A0
0140
FF06
01B1
00D2
FF95
014B
FFAE
FE85
00A5
FCF8
020C
01A2
FF08
03D2
0424
032B
002D
FFA0
FE2A
FDA5
FD82
FC83
FBDB
FB43
FE35
03A4
04A2
00EB
FF94
FE63
0174
0184
00EE
00E2
FEDF
FE62
01A6
FB13
0192
000C
0058
0476
FFCB
0544
01F4
FE74
FFDA
FF6A
FF1D
FC18
FA70
FAF9
FEA4
02CF
0353
00FA
00B4
0169
01CB
0280
001E
FF30
FC90
FDA5
FE0C
FAD6
02D0
FD70
03CF
031E
0059
0596
FF75
0056
FF8A
0093
007B
FF4F
FC8D
FCAB
FF40
02DA
027C
0381
02BE
03BC
0171
0273
FFEA
FE5D
FED2
FE13
FCA3
FDAE
003D
024E
027E
044E
0088
FF78
010C
00EC
0106
00B2
00C8
01C4
003D
FEF1
FF9B
0232
02F5
0449
02CE
0436
018E
008C
FF90
FEC4
FEC4
FF42
0100
0081
00E1
0036
FF72
005F
FEDA
FFBD
020C
00A4
0073
0163
01B5
0144
00F2
01E7
017B
01AD
02BA
0280
0302
0418
0327
0179
00E1
FF81
FFC3
FD78
FEF3
FD89
0228
026E
0278
FFAD
011C
FF18
010F
FE2D
FFAF
01EA
0172
000A
011C
011F
01FC
00CF
033A
0259
01A8
01E3
0261
019F
0136
FFCE
FBEF
F9D2
FB98
FEBD
020E
FDEE
01D3
02A3
0047
FDCB
0160
0229
FF79
FEA5
FF0C
FFCA
FE7F
001A
00B3
004D
0168
02CF
0158
0216
01EB
0113
0148
FCEF
F841
FA2D
FB87
FE96
027E
FE1B
FFE5
001B
0525
0025
00D9
0161
FFA2
FE30
FD9E
FEBA
FEBC
0046
0065
00F0
00DB
036E
017C
01E3
FEEF
FFFE
002A
FA9F
F968
FD51
FC45
FB40
0391
000F
FFA6
FFEE
FF28
04BF
004F
FE05
01A8
FCEE
FD96
FE6F
FD78
FEE3
FEB3
FFA8
00FF
FFBC
FE61
FF3C
FCD0
FC49
FB96
FCE6
F88A
FA12
FCEA
FECF
03BA
FFDA
FFE7
0022
FFA7
FE03
FC31
FD82
04FA
0410
0577
027B
003A
FF97
0216
0113
FD65
FC97
FE74
FE3A
FADE
FEC7
FC71
FAC6
FD45
FD3A
FFF0
FE0D
009D
FFE6
0085
0052
0006
FF85
FB94
FC66
FDAC
02E3
024D
FEF1
0206
01BB
FD29
FD7E
F9C1
FBA0
FD34
FF5A
FEC8
FDD7
FC31
FD2B
FEEA
FEC1
0096
0154
007C
FF91
0073
FFD9
008A
FFBB
0158
011D
00F2
00DE
0170
0054
02E5
FCD0
FCB2
0024
FDD7
FB41
FD80
FF18
FF0D
FD23
FD97
FE7B
FFD3
00FC
0025
006F
FFE0
FF80
FF79
FF7C
FF91
0031
0080
0064
FFC6
003B
FF7A
FFF9
001C
0008
002B
0030
FFB3
FFD6
0081
0053
005E
FFB6
006A
FF99
000A
FF9A
0080
0072
0053
FF81
002B
FFF7
FF75
FFE9
FFFC
0019
FFB1
0063
FFDC
02D6
02B6
0695
009F
02C1
0473
00BE
FECA
0050
0174
0187
0278
0020
01E5
021F
FFD8
FFCC
004A
FFED
0004
006F
003A
000A
023C
017F
01BE
0340
FD1E
FCA2
FE81
0003
FB1A
FE17
FC36
FB1C
FFA3
FCEA
FB8A
009C
0020
FDD3
0099
FBA5
FC19
FC51
0074
FFE4
FFD0
003A
00E7
00CC
007B
FF6F
FDE6
FF4B
FEB6
FD22
FD05
002E
0118
FECC
FB7A
FC88
FB46
FD13
FCCA
FC53
FBCB
FF34
010B
F981
F949
FE8E
026F
0052
004B
FFB2
004C
FEDC
FD17
FCD0
F8EB
FA7E
FF00
0326
0200
0202
01C4
FFFB
FEAA
FF43
FECF
FD9C
FDEC
FFC1
FFAA
FEC6
FE71
FF6C
FF25
0231
03EB
FF44
FFE9
0014
01A4
025A
FF7C
FEAB
F7E4
F9F6
FDD6
0136
FF1F
FF54
FF5C
FE13
FEF3
FCC4
FE94
FE07
FCDD
FF30
01F8
FFE5
FF0F
FDEC
FF44
FE94
03C1
012B
0037
FFE0
01F8
01D9
0287
01AE
F889
FBA9
FF72
00E2
0107
0013
FEEA
FE88
0035
FDA2
FC8F
FD6C
FE4B
FF63
FF0B
FE21
FEE3
005F
025A
02E3
033A
FFFA
001E
FBB3
FFBC
FC5C
FEC5
014F
FA38
FF85
FFBF
01AE
0281
0138
FF9D
FF15
FE74
FDB7
FCB8
FE03
FFED
FF4D
FEAA
00A5
0225
0282
00BB
0248
0310
02C0
FF69
FB53
FDB7
FD0C
FE60
FA74
FE3F
0206
FFCB
020A
0065
0121
FF6F
FF6F
FE7A
0023
00A8
0133
0212
027D
0260
02E0
037E
039B
05AF
0673
0392
0353
FFD9
FDDF
FF78
FD40
FF3D
F9DE
0040
FF7D
002C
009E
0019
FFDB
FE91
FE71
FC87
FECB
030F
0419
03E1
0335
0313
0463
0449
0496
06C5
06F9
00E1
FC8C
FF85
0196
FBBC
FEE6
021C
FD28
FEE2
0163
0033
00E8
01AE
00A3
01B6
FDE1
FB55
FD31
FE7C
0014
00BE
0279
02E3
04F2
04DB
036E
0452
0225
019C
FC98
007E
001F
FA31
FDB7
00E0
01AC
0107
006D
FEA6
0145
0105
00AF
016C
FE12
FAC8
F980
F9BD
FB3F
FBB1
FD48
FC98
FE23
FF3E
0099
FEC7
04C1
075F
FF64
003B
FF2B
FB33
0238
FFC7
00BA
FF78
0078
FF0A
FFEB
0088
019C
035B
01EA
FEDB
FD95
FCC3
FBB9
F93A
F712
F906
F939
F910
F8CD
FC35
00C4
0263
FE72
011D
FF33
FE8A
025E
FDA7
01F6
012B
01ED
0001
0192
0087
0339
0468
01DF
FFAA
FF04
FF17
FFA2
FEC9
FC8C
F945
F871
F9A7
F9B6
FB8F
FB8F
008E
0098
01E5
027A
FDEB
012D
FD80
04ED
0233
0065
009E
0096
00FD
021D
014B
009B
00B9
FED3
FED8
0046
0050
FCA4
FD39
FB93
F9AB
FBC6
FB22
FA08
0092
FF97
01B0
0077
03EF
032D
FCDE
002D
0253
FE08
00CC
01D6
01B7
008E
02C4
0235
013C
FE5F
002D
FFD2
0067
FE03
FE26
FB0F
FC16
FA8F
F965
FA1A
FB01
FF26
FF79
003F
0094
0106
FB28
FEF2
FEE3
FBCC
FECD
0070
0046
0041
0241
02A5
017B
0108
0027
0095
0007
FFC1
FDC9
FE61
FB55
F74A
F682
F994
FBCE
FF05
FFE0
02A4
FDFE
FCF7
FDBF
003B
FFD8
FF39
FD48
0103
019C
0267
01FC
0269
0206
00BB
0123
00F9
01AC
FFB7
0049
01BE
FDEF
F7F7
FAA0
FEAD
0106
FFEF
FBF4
01D6
FED7
F87E
FE3F
0035
FFC0
FE5F
FFD6
0099
0009
016C
03D9
02F7
001B
FF58
00E4
013F
FFFA
006A
01CD
FF02
FC31
F729
F688
FC5B
0222
012B
0095
FE88
FF86
FA13
FCFF
FE4D
FECE
FEA9
0198
0098
FF07
000A
0193
00B6
0072
014B
01A1
015C
0194
000C
01DE
FE54
FD8D
F985
F6CB
F9A5
FCEB
0171
007D
FF17
0437
FC20
FCD4
FF36
FFB6
0013
0173
0029
0132
029A
00A0
FF20
FF40
0229
017E
015A
009B
FFC8
FF5D
FDEB
FF97
FAFD
FAB0
FA3F
FCF4
0257
00F3
FF27
021B
0005
FB71
FDDB
FF46
00B1
FF33
FFE9
00C5
005C
0009
FFE8
001B
017C
FFD4
0172
0057
FFAB
FFF1
FEAD
FF0A
FCEF
F95D
F9D5
FB91
0021
002C
FFAE
FF98
01FF
FEB8
001F
005C
00FD
FF8A
FFF2
0068
025D
00AB
FED8
FF82
FFB7
0093
0201
0188
01EA
0106
FEAE
FC33
FCF6
FCF9
FCDF
FF59
FFE3
0026
0026
02F6
019F
0041
0006
FFF4
FF3D
01FF
0165
014E
0021
012B
007A
0098
0055
00A5
00CC
005E
008B
FF0F
FEE6
FCB4
FEA2
FDB1
FF46
02A9
FF81
FFA1
FFF5
0200
0064
FDD9
FBFC
FBCC
FD7D
0078
02EA
009B
FFE0
0063
00D1
00F6
0139
01BA
0073
00A7
FF94
FFDF
00CD
034E
04B0
002F
FFB6
FBEA
FFAA
0001
0032
0315
FEF5
FD34
F89B
F956
F98F
FCDF
FFA9
FC51
FCDE
FF1B
FED6
FE46
005B
FFE2
0031
004F
0015
FF39
FFBF
FF18
0516
016B
FF38
FF2D
000C
0043
0079
FFF4
006E
FE43
F9D9
F88F
F91A
F9C3
F74E
F70B
FCEC
FF8C
FCE9
F846
FD1F
00F0
0407
0238
FE03
0047
0395
0280
FF5B
0192
FF5D
FF79
FFA8
0007
FFB2
0009
0033
0025
0041
FC09
FC6C
FB6B
FE0E
FC7D
0157
00F9
FE85
FA7D
0064
FE86
FCDF
FBF4
FB8A
FE1B
005B
0129
000F
001B
0086
FFC5
0089
FF82
FF7B
FF90
FFEC
000E
FF7A
FFF5
004F
FFA2
FFC8
0025
0011
FE23
FE51
0147
0159
FFEB
FFD3
0051
FF76
005F
FFE2
0078
0014
0066
FF80
0020
FFD0
0046
006E
FFB3
FFA6
FF6E
FF23
FE27
FE3D
FECA
FEDE
FE67
FCB5
FAAE
FC89
FF5D
FBCC
FCFE
FB18
FB28
FCD4
FB0F
FD4E
FEC4
FF6F
000E
FFE9
FF6F
FF7D
FFEB
FFB8
FFB1
FE2C
FE9F
FDC0
FD5F
FC37
FE22
FFBC
FEF2
FE20
0268
FF13
00CF
00E4
0133
FFE1
FE43
F9B3
F728
F9A7
FBF7
FC2C
0254
037F
0018
FFE7
FFFC
0086
0004
FE34
FC9A
02CC
0286
01B4
FF3D
FE78
0268
0429
03C2
0041
0209
023B
03AB
0351
0340
00E7
007C
FC83
FEB5
FDB3
FD8B
0163
FDC6
FFE1
000F
0069
0210
0208
FDAC
01C2
048A
0284
00EF
0159
02BC
0294
0407
0325
0318
020D
046F
01F2
02CB
01F3
0261
00FF
FEB1
FB60
0203
038E
0550
FEAA
FFDE
FFDD
FFC9
0557
0106
FF69
0229
0226
FEE1
FE9B
FE2D
00BA
03A7
0141
026C
0298
03D4
016F
0186
034C
0380
0079
FFBF
FDC3
FE45
0427
01A3
FF44
002C
0297
FE79
04C3
009C
0117
0275
FF6A
FF1A
FFD7
FF74
FF34
00DE
0185
0239
01F0
01BD
00ED
FE8C
FF5D
004A
FE3C
FCB7
FDE4
FDBD
004B
027E
0074
0039
00C4
FDAF
06B2
0596
01F0
025B
FD64
FE88
FE1C
FDC6
FEB3
0003
0078
FF96
018D
FFFA
FFF2
FE07
FF03
FE12
FC91
FAE3
FAA1
FD58
0092
029E
FEB2
FBAF
FC40
0172
0614
04B3
00A0
0068
FE8B
FCA4
FDE6
FDB0
FCB4
FE58
0039
FFA8
FFF1
00C4
FF2C
0052
00A8
FF22
FBEC
FB58
FC45
FB3D
007E
0190
0154
008C
FCD6
0359
03E3
0088
0070
FD1D
FD63
FDDE
FB52
FB33
FCB6
FDF4
FE5C
0034
0226
020F
014C
028F
0323
008E
FD0D
FCFB
FDF2
F8CE
FD03
02CB
FD27
0159
FD91
0232
06E6
FECD
FE51
FD04
FDC7
FB97
F9DF
FC57
FD20
FF88
0032
0251
0173
0269
0226
04D3
03EC
FF73
FC19
FCEA
FE19
F8D4
FD65
03BA
02AB
00F7
FB83
FE93
0380
FFA2
FD0C
FBE6
FD37
FE2A
FE5C
FF9C
0195
02E2
023A
0415
03EF
01AC
031A
040E
03D5
FEF1
F921
FAD5
FB97
FCF6
0192
07C0
00D4
FFD7
FC6F
FFD6
0224
FE81
FF68
FD17
FF23
FE55
0026
013E
0194
052C
0594
05DF
0400
0385
0234
0192
026E
FE72
FCAD
FB94
FCF2
005D
0070
029A
FFC7
FFFB
FF74
FDD6
0013
FCFA
FE95
FF30
FF20
00F0
0026
FF2D
01D4
0415
05FC
066C
04FD
0514
02CE
0213
FFDC
FFD1
FD9B
FD6A
FC56
FE04
0146
062E
01ED
FE30
01DD
FBC2
0171
FE90
FF76
00B0
FF2F
0168
FFF5
FC6D
FECA
01CB
047B
067B
05C3
04E5
03C3
FE41
FC4B
FBF3
FE00
FDCC
FDC6
FC36
037F
05F1
01D9
FE63
0084
0433
01A1
027B
01CC
0167
0014
FFD9
FF62
FCE8
FDD4
0045
0499
08A0
0564
0448
004B
FBF4
FCCB
FCA9
FF48
0154
FDF0
FF94
0306
086C
04C1
FE2A
017F
03C0
00BF
01A6
FF8B
02B6
0112
FED7
FFEF
FF50
FDE3
01D7
0420
051F
02D8
012B
FEDE
FE26
FEB8
FEF7
0124
0251
0381
0373
0505
091D
03D4
0051
02C4
0508
0039
02D0
0093
012C
0271
0170
FF6C
FCD9
FE6F
FFBA
028C
0149
FFB1
FF6C
FF5A
FE5C
FFA1
FF89
02E0
020A
0236
FF9E
0244
00B6
0121
FB38
0387
0201
0468
03EC
025D
02AD
020A
FFEB
FF88
FDE2
FC92
FC73
FF80
FF24
FEE6
0175
0105
FF7D
00F3
01B7
01B2
0273
0258
FF67
FEDA
FD99
0155
FEF2
F9B7
FD8D
036E
0246
04ED
020C
008A
FF6B
FF15
FDC0
F992
F8B3
FD61
FEF1
FEE4
0157
01EC
022A
019D
00E3
01B1
0183
028B
FCB6
FE84
036E
0136
FFE0
FC74
FF28
03E9
03A3
033E
031C
0312
FF86
FFA7
FE22
FB56
FAFA
FD22
FF96
FFA0
01B3
0222
0246
0099
020D
015C
FF1D
0008
FD53
FE19
015C
FE87
FE0B
0119
04F5
007A
0047
FF61
0057
00E9
009D
0013
FCC7
FD49
FE25
FFBE
FFFB
0004
0084
01BD
0150
010B
FE9C
FDE5
FF7D
FE37
FB7C
FEDB
FD61
FEC2
FEBD
0112
0547
01CE
FF55
FF18
FFC2
0057
FF62
FFBC
FF7B
001D
FF99
0093
0048
FF4F
FF89
FFD8
FF9E
012A
007E
FE95
FD26
FBEF
FEA1
FF9C
FDA7
FEE4
FFF8
FFD0
0738
0438
00D2
00C5
FF38
027D
0228
00C7
0069
0046
FF60
006B
FF56
FFE7
0051
0054
03CC
0358
03D1
013C
0059
04E7
005F
012A
FE14
002A
FF8A
FF7B
02EF
0375
0146
FCD8
00EF
0212
025D
0012
FF63
FFDC
FD3C
FDC2
0035
FF24
01FD
FFCB
FF76
0134
0055
0228
0541
02C3
019F
0247
FDE2
FFCC
0041
FFE7
00EC
FD52
FC25
FA61
FD26
FDFA
0020
FE6B
001B
FC73
FD91
01F4
01B5
FFE9
01AD
01C6
01D0
FE05
FE36
FD82
FE0B
FC48
FAA7
FE80
FF60
007C
FFE2
001A
FFDE
FE28
FC97
F882
F7F4
F790
FD06
FD25
FDA4
FCDA
FC74
FF87
FE4E
FC7F
FE63
FF55
FF92
FA50
F808
FE5E
FF92
FF44
0155
FEFE
FF81
0020
0047
FF9C
000E
FF92
FDB7
FEE9
FC9F
FC2A
FC20
FEAF
FB2D
FCF7
FC9E
F898
FBC1
02AA
0126
FD59
FDC5
FB96
0180
0177
0246
00BE
0063
FFAD
FFFB
0026
001C
008D
006C
FF8F
FFC0
FFBB
0000
FFA1
FF88
FF70
FF70
FF7C
0055
FFD8
0092
0060
0028
0069
FFB2
0003
007F
FF87
FFF1
004A
0025
0058
FFFD
FF76
0030
FFBE
008B
006E
0046
FFB1
FFF1
FFDD
FF11
FF26
FF2A
FF2E
FE82
FE0B
0081
002A
FFDA
002B
003D
FF67
FFCD
FFC9
003D
005A
003F
0073
0080
FFC3
000C
FF9A
0014
FD7F
FFB5
000B
FED9
FE56
FFEA
01D8
04C3
0480
056A
0108
00DA
FD3A
FECE
FD33
00B7
01F3
026C
0057
00C9
01FF
FF6F
001C
FFDE
0012
001C
FFCC
FF94
FF8A
014B
0290
024E
03AB
0677
04DA
0529
0445
05DD
0242
01F6
0178
FE2F
FD59
FD14
FB33
FE17
FCFD
FA78
FB4E
FD81
FF6A
0267
FF9A
0042
00AB
020E
046F
02D6
0437
046A
03D5
0489
040E
0160
0303
0253
0193
0023
009F
FF5B
0052
0259
FEC3
FDDC
FF0E
FFCF
FC96
FF0E
0106
03C6
0005
0050
0056
0239
0202
028D
0431
01BB
01E5
0087
0130
01A4
019B
0249
0251
0250
00FE
00F6
00FC
010D
000B
00B9
FED4
01C3
0091
FD96
01DD
012F
FF59
FFD0
0201
FD6D
057E
035D
017F
021B
002A
FEAD
001C
00AE
FFE1
010F
0178
0109
00AB
00C7
0065
010F
FFED
0104
0264
01EE
0212
0424
0680
0636
01E9
FFAC
02F0
0004
04F9
036E
024A
00DD
FDD2
FE4C
FF12
FEB5
012A
00C0
00C0
0192
FF2B
01EA
01B7
01B9
0147
01F8
0132
017A
0303
01B1
05A1
06F6
0275
0059
03F7
FFC7
0424
FFFF
FF41
FD74
FEED
FF44
FEE0
006E
FF71
00D1
FF75
01AB
0046
0083
FFF3
01D7
FFF7
003B
011C
01A7
0104
001F
02EF
07A8
0055
0052
015B
FE4B
0117
0070
FC59
FFB3
FF92
FF32
FE4B
FCCB
FC9B
FE59
FD56
FE89
FFEA
002A
FE91
FE8A
FD9A
FE09
FE04
01BF
FE34
FDD6
01E3
01D8
FFD9
00AF
FEED
010A
028B
0090
FD88
FF20
FE94
FED6
FDBD
FD1C
FCD3
FE1B
FF52
FE22
FE2F
FE85
FE03
FD59
FD1A
FD02
FD52
FF56
FBFB
FB5B
FDD0
01EE
00AB
0017
FDD7
FEF8
0086
0140
FDFD
FFD8
FF46
FD49
FCA8
FEAF
0050
01CB
01E7
FF86
FEBC
FE4F
FE7A
006C
FF96
FD33
FD48
FB4C
FAD4
F9E4
FB77
018E
01D3
00E7
FEB0
FC3E
FD33
011D
FFED
FE6D
0178
FEAC
004C
023C
02A6
0347
0117
0141
FF08
FE76
FEF1
004F
FFA8
FEC0
FF52
FC0E
FB28
FBCF
FB0A
010E
01DF
FF47
FF00
FDDF
FF3B
0052
02CB
017E
019B
01AA
0150
0285
0127
0291
016E
01D2
FF1A
FE8F
FF60
010F
009C
FE58
00AF
0066
FE81
FF50
00A6
0112
FCD0
01AD
0244
00F0
0088
FF4B
00E9
00D8
003A
01A3
015C
FF75
0064
019C
FFD4
0225
0018
FE94
FF8E
FFF5
001B
FF28
0145
FFB3
036F
018A
026E
0188
FCE2
0109
01D7
0198
FFEC
0047
FE8C
FC89
FB09
FB7F
FD8A
FED2
003A
0293
01C2
FFFE
FE95
FF4A
FFFB
0014
008F
0229
01CD
00C9
03E5
04A8
02DA
05B0
016B
0044
02E8
0299
0252
0182
FD4A
F93C
F689
F71A
F7B0
FA92
FBA9
FDE1
FFF7
FE5C
FEED
0020
0158
01A6
0197
01BA
03BE
0386
0317
0438
0094
008E
016D
0035
03E2
FFAE
0390
0147
FC1E
FA52
FAA6
F8C3
F5BD
F44C
F54E
F577
F7FE
F8EA
FD33
00F5
0218
00BE
0208
01DF
034A
00FD
FFE6
FEA8
FF52
FC0B
012E
04BA
033B
006F
0823
00AD
FD8A
FD65
FE55
FDDF
FB90
FC9B
FB10
F88A
F96C
FD4F
FF3D
013F
0127
FF34
00C3
0080
02AC
00EF
FE5B
00CF
FF1D
FC60
FF5B
FFF4
0395
FF5B
0770
02E2
0100
006B
007F
00C3
006B
02A0
022C
0167
020F
012E
0010
FFDF
FEE7
FF4B
FEC0
0036
00A1
FEFE
015C
0252
FF27
FE6A
FE1C
FFAA
0191
004E
05A3
039D
0146
0232
01F3
02F4
03AC
02D9
0362
0438
048A
039A
0067
FF90
FF5F
007B
FF5D
0029
FDDA
FF86
FF83
FEC9
FADF
FE3A
0027
FF41
005E
01A9
FF9F
0143
FFDD
00A1
026A
0376
0211
0321
03A2
032C
0239
024F
011F
FF95
FFF5
FFC1
004E
FDBF
FD12
FE7D
FFB6
FB55
FD82
FE4A
003C
FF12
00EF
01F2
FF6D
0079
FF3E
FF5D
0182
01A1
01F7
01F6
0125
0118
00C4
012E
01B6
0042
0012
FF49
00D4
FFD0
FDFA
00CD
025B
FAEF
FCF4
FEA5
FF65
0006
0037
063C
0502
0132
02AB
01EE
015B
01FF
00FE
0323
0359
009C
00ED
00C8
014F
0052
00FF
0258
0164
00F9
0074
FF1D
FE74
FDE8
FE8B
0188
FF78
FFA9
FFF3
FEEC
065A
06D1
039E
0325
03A5
00E3
FFAB
FF90
FFF7
003D
FF23
00A6
FF26
FF2A
027E
0199
FE98
FFB4
0367
008E
0022
FFA5
01C7
02AC
0032
0000
FF7A
FFDF
FDF2
0268
02AA
0297
021F
FFA4
0062
FF9A
00F6
FE9D
FF4F
FE29
FE7D
FFB6
FE07
FDA7
FF37
FE79
FC0C
FDD8
FCE9
FEE0
FF9D
0052
0074
0055
0062
0027
0284
028D
FCD6
FE09
FC99
FEE7
FF0D
FFAE
FFFC
0033
01CB
0062
01C8
02E8
FFA5
FDAE
FEC7
FD5F
FF88
0052
00CC
FFF4
0001
001B
000F
0081
0070
FFE5
006D
0045
FFE2
FFC6
FF90
FFDB
FF34
FF72
FFFE
FF8E
FEF3
FF19
00D0
03AA
02BD
FFFF
0058
0066
003C
003A
0005
0078
FF9B
FFE8
0021
0077
FFAE
002A
0042
FFF2
0009
FFA1
FFA0
FFE5
0058
0010
007C
0022
FFD2
008F
008A
FFD0
0034
FF95
0080
0022
FFFC
FF96
FFE0
FFA2
FFAE
0015
008B
0086
FFE9
0084
FF9D
0018
FFAE
FE2A
FE71
0043
00DC
FF40
FD1E
FE43
FEFA
FF48
036B
0524
03DC
FE5E
0022
FE85
FEE6
00B2
0004
004D
0001
FFAA
001D
001D
FF95
FFE5
FFB2
FE48
FDA6
FE02
FD6D
029A
0380
01B2
FD49
FBF5
FB23
FD28
FC19
F972
FB46
0366
01AE
FD81
0005
FFDD
00A8
00BF
009D
0031
004F
FFCA
0042
021F
0171
000B
01F6
0141
FF63
FF4B
FFDB
FE12
FC41
FC57
FDB7
FA62
FA1B
F994
FB6E
FD62
FDE1
FADE
F93D
FD30
FEC8
0034
FFD6
001F
0054
FFC9
0024
036F
FF3E
FE41
FFBA
03EE
026E
0403
034D
02DA
0184
01BE
00B7
FCC7
FC92
FAF1
FB9D
FC8D
F8EF
FB58
FD36
FBFF
FE00
FF3C
017B
0367
008B
0029
005A
FFB1
0257
04F7
FF43
0072
FF7D
02FE
0207
01A5
043A
02A9
029D
0116
FF98
FCFB
FC35
FC2C
FAE2
FAAE
FC9D
FC21
FBF4
0130
01DC
00F6
FFA1
FFAD
002C
FFA0
0378
00C5
FDC0
01C3
00BF
0110
0172
0259
0237
02C1
03EB
0527
03D1
03F6
FF8E
FDFC
FA76
FB08
FD4C
FA7C
FD87
FE25
FF01
0172
02EA
000E
01B6
01F1
0375
0176
FE5C
0235
0092
0235
02D7
0119
011D
02D7
052C
050E
03C2
0287
FDBF
FCB5
FB3E
FBD7
FD7F
FAC0
F79F
F8E2
FB39
FFF2
02DA
FF07
03FA
00F9
01AE
031A
FFA7
0131
016E
0372
0066
023E
0147
02FF
0538
056E
0354
FFEB
FE5E
FF5E
FDC0
FCD5
FDAC
FD3A
FAC3
FA28
FE54
0349
02FE
01FD
0437
0186
02CB
0292
021A
013B
02E6
01AF
02A2
030E
01FE
038A
02E5
02BF
0027
FE92
0077
00E4
FF7F
FDC4
FBE6
FCD7
FB9D
0108
0216
0504
0467
0278
02B1
02A3
FFA0
01FB
04A6
04CB
0192
0191
0272
033A
01DD
FF2C
FF78
FE4E
FDCB
0107
00BE
010F
0025
FCC0
FC6E
FE35
FF29
0285
029E
0250
047F
025A
036D
0330
0083
034C
0322
0397
017D
FFD9
0012
0027
005F
FC4F
FB66
FCE8
FF19
0032
0272
02E9
0188
00DF
FE07
FE8A
018D
023D
005F
00DA
FF93
0064
035B
0475
0055
0468
0288
0100
FF08
FEE7
FDC4
FB1D
FA72
F827
FA04
FF75
00C5
0128
027F
0320
FF40
FFAE
FFE4
FE83
FE0A
FB94
FBC1
FD62
0128
FBC4
0286
049A
0193
00F3
FF47
FEB2
FE2C
FEBA
FD5F
FBFF
FBD7
FA50
FEB2
0006
FF91
00C1
01FB
01A6
FF73
FEF6
00F4
FF36
FDAC
FCCF
FCC3
FE25
0260
FE70
FEA1
0468
FFE1
FD6B
FBE4
FE34
FE26
FDB2
FD73
FE52
FE6B
FE3B
FF9C
FEF3
FF57
FFB2
01F1
01ED
0013
FDED
0116
FE7B
008E
FD5E
019F
0579
04DD
FEC0
FF57
0208
009B
FCE6
FD85
FFD7
FF15
FEE9
FDB6
FDF2
FD95
FD90
FEBC
FDED
FFE0
0046
016C
FF9B
FDC0
FEB9
FE17
FE3E
FDA9
FF67
0129
01AD
05C6
010A
FDF0
FED8
FED6
FF8F
FE5A
002B
FE79
FDEC
FC06
FE2B
FEF7
FF9C
FEBD
FE91
FEC2
0047
0096
FEC2
FDC4
FE0C
FD60
FDE8
000B
FFEF
0003
0246
04E1
FF8D
FC2D
FE4A
FD0F
FF6C
FF85
FD62
F919
FB96
FE68
0035
0179
01B7
01B3
0102
FF24
002C
00CC
FFEE
FEF1
FF4C
FD19
FD2E
FE88
02B3
03C4
00EF
044E
0231
FD11
FF5A
FDE4
FF40
FF5A
FD5E
FA5A
FB5C
FEBA
02CC
0410
01E8
01C3
FFCB
006B
FFAB
02B1
0144
FF85
FEA7
FD77
FD1D
FCA0
FEA6
FFE7
0225
043F
FD72
04E3
FE6D
FE93
FF3A
FEC9
FC58
FC95
FC74
004B
039F
036D
035B
016E
00F3
0082
00CC
0135
FFE6
01B8
FF48
FCD9
FD3E
FDFB
FF65
FFDA
016A
01F3
FF71
0126
FD70
FDC9
FDD6
FCDC
FCC6
FE66
FE73
FF05
02BF
02FB
02C6
013A
018F
01C0
0171
003A
FFB4
0151
00CC
FFEB
FDC5
FE02
012C
004E
FF06
FF1C
FF1E
0071
FDD3
FC6D
F9DC
FBCB
F9AE
FB79
FD39
FF0A
0191
0056
01E7
00C0
0091
016B
01DA
FF60
0018
010B
010A
FF8D
FD86
FE16
012B
FFEB
0012
FF8F
FE9E
FEB8
FF40
FC74
F8E9
F9AF
FB9B
FC85
FEC0
003B
FFFC
0038
002D
0033
01A8
0106
00C1
FE54
FFA1
FF55
01BB
FE55
0043
FF8A
01CE
FCD6
FB48
008D
FFBE
FFCD
FCDD
F9FC
FBF1
FD59
FE07
FE1A
FD51
FF6D
FE4A
00F0
01EE
012E
00E3
00CA
0098
FF4E
FF46
0126
014D
00E1
04B7
03E2
0188
FBEC
FAAC
FF8D
FFB5
FFE2
010C
FB12
FF09
FFF1
FDC0
FDEE
004D
FD95
FCA1
FE22
FE00
FEE7
FFF8
00B1
FFC0
FFEB
009F
0343
023C
03E0
02D4
0364
04CE
026E
0242
0072
FFE2
004F
FCAE
FF6E
FFF5
FEC7
FCF6
FF0B
01F8
FEDA
FD26
FF8F
0069
00A3
022B
FFCE
02B6
032A
019C
0140
001D
FE4F
FD05
FDD7
FEFA
0301
0354
FFD2
FFC0
005E
FFFA
FFDB
FD2C
FC2B
FC49
0238
068F
03D4
016D
02B1
0288
01C7
0504
00E7
039C
020B
0499
06C6
044B
0073
FF79
00B6
FFE6
0102
FFC3
FFC3
FF9C
0055
0015
FF95
02DB
0315
0386
034C
0349
01F8
0757
02BA
0219
094C
06AF
FFC7
00DE
05B3
0539
0608
FFB2
FFF6
FF73
02AD
003E
0033
FF74
0061
0044
FFA3
FFB2
007D
FFAD
FFDC
005C
0073
FFE5
002B
0068
FF8E
009B
0087
0060
FFDB
0055
FFF7
FFDE
003A
FFA9
FFA9
FF8D
0028
FFE6
0054
FF70
005E
FF98
FFDD
FFD4
FFBC
0051
FFBC
FF41
FF5B
FF81
FF88
FFB3
02C0
02A2
02C1
FF56
020A
0130
0149
003E
0092
FF83
FFCB
0036
FFC3
006D
FFF6
FFBD
0044
FFCB
FF74
00B9
03AD
03B2
FF6F
FD7B
FEB8
FBB7
FB9D
FD3A
FA66
FE95
FD3F
FC5D
FA59
FB79
FB36
FB75
FDCB
FD01
FF7E
FFDC
00D8
00C4
FF54
0066
005D
FFD3
0059
FFFD
03E1
FCFB
FE7C
FD3C
FCD0
FDB0
FB63
FA76
FC1B
FD31
FFEA
0058
013B
FF7D
0028
FE91
FDB5
008B
FE5C
FAEC
FEE4
0410
077C
0362
0088
0004
0053
02E2
FE08
FEF6
FB92
FA7A
FDC1
FFF9
FEF2
FE76
00A0
FF5E
02D6
0284
03CA
00B3
026B
0213
FF7F
FFDF
FE14
0054
FF94
FB48
FDB5
002A
00BD
0031
FF80
FF2D
FCF6
FD17
FB74
FCBB
FDBA
010C
FEDB
FE13
FD6B
FC81
0143
0179
0067
00D1
01CA
021E
FFF6
FE2F
0013
010E
FFBF
FC4F
FCA5
FD18
FF02
FFC0
004A
0269
04E2
0208
0065
FE69
FCC4
FD86
FB6E
FDE3
FE82
FDEB
FDD6
FE02
FE35
005F
010B
01E6
FF09
FED6
035A
00A3
FD59
FB79
FA55
F9FE
FF52
FFBD
0421
04C4
043C
02CD
FF4E
004B
0210
0036
FFAF
FEC8
FEC4
FE10
FD9F
FD98
FE3C
FFED
01BE
030E
019A
00A8
0022
0042
01ED
FF4E
FF7D
FA1A
FFA5
048E
067F
FF11
0245
FF1F
FEA1
0021
01B1
0004
FED6
FEE4
FDAB
0004
FD9C
0036
01D8
035A
0233
029A
00F8
0261
0248
02AE
04C0
01E6
FAD7
F8DE
FC16
0163
04A1
FD9C
02A7
020E
02C9
0027
00EE
FE85
FF25
FF02
FE6E
FF33
019A
020A
0203
0322
028B
02C8
0316
0411
02C7
02CC
0444
0599
FC89
F721
01A6
0265
0311
00C7
03C4
01F8
FF4A
FF3C
0026
FF99
001F
00ED
0245
02DA
0577
0306
03A9
02A2
036A
0368
02E1
0353
02EE
0385
0277
00E1
F9BD
FAF7
00FC
023A
06CD
042B
0546
FEEC
FC6D
FED5
0063
0087
016E
03B7
04B3
058E
0495
FF92
FF5B
FF23
01B6
032A
0240
0319
018B
01ED
0148
FF49
F6F6
FB64
FF8F
015C
02E3
021B
0121
FFEB
0002
01B4
022E
03C0
0452
04FD
03D0
030A
FD17
FCD2
FCCA
FF78
0132
014A
0190
0052
FEAC
031B
0059
FEA2
F8C1
FAD7
0047
FFF2
00B5
0270
0027
FF48
0243
033D
041F
03A1
041F
0396
019F
FDF5
F9E4
FADC
F9E2
FD5B
FEA6
FFC6
FF0B
FE35
005E
01B7
0025
021B
FC4F
FB4E
FF54
FEE3
FF77
0545
017B
FE32
0412
01BB
03A6
021A
016C
00C9
FECB
FE57
FB3E
FBB4
FE61
FCC1
FE27
FF31
FE9F
FEB5
00E4
016B
01FF
03D1
FDED
03FA
FFDB
001E
FDD0
FE87
FD8D
FF34
030A
0166
01B6
FFD7
00A2
FF2F
FD46
FC95
FB99
FB91
FEF9
FC6E
FDB3
FDD2
FECD
01BE
0057
FF76
016D
0286
FF21
0575
FF5D
00DB
FFB6
FC36
FB2F
FF7A
0080
FE60
FF43
FEFE
FFAD
FEC4
FE5D
FE3E
FBE7
FBD3
FE43
FE73
FFE5
FE59
FFCD
0031
FF9B
FFCD
FEA5
FF72
FB92
FE29
0326
FFCD
FFBB
FAF3
FB4F
FF5F
FF66
FDDA
FC8E
FD6C
FDC3
004A
FF4F
FD10
FBAE
FC18
FDA7
FEF9
0063
FFFA
FFD4
0011
FE80
01A2
003B
FEE9
FF85
FE7A
0483
049A
FFCB
FC6D
F73C
FC19
FDD6
FDD6
FDB5
FE92
FF8E
0030
FECF
FBC8
FC7B
FD59
FF2E
FE9C
0062
010C
FF8C
FEE0
FFEE
026A
FE32
FD73
FF8A
FEC3
007D
0087
05D5
FFA1
F8E6
FDBA
FDCE
FE7E
FFAC
FFBA
FFBB
0089
0092
0178
FF5B
FE0B
FE87
FE79
FFAE
FEE1
FFD2
0092
FF35
0040
FC83
FE2C
FD0B
00E9
0356
FFDE
0370
FEFA
FBCF
FE53
0075
0085
010B
010F
0146
0157
0322
03FD
0247
00A9
005B
FEBC
FF29
FDE8
FF96
FDBD
FF85
FFD1
FDB9
FE67
018E
FF9E
0016
FF31
FF9C
01FC
FEEE
FFD2
FF27
FFF5
0025
00CE
FFF5
02A8
03A9
0316
02A9
013B
00E5
0203
006E
0043
FE85
FEA9
011C
01EA
0012
01AE
07DE
04A9
0227
FE57
FEDB
0307
FF40
FC72
FDFE
01F7
0189
0343
03AD
019C
011E
027A
0393
02AB
0233
0024
01A4
0090
FED3
FE36
004A
0081
FE38
0227
045C
0471
0351
FF74
004D
FFE3
0103
FE4A
FE99
02BC
0289
0275
03BE
0372
021A
032C
0264
01F9
01C9
FF6C
02DC
0072
FE1D
FA66
FD21
FF35
FCB4
041A
0370
FCC6
FFFB
0007
FFF9
02B5
0474
0482
02AC
FFB9
FF35
00A4
0150
0016
FEC8
0031
0158
00DC
01C8
0180
0315
0112
FFA3
FCC9
021F
FE7A
F81D
00CD
FD8E
002A
006F
006C
FF75
FC65
012C
015A
00B0
FF00
0071
FF9B
FE9A
FCFF
0023
017B
006A
0101
01C7
0065
FF9D
016F
05F1
0127
037B
03F9
F99D
FDD0
FE8F
FF85
FFB2
FFD6
000B
0039
01F8
FBD1
FCC0
FF85
01C6
016C
004C
0085
00BF
FFB1
00C1
00D0
01B9
03E9
02C0
0419
08A5
0304
03B4
0923
029D
FDEA
00FC
0083
FFFC
FFEF
FFBE
FFE5
002B
0276
025F
020E
0127
0308
00F0
038C
FF29
FEE5
068F
03E5
FE3B
FEC1
0266
016F
0085
FFEC
045E
05ED
0406
0026
FF75
002D
0059
005C
FFC5
FF7B
FFB3
0000
000F
FF7A
006A
0003
FFEE
002B
FFF3
FFFF
FFE1
FF6F
0067
0051
FFDC
FFA6
FFED
0050
003D
FF97
0028
FF9D
FFAF
FFA6
006D
0060
0052
0024
FFFD
FF1B
FEFB
FCFA
FC88
FE6F
FEFB
FF1A
FF68
FEBA
FDCB
0300
0252
014A
FF38
FD87
FD7C
FD61
FF13
FE94
FEF3
0058
0007
FFA6
0024
FF8B
0068
FF03
FBBF
FCA9
FDF6
FC55
FC44
FBB5
FDD7
FE26
FB45
FD2F
0056
FD10
FD51
FB19
F78B
F7EB
F7D9
FB7F
FD0C
FDDD
FF6B
0100
01A2
FFD3
FFEA
FF94
0015
0340
FBEC
FCDE
FD7B
FC76
FE9F
FDA5
FC1D
FBBA
FB5D
FF47
FDC5
FD02
FE4D
FDD4
F935
F45D
F332
F877
F92E
F923
FC51
019B
02D7
FFAF
0028
0081
0000
0389
0435
005E
00FA
01AC
002E
0137
FDA3
FEA8
0066
015D
0257
0076
FFF0
FE78
FC1A
FB7C
FA89
F5B2
FC9B
FC7E
FCFE
018E
01FA
026A
FFDE
FFE3
FFB4
01E0
0239
00E3
04B7
02E2
017B
0194
FF28
FE0A
FFB7
01B6
009D
FF96
01E0
FFCB
FE9F
FF1B
FC49
F7AE
F87E
F8C1
F954
FF67
FF75
0227
017D
FFF3
0043
01FB
034A
FE5C
0195
0337
01CF
0032
FE9C
FE3C
000D
00E4
004E
FEE0
FFCF
00B8
FF80
019A
FDBB
FB74
FF9B
F921
FBB4
FBBA
FCEC
FD37
0253
00A2
03D7
05E5
0327
0250
FEF6
03A7
0215
FF00
FF2A
FD90
FF50
01A1
0156
00BF
00D7
01C4
014B
FF84
FF0D
FEAD
FDBF
F9E5
FBBA
F91C
FEB1
FBEB
01FC
FB84
049C
03B9
0183
0333
FF9C
00A6
0119
FEC6
FF92
0142
00F9
00B1
0157
0362
03AB
01D3
0083
FE85
FCE7
FE4B
FD07
FD1E
FDB1
F983
FADB
F9A0
FF5A
025D
0367
00E6
01F7
0520
00CA
00E4
00BF
FFA3
FF28
FF1F
0090
0119
03B0
06DB
0584
01A6
FE0A
FCA8
FC2E
FE93
FF11
0043
FEA1
FCB9
F972
F927
FFBD
0242
0398
016C
0085
0274
FFC0
FF84
FFC7
FF4D
008F
0085
0195
01C0
0769
080C
0454
FEE3
FC7E
FB6A
FCAA
FEBE
00C2
013A
FE90
FB90
019C
FE89
0127
01CF
03B2
047E
0179
03F9
0113
FDB7
FF9E
FF54
018A
01D4
02D7
0223
0566
0506
000E
FC1E
FC4A
FE65
FE3D
0033
FF8E
FE99
FEA9
FAEA
005A
FF0F
038C
0059
03D9
033C
000A
0312
0105
FE7F
FFEF
01F4
0094
008C
0125
0116
0100
0286
0064
FFDA
FE3E
0095
FDC9
FE50
FDD5
FF75
FE68
FCFA
FFEA
FF8C
051B
FD92
014B
0464
016F
02DD
0154
FFC9
FF0E
007C
006E
0041
0036
FFCF
FF5E
012E
FEF3
004B
FEDA
FEAE
FD58
FFE6
0033
FFA0
FF88
00E5
000D
FD5E
FC0F
FDFE
01CC
0575
0142
0072
FFD7
FD9B
FE7F
012F
0110
0117
FF44
FFDF
FF5D
0036
FFC7
0041
FF52
0006
0246
0194
02C4
0146
0404
FEF8
00C4
006E
FFD9
FF78
00C3
019A
0190
FEF6
FF0F
008A
00BF
FFCD
007A
FFED
FF07
FF3D
FF83
000C
005F
0069
014D
01BE
0284
0304
0298
03E4
014D
FFF8
FC9D
0100
0054
01D7
0186
0233
FE12
FFD8
FF4B
0269
0590
02E7
011F
FFBB
FEBE
FEC7
FF8B
00C1
008A
0055
0174
02BB
0261
029E
0278
02A3
01D6
017C
FA68
00FD
02A0
0010
0102
FEEA
FF9C
0066
FF63
01C6
0245
00EA
0079
FDF9
FCAC
FE03
FFFB
0370
0206
0113
0261
0185
0146
0267
01E9
0233
01CB
00F8
FDC8
FB1E
FF8C
03C2
0002
022A
FEC9
011B
FE8D
FE0F
003C
009F
00E6
FE4A
FC86
FB9A
00DF
02E8
029D
013B
0209
013B
0014
00CF
0233
0128
FDA8
FF7E
0171
0499
015F
FFE3
0535
0299
FCB8
FEAC
FD50
FD1A
FD3C
FEB7
FF35
FB10
F8BD
FC30
0216
0464
0240
0075
FF5D
FE69
FFEB
FFE8
009A
FF0B
FDC7
010A
004C
02FF
00C4
006D
FF2B
FF62
FBB9
FAAF
FC30
FCF5
FD6C
FDEB
FE13
FB3C
FB61
FE53
0212
02E6
007C
FF5B
FE70
FD99
FF7F
FE76
FF01
FE47
FF19
0139
FD60
FF90
0060
0181
00DE
00CB
FAA1
FC8E
FE7C
FCDD
FBEF
FD73
FBF7
FD2E
FD0B
008F
0086
010D
FFCD
FF95
FDF3
FE4B
FDE3
FE33
FE98
FDC2
FBA8
00D1
015E
FB71
FFB5
0160
01CF
0141
FD65
00F5
FE60
FEDD
FCE1
FD4C
FF9E
FF43
FE5B
0078
FFDD
00D3
FFB9
FFA0
FF9F
FE8F
FDBE
FF65
FC0A
FBC7
FA4E
0106
01C0
FDA4
FF9E
FFE8
0048
02B5
FFFB
007E
FF46
FF33
FD2B
FB8F
FF6F
FFD1
003A
00DF
010D
006E
FFF0
0041
0231
FD2E
FC35
FBE9
FC31
FA00
F8B1
FF7D
FEBB
0214
0036
FFAF
003C
03A7
01B2
045D
021D
001F
FF40
FE7E
FDF4
FF1F
014D
FF87
0005
0023
FF3A
FEF3
015B
FC7C
FD2E
FEFC
00CE
FB99
F989
FCE4
FF9B
03F4
0004
0092
0001
FD80
FDD7
01BE
FF7D
FF0E
0031
0355
0295
0127
02CA
0458
0236
0175
01D1
01B7
013E
0182
0273
00D3
01D8
0094
FCF0
FDEE
FEB5
FF87
0030
FFD3
0071
FF92
0050
FE86
FC09
FCC9
003D
0413
0376
030C
0392
01A2
0378
044A
03F3
02F9
00F6
032C
065B
0141
036F
04A7
006F
0156
00F3
FFA1
FFA7
FF92
004C
FFB3
0061
0316
037F
001C
FF6D
0159
017A
0541
004A
FF97
07C8
0461
FFF0
FFA3
0473
040E
01A5
FE8C
0535
046D
0485
000A
0028
0006
0021
FFB9
FFE7
FFD2
0056
0076
003E
FF80
0063
0047
005D
FFB1
004E
00F4
010F
010D
0057
0089
006E
FFB4
007C
0062
0008
007C
007F
002D
FFD7
FFC4
FF88
0040
FFFA
0015
0081
0131
010A
030B
0333
0261
01FA
032C
0187
034E
0087
FD08
03E6
0421
05CB
05BF
04EA
0571
0286
023B
0332
007F
000C
FFCC
0037
0065
004B
0062
04AB
03BA
02BD
037A
0507
0775
0A24
07CB
0992
0921
0286
0218
044C
02AA
011D
015E
02E7
0288
0449
029F
0411
0445
02B3
FF7E
0083
008C
0004
FE9A
042C
FD6E
0520
06BA
0482
0567
0773
037D
0537
0249
00C2
01B3
011F
0093
0196
020A
0285
01EE
028C
0015
0050
0201
FD55
0163
FFC9
FF94
FF9C
FDB9
FBCE
FFAF
01CD
0526
01FC
0100
01D0
021D
0200
FED3
FDCF
FDF7
FE62
FB94
FE55
FFF3
0056
00D5
FE5A
FC81
FD8E
FCA1
FEF0
FE27
021C
FF9C
006C
02C6
FC01
040A
FFC3
00D9
FE77
FFFF
0138
01A8
FEE8
FCB0
FC33
FBC2
FE9B
FD6F
FCA7
FF19
FEB6
FFA4
FD7D
FC00
FDBF
FEA7
0228
FFDF
00E9
002E
013A
0190
FD5F
01AC
FEDC
FD90
FD92
FDFD
FE61
FE1E
FF38
FC34
FE32
FEBF
004B
00E7
FEBC
FFA2
FDE7
FD4D
FF1F
FE43
FACE
FD29
0034
FEB2
FF24
FFCB
00B6
013E
F9A6
FD65
FAC0
FA0C
FB76
FD8D
FDFB
FD65
FE39
FD0E
FD24
013B
008D
FEE9
00B1
FFA5
FD93
FF94
FEFB
FD7B
FAEF
FDD7
0095
FF30
FE99
0471
FDF1
FDE2
F79B
FA4E
FA72
FB0E
FB7C
FC4B
FD50
FE75
FECA
FE0B
FF7A
0137
012D
003F
0063
FD51
FE08
FEDE
FEC8
FE38
FC75
F91D
FD06
FB1F
FC03
FCF9
FC96
FBAE
FE10
FBA4
FDC3
FD86
FEFF
FE73
FF3B
0166
FF31
006B
00A3
0251
022A
FF41
FF05
FE63
FF39
FFB9
FEF1
FEA0
FC8C
FC27
F8BF
FCCC
02BB
FD64
FC5D
FBEF
FA86
FCE8
00EA
022B
006E
FF88
FFB1
FF6D
FFC9
FE75
00A6
0147
00BB
0018
0064
FF98
FFB1
FF52
FF8B
FE30
FDBF
FCD1
FF7E
FC7B
FDEF
FC72
023B
F674
FBEB
FF8C
0051
0016
0057
0206
FDED
FCE5
FF5B
FF07
0256
0388
00B2
005B
0075
00AD
0339
018F
01FA
0003
FE3C
FBB6
FD18
F5BA
FC8E
FFC5
FC99
FBDC
FB11
00F3
FF52
FEC7
0053
00FE
FECA
00A6
0263
02B4
04BD
0618
0224
00A7
004F
030F
040C
020F
FFC9
FFBB
FD81
FDFF
FCF8
F90D
FF18
FF7A
FD89
FC0C
FFED
0378
02F5
0077
FF38
FECB
FEE7
0202
029D
04C7
0615
03DF
02C3
01DF
01AA
0226
0393
FFA4
FF54
011B
02A3
0320
FE18
FA93
0412
0031
FBE0
FB57
02F0
02C8
0137
0015
004F
002F
012F
0219
0431
0458
039C
00D3
0246
0274
007F
038E
022E
FFDD
0022
0383
034C
02E2
02DD
0212
03DF
FFC5
FE31
FA56
02DE
01A3
00E7
FEE8
0014
0011
FFF1
036C
0340
0372
02DF
0126
022C
019C
0218
02F9
023E
00AA
0098
FF9F
0303
04A1
02B7
FD55
03BD
0023
FCD7
FFD5
01CE
01FA
018F
00BA
012D
020C
026E
031F
0548
0244
007F
00EF
00F2
034A
0482
026B
0142
012B
0281
0312
0180
03AB
051F
00A8
02FD
0026
FBD9
FE99
FEEE
FF68
FFEA
00CD
00EF
0411
01D2
03FC
0318
015B
0108
0259
0393
03C7
0337
0210
00D6
00B0
02BF
02D0
0184
01E7
0792
00EA
0239
FDB5
FCF0
FCCC
FDD5
FFC8
00E9
0063
002F
01D6
01E0
01F9
012C
0215
0240
03FD
0405
038C
0386
03AF
02F4
FF4B
00F0
0203
01E6
0440
072D
FF6C
03A8
FE99
FA80
FDA7
FDB9
01AD
013F
FEA7
0000
005E
00C9
0275
01F0
0365
0221
039D
0341
0329
01AB
0304
01BC
FF03
FFD4
00ED
012A
00AA
0148
FEC1
034A
0053
FD3A
FE93
00EA
021F
0162
FE5D
0089
0002
FF9D
00A3
FFF0
008A
0124
016B
FE42
0024
FFAB
00E2
FF02
FD3A
FE45
FE49
FE14
FEC9
FEBB
FF0E
FEC4
01B7
0118
00B9
003B
FFC2
FF74
FE30
FFBA
FEEC
FE3D
FE29
FC97
FF85
FE62
FD1F
FAF8
FDD9
FCD3
FC55
FB53
FBB3
FDB8
FCA2
FBF5
FA8A
0027
05D2
FFDE
0194
01AD
FF6A
FE14
FEE3
FD65
FA3B
FD2F
FDCC
FEA4
FD3A
F997
FC41
FB2B
F94A
FA6C
FBE3
FAAE
FC80
FAF5
FB52
FCDF
FB08
F8E6
F959
FD87
FD6D
FFD7
FFC0
005C
01A0
FEAC
FC9D
FC07
FB71
FDC9
FDEA
FDD8
FD37
FD61
FCE6
FC0F
FB69
FB02
FA71
FA59
F972
F9C5
F9AB
FD25
FE9F
FA90
FBD2
FCEC
FD50
003D
FFAC
006D
0224
FC10
FE2E
FD9E
FC38
FBCB
FE86
FD9A
FCE1
FB59
FCAE
FC5B
FA90
FA12
FB04
FDB5
FBF0
FE78
FE7C
FFAD
FC50
FBB4
0144
048A
0456
001F
FFA9
0073
01FE
FC8C
01B5
0431
016A
022F
002F
FD92
FF67
00C7
FF3A
0096
00A4
FEFF
02CC
FF96
FEC1
017A
0409
01E7
004D
0174
0037
01D5
01B4
FF8E
FF7B
008A
FF9A
0222
05C0
0330
0343
0529
067A
0581
0532
023E
02A3
03EF
079B
03E0
05D8
05E6
03FE
05C9
051B
02AF
0326
03E7
00C6
FF1A
0019
FFCC
FFB8
FFCB
FFE4
FFBF
FDFE
FC0A
0279
0247
0245
0087
058F
0358
0483
FD34
03C9
05E4
0534
025D
0203
064C
02B9
FC24
FE51
FFDC
FFF8
0077
FFA3
FFB6
0067
FFF1
FF88
FFB7
008E
0042
008E
002C
0010
0048
FFD1
007B
0033
0035
FF7A
FF13
0003
000C
FFF3
FF8D
003F
0069
005E
FFF4
0046
005D
006A
FFFD
FFA3
000D
005F
000B
FFFE
FF54
FF04
FEB0
FFB4
00A8
00AF
00FB
0187
021C
0321
FCDC
FB20
FC31
FF07
FDAC
FDA5
FEB1
FDD7
FDD4
0047
FF88
FF7C
FF73
0018
FFDD
FF65
FC2E
FCAF
FFDF
00D4
0011
015B
00D7
FED6
01B6
FC54
FFD8
0266
FE7D
FB55
FC60
FC4B
FF7D
FF70
003F
0251
FF17
FE5C
FF08
0060
FFB2
0038
FF9F
FE99
FC2B
FDF2
FDD5
FDF7
FF21
FBE6
FDDA
00D4
0043
FE67
FE5F
FFC6
FC3F
FBC1
FCEA
FB39
FEEC
0061
FFE4
00A0
0228
FFFE
FDB6
FBD2
0001
FF70
0057
FD50
FF76
004D
015D
0021
02D2
0045
00DD
FF08
00FF
0094
FFE5
FE9B
FDB6
FE92
FF60
FE0B
0147
0174
0190
0364
05C6
0313
FE20
FBBE
FC5C
0004
0029
FBDF
FE61
FC50
0271
0182
009D
02C4
034B
02EA
0230
0181
008C
001C
FF50
FD3C
FF66
FFBC
0042
FF8E
00C2
0112
0270
03A3
FF65
FA94
FC38
FFEA
FDD4
0002
FA6E
FE45
0126
FF06
0051
006E
007C
009E
0205
00AE
FFE4
00E4
004C
00BA
0182
0177
01E4
0341
00FB
02F4
02B3
0111
0173
0010
FDC0
FFF4
FA44
013A
FCD2
FD09
FF4D
FD92
FF3E
FF51
01EF
018E
00DA
FFF5
0040
FFFF
0299
0379
0373
01D5
02D5
02DB
0230
01EA
0543
0340
FF7D
00E7
FC82
FBC1
F99C
03D4
00DE
FDF4
FF42
0090
FF37
01CF
0285
0113
009F
FF07
FF7C
FF9F
024E
02D7
01A0
0257
00DD
0119
021D
00D3
0024
03E2
04C2
0174
FCC1
002A
FFC8
013C
0101
FE4C
FE26
FE84
0079
029E
01CF
0132
FF98
FEC7
FE45
FF35
00A0
0041
00FC
0223
014D
00D2
0017
FE77
FF44
0035
016B
010B
FB60
FFBC
FFB1
003C
007A
0035
0053
FF34
01EC
01EC
0306
00C5
FECC
0015
FCD4
FDA8
FF9D
FEF2
00B4
00C3
0004
FF28
0017
003F
FE80
FE89
01D2
FC67
FEE8
0096
FC9F
00EF
FFFD
FD85
002E
0146
027C
03F0
02AA
01B2
001C
005D
FE85
FF54
0027
0166
011B
00A4
FFB6
0033
01CA
0210
FFCE
FCC7
FD56
FF48
028C
001D
FF78
0136
01C5
FDF9
FF70
0279
0245
023A
018F
0089
00CD
0000
0185
FF30
00DF
0035
0178
011E
00CB
01B6
032A
02C1
0376
FFEC
FC8B
0005
FF09
FE72
00BD
FF42
FF58
00ED
FFA1
021E
04BD
0376
0244
01A6
01E7
01A8
017B
0156
01A8
010A
0214
027C
01D0
0287
024E
0185
01B7
FEF5
FF44
FF19
FD6B
FF25
FFE8
FE1D
FE28
0335
01AE
031C
03A9
