FFFFFFB6
FFFFFF86
FFFFFF2C
FFFFFF9B
00000183
000001CF
00000212
0000000D
0000001B
000001DE
000000C8
FFFFFE61
FFFFFF61
FFFFFBCB
FFFFF822
FFFFFCA9
0000006F
FFFFFE3A
00000019
FFFFFEBA
FFFFFE2C
FFFFFEF3
000001C5
000000C5
000000C6
FFFFFE45
FFFFFFF6
FFFFFDBE
000000D9
FFFFFF0C
FFFFFFE1
FFFFFFE3
00000076
FFFFFCE2
FFFFF8F9
FFFFFB6D
FFFFFC82
FFFFFCAE
FFFFFFD4
000004FF
000000F3
00000312
00000475
FFFFF800
FFFFFAC2
FFFFFA97
FFFFFBA4
FFFFF8E8
FFFFF80C
FFFFFC83
FFFFFBFA
FFFFFB35
0000004D
000000ED
FFFFFF3D
0000007A
FFFFFE14
FFFFFE39
00000086
FFFFF9BF
FFFFF886
FFFFFC49
FFFFF9A7
FFFFF920
FFFFFA90
FFFFF6A3
FFFFEEC9
FFFFF72D
FFFFFCA5
FFFFF6C2
FFFFF83C
FFFFF447
FFFFF160
FFFFF4A0
FFFFFA46
FFFFF8BF
FFFFF50D
FFFFFC1A
FFFFF9BF
FFFFF9C0
000002C4
FFFFFDBE
FFFFFEE6
FFFFFDBB
FFFFFDC5
FFFFFF0E
FFFFFD9A
FFFFF68D
FFFFF40C
0000026A
FFFFF7DE
FFFFF329
FFFFF0E2
FFFFF37C
00000176
0000033A
FFFFFD91
FFFFF0A4
FFFFFD88
FFFFF837
FFFFEFFB
FFFFF0B6
FFFFEDB4
FFFFF3A3
FFFFF5C3
FFFFF7CE
FFFFFC88
FFFFF62E
FFFFF438
00000154
FFFFFF7B
FFFFFF75
000001CE
0000005E
000000A5
FFFFF6D8
FFFFFA6A
00000219
00000BEA
00000E35
FFFFFDD2
FFFFFB0F
00000565
000002D6
000005FD
000002BA
0000011A
000007A0
FFFFFF20
000002FD
000008F4
0000032A
00000375
FFFFFCEC
FFFFFFAA
0000023D
00000223
000001DB
FFFFF5E3
FFFFFBC9
00000187
FFFFFF53
FFFFF961
FFFFFB53
FFFFFFB5
FFFFFD63
000008C9
000005D4
000004F5
FFFFFF51
00000609
00000B87
000005AE
00000868
0000037F
0000028C
000001C1
0000034F
00000718
000000B2
FFFFFF36
FFFFF591
FFFFF090
00000110
00000AB2
00000C13
FFFFFB00
FFFFFB6B
00000002
FFFFFAC9
000000BD
FFFFFE48
00000284
000003BA
0000068E
00000276
0000096F
00000662
000001C5
000000F4
FFFFFEE6
0000008C
00000474
FFFFFF38
000002FE
FFFFFFC2
FFFFFD1B
FFFFFD70
FFFFFD78
FFFFFBB1
000002E3
000000F5
00000463
0000059E
FFFFFE2E
FFFFFA74
0000023E
FFFFF833
00000457
000002F9
00000897
00000460
0000057D
FFFFFDBC
0000024B
FFFFFBDC
FFFFFD61
000001DF
FFFFFE1C
00000199
0000012C
00000494
FFFFFF1A
FFFFFC89
FFFFF89F
FFFFFE88
FFFFFEB1
00000499
00000902
000001A3
000005F2
000005C1
000000C0
FFFFFCAD
00000B9B
FFFFFC7A
000006D7
FFFFFF24
000003EC
0000045A
FFFFFD02
FFFFF6B7
000001A1
FFFFFF27
FFFFF8B0
FFFFFE40
FFFFF7B0
FFFFFCE2
00000582
00000392
FFFFFE3D
FFFFF9B3
FFFFFE52
FFFFFC7C
FFFFFD3A
00000436
FFFFFD87
FFFFF31B
FFFFFFCE
000001A5
00000069
FFFFF844
FFFFFC7A
FFFFFB65
0000072B
FFFFFA71
FFFFFCBB
00000759
FFFFFFE0
FFFFFC1F
0000042F
FFFFFF30
FFFFFC1D
FFFFFE41
FFFFFB25
FFFFFA9D
000000C4
000002E2
FFFFFE5F
000002C9
FFFFFF00
FFFFFA33
00000184
FFFFFCB9
FFFFF15B
FFFFF2F1
FFFFF929
FFFFF97D
FFFFFD4B
FFFFF939
FFFFFCA4
FFFFFC5D
FFFFFC0E
00000310
FFFFFECC
00000776
00000093
00000223
00000244
FFFFFEF5
FFFFFD1C
FFFFFB78
FFFFF768
FFFFF4AC
FFFFF862
FFFFFC2A
FFFFFDDB
0000056E
0000041D
FFFFFD48
FFFFF84C
FFFFF398
FFFFF3D9
FFFFEFA2
FFFFFD56
000004B2
FFFFF53C
FFFFFCD2
FFFFFC8F
FFFFFD1C
FFFFF97D
FFFFF6CB
FFFFEF23
FFFFFBE1
0000004D
00000000
0000049D
000003D8
000002EB
FFFFF923
FFFFFF3D
FFFFF54C
FFFFF78D
FFFFF866
0000014B
00000804
0000053B
000004B1
FFFFFDAD
FFFFFC23
FFFFF166
FFFFF719
000001B8
00000742
FFFFF88D
FFFFF958
FFFFFFE5
FFFFFD44
FFFFFA25
FFFFF3AF
FFFFEE60
FFFFF53B
FFFFFD08
FFFFF8D6
000003B1
000006D0
000007A8
FFFFFE74
FFFFFA65
FFFFF6AF
FFFFFC59
FFFFFD39
0000019F
00000219
00000236
00000728
000004A4
FFFFFD66
FFFFFB40
FFFFFAF2
00000332
FFFFF901
FFFFEF43
FFFFF3E5
FFFFFDA6
0000006C
FFFFF742
FFFFF183
FFFFF619
FFFFFA7C
FFFFFA0A
FFFFFD0D
00000181
00000837
00000B97
FFFFFE29
FFFFFC80
FFFFFE44
FFFFFFCB
00000160
000002FA
00000274
000001C6
00000506
000007D4
FFFFFD8F
FFFFFF03
FFFFF35D
FFFFF827
FFFFFC98
FFFFFC71
FFFFFC20
FFFFFFCA
000000E1
FFFFF76C
FFFFFD35
FFFFFC2B
FFFFFC72
FFFFF8FC
000000B6
FFFFFF38
0000082B
0000008E
FFFFF75F
FFFFFF53
FFFFFDC4
FFFFFE34
FFFFFDEC
000004D8
0000027C
0000052F
000007BF
0000070E
FFFFFE55
FFFFFEC2
FFFFF345
FFFFF87C
00000ABA
FFFFFD1A
FFFFFE29
FFFFFD75
0000018D
FFFFF641
00000537
000005F6
FFFFFF25
FFFFFFF5
FFFFFD9B
FFFFFF9E
0000067C
00000264
FFFFF95C
FFFFFE58
FFFFFB04
FFFFF8EF
FFFFFF2A
0000024A
0000068C
0000027C
00000A44
00000467
FFFFFEEF
FFFFFED3
FFFFF8A5
FFFFF35A
FFFFFE6F
0000053F
000002DE
FFFFFE19
000002BB
FFFFF982
00000490
000005B3
0000044D
00000274
000004A4
000003F6
00000268
00000043
0000013A
00000358
FFFFFFE7
FFFFFCE9
FFFFFD31
00000227
0000020B
00000287
0000071A
000004EF
FFFFF81C
FFFFFA1F
FFFFF97E
FFFFFAD1
000002F5
00000221
00000AAD
00000078
FFFFFF69
00000481
FFFFFC2E
000001CD
000000C8
0000056A
0000051F
0000088C
000004B0
000006A1
FFFFFFC8
000001E5
000003A2
00000157
FFFFFD49
0000032B
00000226
0000032D
FFFFFD2F
FFFFF6F0
FFFFF620
FFFFF469
FFFFF2ED
FFFFF718
000007E2
FFFFFE1C
000007D2
FFFFFC11
FFFFFC85
0000002E
000003D1
000005D7
FFFFFAC8
0000087F
00000941
0000091A
000002EC
0000003D
000003DE
000003DA
000007C9
00000137
FFFFFA15
00000043
FFFFFEF4
00000389
00000055
FFFFF9A7
FFFFFBB4
FFFFF6DC
FFFFF5C7
FFFFF44B
000001C5
FFFFFE85
00000023
FFFFFA10
FFFFF4BA
FFFFF50B
0000124E
00000A42
00000392
000004C3
00000613
FFFFFF04
FFFFFA8D
00000273
0000049B
000005A2
FFFFFEC7
FFFFFDDB
FFFFF8A9
FFFFFC29
FFFFFE30
000003F4
000004A4
FFFFFE0C
000001D1
FFFFF7ED
FFFFF636
FFFFFE13
000005CC
00000744
00000471
00000002
00000BC1
FFFFFF09
00000B79
FFFFFD11
000001B8
FFFFFB6C
000001F2
FFFFF830
FFFFFA1F
FFFFFBDC
00000217
00000397
0000002B
FFFFFEDD
FFFFFB05
00000148
000005E4
0000027A
000005F8
0000043A
000000AB
FFFFFC31
FFFFFAFC
00000ABE
0000057F
FFFFFEB4
FFFFFAFA
FFFFFC00
0000045B
00000466
00000120
FFFFFDC4
FFFFFDB3
FFFFF896
FFFFFB07
FFFFFB09
FFFFFB67
FFFFF85F
FFFFFDBB
00000246
FFFFFEED
FFFFFA18
FFFFFD39
000000AB
00000144
0000001F
00000297
000004E9
00000779
000003D4
00000559
000007CC
00000152
FFFFFB74
FFFFFF32
FFFFFC5C
FFFFFF9C
000007BE
000009DC
FFFFFDDB
FFFFFC2C
FFFFFD03
FFFFFAB1
FFFFF8A2
FFFFF201
FFFFFAA4
00000039
000002DB
000001AD
00000071
FFFFFD13
FFFFFFCA
FFFFFBAA
0000015E
000001F9
0000064D
00000C43
0000108E
00000A9C
00000512
0000005F
FFFFF4BC
0000007D
0000003C
000001CC
FFFFF64D
00000B45
FFFFF95B
0000008E
0000024C
00000276
0000037D
FFFFF9A0
FFFFFBEF
0000027A
FFFFFA49
FFFFFA33
FFFFFF0A
FFFFFF10
FFFFFAC4
FFFFFB61
000002A8
000002ED
0000086D
00001203
00000C98
00000968
000007EE
FFFFFDF0
FFFFF826
000000E5
0000000B
FFFFFF4F
FFFFF600
00000985
0000082C
0000035D
FFFFFCFA
000004E0
000002E4
0000006D
FFFFFF0A
FFFFFCC2
FFFFF2B3
FFFFFA8C
FFFFFA9A
FFFFFA5B
0000025C
000001A9
00000137
000001BA
00000DD4
00001125
000011B5
00000EAF
0000064B
00000847
00000230
FFFFFE70
FFFFFED8
000000B1
000009B4
FFFFFE35
FFFFFD8A
0000092E
0000059B
000004B2
00000044
0000012F
0000066A
00000374
FFFFF3EE
FFFFFB94
FFFFF9BA
FFFFF59A
FFFFFC70
FFFFFAA3
00000166
FFFFFE12
00000C29
000008E6
000004B7
0000022A
FFFFF873
000000F1
0000024E
00000246
FFFFFF56
FFFFFDD2
FFFFFFD6
000002E9
00000A90
00000AC4
00000C92
000003FA
FFFFFF21
00000639
0000043D
0000029E
00000993
FFFFFF65
FFFFFF83
FFFFFB5A
FFFFFC02
FFFFFBBB
FFFFFB0F
FFFFFABC
FFFFFE0A
0000078C
0000069E
00000AFE
00000F03
FFFFFB98
FFFFFFB8
FFFFFFDC
0000007E
FFFFFF21
FFFFFE7E
FFFFFE85
0000000D
FFFFFDB7
0000003C
0000029F
000002DF
FFFFFF9F
FFFFFB41
0000014F
000000DF
FFFFFC7C
0000034C
000007A0
FFFFFF09
FFFFFA40
00000117
00000338
FFFFFAC9
FFFFF905
000002BE
FFFFFB12
0000021A
FFFFFE1C
000001B9
000001EA
