FFFFFE34
00000045
FFFFFF24
000000A3
FFFFFF8F
00000245
FFFFFE04
FFFFFE23
FFFFFFEF
FFFFFF39
FFFFFF6E
FFFFFF98
FFFFFF91
000000BF
000000AC
FFFFFDBF
00000197
000000F4
000001D2
00000098
FFFFFFE4
FFFFFFA3
00000102
000001B4
FFFFFFA8
FFFFFEE5
FFFFFF6F
00000146
00000039
FFFFFFEE
FFFFFE8A
FFFFFE84
FFFFFF58
00000249
FFFFFDDD
000001A6
00000121
FFFFFE73
0000005D
0000029C
000001C4
000000D3
FFFFFF8D
FFFFFEC8
FFFFFFA3
FFFFFFEB
FFFFFFEA
FFFFFFCC
FFFFFE30
FFFFFBDE
FFFFFE96
FFFFFE06
0000014F
FFFFFF01
0000000B
FFFFFE01
00000164
FFFFFE43
FFFFFF8E
FFFFFF17
FFFFFE98
00000023
000000BB
FFFFFED9
FFFFFEDE
FFFFFD94
FFFFFD98
FFFFFA6D
FFFFF4EB
FFFFE8D1
FFFFE909
FFFFF645
FFFFF02E
FFFFF5FA
000001EB
000002F9
00000352
FFFFFA51
FFFFF8B7
FFFFFBAB
FFFFFD15
FFFFFF16
FFFFFECE
FFFFFE90
00000056
00000017
FFFFFFDA
00000193
FFFFFFFF
0000059A
000000D0
FFFFFD11
FFFFF245
FFFFF5C8
FFFFF945
00000128
00000219
FFFFEF69
FFFFF71E
FFFFF302
FFFFF259
FFFFFD43
00000234
FFFFE770
FFFFEB43
FFFFF3A4
FFFFF36F
FFFFE903
FFFFEF10
FFFFF6BB
000000DC
FFFFFE14
0000019A
000000E3
000006E0
00000C42
00000997
000007C9
000000FC
000004B0
00000012
FFFFFE4F
0000011F
000005F2
00000C19
00000B57
FFFFFCAD
FFFFF710
FFFFF3AB
FFFFFB41
FFFFFA6C
FFFFF238
FFFFEEE4
FFFFF680
FFFFFAA1
FFFFFA35
FFFFF42A
000004FC
00001079
FFFFFD36
0000004A
0000017A
000000A6
00000519
000001A9
FFFFFBFD
FFFFFFF1
0000093F
00000BD5
00000364
0000081B
00001023
00001001
00000C93
000005B2
FFFFFFFC
000002E0
000003E3
00000276
FFFFFB78
FFFFFD5E
FFFFF923
0000035C
0000036A
FFFFFA91
0000007D
FFFFFFF1
FFFFFF92
00000069
000003D4
FFFFFE9A
FFFFFF5C
FFFFFEA3
000005CF
FFFFFFFF
0000082A
000002F2
000000B1
00000629
000003C7
00000407
000007F0
000003DF
FFFFFFE2
00000113
00000252
00000406
000003C6
00000408
0000030B
00000620
00000056
00000607
FFFFFED4
00000467
FFFFFDC1
0000010A
0000091A
FFFFFE9E
FFFFFDDA
00000685
0000098A
0000062F
FFFFFD34
FFFFFF5E
FFFFFAA8
FFFFFC38
FFFFFDB0
FFFFFCF6
000002CA
00000127
FFFFFDFB
00000375
000000CA
0000046E
000005D7
00000295
000000DF
000006E9
000006C5
000001FC
000000E8
000014F3
000004C9
FFFFFF87
0000068D
FFFFFA5D
00000031
00000444
000003A6
0000022A
FFFFFAB4
FFFFFE99
FFFFFC96
FFFFF72C
FFFFF64A
FFFFFEB2
FFFFF63F
FFFFFE21
FFFFFC91
00000A22
00000968
0000015A
000002D9
00000994
00000743
00000615
000006C7
00000A48
00000AA5
00000DD1
00000D53
0000009C
0000020E
FFFFFE8A
FFFFFDD9
00000495
FFFFF913
FFFFFC58
FFFFFC78
FFFFFBD2
FFFFFFB2
FFFFF60D
FFFFEF4B
FFFFF61F
FFFFF68B
FFFFFE4A
000001E7
00000200
0000025C
00000751
000002D7
00000331
FFFFFD22
00000460
000003BC
00001901
00001B3C
FFFFFEAF
00000DAE
FFFFFF8F
FFFFFF3E
00000D94
0000056F
FFFFF774
FFFFE946
FFFFF710
FFFFFDDC
000001AA
FFFFF844
FFFFF42B
FFFFF37E
FFFFFD47
000002A9
000003A6
0000001C
FFFFFA98
FFFFF967
0000038A
00000150
000006C4
0000009A
FFFFFD90
FFFFFEAA
000014BB
000010DC
00000DD4
000006C5
00000045
000000F8
00000572
0000010C
FFFFF1B1
FFFFDFF9
FFFFF195
FFFFFD2E
FFFFFDFE
FFFFF7A1
FFFFFC1D
FFFFFF2D
00000742
00000B43
000004DC
FFFFF9FC
FFFFF0DE
FFFFFAB1
FFFFFF11
FFFFFCA7
FFFFFD8B
FFFFFC41
0000005C
000001F4
00000223
00000BAB
00000D8E
FFFFFFCF
FFFFFF58
FFFFFEAF
FFFFFD1D
FFFFFC0D
FFFFF889
FFFFEB1D
FFFFF8D1
FFFFFA40
00000170
000000C1
00000704
000004CD
00000BFA
000005CC
0000021A
FFFFF886
FFFFEDF0
FFFFF250
FFFFFA03
FFFFEF6B
FFFFEE38
FFFFF1EF
FFFFFBED
FFFFFBF4
FFFFF803
FFFFFEB0
000008F5
FFFFF670
FFFFFC63
FFFFFD49
FFFFFE86
FFFFFC9E
FFFFFDC1
0000003F
00000014
00000D09
000007C7
00000B1C
00000B65
00000853
000006E7
0000074E
000001C0
FFFFF8EE
FFFFF6D2
FFFFF5E9
FFFFF6D1
FFFFF09B
FFFFF171
FFFFF0C7
FFFFF447
FFFFFB1E
0000005B
00000CF5
000001D1
FFFFFD40
0000012D
000001B8
0000014E
00000029
0000017C
0000032B
00000AF5
00001035
00000830
00000A4F
0000081F
00000417
00000617
000003ED
00000727
FFFFFD7E
FFFFF6E4
FFFFFB40
FFFFFAA0
FFFFED19
FFFFF312
FFFFF7B1
FFFFF754
FFFFFAB6
FFFFF8B4
000004F6
0000001A
FFFFFD66
000002D6
0000020F
00000176
00000160
000001C2
000004B8
00000C88
000007E3
00000151
000009E4
00000C75
000004EA
00000690
00000621
FFFFFCCC
FFFFFFE9
FFFFFB21
FFFFF852
FFFFFC67
FFFFF681
FFFFFAF0
FFFFF678
FFFFFC6C
FFFFFA49
FFFFF74F
000000F8
00001183
00000116
00000180
000004A3
00000726
000002D7
FFFFFDE5
FFFFF5FC
FFFFF33B
FFFFF450
FFFFF336
FFFFF8C6
000005F5
000003A3
00000296
FFFFFF8F
FFFFFD97
0000007A
0000037D
00000451
000000C2
FFFFF5D9
FFFFFC97
FFFFFF34
FFFFFA6E
FFFFFBC0
00000165
000000F9
0000059B
FFFFFF80
FFFFFF41
000000E3
000007E2
FFFFF897
FFFFF50B
FFFFEE7F
FFFFE5A1
FFFFEC73
FFFFE571
FFFFE331
FFFFED1F
FFFFEF19
FFFFF199
FFFFF3EE
FFFFF95C
00000448
00000770
000007D7
000006CD
00000069
FFFFFC76
0000007B
FFFFF9B2
FFFFFBC9
FFFFF3E3
FFFFEDE9
FFFFF999
00000309
00000E67
000005DA
0000066B
0000039A
FFFFFA2D
FFFFF126
FFFFEEEE
FFFFF001
FFFFEA54
FFFFDE0C
FFFFE54F
FFFFE5EF
FFFFEBB0
FFFFF466
FFFFFCBA
00000064
000007A6
000005D6
000001C3
FFFFFF39
FFFFFE0E
000005B4
000003B8
FFFFFEF7
FFFFF730
FFFFF500
FFFFF8A7
0000074A
FFFFFE13
00000F83
0000081B
00000BEA
FFFFFDC3
FFFFFFD9
FFFFF93D
FFFFF868
FFFFF7C2
FFFFEDB4
FFFFF105
FFFFF2F2
00000233
00000983
00000101
000002D3
00000156
FFFFFFC8
FFFFFF8F
FFFFFE6E
000003D6
0000031F
000004B2
000005CC
00000384
FFFFFD44
0000068D
00000654
000001B4
0000016A
000001CE
000011E0
000006AD
00000122
FFFFFA55
FFFFFCC5
00000382
00000197
FFFFFF9A
0000075A
000005B9
00000AD8
0000044E
FFFFFD45
FFFFF5A9
FFFFF744
FFFFFB7E
FFFFFF7C
000002B1
0000005B
000004C7
00000C62
0000051C
FFFFF6E9
0000034F
00000252
FFFFFF7D
FFFFFFE2
FFFFFD4F
00000C0D
00000860
000005B7
000001DF
FFFFFF69
0000085C
000004F7
0000086E
00000D3D
000005EB
000008EA
0000051C
FFFFFC34
FFFFFE43
00000233
FFFFFE12
FFFFFDFD
FFFFFF73
00000009
0000083B
00000C51
000005AC
FFFFFCAF
00000284
0000001A
FFFFFD7D
FFFFFE80
00000001
00000E06
000007DF
000009A5
00000743
000005BC
000002C1
000001F7
0000096C
00000C21
00000756
0000055F
FFFFFEF0
00000131
000002C6
000002DC
FFFFFCD8
FFFFFFC0
000001C0
00000675
00000AD4
0000119B
000005AB
FFFFF658
0000015B
000001A5
00000019
FFFFFF13
00000CDA
00001419
00001790
0000138A
00000D2E
00000C0F
00000D25
000007A5
00000AA7
00000BC9
00000588
00000215
000000EE
0000016C
FFFFFDF8
FFFFFEAC
FFFFF982
FFFFFD9F
00000756
0000060D
000002BD
0000063B
00000F09
FFFFFCE4
FFFFFCA5
FFFFFF33
000000E5
00000023
FFFFFAFE
000010A2
00000438
0000032D
000002ED
00000CA0
00000E8B
00000FCC
00000B5A
00000474
00000430
0000074E
000001E5
FFFFF8BF
FFFFF37D
FFFFFEAB
00000475
FFFFFB74
FFFFF86D
FFFFF8D6
00000370
FFFFFBAB
FFFFFEAA
0000002B
FFFFFAF6
000000FA
000000B0
000001D0
000001B9
000002C2
FFFFFDB2
00000003
0000007E
000007F9
000002C5
000007B5
000005E0
FFFFFDF9
FFFFFB30
FFFFFACD
FFFFEDE0
FFFFF3EE
FFFFF557
FFFFFE4D
FFFFFC9B
FFFFFF4C
FFFFFE3C
FFFFFD37
0000035B
00000029
000001A9
00000102
000001C5
00000064
FFFFFDB7
FFFFFEC5
00000232
000004D9
FFFFF864
FFFFF5AE
FFFFEF9E
FFFFF8FF
FFFFF63C
FFFFF64F
FFFFFD47
FFFFFEDE
000004D7
00000331
FFFFF5E2
FFFFF6B8
00000691
000004BE
FFFFFCE3
FFFFFDDC
FFFFFB99
FFFFFF53
FFFFFEDA
00000362
0000015B
FFFFFF9C
FFFFFDE3
FFFFFDFB
00000039
FFFFFE2B
FFFFFECE
00000220
00000222
00000043
00000149
FFFFFECA
FFFFFF2A
FFFFF47B
FFFFFF01
FFFFFD70
00000450
0000055B
00000098
FFFFFF23
000008F2
000007F5
FFFFFD18
FFFFFDA1
FFFFFDA2
00000103
FFFFFEFB
000001F1
000001AC
0000003E
FFFFFEC7
FFFFFEEF
