007E
005B
0009
0054
FFDD
0085
0066
0049
000D
000A
0008
FFF5
00C6
00E0
0143
019B
0050
0068
0022
0023
FF7B
008B
007B
FFB5
006F
FF79
0091
FF75
0070
002A
FFFD
FF70
FFBE
FF76
000C
000C
026E
02A7
01A9
FFBF
FD77
FE06
FD45
FFE6
03BC
041F
FF23
FDA0
FE92
FE8C
FF7F
008E
FF9F
001E
0044
0068
FFD1
0085
0022
FF5A
FF87
FF4F
FFC6
00D5
0419
03A1
01F9
018E
061E
0260
FFF3
008A
012C
FFCF
FF5E
FC6C
FEC3
FFA8
FC46
007B
013F
0161
0029
000B
004B
0014
027E
0311
00C1
041C
0509
03BA
058F
05D2
05D1
034C
03D3
01B9
0103
006D
0099
00DE
00B3
FE1F
FF97
FD4F
FE18
FE40
0026
02EA
FEF1
FFBA
0043
FF19
03B9
022E
FFB3
027A
0477
016B
01CF
027A
019D
036A
025D
018C
010F
01C4
01B6
0131
0206
FE82
FE7A
FDA1
FEE4
FBB4
FB4A
FEC1
0026
FBCB
0087
FF94
02F0
0046
FE2B
FD3D
FE17
FF10
FD5D
FF24
003E
00F3
0157
0307
0333
03E0
0406
023D
021A
FFF1
FF52
FF90
015C
FFD8
FDF4
0192
FCE9
FBF9
FF81
0266
0051
FDFB
FCAC
006B
007D
FF3C
FF80
00BC
037D
02A5
0368
0434
03A0
04C2
033B
0171
014E
0043
FF34
FFFB
0025
FF9E
0003
FBE4
FDE0
FE9B
0032
0419
FFE2
FDBA
008D
FFC0
00AC
FFF4
01E9
003C
0230
032C
0312
0323
0536
0427
03CB
02D0
0284
0119
016D
00AE
0116
FF46
0142
015E
023A
FF0D
0074
016D
FD6D
FF0A
FF3F
FD51
FD5D
FFA4
FF9E
FF8A
0110
0043
00F8
0061
0287
022A
0346
03B4
0317
0319
0335
0119
039F
029A
FF41
010A
005C
02E4
0008
FD5D
0353
0166
FEEE
FD2F
FEBA
FFE3
FFEF
FEA3
FCB3
FC7E
FC5E
FAEC
FC54
FECA
00C9
02E2
038B
0219
01F3
0039
0300
03DE
FDB2
014C
FD5D
003F
FFD0
FCC7
0062
014D
FDD2
FC96
FE2C
FE03
FDDA
FAF1
FAB0
FAAC
F80B
F6D2
F9BA
FC51
00A7
0126
0189
00F9
01DF
0203
0193
FF47
FB3F
002C
0115
01AC
FFA4
002B
FB70
00BB
FC9C
FAE9
FD67
FB6B
FAC1
F99B
F993
FB5E
FA09
FA2E
FC86
FE4B
FE4B
FFC8
FF5A
01F1
0239
01E9
00C1
FE60
FD6C
01A4
FD6C
038E
FF98
FDAE
FA01
FDF4
F9C4
F974
FB3C
FD3D
FC84
FD58
FEE5
FF1F
FF55
FE12
FF9D
FE92
FE28
FE6E
FF0E
01DB
026B
00DA
FDF5
FC5A
FDF0
FE72
FC2E
0021
FE6C
FDF4
FE2E
FFA1
FB08
FCC5
FDB3
FF71
007B
00E6
0026
0160
0263
028D
00B7
FDEB
FD99
FD9A
FEC3
FFEA
00A3
00C9
FE95
FCA0
FE47
FF75
FF09
FFBB
FEA4
FDB1
FE71
FEED
FCDB
FEC6
01F9
0453
01B4
01AD
0076
0127
0246
0187
014C
FF69
FE8F
FE08
FEE6
FE87
FEF3
FFD7
FE3F
FC26
FD0B
0089
024F
026A
FE8A
FCE7
FE1D
000D
FFF9
0313
03D2
02F4
00C6
00B0
FF71
0125
FF09
0065
FFFA
0134
0169
FEAE
FEC1
FDCA
FCA2
FFAF
FC47
FE09
0133
FCC3
04E1
024A
FF81
FE77
0003
0275
0183
0309
0287
0106
FFFD
019D
00A6
003F
0004
010A
FF7E
0094
00D5
0043
FE24
FD0D
FD72
FFC8
FFF1
FF4F
0267
FE7C
01EB
0176
FFFF
FD49
FF58
01EE
01B5
01A8
0096
FF8C
0281
01E7
FF62
FF49
0048
FFF4
008D
00D9
0053
FF84
FCFF
FE6C
FCBB
FCD0
FCAF
FD1B
FF9F
00EB
FFC5
04FA
0283
FDFE
FCE4
0256
0093
00CE
0061
00D1
025B
00BA
FF7D
FEEA
FF73
FFFB
0033
00D5
0095
0087
FF11
004E
FF58
FE13
FF9A
FFAA
0126
02B6
01CC
04D6
FD53
FFBD
FDD4
FFD7
00AD
FFF1
0085
01D3
FFE3
0157
FF14
FE30
FF62
0130
FFB9
014C
00B4
0148
00AF
FF41
FFE8
FF2F
0115
0131
0150
0254
0073
03CB
FF8B
00BB
FFA1
0469
0089
0226
01CC
023B
00E9
01AA
FF6D
FFCD
FF9B
0104
0170
00E4
0121
0098
01A8
FFC0
0189
0113
0287
02C5
0140
015E
FF01
005A
FF40
02EA
0805
057B
007A
FEAE
FFAE
003C
FFD1
FEFD
00F0
00A4
008D
022B
0125
00CB
0139
01DB
01D9
01A0
0036
025F
04AB
0537
0333
01F6
0532
012D
FF12
005D
08B0
00B9
007D
00CA
005D
FFB0
003E
0003
00E4
018C
00B5
00C0
FFEE
0027
0187
0139
01EF
01CA
01FD
0208
031A
0268
04B2
017A
FD38
0155
FFDD
FF7F
06D6
0043
0032
FF38
0020
0245
006C
0156
0203
02C3
01C0
0258
004D
009C
00BB
01C3
02F8
024F
01D6
01CB
052F
05B3
0420
0027
FE0D
FF99
FF9D
FFF9
FEF1
01AD
03E8
FF5E
0087
011D
025C
02A0
FF98
00FD
0120
00F8
0102
0086
0225
0488
01CC
FFBE
0030
0611
0335
0292
0883
04FE
01A5
FF8B
FFDA
0049
FDB3
FD03
01CB
FEBF
0207
0179
0163
03BE
02AE
005E
FF7A
FFB6
FFBF
01D3
FFF1
FFB2
FF01
FDC8
0002
FF15
FC9E
FB21
FF1B
FE41
00CE
0013
FFEB
FFFA
0083
000D
FC01
FA8B
FA07
FD47
00BB
FE91
00B4
FD83
FCFA
FE53
00D8
01D2
0177
FEF0
FC63
FBB0
FCEB
01DE
0282
015E
FFCE
00BF
FFED
FF72
004A
FFBE
0007
0086
005A
0004
0087
FFE9
0046
00C3
FF5F
FEFC
FFF7
FE36
FED2
FEAB
FF09
FF4A
0035
FF54
FFF2
0057
FFC1
0050
0056
FFED
0069
0053
