FFEB
0081
0078
0049
FF72
FFDF
000B
003D
FFEF
FFB0
0075
0003
FEDC
FFF2
FFB7
0055
0025
FF8C
FF98
0053
FF8F
0011
0050
0052
002D
FFC8
005F
FF8E
0005
0023
FFDD
FF6F
00A4
00AA
0098
000D
00B0
00B0
FFFB
0213
01ED
01EE
FF88
029A
054E
04BA
FF84
00A9
0114
00CB
0119
0115
FF85
0042
FFA0
0012
008A
FFC6
002E
040D
0458
FEC0
FFE3
0007
0079
FFA6
01BE
008F
FF52
FD0B
FB79
FAFE
FE8D
FEB6
FEDE
FE59
FFF4
0063
0071
0291
FEB4
FF78
0028
FFA2
0047
0022
FF15
04B4
0321
FBA5
FC3B
FFA6
0525
0126
029B
0394
0418
02CB
03C8
03B3
009E
00D0
0022
FFB9
0383
0150
FE07
0008
03DF
0356
FEFE
0009
0018
FF6E
FD53
032C
FD73
FC8A
FCA7
FE64
FF8A
00D2
005C
023A
008D
FFD8
0070
01C5
FFC4
0034
0252
0103
0291
02FA
0351
008A
01DE
02E8
02F2
0029
FFD3
FFC7
FD56
00CE
FE7C
FBCE
FD4C
0046
FDF1
FEE1
FF8D
FF4C
FCFB
FF49
0064
FF99
00E5
0133
0375
030E
02A6
0166
0398
02BB
0062
013A
0179
FF7C
FF74
0181
002F
027C
0130
019C
0251
01D7
00DB
FFBA
FE74
FD70
FE5A
FF65
FEE6
FECF
FE00
FCE3
FE60
FFA5
FF6B
01E5
02C2
0201
032C
03A5
FE26
FD0D
FF46
0525
FD36
0282
019E
048A
029D
024E
00DB
FDFB
FEEF
FF95
FFC4
0083
FFA8
FE49
FD92
FDBF
0007
FEAE
FE2F
0027
0322
03B8
0238
0153
FE2D
FE9F
0493
05B1
FDEC
0202
016F
01CE
FFDF
0032
FE90
FE6A
00E6
00A1
02D0
02E4
023B
FFE9
006B
FF7E
FF40
FFAA
025C
017E
03A5
0461
02D1
FF28
FF71
0449
012D
03A9
00D7
001B
FF58
FF87
FED5
FE1A
FDDD
007A
0012
0086
03FE
05E5
0486
FFAF
0017
FF5F
FF25
0078
0248
013F
01B7
01C9
03DB
0575
0344
FEC7
0202
FE55
0084
02C7
FF48
FE50
FF77
FECB
0004
00C0
0109
006A
0412
089A
0590
00F0
016C
0093
0164
0159
0463
0303
0359
0205
0303
00D1
048E
FE4C
0096
0473
FEB4
FECF
FE0E
FCC9
FFBB
FFCF
FEF1
FED4
FE1D
00C3
032C
0587
0134
FFB5
0035
FFF4
01CD
02CF
0230
0247
0151
FED2
0280
007C
0358
FE1E
FFE0
013F
FD8C
FB61
FD2F
FE6A
FE5E
FF39
FE31
FE88
FFD4
0058
034D
030C
FFAF
FEAE
FF20
00ED
02BC
0237
01BD
0048
0003
FC35
FD40
00AD
01C6
FE5E
FE5B
014C
00ED
FC0D
FAFE
FE0F
FECE
FE64
FCE2
FEDF
FF4F
0188
02B7
FFFE
FE0D
FCE4
FDB6
0009
021E
018B
FF04
FDC4
FEE2
FF11
0026
0022
005D
00A6
0151
0199
02CF
FAA2
FBBF
FE7E
FF24
FF76
FD9E
FE1C
0024
0241
027B
FF1C
FD13
FCF5
FBAC
FF75
016D
FF2D
FEE9
FDFC
FFD0
009D
0552
0173
0324
FFE7
0187
01FE
02C0
FB98
0187
0349
FF63
0108
FECF
FFFB
00ED
029F
02EA
FEDB
FCDD
FBED
FBBD
FF01
0139
0126
00D4
0031
FF96
03E1
0812
0256
0293
0115
FE0C
0306
FD70
0117
037D
0386
FFDC
00A3
FFE9
FFC2
024D
02A1
02E0
FE81
FB28
FCDB
FC42
FFC6
026C
0239
001D
02C2
027B
04EC
04BA
02AA
0265
05D7
FFF8
0401
FBFA
0414
051D
02A7
005A
014E
00CF
01A4
0336
0446
0273
FF67
FD2E
FD83
FE26
0244
004D
01ED
0131
01DB
01A7
023A
0005
FF3F
FE1F
04D3
0431
033D
FD1D
011A
02D7
0330
01AE
00FC
02F9
0409
0532
0449
03E6
0111
FF2C
00D4
002F
0104
0068
FFE5
FEF6
FF9A
00B4
01AD
FF4F
FCF2
FC8C
FFAD
FE5C
052D
009E
FE5A
034B
0439
010F
01C2
02BC
039E
04BA
029E
02AA
0218
01A4
019A
0024
0284
00A8
FDDD
FF64
000C
0135
FE6E
FCFA
FC25
FE94
FE67
FF96
0488
027C
FFA6
0352
02B0
00ED
02C1
0397
044F
024F
020A
0274
0373
0245
0289
0007
019E
013E
FEDB
003B
0055
00BC
FF28
FA4C
FD2B
FD60
FE88
FD39
FF1D
046A
FEE7
010F
FC44
0054
FFD2
FEC1
FF4A
005C
0238
01AE
02BF
0287
03A8
030F
024F
00DA
007A
FF21
FE8D
019F
FF1B
FB8F
026B
04B0
0052
FD9B
FE9C
01F3
FE6E
FCEF
FBC0
FED1
FECD
FE38
FF93
FFD7
02D9
02CF
0405
03E1
04EF
029C
0253
FF4D
FF09
FE21
FEB8
0086
0001
FD34
026C
03E4
FF87
001F
002A
04A9
029C
FE46
FF1C
FF1B
FEE8
0085
0179
017B
035A
028B
0383
03CF
031D
00EE
FFF6
FEA9
FD87
FDB9
FD82
FDD5
FDF8
FF67
03E7
0060
0069
FFD4
FF99
FEAA
053D
0126
FE4A
FE91
FD43
FFA3
007D
FF76
00AB
03AB
0439
03B1
02D1
0013
003B
FF08
FE87
FD87
FE20
FC3D
FAFB
01BD
FFE8
FD48
FFF4
FFBD
FFC5
FE06
FCFB
FCC5
FBBC
FFD4
FF90
FED9
FF48
FFCC
0123
030D
0266
FFAC
01DC
FFF6
FED0
FDE3
0130
FCFD
FDC0
0040
FF85
02AC
FDDB
FF29
FFF9
FFD7
FFB8
FFD2
00FD
FB8F
FB0D
FD46
FED8
FDFE
FC54
FFC4
0035
FDF9
FE8B
FA86
FCDC
FF77
0044
FE80
FD47
FB16
FA1E
FDDB
FDA3
FC4E
0119
0001
0052
006A
FF7B
0033
002D
018A
020A
FF83
FEAF
0033
FF3D
FF8A
FD4F
FBC6
FEC6
FBDD
F938
FC10
FECA
FE6A
FBB1
FBFE
00DF
FDDA
02E5
FFC2
006D
FFA7
FF7C
