028E
01B9
FECF
FF29
0548
01D8
061B
FD8F
FF7B
044C
FF1F
FB28
FF0E
082F
01C7
FCD6
02B1
01D9
061C
01D0
FE81
FF0E
0657
FD70
004F
0086
FE3D
FDAD
FE4B
FD9E
0268
FED9
04DF
0110
008B
FDEC
0158
03EC
0043
01C9
048B
003B
0290
0338
0015
FD4E
01ED
F91B
FF68
FE4D
F54C
04E2
FE73
0919
FB5E
0007
074E
FD24
04F8
04A9
0388
00B5
054B
FF57
037A
FF0F
04BE
00E0
FF24
FFAA
01C4
05F7
02CD
0A26
045D
FC19
060C
02F5
0497
F23C
FF47
FD8E
F6D1
024A
0089
0A47
030A
FF08
03C1
FED6
FDDC
FE16
04D1
FD29
0508
FE86
0512
FFB6
0288
01F4
01CC
FD4B
0084
F5BD
0121
FCC8
FD4F
012C
0156
053B
FC5E
FE1F
00A6
FF62
00B9
05A5
FE73
FA3A
F6CA
015D
02A5
03E1
04E2
050E
0195
0567
0457
011F
00DF
FE00
F961
0323
02FD
03C8
0173
0159
FE50
03AC
0341
F476
037C
FA7E
0462
FEE6
0498
0547
020C
03B9
F2E1
0159
FE69
FBAF
F6DA
0163
FE7E
0346
FCCC
FCCD
03AE
01CB
007B
019F
FFF2
FA55
FF20
0644
0101
0A8F
FE7E
05E0
FF98
075F
FC90
04D2
0162
FE78
FF84
0498
FE72
013A
033E
FE61
F788
05CE
0974
00A8
026C
01A7
00B8
FAD9
000A
FD14
0328
00D5
FF68
F98F
0134
0487
FE74
0362
030C
FC95
0152
04E1
FB7A
F892
0182
FC1E
02C4
0040
FA6E
020D
0054
071A
061B
07D9
FCBA
0256
FDFB
057D
0644
01DB
FDAE
0540
0073
FF84
02DB
01E7
FCFC
0646
047B
F722
0432
0A5C
FB9B
FB4C
FA3C
FEE1
F9B3
02E1
0051
FC04
0091
022C
F7EC
FE38
FA73
0528
F78B
0649
0184
0301
0A6C
0390
FD2F
02E7
FEC3
0022
0243
04D8
FB41
0311
0248
FB4F
FF30
0642
00ED
FA9C
FFF5
02C3
FC8C
0619
FEB7
052A
FDE8
01A1
F6CE
008E
002F
065D
0469
FD8E
03ED
02CD
0322
FBF0
FF3F
0347
01C1
FD65
F9B1
FA16
043B
FF24
0380
02D0
FF12
FE62
0309
0664
FD8E
05B2
0020
F992
02D4
05D1
0301
05FC
073F
FB13
FB00
0064
FC12
FD7B
00D2
FF0A
0130
01E2
035B
FE0A
029D
006D
FF76
05CC
0132
FCCA
01E3
FE0B
F711
FB29
0354
FFCE
05F1
FED9
058D
0835
0439
FFBF
0CF4
FCF0
FED3
FF8E
FC31
FB5D
FE21
02DA
00EF
FDD2
F47B
0489
0419
05EC
FE7E
FF05
05EE
08D3
04B4
F6A4
03E2
FD5B
FEA1
F7F7
028D
0406
0557
0232
FF83
0091
FDFA
00ED
FDF4
FB06
02DB
FD51
0451
FC0D
055C
01EE
0427
0348
F848
FF97
FECD
008B
0449
FD69
09A6
072D
009F
FECF
00C0
FF74
05A7
067A
FEB8
F8CA
FE7B
03CB
02BC
0487
0272
F8E1
F9CB
00B5
FC91
01B8
FEF1
FC34
FFF6
02C3
022C
03C9
00AE
FFF0
FDF4
FE12
FE62
FE0D
02A7
FD02
047A
05B7
FD69
07D0
FE6A
F802
04EA
0829
FF09
FBB2
0481
0688
015E
02C9
F8BA
FDDD
08FF
0608
0865
03FD
03E0
FDF2
FF3F
FF5E
FC55
03EA
FCD8
0041
FB62
0294
FCC4
029C
FE6F
FE93
FC5F
FF23
FE5C
0042
023E
0D2F
063C
022B
010E
0AE1
04B1
04EE
04ED
05AB
0A95
0103
F7F2
016D
FE28
0258
0173
FDE7
00E8
0260
FDDC
01DB
FF85
0116
03ED
0252
017F
038F
046D
04B1
05B8
096F
047C
FA58
0238
030D
03D9
026D
FB7A
0083
FB1C
FB4F
FC95
04B6
07EB
0687
FD6E
FE88
FEB7
FFD2
FF6F
FE61
FBAF
FFED
016B
011E
FC24
0396
FE04
FF78
01AA
0102
03DB
056A
0310
00B9
0088
FD99
012B
FD1E
