000002EA
0000045D
000000E6
000000B6
FFFFF547
FFFFFB41
FFFFF895
00000188
FFFFFD47
FFFFFB6B
00000C13
0000039C
00000080
0000097E
0000049E
FFFFFBA3
FFFFFE45
00000EA6
00000862
FFFFFBB4
000001CD
00000BA7
00000B5A
00000A73
00001810
0000030E
00000265
FFFFFFF1
000003C9
FFFFFFFE
FFFFFEDD
FFFFFEE7
00000761
00000BF4
FFFFFBC6
FFFFF23B
0000030C
FFFFF6D5
00000462
0000022F
FFFFFB47
FFFFFAB4
00000C2B
FFFFFD33
FFFFF92B
00000F57
000003AE
00000858
FFFFFFF6
FFFFF0D6
FFFFFF3F
FFFFF3F8
FFFFF8F9
FFFFF5CE
FFFFFE2D
0000069A
0000070B
FFFFFE2D
0000025A
FFFFFBCC
00000742
FFFFFDBA
FFFFFE7A
FFFFFF59
