000000CB
00001358
00001609
0000098F
00000B75
000000C3
00001FF7
0000072A
FFFFFD88
00000528
0000091B
00000EAF
FFFFFBB8
FFFFFE5F
FFFFF82C
00000020
00000579
00000DCD
00000508
FFFFFC6F
FFFFFDCD
FFFFFE76
FFFFFCE6
FFFFFC45
00000EB6
000006A9
FFFFF4B4
FFFFF861
0000004B
00000165
00000348
FFFFFDD2
0000011A
000007C9
0000039C
FFFFE3DD
00000439
0000097A
FFFFFC84
0000090E
FFFFF240
00000211
FFFFFE38
FFFFFFE2
FFFFF881
FFFFF74D
FFFFF487
00000F91
FFFFECC1
FFFFEC3C
FFFFFEAB
FFFFF776
FFFFFC5B
FFFFF9CB
FFFFFAF5
000000E5
000003A0
FFFFFA01
0000077E
000001CB
00001BEA
00000756
00000A67
00000580
00000563
FFFFFC0E
00000639
FFFFF4CE
00000964
00000B24
000007D2
00000C2C
00000509
00000997
FFFFFDF1
FFFFF857
00000EB6
00000BF7
0000099D
0000071A
00000824
0000035E
FFFFF7CF
FFFFFD3C
000000D7
FFFFF4E4
FFFFFA39
FFFFFE94
000008E7
FFFFF994
00000267
FFFFFD43
00000ACF
0000011C
FFFFFEE0
00000648
FFFFFAEC
00000006
00000012
000001B2
0000180D
000007E1
FFFFFE62
000002CA
FFFFFDE2
0000055E
FFFFFADC
FFFFF709
FFFFF3FE
FFFFFBDE
0000147C
00000007
FFFFF041
FFFFF809
000009D3
000001D6
FFFFF2AA
000007C8
00000465
0000064C
000000F6
FFFFF5CA
00000A0F
FFFFF93C
0000122A
00000389
00000B2C
000001D3
