FFFFFDFD
FFFFFECD
0000017F
0000000E
00000121
0000002A
FFFFFE57
FFFFFDBA
00000154
FFFFFF92
00000157
000001CC
00000206
000007B6
00000CC9
00000697
00000184
FFFFFFEF
FFFFFDFB
FFFFFECB
FFFFFDE0
00000118
00000003
000001ED
0000008E
0000014E
000001DC
0000022C
000001AF
FFFFFEC2
00000175
000000D3
FFFFFEB6
FFFFFF8E
000004EF
0000046D
00000625
000003ED
000005FA
FFFFFFFB
FFFFFDA4
FFFFFA41
FFFFF5CE
FFFFFA13
00000F25
00001203
00000A3B
000006EC
00000914
0000021B
00000399
00000588
FFFFFEC4
FFFFFEB3
FFFFFF72
000001F6
FFFFFE23
FFFFFEB0
000001EF
000003B5
00000155
00000485
00000E6A
00000545
000012DE
00001DA6
000015F8
000010D5
00000BAF
000002CA
00000E70
00001340
00000DD6
00000ACB
000011F8
00000399
00000958
0000124A
00000B4A
00001277
00000FCA
000004E9
FFFFFFAF
00000006
FFFFFEB5
FFFFFFAB
FFFFF580
00000343
0000009F
00000BC6
00001032
000000FE
00000A0C
00000BE2
FFFFFFA1
000003FF
00000BF9
000008BF
000001ED
00000039
00000487
FFFFFBAF
FFFFFB4D
000006B3
FFFFF80F
00000011
00000391
00000B56
00000943
0000030C
000008C0
000000B7
FFFFFEF7
FFFFFE0B
FFFFF3F1
FFFFF392
FFFFFCDF
000010A6
0000106E
00000E61
00000B1E
0000046C
00000A48
FFFFFFFF
00000644
00000420
000002F8
FFFFFCD0
FFFFFFC4
00000344
FFFFFCB3
00000355
FFFFFD55
FFFFF94B
FFFFF83A
00000060
000000DA
000002C2
00000298
000004AB
FFFFFF20
FFFFFFCE
000003F6
000001E0
000006E2
00000297
000000DC
0000028A
00000055
FFFFF927
FFFFFD53
FFFFFCF2
FFFFFF6A
FFFFFB87
00000573
00000137
FFFFFB1D
FFFFFF63
0000050D
000005A8
000001AF
FFFFFAFD
FFFFF800
FFFFFDA1
00000533
0000076C
000006A3
000007F5
000001AC
00000732
FFFFF979
000008AE
000006B7
FFFFFC0E
00000066
FFFFF991
FFFFF53B
FFFFF0D1
FFFFF977
FFFFFDD5
FFFFFE21
FFFFF7EC
00000012
00000682
FFFFFFF1
FFFFF768
FFFFF7B5
FFFFF9D9
FFFFF1A0
FFFFF099
FFFFF476
FFFFEC27
FFFFF685
000008A6
FFFFFEBA
000008B6
000000E1
000006D6
000004C7
FFFFFC45
FFFFFF07
FFFFECD8
FFFFF373
FFFFF7D8
FFFFF91F
FFFFF0BD
FFFFFFC3
00000354
FFFFFD5F
FFFFFBE4
000005A8
0000033D
00000015
FFFFF7DB
FFFFF9C6
FFFFF888
FFFFF5AA
FFFFF70B
FFFFF498
FFFFE2B2
FFFFFD6E
00000B75
FFFFFD16
0000080E
0000047C
000006D2
000000E5
FFFFFCDD
FFFFF044
FFFFEEF9
FFFFF6F8
FFFFFCEB
FFFFF891
FFFFFDB4
000005CE
000000B1
FFFFFAF4
FFFFFEB5
000001DB
0000021D
FFFFFB88
FFFFFC41
FFFFF92B
FFFFFD2D
FFFFFFFD
FFFFF702
FFFFF7B3
FFFFFE64
FFFFEED8
FFFFF827
FFFFF4C6
FFFFFA55
0000019C
FFFFFB5B
FFFFFE19
00000C1A
FFFFF78C
FFFFFB48
FFFFFAA2
0000006C
FFFFFA86
FFFFFB30
FFFFFB97
FFFFF737
FFFFFB76
FFFFFDE7
00000128
00000099
FFFFFFA1
FFFFFC45
FFFFF851
FFFFF90A
FFFFFF82
FFFFFCE5
00000534
FFFFFABE
FFFFFD24
FFFFE87A
FFFFFA41
FFFFF4E7
0000015E
00000379
FFFFFCC8
00000849
00000097
00000A60
000000A7
00000144
FFFFFF60
FFFFFC0A
FFFFF9DF
FFFFFD85
FFFFFCA7
FFFFF89A
FFFFFE93
0000018E
000002A1
FFFFFF32
FFFFFABA
FFFFF641
FFFFF5C6
0000051B
FFFFFACC
0000046D
00000871
FFFFF029
00000029
FFFFF54F
FFFFFF67
00000A59
FFFFF3BF
FFFFFBAD
FFFFF916
00000107
0000008D
00000123
000000DD
FFFFF717
FFFFFD70
FFFFFDD5
FFFFED75
FFFFEFFF
FFFFFE8F
FFFFF8E9
0000005A
FFFFFD96
FFFFFED4
FFFFFA02
FFFFFBEF
00000211
00000595
00000C2E
00000ED2
00000F8B
FFFFF8A8
FFFFEFB7
00000048
FFFFFFA9
FFFFF637
FFFFF3BB
FFFFF49D
FFFFFBFF
FFFFFAD6
FFFFFD5A
0000002C
FFFFFABE
00000025
0000015E
FFFFF260
FFFFF9DB
FFFFFE1F
FFFFF548
00000258
FFFFFF3F
FFFFFE2E
00000054
FFFFFC83
00000124
00000B1A
FFFFFE7D
000007A4
00000133
FFFFF6D5
FFFFF547
00000B4B
FFFFFF55
FFFFFC80
FFFFF7E3
FFFFF0C6
FFFFFEA4
00000040
FFFFF9CF
0000009C
FFFFFA03
FFFFFA7A
FFFFFE93
FFFFFF33
0000049B
FFFFFD7B
FFFFFFD9
0000014C
FFFFF9DB
FFFFFD55
000004A7
FFFFF823
FFFFFE50
00000405
FFFFFFC1
00000506
FFFFFE4E
00000D58
00000E3E
00000081
FFFFFEC4
FFFFFF6C
0000080B
FFFFF010
00000211
000006E8
000004D0
000001CF
00000061
FFFFFD79
FFFFFDDB
00000356
00000D5D
00000BE2
00000932
00000360
FFFFF693
FFFFFCE6
FFFFF97A
FFFFF4BE
0000029A
00000A5C
00000742
000007B0
00000B12
0000136F
000009B4
00000229
FFFFFC87
00000BF2
00000AF9
FFFFF5FC
0000062F
00000893
000008E0
00000313
0000029F
000001D8
00000391
00000889
000013B0
0000117E
0000087F
00000812
FFFFFD92
FFFFFF6A
FFFFFF1D
FFFFFCAE
0000011F
000000C8
FFFFFE83
000005EE
00000BA8
00000E26
00001182
FFFFFEB7
FFFFFDE8
00000501
00000776
FFFFF743
00000733
00000FA9
00000FD1
000003A2
0000022A
000000A2
000001BB
000003C2
000006DA
00000E44
00000911
00000881
00000981
0000014D
FFFFFD7D
0000011B
00000AA0
0000031D
000004E2
0000065C
000013E0
00001298
00000CA9
0000006B
FFFFFC03
000002D2
FFFFFB7E
FFFFFF08
00000335
00000922
00000657
00000404
FFFFF882
FFFFFAD4
000000D5
FFFFFFCD
00000461
00000851
000005F7
000007E4
000006B7
000001D0
FFFFFFFC
000009AA
00000EAF
00000592
00000162
FFFFFDD8
000014BC
0000026B
000013C1
000001AD
FFFFFF24
00000221
0000022B
FFFFF932
000001CE
00000701
00000808
FFFFFF75
FFFFFCFD
FFFFFD32
FFFFFAE1
000003B9
00000363
00000890
00000B27
00000A7F
00000B42
00000B29
000006CF
00000333
0000022F
000001CD
FFFFFD65
00000586
000011D6
FFFFF19A
000012F1
00000056
FFFFF909
00000134
FFFFFFA4
FFFFFFAD
FFFFFF73
FFFFFBD5
000001B0
FFFFFDF9
FFFFFDE2
FFFFFF57
FFFFFE41
FFFFFB74
FFFFFC1E
000006F2
00000E82
00000CD3
0000106C
00000855
000003CB
FFFFFEFC
FFFFFCF8
0000004C
00000572
FFFFFF02
00000C67
000010F8
00000D94
00000230
FFFFF89F
000001A7
00000149
FFFFFF19
00000055
FFFFF6D0
FFFFF93F
FFFFFAE1
FFFFFE2E
0000022E
00000059
FFFFFBB0
0000001A
0000016C
000007B0
000004C1
000000ED
000005D0
0000037D
00000705
00000014
FFFFFE16
FFFFFAD4
FFFFFBB6
0000005C
00000527
FFFFFEA2
000003AC
0000020D
FFFFFF3D
00000912
0000050E
FFFFFD79
FFFFFD59
FFFFF94F
00000248
00000450
00000402
FFFFFDA5
FFFFFD11
FFFFFFB6
FFFFFDAB
FFFFF89A
FFFFF85B
FFFFFFCD
0000038A
00000563
000003CC
FFFFFC74
FFFFFC9B
FFFFFA3B
FFFFF40C
0000086C
000010CB
FFFFFE0F
0000057B
FFFFFF6E
0000049D
00000E3E
000000BC
000005FA
0000028D
FFFFF598
00000149
0000068E
000002D2
FFFFF9B0
FFFFF62D
FFFFF77B
FFFFEEBE
FFFFED2E
FFFFED36
FFFFFB6E
0000000C
000004F3
FFFFFE6F
FFFFFF4E
FFFFFA44
FFFFF3F0
FFFFF5C9
000007DD
FFFFFEDE
000000CE
0000000C
FFFFFFFE
000004CE
00000913
00000141
00000034
0000019D
FFFFFCEB
FFFFFEAB
FFFFFEB3
FFFFFC23
FFFFF787
FFFFF578
FFFFF145
FFFFF3D6
FFFFED6B
FFFFF29F
FFFFF472
FFFFFB5C
FFFFF820
FFFFFAA0
000000D5
FFFFFA93
FFFFF732
FFFFEE30
FFFFF7FB
FFFFF6F3
00000014
FFFFFE70
00000241
000000FB
FFFFF25C
FFFFF2F2
FFFFF1C0
FFFFFB96
FFFFF8D0
FFFFF948
FFFFEF34
FFFFFD37
000000FA
FFFFF479
FFFFE5BF
FFFFF00D
FFFFF124
FFFFF1CB
FFFFF522
FFFFEEFA
FFFFED16
FFFFEDC8
FFFFF950
FFFFF640
FFFFF0E0
FFFFF8ED
000004DF
000003F3
0000012B
00000193
FFFFFED4
FFFFFEFC
FFFFFB50
FFFFFC13
FFFFF5A3
FFFFF27B
FFFFEB87
FFFFE1A7
FFFFE0E5
FFFFECC6
00000436
FFFFFC00
FFFFEA77
FFFFF320
FFFFF7DC
FFFFEE68
FFFFF36D
FFFFE8C0
FFFFE265
FFFFEC6A
FFFFE8F5
FFFFEE74
000002BC
00000149
0000034B
00000611
FFFFFEF6
FFFFFFB8
FFFFFE3D
FFFFFDBA
FFFFFF27
FFFFFB71
FFFFF4EC
FFFFF513
FFFFF758
FFFFF282
FFFFF04F
FFFFF197
FFFFF8BD
FFFFF190
FFFFFAE2
FFFFF9F6
FFFFFBAA
FFFFF19C
FFFFF64D
FFFFEFDA
FFFFEF0B
FFFFEBDD
FFFFF332
FFFFF638
FFFFFAA8
00000072
FFFFFEB1
FFFFFF17
00000033
FFFFFF99
FFFFFE0F
FFFFFE55
FFFFFF47
00000047
FFFFFF29
000000E5
000000AF
FFFFFD06
FFFFFC15
FFFFFBD7
FFFFF6DE
FFFFFA04
FFFFFBAF
FFFFF388
FFFFFC6D
FFFFF619
FFFFF807
FFFFF29C
FFFFF703
FFFFF73C
FFFFFCB8
FFFFFB95
FFFFFF2B
FFFFFFBD
00000080
FFFFFF6B
0000006A
