FFFFFE56
FFFFFDE2
FFFFFE68
FFFFFEFF
FFFFFEEB
000001A6
000000F8
FFFFFFDF
00000146
FFFFFE7D
000000AF
0000011C
FFFFFDBC
FFFFFEA8
00000A51
0000034E
0000003F
0000018A
FFFFFE77
0000005E
0000015A
FFFFFE23
FFFFFE6F
FFFFFE8A
FFFFFE6A
00000235
FFFFFE30
000001C1
00000046
00000035
000001E9
FFFFFE4A
FFFFFEA2
00000308
000004D2
000004AF
0000008D
00000175
00000072
FFFFFAB6
FFFFF9FD
FFFFF98E
FFFFEF6E
FFFFF6BE
000009B4
000009A0
000002A1
0000088E
000002CA
FFFFFEB1
00000429
00000239
00000171
FFFFFE24
00000033
FFFFFDF9
FFFFFF34
FFFFFE5D
0000018D
00000D4C
00000D47
0000044D
000009C5
0000036E
00000B47
00000547
0000061F
00000186
0000078B
00000572
000009D5
00000170
0000025C
FFFFF4A8
000000F7
00000786
00000746
000007F3
00000738
00000A74
000001E5
0000028C
0000001D
FFFFFE90
FFFFFDC1
0000013D
FFFFF5DC
00000D07
00000387
00000836
00000F96
00000AF8
0000084A
000009E0
0000088D
00000F15
0000102E
00000AA3
000013D1
00000C79
000009BF
00000503
FFFFFFC5
000003E7
000011BF
000003FC
FFFFFC10
FFFFF00F
00000616
FFFFF7F7
000002BF
00000048
FFFFFEEB
FFFFFF0C
FFFFF797
FFFFFE3D
FFFFFED1
000012A1
000016CB
00000AC0
0000080F
000005CF
000005FB
FFFFFDB5
000003B2
00000596
FFFFFF7E
00000319
0000029B
FFFFFF9C
0000063A
00000994
00000700
FFFFFC7E
FFFFF7CC
FFFFF6EC
FFFFFE49
FFFFF868
000000BC
00000C10
00000112
00000090
0000012A
000005D1
0000054A
000004A4
000009A4
0000037C
00000101
FFFFFC3E
000002E1
000006AF
0000026C
00000208
00000342
000001A1
FFFFFFF0
FFFFFEAC
00000537
000003FE
000006D5
000003E1
000004DF
00000CA4
000005FD
FFFFFB5C
00000B70
00000A7F
FFFFFEB0
00000681
0000003E
00000F57
0000089B
000005C6
FFFFFFEA
FFFFFB30
FFFFFA15
FFFFF6F6
FFFFFC29
FFFFFC11
FFFFFAFD
FFFFFF68
00000537
0000002F
000002B4
FFFFFB85
FFFFFFA8
0000024A
FFFFFA0A
000003CA
00000B93
000008DD
0000094B
FFFFFE11
0000063C
0000057B
0000000D
00000B7B
FFFFFFE9
00001020
000006C7
00000768
FFFFF818
FFFFF502
FFFFF48A
FFFFF537
FFFFF5B3
FFFFFC03
FFFFF3EE
FFFFF9FD
00000580
000005E2
00000437
FFFFFEB4
FFFFFBDF
FFFFF9A3
FFFFF92F
FFFFFDA0
0000052A
FFFFFE93
00000361
000002FB
000011EE
000005F8
00000C77
00000833
FFFFF742
0000078B
00000511
FFFFFEC5
FFFFF7AC
FFFFF0F0
FFFFEFB9
FFFFF7C1
FFFFF76A
FFFFF1B2
FFFFEF09
FFFFF165
00000250
0000061B
00000135
00000195
FFFFFBD9
FFFFF5AD
00000043
FFFFF8F7
FFFFF88D
FFFFFB27
FFFFF56E
FFFFF902
00000A7D
00000455
FFFFFB36
FFFFFEF8
FFFFFBEB
FFFFFD9D
FFFFFD4C
FFFFF595
FFFFF2FC
FFFFEC14
FFFFEE64
FFFFEFB6
FFFFF20E
FFFFEABB
FFFFE820
FFFFF3C4
FFFFF76F
FFFFFC2B
FFFFFFA3
000001BC
FFFFFF40
FFFFFB3A
FFFFFF01
FFFFFC1F
FFFFF738
FFFFFAAC
00000169
000000E8
000006C3
FFFFF42F
FFFFFB66
FFFFFF45
0000045D
000001FD
FFFFF800
FFFFF4A7
FFFFF45F
FFFFED06
FFFFF250
FFFFF106
FFFFEB66
FFFFEC7A
FFFFF495
FFFFFC65
FFFFFC77
00000098
FFFFFE67
0000038F
0000018F
FFFFFEC4
FFFFFF6E
FFFFFFCE
FFFFFD98
FFFFFE08
00000403
00000596
FFFFFCBF
00000287
FFFFFE10
000006F2
FFFFFD9C
000006EA
FFFFF9B0
FFFFFED9
FFFFF887
FFFFF8D6
FFFFFA43
FFFFFABF
FFFFFD82
FFFFFD3D
00000629
00000A75
0000016E
000001F9
00000372
000002CA
000000D8
00000675
FFFFFE53
00000044
0000029C
FFFFFBC5
FFFFF76F
FFFFF766
FFFFF082
000008FC
FFFFFE3E
FFFFFF68
FFFFF9BA
00000534
FFFFFA63
0000063A
FFFFFBB5
000000FC
00000655
00000503
00000CB2
000010C3
00001900
0000154C
000005DD
FFFFFEC2
00000230
FFFFFE72
FFFFFEEF
FFFFFC91
FFFFF99B
FFFFF6D8
000004EB
FFFFF038
FFFFF66E
FFFFF924
FFFFFBF2
00000559
FFFFF992
FFFFFEBF
000000C5
00000D9A
000006F4
0000080F
00000E18
00000682
0000086E
00000568
00000D3A
0000103B
0000126A
00000668
FFFFFBB2
FFFFFE95
0000036D
FFFFFDD1
00000265
FFFFFE44
FFFFF6C4
FFFFF2CC
FFFFFEB1
0000071B
00000340
FFFFFB46
FFFFFF0F
00000507
000001D8
00000427
000004A0
00001898
00000204
00001309
000011EB
000008E7
00000896
00000C40
00000522
00000616
000007BE
FFFFFD04
FFFFF688
FFFFFAB7
FFFFFF69
0000036A
FFFFFF0A
FFFFFF13
FFFFFCFC
FFFFFBA8
0000012F
00000A17
00000AFE
FFFFFB4D
000007A9
00000393
FFFFFD6C
00000135
0000085A
00001351
00000056
00000DD9
00000A20
00000492
FFFFFFD4
00000543
FFFFFDF5
00000005
00000306
FFFFFB56
FFFFFAEE
00000772
000001DF
000002E0
000007F4
00000825
000002DC
00000333
FFFFFD22
00000907
00000D8F
FFFFFBE6
00000ACA
FFFFFFD6
FFFFFFBB
000001F6
000004DB
00000B37
00000448
000006D6
FFFFF995
000006FE
FFFFFC78
FFFFFF0E
00000135
000000F3
FFFFFB4E
FFFFF915
0000000A
00000A28
000003E3
00000572
00000DA6
00000DB4
0000088C
0000094C
FFFFFB86
FFFFF0BE
FFFFFC75
FFFFFCFC
00000D94
0000018D
FFFFFF37
000000E8
00000213
0000066D
00000105
000001C8
FFFFFAF7
FFFFFF6D
00000214
FFFFFEEA
0000011B
00000380
FFFFFAB3
FFFFFC09
00000164
000006C9
00000AD8
00000653
0000047A
FFFFFFAC
0000031B
00000C5B
FFFFFC04
FFFFEB47
FFFFF05E
FFFFED58
FFFFF0ED
000000E0
FFFFF7BC
0000059E
FFFFFE76
00000A19
FFFFFF50
000003D8
FFFFFF99
FFFFFE1D
00000654
FFFFFDD1
FFFFFEFE
00000439
FFFFFC5F
0000021A
00000493
00000C44
00000B94
00000570
00000129
FFFFFDEE
FFFFFAEA
00000226
FFFFF89C
FFFFF687
FFFFF85B
FFFFF2EC
FFFFEAC3
00000337
FFFFF96F
00000C30
FFFFFF42
00000940
000003D0
000007EE
00000504
0000011A
FFFFFBB8
FFFFFD99
0000027E
FFFFFFC6
FFFFFF7B
00000216
00000888
00000908
00000638
00000549
00000206
FFFFF469
FFFFF720
FFFFF517
FFFFF14F
FFFFF545
FFFFF8FC
FFFFF1BC
FFFFFD44
00000888
FFFFFFCC
FFFFF907
0000039A
000005F0
FFFFFAB6
000000EE
FFFFFFBE
000004C3
000005D2
00000642
000002EF
00000002
00000349
00000177
0000001E
FFFFFE42
FFFFFBE2
0000011B
000002B5
FFFFF5F8
FFFFF804
FFFFF7D8
FFFFF042
FFFFED9E
FFFFF7FF
FFFFF48E
FFFFFEF7
FFFFFD5B
FFFFFE19
000000D8
000011B3
000009F0
FFFFF558
FFFFFFCE
00000024
0000027D
000005E5
FFFFFF6B
000002BE
FFFFFCA7
FFFFFE7B
FFFFFF4B
FFFFF5F9
FFFFF8E7
FFFFFF27
00000549
0000035B
FFFFFC5D
FFFFF2C3
FFFFFEEE
000004B1
FFFFFE82
FFFFFA52
000001D1
00000F58
000000EF
FFFFFBEB
00000034
000009A9
0000057A
FFFFF144
FFFFF85F
FFFFFE31
FFFFFF50
FFFFF9DB
00000127
00000493
000002AC
0000022E
FFFFFC6F
FFFFF61C
000000A8
000001DE
00000583
FFFFFAA5
00000459
0000033E
00000695
000007F4
FFFFF321
FFFFF9E5
FFFFF9A4
000011CD
FFFFFF43
FFFFFF72
FFFFFE18
00000DBF
0000117E
FFFFF86E
FFFFF8FB
FFFFFBE2
FFFFFDAB
00000200
0000005C
000004DC
0000062D
00000051
FFFFFB12
0000038C
FFFFFCF5
FFFFF8A8
FFFFF637
FFFFF7D0
000005EA
00000760
00000A01
FFFFFDC3
00000282
000001B0
FFFFFAF0
00000331
0000016B
000000B8
00000204
00000187
00000F8C
FFFFF9C6
FFFFF428
FFFFEF7C
FFFFF53D
FFFFFA4D
000000DF
FFFFF9C7
FFFFFCF1
FFFFFB23
000000BA
0000056D
FFFFFD27
FFFFFFEC
FFFFF99E
00000953
00000A00
000010CC
000015E1
FFFFFEA9
FFFFFA5C
FFFFFC2E
FFFFFEB8
FFFFFFDE
00000133
00000029
0000011E
0000000F
0000015E
FFFFF952
FFFFED49
FFFFEC05
FFFFEA07
FFFFE984
FFFFEC06
FFFFF6B4
FFFFFB89
FFFFFCD6
FFFFFC01
FFFFF868
FFFFF904
FFFFEF57
FFFFF8FE
FFFFFE81
00000043
FFFFFCE6
FFFFF5ED
FFFFF315
FFFFFD63
FFFFFAEA
000001C5
000000AB
FFFFFEC0
00000174
00000198
00000007
FFFFFF38
FFFFF76E
FFFFF8A5
FFFFF514
FFFFE894
FFFFF4A3
FFFFF32A
FFFFF60A
FFFFF7B6
FFFFFA05
FFFFF610
FFFFEF99
FFFFF5D4
0000002C
FFFFF8CF
FFFFF218
FFFFF636
FFFFEDE1
FFFFEF37
FFFFF7C4
FFFFF89F
FFFFFB95
000000BE
FFFFFEE7
FFFFFDDE
00000097
FFFFFEF1
0000016A
000001EB
00000172
0000067F
FFFFF88D
FFFFF7BD
FFFFF5BD
FFFFFA5F
FFFFF435
FFFFF108
FFFFF385
FFFFF294
FFFFEF4E
FFFFF202
000006A3
000009B2
FFFFFBED
FFFFFCE1
FFFFFF13
000001BE
FFFFFE3C
00000070
000001CF
000000A5
000000AE
000001D8
