FFFFFEBB
000001C3
FFFFFE88
00000080
0000020F
00000181
0000011D
FFFFFF93
FFFFFFC5
FFFFFF90
FFFFFFD6
FFFFFE83
FFFFFF75
FFFFFD6E
FFFFFF99
00000043
000000DC
0000012C
FFFFFE94
0000013A
000000D4
0000009B
FFFFFF2C
FFFFFF19
0000019E
FFFFFDE3
00000245
FFFFFE2B
FFFFFFC3
00000233
FFFFFF8B
0000006E
FFFFFEB5
00000182
FFFFFCF9
FFFFFE88
FFFFFF0B
FFFFFEDA
FFFFFDB9
FFFFFC2E
FFFFFD78
FFFFFBB4
000009C2
000007D2
FFFFF930
FFFFF830
FFFFFB4F
FFFFFDCF
FFFFFAD3
FFFFFED2
FFFFFBFC
FFFFFBDB
FFFFFF62
FFFFFE82
00000020
000000F4
FFFFFEE0
FFFFFED4
FFFFFE0C
FFFFFE2B
FFFFFA65
FFFFFF74
FFFFFCB0
FFFFFAE2
FFFFF654
FFFFF5AE
FFFFFD76
FFFFFD8A
FFFFF8DA
00000711
FFFFFB73
00000003
000002BB
00000397
00000493
000009EF
000004BF
FFFFF34D
FFFFF8BA
FFFFF74B
FFFFFC33
00000211
00000084
FFFFFF65
000000DA
00000218
0000093E
0000025C
FFFFFBD5
FFFFFE5F
FFFFFBA8
FFFFFAA4
FFFFEE2E
FFFFEE40
FFFFFA96
FFFFF4E1
FFFFFB91
FFFFFE7C
FFFFF808
000000D5
FFFFF9C0
FFFFFC3F
FFFFFE7A
FFFFFE51
0000008A
FFFFFB26
00000247
00000B08
FFFFFAEF
0000089C
FFFFFF96
FFFFFF21
00000003
FFFFFF9B
00000D3B
00000B6F
0000089C
FFFFFF28
FFFFF985
FFFFF35A
FFFFF958
FFFFFDD3
0000031C
00000637
00000850
000004C3
00000669
00000539
000002F5
000002EE
00000270
FFFFFF49
0000015D
FFFFFDEC
000005E0
00000767
000006A6
0000094E
000003EF
FFFFF5CB
000001FA
00000114
00000C71
00000133
FFFFF799
00000478
00000112
FFFFFDF0
FFFFF67A
FFFFFD77
FFFFFEA6
000003EE
00000730
0000026E
000001A5
00000272
FFFFFBBA
FFFFFBA7
FFFFFB03
FFFFFEB2
0000020C
0000064C
00000A31
0000078F
00000ACB
00000BE6
FFFFF9AF
FFFFF7CA
00000142
00000079
FFFFFCDB
FFFFF5C8
FFFFF6DE
FFFFF8FC
00000305
00000041
0000005F
FFFFFDD4
FFFFFDF1
00000354
000006C1
0000037F
000003CA
FFFFFF45
FFFFFC29
000001B5
000001E9
FFFFFE84
00000203
FFFFFD24
000001B7
0000082B
FFFFFF31
00000897
00000274
00000147
FFFFFE04
FFFFFB59
FFFFFA8E
FFFFFBAA
FFFFFF42
FFFFF96D
0000004C
FFFFFE76
FFFFFB60
FFFFFE67
00000289
FFFFFC96
0000012A
00000140
000001D6
000002BD
FFFFFF6B
FFFFFEC6
FFFFFF7F
0000026F
00000058
0000002E
00000307
000009AF
FFFFFE4D
FFFFFCC9
FFFFFE33
FFFFFD25
FFFFF276
FFFFF90E
FFFFFE48
000009B6
0000050D
00000287
00000B1E
00000173
0000021D
00000279
FFFFFF89
FFFFFD7A
FFFFFAFA
000001C0
000004DB
00000366
00000058
FFFFFF64
00000412
00000740
FFFFFDCC
FFFFFE3A
00000652
00000594
000000B4
0000084F
00000925
000002F4
FFFFFD9D
FFFFFC26
000000A7
00000AA8
00000540
0000027D
00000952
FFFFFFFB
00000163
00000338
00000009
FFFFFD8C
FFFFFCA8
00000501
00000726
00000978
000002F1
000000E7
FFFFFE65
FFFFFD8F
FFFFFC4D
00000435
000006D5
00000470
FFFFFD32
0000094B
00000A68
FFFFF616
FFFFFD16
FFFFFF44
FFFFF0A1
FFFFFCD7
00000749
FFFFFDAC
FFFFFE40
000005D8
0000043D
0000032B
FFFFFFF9
00000003
FFFFFEFA
00000564
0000051A
000000E3
00000016
00000079
00000133
0000009E
FFFFFD30
FFFFFCDC
0000029B
0000007A
FFFFF8D2
FFFFF92A
FFFFFBC6
FFFFF91E
000000BC
FFFFF011
FFFFFBE1
0000017E
000009CF
00000201
FFFFFFC0
00000434
00000081
FFFFFF3B
FFFFFBEB
FFFFFEF8
0000044C
000005F5
000005A3
0000020A
0000003E
0000010E
000002BA
000002F5
0000024B
FFFFFC3F
FFFFFD50
FFFFFF7D
00000372
FFFFFD26
00000D69
FFFFFBCE
000001CA
FFFFFCD8
FFFFFEB4
000006D7
0000098F
00000225
FFFFFD56
FFFFFF73
FFFFFC59
FFFFF6AD
FFFFF754
FFFFFCC0
00000520
000001FC
FFFFFF7C
FFFFFD42
FFFFFF3F
00000143
00000546
00000718
000001C5
00000490
FFFFFB16
00000753
00000403
0000018D
00000238
FFFFF4B9
000005C9
FFFFFFB7
FFFFF7C5
000005DE
FFFFFC92
FFFFFE10
FFFFFBF5
FFFFFB98
FFFFFD27
FFFFFDF2
FFFFF7F9
000002E7
0000034C
00000109
0000018C
0000004C
00000484
00000739
00000A24
00000441
000005FA
FFFFFF16
FFFFFCC0
FFFFFDD1
FFFFF9E5
000000ED
FFFFFF35
000001A6
FFFFFCA0
00000318
FFFFFBF4
0000027D
FFFFF31E
FFFFF880
FFFFFB2F
FFFFFBC0
FFFFFCA2
FFFFFF2C
FFFFFD7B
FFFFFEDC
FFFFFFBC
FFFFFEE1
00000661
FFFFFF20
0000075C
000009EB
00000540
000002CB
FFFFF8E4
FFFFFE7B
0000002D
FFFFFDD9
FFFFF891
00000C9C
FFFFFE79
FFFFFE27
FFFFFF0D
000004B6
000003F8
0000018D
FFFFFAC8
FFFFF245
FFFFFA04
FFFFFD6D
0000026C
000002FF
00000064
0000027E
000000B6
00000482
000009E2
000001A4
000007FE
00000750
00000069
FFFFF77D
FFFFF417
FFFFFC0A
FFFFFFC0
FFFFFF5E
FFFFF915
00000797
FFFFFC50
FFFFFA1B
000002F8
000002FE
000008C2
0000031A
FFFFFE65
FFFFF13A
FFFFFA1B
FFFFFBE6
FFFFFDFB
000001BA
0000033B
FFFFFFD3
000000C9
0000045B
0000037D
FFFFFF12
00000492
000001C9
FFFFFB52
FFFFF162
FFFFF50D
FFFFFE5F
FFFFFB0D
FFFFFEDE
FFFFFD7A
FFFFFE6F
FFFFF985
FFFFF83C
000000A0
000005ED
0000026B
FFFFFFA7
FFFFFC4B
FFFFF63D
FFFFFD32
FFFFFECA
FFFFFDD4
FFFFFFF8
FFFFFD37
000000EE
000000A3
000000B3
000000E7
0000004A
00000123
FFFFFD8D
FFFFF673
FFFFF607
FFFFF88F
FFFFFB28
FFFFFE8A
00000390
00000528
FFFFF68F
00000139
FFFFF471
FFFFFD9C
00000855
000003D6
FFFFF8E6
FFFFFB04
00000186
0000002A
FFFFF91A
FFFFF86D
FFFFF7F3
FFFFF78D
FFFFF558
FFFFF4BB
FFFFFC92
FFFFFF19
FFFFFAD8
FFFFFAD1
FFFFFAB4
FFFFF7B8
FFFFF73D
FFFFFED9
FFFFF777
00000070
0000009D
00000626
000002A1
00000860
00000314
000003C7
FFFFF18A
FFFFF5F7
FFFFF8A3
FFFFF7F9
FFFFFE63
00000072
FFFFFEF2
000002CA
FFFFFFD6
FFFFF48E
FFFFEF1A
FFFFF649
FFFFFCD5
FFFFFC70
FFFFFD1D
00000170
00000075
FFFFFF5D
0000033A
FFFFFD9F
FFFFF968
FFFFFF9F
FFFFFE3A
000001D8
0000076E
FFFFFBF9
FFFFFF7A
FFFFFEDA
FFFFFD0B
FFFFF563
FFFFF624
00000160
00000058
00000469
FFFFFF41
00000045
FFFFFE1C
FFFFF9C6
FFFFF862
00000158
FFFFFD43
FFFFFE3B
00000558
000007A2
0000040E
000001DE
00000028
0000010A
FFFFFD5F
00000158
FFFFFCFB
FFFFFC6D
00000169
000002C4
00000829
00000500
000008B0
FFFFF97C
FFFFF98B
FFFFFDE9
00000241
000005A0
0000017F
000000ED
000005AD
0000018F
00000240
FFFFFFED
FFFFFFCD
0000025A
0000023B
0000030A
FFFFFECC
0000041E
FFFFFB09
000001C3
00000005
FFFFF936
FFFFF44F
FFFFF64A
FFFFF84E
FFFFF22B
00000107
000000F4
0000062D
FFFFF5F8
FFFFF817
FFFFFFA3
000003E9
000004FC
000002ED
00000337
FFFFFEDD
0000012A
000002BE
FFFFFC96
00000160
00000328
00000352
00000393
FFFFFEE2
0000009D
FFFFFE6A
000005BB
0000036C
FFFFFE99
FFFFF7FB
FFFFF4BB
FFFFF811
FFFFF739
00000050
FFFFFFDF
FFFFFFC7
0000025E
FFFFEF31
FFFFF873
FFFFFD66
FFFFFC74
00000149
FFFFFDE1
000000F9
FFFFFFC1
FFFFFF85
0000003C
FFFFFE36
FFFFFEEF
FFFFFF92
00000645
0000022F
0000016C
000002CE
00000851
00000502
00000378
FFFFFDD1
FFFFF7D3
000000AD
000003A6
FFFFFFDB
FFFFFFC2
FFFFFEF3
00000507
FFFFF8BF
FFFFFDFF
FFFFF875
FFFFFC49
FFFFFEA4
000000D9
00000399
00000468
000000C0
FFFFFEF7
FFFFF8C6
FFFFF98D
FFFFF936
FFFFF96C
FFFFF375
FFFFF779
000002B8
000005DC
FFFFFF9D
FFFFF84E
0000003D
FFFFF379
FFFFF98C
FFFFFD27
00000163
00000066
FFFFFFC5
0000075E
00000349
FFFFF07D
FFFFF0C7
FFFFF4DE
FFFFFC0F
00000ADA
000008FA
FFFFF9BA
FFFFF652
FFFFFCF0
00000374
00000991
0000005A
000004A2
FFFFFFD9
FFFFFDBB
FFFFFD8B
FFFFFF60
FFFFFD9B
FFFFF5FF
FFFFF5DA
FFFFF71E
FFFFFC69
FFFFFB5F
000000CB
FFFFFDB8
0000005A
FFFFFEB0
0000047C
FFFFF607
FFFFF3CD
FFFFF663
00000637
0000087B
00000AB4
00000343
FFFFFC90
FFFFFAEF
FFFFFF20
00000A0F
000002C2
000004A5
00000C99
000006CB
FFFFF8B4
FFFFFC24
0000057A
00000455
000008A3
00000176
0000036C
000001B0
00000014
FFFFFE80
00000239
FFFFFF41
FFFFFF46
000004DB
000006C6
00000B3A
00000733
000007C2
0000049F
FFFFFE1D
000008C1
000007CB
FFFFFC46
000004B8
00000C0C
000001ED
FFFFFAC7
FFFFFF4A
00000217
FFFFFED4
FFFFFD82
0000004E
000002DC
00000159
00000044
FFFFFFCD
FFFFFE54
