FF99
0010
0023
007C
005B
FF99
003C
0075
FF8B
FFEE
FF7A
FFF1
01CE
013D
002E
FF55
001E
0057
0017
0078
FFFF
007C
0055
006D
FFD9
008B
FFC9
001F
0050
FFB1
FFA1
FFD6
010A
0174
0394
03B7
0265
01E0
0477
0551
04B5
0389
FED4
0230
FFDB
0415
0518
032B
04BA
029E
0339
0389
FFF4
FFF4
0037
FF9C
FF85
FFE7
00A9
00DD
01E3
033F
02A4
0550
0387
018F
039F
05CF
03EB
0448
03AA
0457
048A
05E1
0655
0770
0464
0275
03F3
035B
FEB7
FEAF
005F
FF7F
FFAA
FFC1
FE13
0259
02C1
FD48
FF90
017E
04BE
04AB
01AB
0303
02A1
04F5
0414
0594
0459
0435
06D5
0866
042E
0557
014D
FF9F
FEFA
FD5A
001B
FFF8
0057
FF7B
FCFB
FF12
FEEA
FBC0
FC54
FE9C
FF1E
0041
00F1
00B1
0044
013D
030F
036B
03B7
03EA
031A
02E4
022D
0226
FE68
FCBC
FA3C
FCBF
000D
01E6
000B
FFB5
FE12
FF67
FCBC
FB6A
FA8A
FCFB
FE32
FE6A
0144
0212
02C2
0340
026B
0233
0116
028A
01D2
01BA
FFF0
0255
00B5
FF8A
FE57
FE48
00E8
FF66
FFCA
FDD5
FF83
FA83
FE4A
F9DF
F92B
FD7A
FEA3
FE87
00ED
0494
0382
0393
038E
030B
01BE
010B
0108
0206
00DF
FEDB
0129
00F9
02A3
0360
FBD9
FE6F
FFF8
FCFA
FCBB
FA83
FB2E
FCA2
FB6D
FD51
FF0F
FF3E
025D
02E9
0245
0241
03FE
0450
01FC
FE17
FF40
FF67
FF97
FFE8
0095
FD5A
FC38
FD2D
FA68
FF9E
013E
FD71
FB06
FCEB
FBC5
FDB5
FF0D
FEEE
013E
024E
021A
0234
01DD
01CB
00B9
FF96
FDEB
FC64
FB44
FE8F
FE0F
FF52
FDAE
FC34
FA10
FAB2
FADC
01E9
FF54
FEE1
0106
FD7D
FAB2
FD9C
00EC
0092
02FC
0353
03AF
02D6
0134
FF25
FCF2
FA92
FAD1
FB3D
FBA4
FED6
FED0
0030
FDCA
FD2C
FDD6
FCF0
FC14
FB0A
FF85
FF2B
FF2C
FC0E
FC53
FF63
01C6
01A6
03A2
03F7
02F6
00EC
FEB8
FCA8
FC50
FBCF
FBF4
FC44
FFA3
0153
0304
0054
FDFF
FEEF
FFE8
FEEE
FD34
FB12
FFB3
FE3E
FC31
FAF3
FC03
FFE0
0270
0211
0375
0303
0015
FD6B
FE23
FF68
FF20
FEE5
FEA8
FEDA
00E1
0403
03E2
02FF
FFDB
0127
0568
01AD
FE7C
FEAA
FF33
FCC5
FB6E
FEDD
FDAF
FE59
01E0
01D2
0310
01BC
FFF4
FF17
FDF7
FDE8
FDD8
FD9C
FE36
0203
0159
02A3
01D6
01A3
FEA7
01F9
02D8
FF81
FD71
FD62
02BF
FE94
FE48
FFC6
FF58
FDFF
FF9C
01BF
011C
FFDE
FF98
FDC4
FD63
FD9A
FE3C
FFFC
00A2
0163
0097
0163
FFB4
FF8F
FEA4
FF0C
00DD
FF5C
FDF7
FF63
0177
FEA8
FC03
005B
FFC4
FE5A
01C9
010C
002B
FF0F
FF08
FEB7
FCAF
FE62
FEC9
01CF
014D
FF7C
FFEB
FE39
FFC4
FF2C
FF46
FD51
FF5A
011E
FD22
FF22
016B
FFEA
FA4E
FC2C
FCD6
FF45
0153
01CE
0099
FE8C
FF15
FF25
FF56
00C4
0122
00F2
016F
FE8A
FF41
FF0E
FF6C
002C
FCB4
FCE6
FE57
01FA
FACA
FDE1
FE26
FFD4
FA4F
FC23
FC0C
FE4F
FE02
FECF
FF59
FD6B
FE9A
0127
0031
FFB9
00D0
FFB6
0094
FF52
FE30
FECB
FEA8
FE13
FD8A
FD77
FDFD
01CB
FB8C
FD2E
FFBC
FE34
FB5A
0080
FCB8
FD36
FEEA
FC52
FD62
FDFB
012D
026B
0181
0045
0024
001A
FF66
FED2
FE24
FE54
FF35
FF8D
FEAC
FF2F
FE77
FE86
FBAC
FCDF
006E
FF83
FB4D
FF42
FF4F
FE3A
0045
FDA7
FCA5
FF6C
00E3
0020
FEDC
FE52
FF27
FEC3
FDD5
FDD9
FD6D
FE54
FF07
FE8C
FEDF
FFE8
FEFE
020A
FB7F
FB99
00B4
FB90
0199
FF77
FE58
FD5E
FE55
FDDE
FDF0
FE6F
005C
FF09
FF73
FE49
FF39
FF35
FFED
FF88
FFFE
FF67
FFC5
FFE3
02B1
01B6
00D0
0254
FEAF
FD60
FFF7
FE92
01CE
016F
0261
002B
FDCC
FD1D
FDDA
0128
0049
FF3F
00C7
022E
024A
0163
0079
017E
0191
0244
014D
0095
0463
0277
01EF
0658
01BD
00D1
0111
FFCB
FC61
01C5
04E9
03B0
01FB
0149
0168
01E0
01D4
01B8
02C2
03F5
0353
0282
019B
0203
0278
00AE
02BF
01CC
029D
0461
0167
01FD
0394
FE1A
007D
FEE7
FC51
03D0
0530
02BE
008B
006B
00D1
0108
0152
01D3
0265
02D1
02C6
01B0
016C
0274
030A
0055
02DA
0246
03A0
0508
FCFC
0006
02CC
FDCB
FFC6
003E
00FF
02D4
0284
0365
00BF
FF76
01CB
FE89
008F
FF90
0219
0232
01C5
009D
01F6
0163
0135
01FE
04C2
03AE
066A
0613
FFDF
FF78
009C
FF82
FFC3
000A
FDC5
FD84
FA5B
008A
0205
009F
0058
01DF
028D
010A
0235
00F1
00BE
0232
02F7
01E3
0456
03CC
058C
FF8C
02D7
065C
0143
FD40
0012
FFD2
FF6F
0063
0344
015B
FBBD
FFDF
0329
0263
FFF2
009B
02AE
00D9
FF57
00E1
0206
0124
0063
0166
00DD
02D5
03C3
013D
0291
06DA
0622
01D9
FFD3
0058
FFA0
000D
0017
02B2
03C9
04A8
03DC
02C7
0524
0388
0558
0486
0483
03C9
03F0
00B3
0012
037B
00FA
FFFB
04D4
0023
008F
03EE
FF73
FFDC
0080
FFFE
0065
FF70
FFB9
0003
FE56
FF2A
FE47
FE06
FDB5
FD04
FAA5
006A
015A
FBA7
FF91
01FF
0395
FF9F
001D
0223
015D
FC79
FB2F
FD9E
FFB0
FFDF
002B
FFA0
