000001B2
FFFFFF0C
00000154
000001A2
FFFFFE48
00000194
00000027
00000101
00000018
FFFFFF0E
00000208
FFFFFEE4
FFFFFDD2
FFFFF996
FFFFF601
FFFFFAA4
000001BE
FFFFFEE2
00000191
FFFFFE53
000000F0
FFFFFE14
FFFFFFCB
FFFFFF25
0000003D
FFFFFE9F
00000055
FFFFFF4D
0000001B
FFFFFFEF
00000020
000000F3
FFFFFEA6
FFFFFF02
FFFFFD81
FFFFFF1C
FFFFFB93
000001D0
000001E8
FFFFFB9F
FFFFFE12
0000016A
00000661
FFFFF742
FFFFFB39
FFFFFDD9
FFFFFE96
FFFFF626
FFFFFA77
00000383
FFFFFFE3
00000106
FFFFFEFE
FFFFFE7A
0000009D
FFFFFFA9
00000035
000001A3
000000AF
FFFFF46D
FFFFF7D0
FFFFFED5
FFFFFAEF
FFFFF811
FFFFF65A
FFFFFA77
000000FD
0000015C
0000032C
FFFFFA54
FFFFFD61
FFFFFB4C
FFFFEFDE
FFFFF076
FFFFEEB2
FFFFF880
FFFFF97C
FFFFFA2E
FFFFFFBA
00000234
FFFFFDE2
FFFFFB1F
000001BE
000001A5
FFFFFEFE
FFFFFFD9
FFFFFF4D
FFFFF5BC
FFFFFF16
0000012D
FFFFFF9C
FFFFFD3C
FFFFF9A0
FFFFF5EE
FFFFF433
0000006A
00000727
000002F7
00000544
000008A2
FFFFF087
FFFFED7B
FFFFF850
FFFFFEDC
FFFFF894
FFFFFC94
FFFFFE6B
FFFFF1AE
FFFFF3FA
00000454
FFFFFE16
FFFFFF53
000000C6
FFFFFF16
FFFFFDBA
FFFFFE48
00000332
FFFFF46B
FFFFF2CD
FFFFF242
FFFFECD7
FFFFF12B
FFFFF2B9
FFFFFF4E
00000428
0000048C
00000632
FFFFFCBE
FFFFF9AA
FFFFF7A3
FFFFFAB4
FFFFFBCA
FFFFFD86
00000444
00000472
0000054E
0000017B
00000963
000007E8
00000A97
FFFFFDFE
00000103
FFFFFD4F
FFFFFCD7
FFFFFD4B
FFFFF61A
FFFFEEAC
FFFFE8F8
FFFFF309
FFFFF2E0
FFFFFE46
000008EC
FFFFFE68
0000046D
00000358
FFFFF809
FFFFF672
FFFFF946
FFFFF8FD
FFFFFADC
000004CA
00000630
000003CC
FFFFF83C
FFFFFB8A
FFFFFF88
000003C5
0000088B
00000077
FFFFFBC8
0000095A
FFFFFC82
FFFFFA2C
FFFFFD5C
FFFFEBEF
FFFFE6C9
FFFFEF66
FFFFF41A
000000AC
0000058F
000007DE
000002DA
FFFFFDA1
FFFFF4E6
FFFFF542
FFFFF604
FFFFFB40
00000487
00000377
000005E5
00000835
000000F1
00000494
000008C9
000002F4
00000090
FFFFFF70
FFFFF0A7
00000938
FFFFF8EA
FFFFF1B0
FFFFF8CF
FFFFEEEA
FFFFECCF
FFFFF535
00000051
00000882
00000C21
00000CE1
00000777
00000268
FFFFF668
FFFFF912
FFFFFFD5
00000539
00000818
00000724
0000050F
000002F2
00000324
000003F4
000009D4
00000D6E
0000081D
00000889
00000762
00000489
FFFFF873
FFFFED07
FFFFEFC5
FFFFF952
FFFFF6B2
FFFFF4E0
FFFFFEC9
000004B9
00000EA1
00000C7C
00000423
FFFFFFA7
FFFFFEEE
FFFFFFD4
0000050D
00000987
00000739
000005A8
00000296
FFFFFF0D
000007C1
00000E30
000010BA
0000069B
FFFFFF6E
00000060
FFFFFDCE
FFFFFD38
FFFFF218
FFFFEE76
FFFFF136
FFFFF9B0
FFFFF748
FFFFF3D4
FFFFF916
00000029
000008DB
00000681
00000469
0000010E
FFFFFA8D
FFFFFC25
0000076F
0000111C
00000BB0
00000448
000003A8
FFFFFF06
000000D2
0000120D
000011D8
FFFFFE92
000009CB
FFFFFFC7
000000C1
FFFFFDC0
FFFFF466
FFFFF40A
FFFFFF7E
FFFFF74F
FFFFF69E
FFFFF9D7
FFFFFF5E
00000846
00000A22
00000C8A
00000384
FFFFF7D8
FFFFF476
FFFFF85D
00000485
00000928
00000777
FFFFFFEF
000005BA
FFFFFB45
FFFFF74B
0000058D
00000CF7
00000B1D
000005C8
FFFFFCAE
00000483
FFFFF0CE
FFFFF177
FFFFF8D3
000003DF
00000195
FFFFFAF6
FFFFFB27
FFFFF814
00000684
000009E9
00000A16
FFFFFABF
FFFFEE2F
FFFFE97A
FFFFF176
FFFFFA01
FFFFFC11
FFFFFC5B
FFFFF175
FFFFF4C6
FFFFED9C
FFFFEB4D
FFFFF477
FFFFFE3C
000004C5
00000034
FFFFFE3D
FFFFFFA9
FFFFEF91
FFFFFE49
FFFFF872
00000972
000000F3
FFFFFF74
0000022E
FFFFFE4B
000002F7
000009F8
00000B00
FFFFFFAB
FFFFEE02
FFFFE9EF
FFFFEB82
FFFFF71D
FFFFF833
FFFFF467
FFFFF611
FFFFEB37
FFFFEAEF
FFFFEBC1
FFFFF3A0
FFFFEB36
00000095
FFFFFF67
00000010
FFFFFFA0
000001F6
FFFFFBF7
000003AB
000007BA
000000A2
00000267
FFFFFF24
00000281
00000174
000001A6
00000536
FFFFF632
FFFFF24F
FFFFEE18
FFFFF5D2
0000016C
FFFFFA01
FFFFF99C
FFFFF831
FFFFEB09
FFFFF369
FFFFFD9D
FFFFFF08
FFFFF535
FFFFFE63
00000098
000001F0
FFFFFDBA
000002FE
FFFFF8D1
00000266
00000BAF
FFFFFF7D
0000036D
FFFFFDA8
000003B4
000005DC
00000185
FFFFFDA9
FFFFF5C5
FFFFF0EB
FFFFF4FC
FFFFFFDE
000003C1
FFFFFC72
FFFFFB0B
FFFFF890
FFFFF16F
FFFFF6D8
00000447
00000908
FFFFFC9A
FFFFFC8C
FFFFFDA6
0000037A
FFFFFC79
00000680
00000180
00000519
FFFFFDEC
FFFFF9FD
000001B5
FFFFFCD7
00000630
0000051F
000002F4
000003CD
FFFFFD1C
FFFFF2AC
FFFFF92E
0000030B
00000400
FFFFFDC6
FFFFF6A5
FFFFF412
000000D8
FFFFFA2C
0000092D
FFFFFE64
FFFFFA7E
FFFFF7A8
FFFFFCAF
00000132
FFFFFB57
FFFFF7A8
FFFFFF6C
0000021A
FFFFFB77
FFFFFCF4
00000005
0000047D
FFFFFC60
FFFFFE71
00000244
FFFFFA32
FFFFF68C
FFFFF810
FFFFFD3D
000002B0
00000821
0000041E
FFFFFFB0
FFFFFAD7
00000688
FFFFFED8
00000733
0000004C
FFFFFFA1
FFFFF181
FFFFFE28
FFFFFE16
FFFFFE42
FFFFFC5D
FFFFF82B
FFFFFD96
000003F6
00000D18
00000706
0000058D
0000006B
00000094
FFFFFC8C
FFFFFC55
FFFFFD26
FFFFFC16
0000046A
000004E7
00000829
0000088F
000006AA
00000163
00000D66
00000BDB
00000867
FFFFFE33
FFFFFD01
FFFFFC83
00000333
FFFFFE32
FFFFF765
FFFFFCDB
FFFFFAED
00000425
0000049B
00000930
0000086B
0000042E
FFFFFC66
FFFFF614
FFFFFE0F
000002F5
000002B9
00000516
00000081
00000AA4
00000239
00000274
0000081C
00000A7D
00000875
00000202
00000199
FFFFFE97
FFFFFEC1
FFFFFE1E
0000010A
FFFFFEB1
00000642
00000007
FFFFFE87
0000071A
00000683
00000A27
0000036F
FFFFFEF6
FFFFF732
FFFFFCD6
FFFFFF95
FFFFFE81
0000012B
000004DF
FFFFFFCE
FFFFFEA7
FFFFFDAF
FFFFFFDD
00000251
000002F9
000003EC
0000013B
FFFFFE55
00000151
00000332
0000054C
000007B2
00000069
00000272
00000290
FFFFF9BB
00000405
000009B0
00000691
000003A5
0000062E
0000000A
FFFFFF45
FFFFFF73
000003A6
FFFFFF64
FFFFFA0B
FFFFF8A3
FFFFFC35
FFFFFC18
00000111
000005E8
000003F5
FFFFFEBE
FFFFFC3A
FFFFF876
FFFFF8B9
FFFFFCF3
000003E2
00000197
000001C1
FFFFF8C1
0000084C
FFFFFB13
000004A5
000004E5
FFFFFD36
FFFFF91E
00000737
0000078F
00000410
000001B2
FFFFFBF9
FFFFFF12
FFFFFBA8
FFFFFF0B
FFFFFA15
FFFFFDF1
000001AC
000001A9
0000045D
FFFFFFDC
FFFFFFF7
FFFFFC89
FFFFFAFD
000003E1
0000117B
000000E8
FFFFFFFC
FFFFFA26
FFFFFC63
000002D3
FFFFFE09
FFFFFE7F
00000101
0000018E
0000028E
0000030B
00000443
0000069D
000001CB
FFFFFAFE
FFFFFB9B
FFFFFE78
0000016B
FFFFFE7F
FFFFFC9E
FFFFFCCB
FFFFF81F
00000050
FFFFFDF0
FFFFFC09
FFFFFCCF
00000107
00000C18
0000011E
FFFFFFC8
FFFFFFF7
FFFFF02A
000007F6
00000B94
00000808
00000E74
00000541
000005CB
000005D1
00000565
0000082A
00000441
FFFFFB32
000001BC
FFFFFC70
FFFFFD11
FFFFFEDA
FFFFF79D
FFFFFAFB
FFFFFB0B
FFFFFEC0
FFFFF71E
FFFFF794
FFFFFF68
0000036C
00000899
FFFFFF5A
00000142
FFFFFE50
FFFFF598
FFFFFA7B
FFFFFC80
FFFFF8B8
FFFFFC6B
000005BA
0000058C
000001FB
00000400
0000029B
00000109
00000320
FFFFFB5E
FFFFFE26
000001C2
FFFFFD35
FFFFFDF9
FFFFF939
FFFFFAF2
FFFFFC89
FFFFF4C6
FFFFF967
000008B5
0000050C
0000071D
00000237
000001A8
00000063
FFFFF8B7
FFFFFFF5
00000C3E
FFFFEFA7
FFFFF89E
FFFFFCCC
FFFFF9ED
FFFFF9A7
FFFFFC3D
0000078C
00000835
FFFFFFDF
FFFFF734
0000010F
FFFFFD03
FFFFFA88
FFFFFCF5
FFFFF9A5
FFFFF1D7
0000009D
000000F6
000000AC
000008DE
00000586
000005A6
FFFFFFA6
FFFFFDCD
FFFFFE6F
FFFFFF2D
FFFFFF69
00000A7F
FFFFF922
FFFFF559
FFFFF7C9
FFFFEB68
FFFFF1F4
FFFFF1D2
FFFFF97D
00000652
FFFFFE8A
FFFFEED3
000001E8
FFFFFF36
FFFFEEB8
FFFFF7EC
00000541
FFFFFC9C
FFFFFFD4
0000087A
FFFFFF03
FFFFFE1A
000002AA
FFFFFDDA
FFFFFDD5
0000023F
000001B1
FFFFFF10
FFFFFEA7
000001D5
0000058C
FFFFF766
FFFFF487
FFFFF56B
FFFFF51C
FFFFEEA4
FFFFF410
FFFFF9A4
FFFFFEAF
FFFFF313
FFFFF0F8
FFFFF456
0000074D
FFFFFFCB
FFFFFB8F
FFFFFEF7
00000308
00000650
000001C2
000000CF
FFFFFE65
0000002A
FFFFFFD1
