FFFFFFCE
0000004B
000002CF
00000919
00000876
000004E1
FFFFF65C
FFFFFCC4
000007A0
00000E32
000006C3
FFFFF017
000001B5
000007A1
FFFFF071
FFFFF953
FFFFFD0B
000003FD
FFFFFE7C
FFFFEB0E
FFFFFE4B
FFFFFF55
00000351
0000082C
000009B4
000003BE
FFFFFE5E
FFFFFB62
000005A2
0000078B
FFFFFBA8
000001BA
00001552
FFFFF5DC
000004C6
00001371
00000107
00000075
00000C15
FFFFF681
00000117
FFFFFC1B
FFFFFF01
00000475
FFFFF4C3
FFFFFC24
FFFFF666
00001A2C
FFFFDE7D
FFFFF97F
00001566
00000077
00000490
0000090C
0000058C
0000004C
00000378
FFFFFC9D
FFFFF8E8
000017D3
FFFFE3AA
FFFFF747
FFFFEF4F
FFFFFA21
00000112
0000042E
00000D6A
0000004B
00000622
FFFFFDCF
FFFFF572
00000140
FFFFFEC0
0000074C
FFFFEFC0
00000647
FFFFFCB0
FFFFF597
FFFFF59F
0000057C
FFFFF075
000006CD
FFFFFA05
00000823
FFFFF70D
00000900
000007BE
000005A9
FFFFF798
000004B5
000005AA
FFFFEBE6
FFFFFFF0
00000354
FFFFF7BC
FFFFFEB0
00001254
0000000F
00001494
0000048E
FFFFED59
00000A83
000000CC
00000103
00000A5C
00000173
00000579
000009E9
0000036B
FFFFFB93
000003A1
00000388
00000FAB
00000E99
00000279
FFFFFB8C
FFFFF88E
000001B0
FFFFFC9F
00000AA0
FFFFFFFC
00000006
00001F20
FFFFFDE9
000002B3
FFFFF96E
FFFFFD27
FFFFFAA3
