FFFFFAC2
FFFFF65D
00000471
000004F3
FFFFFF15
00000825
FFFFF1EF
FFFFF4B9
FFFFFEC9
FFFFFE59
FFFFED3B
00000362
FFFFFECB
FFFFF4F6
00000BE8
00000737
000003EF
0000017A
0000037D
FFFFF4E0
FFFFFB97
00000050
00001101
000001D8
FFFFEF5E
00000D22
00000705
FFFFF851
00000688
000007A1
0000095E
000006E0
00000838
FFFFFB43
FFFFFB70
0000020C
000002A8
FFFFFD11
000002DD
FFFFFD96
FFFFFDC7
FFFFFDDC
FFFFE325
0000019B
FFFFFCE0
000008BD
FFFFF069
000003B8
FFFFF892
FFFFE7FC
FFFFFA8F
FFFFFB75
00000478
0000036B
0000059C
00000C10
00000625
00000BEF
0000055C
00000BAF
00000BF4
FFFFFF10
FFFFFFAC
000005AF
