0000078E
000002F6
FFFFFFAA
0000069E
FFFFF48E
00000D38
FFFFFEF4
FFFFF0CE
00000674
00000677
FFFFF567
FFFFF6C5
00000931
FFFFF374
000005CE
FFFFFD8E
000004A3
000004DF
00000656
FFFFFFA5
00000208
00000188
00000D21
000009DF
FFFFE4C5
000007EE
00000955
00000EB4
FFFFF884
000012EE
00000A7C
00000818
00000A92
FFFFF644
FFFFFF80
00000353
00001002
FFFFF7A7
0000075B
FFFFFC61
00000020
FFFFFA73
FFFFFADD
FFFFFE13
FFFFFEF0
000004B5
00000683
00000514
FFFFF628
FFFFE4CD
FFFFFA68
FFFFF7F2
FFFFFF63
FFFFFD5B
FFFFFECC
00000615
0000087D
FFFFFB03
00000237
FFFFF8C7
FFFFFCF0
FFFFFC48
000007A1
000003A6
