FFFFFF88
00000099
FFFFFEC0
00000227
0000008A
00000134
00000158
FFFFFF78
FFFFFECD
FFFFFDF3
00000046
FFFFFE0B
FFFFFBA5
FFFFFFC7
0000097D
0000016C
FFFFFF48
FFFFFFA7
000000B2
FFFFFF36
FFFFFEA7
FFFFFDC1
0000022F
FFFFFE08
FFFFFE08
FFFFFE02
FFFFFEEE
FFFFFEF7
FFFFFE78
000001B2
0000015D
0000002A
FFFFFF13
FFFFFFEE
FFFFFBE8
FFFFFCD0
FFFFFEDD
000000B9
FFFFF93F
00000347
00000939
00000AE3
FFFFFCD8
FFFFFBB6
0000095E
00000BF2
00000305
FFFFFE75
FFFFFF87
FFFFFB55
FFFFFC79
FFFFFE6C
00000138
FFFFFE35
FFFFFF07
FFFFFFEA
FFFFFDEA
FFFFFFA0
000002EB
00000BC7
00000BB4
FFFFFE0E
FFFFF58F
FFFFFE74
FFFFFEF6
000004DD
FFFFFE90
FFFFFF8F
FFFFFE8C
FFFFF03E
FFFFFA79
FFFFF889
FFFFFF48
FFFFFCEF
FFFFF35B
FFFFF100
FFFFF857
0000017F
FFFFFFDC
FFFFFE07
0000059B
00000534
0000005A
FFFFFEB1
00000182
0000010F
FFFFF33D
000006F2
FFFFF4D2
00000110
FFFFFFDF
000011B4
00001462
000000ED
00000D06
000016F8
0000081D
00000B89
00000FD5
00000B95
000006D9
000000AE
FFFFF892
FFFFFDE3
000009C0
000002C5
FFFFF9B7
FFFFFFD1
000002E8
FFFFFE81
FFFFFD17
FFFFFDDC
FFFFFFC3
FFFFFE22
FFFFF90B
FFFFFE70
FFFFF9BC
FFFFFF26
FFFFFE79
00000743
000008E3
0000051C
000000D8
0000066C
0000034A
0000009E
00000364
000003A7
0000012A
00000020
FFFFFD1D
000000E4
0000014C
000001F8
FFFFFFC5
FFFFFBC2
FFFFF9AD
000002C7
FFFFFD87
0000066B
00000235
0000006B
FFFFF859
0000000D
00000863
FFFFF83C
FFFFFCFA
000006D5
000000DD
0000045C
000000E4
FFFFFDDA
000000E1
FFFFFC84
FFFFFE9C
0000013F
FFFFFFD3
FFFFFBDE
FFFFFEB6
FFFFFEF2
000002F3
0000044B
00000368
000007ED
FFFFFEE2
000003A3
00000397
000005DE
FFFFFE87
00000275
0000052E
00000B78
00000467
FFFFFEBB
000006D6
000004FE
FFFFFEBE
000001CE
FFFFFB2D
00000033
FFFFFBCA
FFFFFCD3
FFFFF994
FFFFFD88
FFFFFCB6
FFFFF541
FFFFF587
FFFFFC7D
FFFFFDE9
00000584
0000089A
0000071F
FFFFFC25
FFFFF629
FFFFFDC3
000000F0
FFFFFEC4
00000B6A
0000052B
000013B5
00000972
0000085E
00000AD5
0000067E
FFFFFDAE
FFFFFAB2
0000015B
000003DF
00000330
00000276
FFFFFDFA
FFFFF938
FFFFF851
FFFFF8F2
FFFFFA19
00000149
00000066
FFFFFD7D
000000FB
00000137
00000D83
00000336
FFFFF3EB
00000116
00001111
00000439
000006A0
00000937
00000D60
000006A9
00000789
FFFFFD8E
FFFFF805
FFFFF8EE
FFFFFECF
00000699
00000677
0000061C
000001DA
00000022
00000313
FFFFFF2B
FFFFFF15
000000D6
FFFFFDE2
FFFFFDFF
0000060F
FFFFFD11
FFFFFD8D
FFFFFF3E
FFFFEE08
FFFFFC72
00000300
00000987
00000800
00000383
000009AC
00000997
00000658
FFFFF74C
FFFFF124
FFFFF58A
FFFFF86A
000000C1
0000055E
0000082D
00000520
FFFFFEF9
00000692
0000004A
FFFFF9B5
FFFFFFDB
0000098E
000003B5
00000304
000007AE
FFFFF501
FFFFF919
FFFFF380
FFFFFAE0
00000299
00000459
00000C1B
0000095B
FFFFFE47
FFFFFD6C
FFFFFA01
FFFFF555
FFFFF240
FFFFF540
FFFFF767
FFFFFDCD
000002B1
0000066B
FFFFFFD6
FFFFF960
00000456
00000609
FFFFFEE4
FFFFFF88
00000272
FFFFFBAA
0000065F
000002B2
FFFFF31B
FFFFF40E
FFFFF06B
FFFFF6A2
000003E5
0000130A
000000B5
00000941
FFFFF952
FFFFEFCE
FFFFF1C8
FFFFF481
FFFFFB6B
FFFFFC68
FFFFFBF6
00000019
00000795
FFFFFD94
FFFFF979
FFFFFB48
00000055
00000337
FFFFFF12
FFFFFD1B
FFFFFAD0
FFFFFB62
FFFFFBF5
FFFFFB8B
FFFFF2E0
FFFFF3FA
FFFFF64C
000000FC
FFFFFEF7
00000486
FFFFFF21
00000061
FFFFF6FC
FFFFF6B4
FFFFF9E1
FFFFFC46
00000069
0000032E
00000110
FFFFFE8B
00000515
0000022F
FFFFFC8E
FFFFFDDA
FFFFFE8E
0000040B
00000263
000000CF
FFFFFE80
FFFFFA3A
FFFFFF42
FFFFFD17
FFFFFFDD
FFFFFBB4
0000006F
00000605
FFFFF903
000002CD
000002C0
0000007D
FFFFFE1D
FFFFF9FA
0000030C
FFFFFE45
00000722
0000069C
000004BD
FFFFFBF3
FFFFFD0B
FFFFFA1E
FFFFFE48
0000003F
FFFFFEC3
000002A8
00000704
00000343
00000015
FFFFFEC9
0000001C
000001B9
000001ED
0000061F
00000421
00000244
FFFFFFB1
00000176
000001E6
FFFFFBFE
FFFFFFDD
0000084F
0000096E
000005DD
00000817
00000015
FFFFFBCE
FFFFF8A0
FFFFFAD1
FFFFFAFD
FFFFFC35
FFFFFC21
FFFFFF23
000002E0
00000461
00000831
00000938
000006D2
000002C8
0000044A
00000B94
00001051
00000472
0000019B
000000C5
000002CF
FFFFFA7E
000003C0
00000801
000013E6
00000DDF
00000E40
00000A16
0000002D
FFFFFE0B
FFFFF472
FFFFF9D4
FFFFFC8E
00000270
00000146
FFFFFBFB
FFFFFD7F
0000000B
00000942
00000D20
0000030E
00000866
00000BFC
00000C51
00000C60
FFFFFE8B
000008EF
00000271
000003EC
FFFFFC18
00000A28
00000D49
00000B68
00000DDB
000010F6
00000C2A
00000109
00000047
FFFFFD67
FFFFFC9A
000001C4
0000087B
00000164
FFFFF396
FFFFF73F
FFFFF927
00000552
00000D3E
0000055E
00000682
00001039
00000D54
00000A72
0000006A
00000BFA
FFFFFE45
FFFFFF69
00000680
000003C3
00000F26
000008A0
000001D6
00000B87
000001C9
0000029E
FFFFFDCB
00000064
00000505
00000A9A
000006E5
FFFFF9E5
FFFFF6CD
FFFFF429
FFFFEF18
FFFFFB62
000000A4
0000098B
00000C72
00000D9E
00000074
000006F2
0000061E
000018FF
000002C6
FFFFFF50
0000066A
000003AF
00000600
00000521
FFFFFE8F
00000018
FFFFFEB4
0000011A
FFFFFD79
000003A1
000009D4
00000A49
0000040A
FFFFFDB1
FFFFFBE6
FFFFF944
FFFFF5A6
FFFFF748
FFFFFE10
00000B16
00000A2D
00000719
FFFFFF40
00000425
000007F9
000004CC
FFFFFB7E
00000192
FFFFFA19
00000320
00000860
00000718
FFFFFE93
FFFFF9A6
FFFFF9AC
000000BD
FFFFFFD3
000000DC
000005C1
0000066F
000009E1
00000105
FFFFF990
FFFFFF5E
FFFFF8C8
FFFFFCE8
000001E1
000009AF
00000CD5
FFFFFBC7
FFFFFC91
FFFFFEDB
000006E1
00000315
00000138
000007F1
FFFFFEEF
000003CB
FFFFFF38
00000193
FFFFFB59
FFFFFE76
FFFFFF8F
FFFFFF60
FFFFFDB5
FFFFFC58
FFFFFE48
000008BB
00000846
00000051
FFFFFBBD
FFFFFC90
FFFFF6FE
FFFFFF8B
00000918
0000076F
00000466
FFFFFE2B
FFFFF75A
FFFFF538
00000131
FFFFF3C1
FFFFFE92
00000433
000005E3
00000958
FFFFFC90
FFFFF2BE
00000029
000005C6
00000905
FFFFFE69
FFFFFC61
FFFFFB4E
FFFFFED7
FFFFFE15
FFFFFDEB
FFFFFD3F
FFFFFED1
00000164
FFFFFF90
00000516
0000016D
FFFFFDF7
000000CA
000001E5
FFFFF457
FFFFF7B6
00001239
000000BE
FFFFFBE5
000000AD
0000098B
000006D7
FFFFF528
FFFFF272
000003CF
000008C2
00000391
00000097
0000020A
000004EF
0000037A
00000047
FFFFF8A0
FFFFFCC6
FFFFF8B4
FFFFFD9F
FFFFFEBB
0000064D
FFFFFDC3
FFFFFC0B
00000223
FFFFFC5E
FFFFEFFA
FFFFF905
000002D4
FFFFFF87
00000063
00000182
000007DB
00000721
FFFFF409
FFFFEF15
FFFFF679
FFFFFE70
00000096
FFFFFDB2
00000082
00000189
FFFFFA47
FFFFFAB2
FFFFF726
FFFFF5D6
FFFFF525
FFFFFA9D
00000266
FFFFFCCC
FFFFF3B2
FFFFF746
FFFFF7D4
FFFFFA25
FFFFEFD8
FFFFFB79
FFFFF3C3
00000092
00000173
000001C2
FFFFFFFD
0000069B
00000374
FFFFFB96
FFFFFF10
FFFFFFD2
FFFFF95D
FFFFF439
FFFFF7B1
FFFFFB5E
00000258
00000778
000000EC
FFFFFAD7
FFFFFEFC
FFFFF9A7
FFFFFD46
FFFFF175
FFFFF41B
FFFFF8EC
FFFFFC2A
FFFFF4A3
FFFFF71A
FFFFFF61
FFFFFEEA
FFFFFE48
FFFFFF02
000000E5
FFFFFC41
FFFFF760
00000FDB
00000C8C
00000B61
FFFFFEB8
FFFFEFCB
FFFFF2B1
00000243
FFFFF907
FFFFFD26
FFFFFCE7
FFFFF30D
FFFFF504
0000003D
000002F2
000005CA
0000024F
FFFFF260
FFFFEF28
FFFFF56B
FFFFFC57
FFFFF510
FFFFFE3A
FFFFFF93
00000210
0000016A
000001D5
FFFFFFC3
FFFFFD23
000007E9
0000078D
0000009D
FFFFFCED
FFFFFA3F
FFFFF537
FFFFFA52
FFFFFBDB
FFFFFEA9
FFFFFC2F
FFFFF3AF
FFFFF7F3
0000014A
00000153
FFFFFC7B
FFFFF87B
FFFFF725
FFFFF843
FFFFF9DC
FFFFFEC4
00000182
000000CB
000001FE
00000146
00000017
FFFFFEF9
FFFFFEEA
0000016D
0000021F
FFFFFE29
FFFFFCD1
FFFFFE8E
FFFFFC14
00000026
FFFFFC3E
FFFFF82B
FFFFFA03
FFFFFFEA
FFFFFB84
000000FB
00000643
00000138
FFFFFC6A
00000145
00000222
0000003F
FFFFF5AC
FFFFFB0F
FFFFFDF8
FFFFFDE3
0000007E
000001CB
