FFFFFE44
000000B1
FFFFFFB5
FFFFFEC9
FFFFFDC5
000001B3
00000120
00000039
FFFFFF24
FFFFFF3E
00000073
000001E2
00000018
FFFFFE28
FFFFFDFC
0000005C
FFFFFFF0
FFFFFE41
00000185
FFFFFE5E
FFFFFE93
FFFFFEE0
00000168
000001BB
00000057
000000FC
000001B5
000001A7
0000022C
000001B4
FFFFFFE0
000000E9
FFFFFE50
00000164
FFFFFDFF
0000009A
00000385
0000001D
FFFFFFDB
00000185
FFFFFC6E
FFFFFE11
FFFFFA2F
FFFFF75D
FFFFFBA6
00000414
FFFFFE1C
0000006D
00000141
FFFFFECB
0000020F
0000017D
00000244
FFFFFFDC
FFFFFEDB
0000015D
00000171
FFFFFE23
FFFFFDC5
FFFFFF94
FFFFFEE6
FFFFFE1D
FFFFFF24
FFFFFE89
00000534
00000553
FFFFFF9C
FFFFF996
FFFFF5BC
FFFFF60D
FFFFFEDB
FFFFFA16
FFFFF41C
FFFFEBE1
FFFFF0D7
FFFFEDFA
FFFFF218
FFFFFDB5
FFFFFEFE
0000085C
00000232
00000006
00000221
FFFFFE9E
FFFFFF90
00000005
FFFFFAC3
FFFFFC2E
0000011A
00000658
0000040D
0000006A
000003F6
000007A6
FFFFFA73
0000024C
0000082D
00000469
FFFFF832
FFFFFBA2
FFFFF9DA
FFFFF3DB
FFFFFB71
FFFFFBFF
FFFFFB39
FFFFFEA2
0000077E
000004CC
000007B9
00000FFC
00000A45
00000207
FFFFFDF0
FFFFFE91
FFFFFD9A
FFFFFA68
FFFFFBEF
FFFFFA79
FFFFFDF6
0000078B
000000DB
000008EB
0000078D
000007EE
00000900
0000070F
00000168
0000040F
00000ED2
00000FD5
000004A8
0000030E
0000077C
0000038A
FFFFFB7A
000004C4
000007E3
00000833
00000CCA
FFFFFA3A
FFFFFEAF
00000011
000001B7
00000BF2
00000DDB
FFFFFBB9
FFFFFCE0
00000523
FFFFFB0B
FFFFFA10
FFFFFE4E
00000502
000005BF
FFFFFE21
0000035A
000001A7
00000A5B
000001F3
FFFFFE71
FFFFFD40
000003FA
00000D90
0000104D
00000A38
00000C41
00001824
FFFFFDFF
FFFFFB87
00000235
000003EB
FFFFF8D7
00001193
00000918
FFFFFCD1
FFFFFF74
00000470
00000083
0000021C
000006AA
00000052
00000233
FFFFFBE7
0000031E
000000AA
0000007A
000003FA
00000260
00000007
000000C8
00000707
0000049F
0000096B
00000991
00001076
00000851
000003DE
FFFFFE7C
000001A5
FFFFFED5
000009F5
0000111A
000007F0
000000EA
0000031B
00000497
FFFFFC39
FFFFFDC0
FFFFFC63
FFFFFCA1
00000376
FFFFFC46
00000084
000005CF
000003DC
00000783
FFFFFFBC
FFFFF957
00000356
000000FE
000003A9
FFFFFE78
FFFFFD5E
00000840
0000057D
FFFFFDB1
FFFFFFAD
FFFFFBBB
00000798
00001433
00000403
000000DF
00000374
FFFFF967
FFFFF903
FFFFFE15
FFFFFC16
0000021B
00000166
FFFFF842
FFFFF884
00000481
00000544
000004D3
FFFFFF6D
000001C6
FFFFFECF
00000342
00000782
FFFFFE02
FFFFF637
000014A8
000009E5
00000235
FFFFFCF2
0000028A
FFFFFE48
0000032B
0000075A
00000265
0000021C
000002B8
00000015
FFFFFF32
000002C1
0000026D
000000E7
000001C4
FFFFFF6B
000006AF
000004BF
000001D7
FFFFFF74
00000092
FFFFFEEF
000004CC
00000FCF
00000792
0000098C
00000B87
FFFFF9CC
000002E6
FFFFFCE3
FFFFFF8E
FFFFFB5F
FFFFFFD9
000004FB
00000131
FFFFFE58
000000EA
FFFFFCF3
00000A0A
00000457
0000055C
00000897
000001EB
FFFFFC5B
FFFFFE36
FFFFFC65
FFFFFD98
FFFFF97E
000000C4
0000024B
00000473
000010EF
00000654
0000035B
0000065A
FFFFF5DA
FFFFFBBD
FFFFFED2
FFFFF77A
FFFFFBF5
000010E9
000007CC
000005AF
FFFFFF9B
00000151
FFFFFE69
000001A8
00000564
000000E2
FFFFFB05
FFFFFAAA
FFFFFB3F
FFFFF62C
FFFFFB7B
FFFFF9FB
FFFFF741
FFFFFFA3
00000194
00000200
00000230
FFFFFB4A
FFFFFB46
0000040D
FFFFFA16
FFFFF8DF
FFFFFE1B
FFFFFB7A
0000003F
00000CF3
000004C2
00000291
000009BC
000002DA
FFFFFF55
00000102
FFFFFA21
FFFFF26C
FFFFEC3C
FFFFF3B6
FFFFF56A
FFFFF7B7
FFFFFE42
FFFFF8C3
FFFFFEE3
FFFFFEF6
00000487
FFFFF94D
FFFFF786
FFFFF96C
FFFFF7FA
00000197
FFFFF9D0
000005BA
00000182
FFFFFB3A
0000028D
FFFFFCDB
FFFFFA89
FFFFFF05
00000044
FFFFFD1D
FFFFFDA4
FFFFF45B
FFFFF3B0
FFFFEA6B
FFFFF287
FFFFFB67
FFFFF8AC
FFFFF45A
FFFFFE22
000000AB
FFFFFE90
000007CB
000002CE
FFFFFEE9
FFFFF686
FFFFFB9B
FFFFF5D9
000008D0
00000441
000000C9
FFFFFF59
000001FC
FFFFFA75
FFFFF247
FFFFE9B8
FFFFFDA5
FFFFF77D
FFFFF460
FFFFF05E
FFFFF184
FFFFF0B6
FFFFEF09
FFFFFBB6
00000294
FFFFFBC3
FFFFF459
FFFFFA20
FFFFFCEE
FFFFFB1D
FFFFFD6D
FFFFF833
FFFFF0FB
FFFFF5B5
FFFFEEB6
FFFFF360
00000B0D
0000015E
000003C4
FFFFFB51
000000DF
FFFFF5FC
FFFFE873
FFFFEF13
FFFFF33E
FFFFF95A
FFFFF855
FFFFF90E
FFFFF3CD
FFFFF75D
FFFFFBD8
000005DD
0000076E
0000001D
FFFFFE12
FFFFF5D7
FFFFF7A0
FFFFF8C9
FFFFF447
FFFFF13B
FFFFEFE6
FFFFF39D
FFFFF72D
FFFFF2D4
00000810
000003E7
FFFFF962
FFFFFE02
00000194
FFFFFD41
FFFFEEBB
FFFFF2BB
FFFFE8D1
FFFFF646
FFFFFBE3
FFFFFE5C
FFFFFB55
00000179
00000826
00000B98
00000A96
0000019B
000000BB
000001B0
FFFFFB2D
FFFFFB68
FFFFF1F0
FFFFFAB2
FFFFF4A4
FFFFFD96
FFFFF5A0
000000CA
00000349
00000885
FFFFFE23
FFFFFCE9
000001F2
00000118
FFFFF972
FFFFF639
FFFFEEFA
FFFFFA3B
000000D6
FFFFFFD9
FFFFFE42
0000011F
00000D59
00000E04
0000022F
FFFFFC53
FFFFFD90
000001C9
FFFFFBEA
FFFFFC0D
FFFFF4B9
FFFFFA3B
FFFFF4E4
FFFFF4B5
FFFFF50B
00000140
000001D3
00000A41
FFFFFD5E
00000356
FFFFFF9B
000002C8
000001F6
FFFFFB3C
FFFFFA99
0000015C
000002A0
FFFFFADB
FFFFFC7D
00000395
0000097B
000006F1
FFFFFD65
FFFFFC9A
00000082
FFFFFCE2
FFFFFED6
FFFFFFD5
FFFFFCEF
FFFFF756
FFFFF236
FFFFF54D
FFFFFC78
0000026C
00000249
00000AD9
FFFFFC5D
00000155
0000037A
FFFFFE75
00000725
00000363
FFFFFFE0
000002E0
00000328
FFFFF7E1
FFFFFB90
FFFFFE90
FFFFFFEE
000003CA
FFFFFD00
FFFFFA9E
000000A8
00000599
00000489
000001F5
00000213
FFFFFADA
FFFFF497
FFFFF6E7
FFFFF7F2
00000102
00000821
000004E6
FFFFFE57
FFFFFD2E
00001147
00000FDF
00000894
00000752
00000CD4
00000794
00000415
00000319
FFFFFDF9
FFFFF8C2
FFFFFBDB
00000075
0000012A
0000030F
000005F3
00000AE2
00000CE1
00000449
000006D5
00000212
FFFFFD21
000009F8
FFFFFE86
000004E1
000001CA
FFFFFD06
FFFFFFE3
00000129
00001469
00001811
00001317
0000065C
00000940
00000669
00000265
000002EF
FFFFFDB2
FFFFFD5F
FFFFFDF0
0000071E
00000845
00000C21
00000B65
00000E3B
00000B50
000006FE
0000045A
00000283
00000E8E
00001974
000015AD
000004D2
00000C37
FFFFFDF1
0000025C
FFFFFF01
000010D9
0000147C
00000A5B
00000950
00000B3D
00000A33
00000213
0000007A
FFFFFD35
000008E7
000007B7
00000811
00000789
00000A0B
000003DC
00000797
000005D2
00000008
000004ED
000004E8
00000F15
00001567
0000143C
00000770
00000768
FFFFFD88
0000018A
FFFFFF9C
00000696
00000E22
FFFFFE87
FFFFFFFD
FFFFFF93
000007D9
000006BE
00000471
00000382
00000EB6
00000C9C
00000AD8
000004DA
0000095A
00000C42
00000BA0
00000360
00000237
000005ED
000003D0
00001203
00001626
00001112
00000A38
000005E3
000000A9
00000230
00000163
FFFFFAA0
FFFFFEA9
FFFFF565
FFFFF117
000001A1
FFFFFFF6
0000034D
000005AD
FFFFFDD6
0000065C
000009C4
0000096E
00000BFB
000003F9
000005C8
000006D1
00000CBC
00000D0E
00000305
00000315
00000A7F
0000022D
00001485
000007A2
00000038
000000B0
FFFFFF1F
000001A8
FFFFFAAD
FFFFF2FE
FFFFEEE2
FFFFF62A
00001080
00000CE5
00000DFB
00000548
000006E4
00000126
000008BE
00000EE4
000007A9
000004B7
000007AE
00000DBE
00000F3E
000015B7
000009D5
FFFFFB0A
FFFFFD9A
FFFFF947
0000035A
00000265
0000006F
00000220
FFFFFE9D
00000106
FFFFFF79
FFFFFE4A
FFFFEE19
FFFFF450
FFFFF800
000002F9
FFFFFF0C
FFFFF875
00000467
000005D5
00000202
000001CD
FFFFED9A
FFFFF78A
FFFFFE8D
FFFFFFD6
000002E4
000007BA
FFFFFF06
FFFFF6BB
FFFFF67D
000006E6
00000088
FFFFFC0F
FFFFFFF1
FFFFFEFE
00000140
FFFFFF0A
000000FE
00000148
FFFFFC74
FFFFF38B
FFFFEECD
FFFFF7CB
FFFFFB69
000000ED
FFFFFD61
FFFFFE15
FFFFFFF3
0000014C
FFFFFEAA
FFFFFB40
FFFFFCFC
FFFFFAB9
FFFFFC30
FFFFFA56
FFFFF832
FFFFF9ED
FFFFF86E
FFFFFE28
FFFFFDDD
FFFFFF10
FFFFFFAF
FFFFFF9A
