000001CA
FFFFE8AC
0000013A
FFFFFCF5
FFFFF420
000005E4
FFFFF75D
000003FF
000007E1
FFFFF2CF
000007DA
FFFFF4C9
0000083B
0000103F
00000FB0
00000C18
0000044A
FFFFFD58
000002C2
000010B9
00000200
FFFFFD72
000003AA
00000155
FFFFF33C
00000593
00000685
000005A2
000008A6
0000055A
00000760
00000B3E
FFFFEF66
000001BB
FFFFF48E
FFFFFBB4
00000449
00000312
0000036D
00001030
00000CED
FFFFFFDD
0000028B
FFFFFA81
00001157
FFFFFA23
00000AC6
FFFFFB31
000012D8
FFFFEE6B
FFFFF8B1
000006D3
000006EB
FFFFF8C0
00000823
0000036D
00000872
00000C72
FFFFFE1E
00000030
FFFFFC21
00000927
000000B4
FFFFEF67
0000049C
00000799
FFFFF492
000008E7
0000008A
0000014D
FFFFFA00
000003BF
000004DA
000003E6
0000008E
00000870
FFFFFC71
FFFFFB6F
00000380
00000801
00000CD0
00000152
0000097D
00000130
FFFFFF23
00000499
0000051E
FFFFFEF9
00000625
000005B2
000007A2
FFFFFFCE
0000085D
00000364
000004C8
00000C90
FFFFF44A
00000026
FFFFFE01
FFFFFC8B
000004C9
000002F8
00000010
000000E2
000004AB
FFFFF2B5
00000A6E
FFFFF7C2
00000540
000006F4
FFFFF624
000001E0
000009D8
FFFFF242
FFFFF915
000000DB
00000A9C
00000592
0000042C
00000B9E
0000002E
00000063
FFFFF361
000001CB
FFFFFBAA
000003B2
FFFFF644
FFFFFC15
