001C
008D
006C
FF8F
FFC0
FFBB
0000
FFA1
FF88
FF70
FF70
FF7C
0055
FFD8
0092
0060
0028
0069
FFB2
0003
007F
FF87
FFF1
004A
0025
0058
FFFD
FF76
0030
FFBE
008B
006E
0046
FFB1
FFF1
FFDD
FF11
FF26
FF2A
FF2E
FE82
FE0B
0081
002A
FFDA
002B
003D
FF67
FFCD
FFC9
003D
005A
003F
0073
0080
FFC3
000C
FF9A
0014
FD7F
FFB5
000B
FED9
FE56
FFEA
01D8
04C3
0480
056A
0108
00DA
FD3A
FECE
FD33
00B7
01F3
026C
0057
00C9
01FF
FF6F
001C
FFDE
0012
001C
FFCC
FF94
FF8A
014B
0290
024E
03AB
0677
04DA
0529
0445
05DD
0242
01F6
0178
FE2F
FD59
FD14
FB33
FE17
FCFD
FA78
FB4E
FD81
FF6A
0267
FF9A
0042
00AB
020E
046F
02D6
0437
046A
03D5
0489
040E
0160
0303
0253
0193
0023
009F
FF5B
0052
0259
FEC3
FDDC
FF0E
FFCF
FC96
FF0E
0106
03C6
0005
0050
0056
0239
0202
028D
0431
01BB
01E5
0087
0130
01A4
019B
0249
0251
0250
00FE
00F6
00FC
010D
000B
00B9
FED4
01C3
0091
FD96
01DD
012F
FF59
FFD0
0201
FD6D
057E
035D
017F
021B
002A
FEAD
001C
00AE
FFE1
010F
0178
0109
00AB
00C7
0065
010F
FFED
0104
0264
01EE
0212
0424
0680
0636
01E9
FFAC
02F0
0004
04F9
036E
024A
00DD
FDD2
FE4C
FF12
FEB5
012A
00C0
00C0
0192
FF2B
01EA
01B7
01B9
0147
01F8
0132
017A
0303
01B1
05A1
06F6
0275
0059
03F7
FFC7
0424
FFFF
FF41
FD74
FEED
FF44
FEE0
006E
FF71
00D1
FF75
01AB
0046
0083
FFF3
01D7
FFF7
003B
011C
01A7
0104
001F
02EF
07A8
0055
0052
015B
FE4B
0117
0070
FC59
FFB3
FF92
FF32
FE4B
FCCB
FC9B
FE59
FD56
FE89
FFEA
002A
FE91
FE8A
FD9A
FE09
FE04
01BF
FE34
FDD6
01E3
01D8
FFD9
00AF
FEED
010A
028B
0090
FD88
FF20
FE94
FED6
FDBD
FD1C
FCD3
FE1B
FF52
FE22
FE2F
FE85
FE03
FD59
FD1A
FD02
FD52
FF56
FBFB
FB5B
FDD0
01EE
00AB
0017
FDD7
FEF8
0086
0140
FDFD
FFD8
FF46
FD49
FCA8
FEAF
0050
01CB
01E7
FF86
FEBC
FE4F
FE7A
006C
FF96
FD33
FD48
FB4C
FAD4
F9E4
FB77
018E
01D3
00E7
FEB0
FC3E
FD33
011D
FFED
FE6D
0178
FEAC
004C
023C
02A6
0347
0117
0141
FF08
FE76
FEF1
004F
FFA8
FEC0
FF52
FC0E
FB28
FBCF
FB0A
010E
01DF
FF47
FF00
FDDF
FF3B
0052
02CB
017E
019B
01AA
0150
0285
0127
0291
016E
01D2
FF1A
FE8F
FF60
010F
009C
FE58
00AF
0066
FE81
FF50
00A6
0112
FCD0
01AD
0244
00F0
0088
FF4B
00E9
00D8
003A
01A3
015C
FF75
0064
019C
FFD4
0225
0018
FE94
FF8E
FFF5
001B
FF28
0145
FFB3
036F
018A
026E
0188
FCE2
0109
01D7
0198
FFEC
0047
FE8C
FC89
FB09
FB7F
FD8A
FED2
003A
0293
01C2
FFFE
FE95
FF4A
FFFB
0014
008F
0229
01CD
00C9
03E5
04A8
02DA
05B0
016B
0044
02E8
0299
0252
0182
FD4A
F93C
F689
F71A
F7B0
FA92
FBA9
FDE1
FFF7
FE5C
FEED
0020
0158
01A6
0197
01BA
03BE
0386
0317
0438
0094
008E
016D
0035
03E2
FFAE
0390
0147
FC1E
FA52
FAA6
F8C3
F5BD
F44C
F54E
F577
F7FE
F8EA
FD33
00F5
0218
00BE
0208
01DF
034A
00FD
FFE6
FEA8
FF52
FC0B
012E
04BA
033B
006F
0823
00AD
FD8A
FD65
FE55
FDDF
FB90
FC9B
FB10
F88A
F96C
FD4F
FF3D
013F
0127
FF34
00C3
0080
02AC
00EF
FE5B
00CF
FF1D
FC60
FF5B
FFF4
0395
FF5B
0770
02E2
0100
006B
007F
00C3
006B
02A0
022C
0167
020F
012E
0010
FFDF
FEE7
FF4B
FEC0
0036
00A1
FEFE
015C
0252
FF27
FE6A
FE1C
FFAA
0191
004E
05A3
039D
0146
0232
01F3
02F4
03AC
02D9
0362
0438
048A
039A
0067
FF90
FF5F
007B
FF5D
0029
FDDA
FF86
FF83
FEC9
FADF
FE3A
0027
FF41
005E
01A9
FF9F
0143
FFDD
00A1
026A
0376
0211
0321
03A2
032C
0239
024F
011F
FF95
FFF5
FFC1
004E
FDBF
FD12
FE7D
FFB6
FB55
FD82
FE4A
003C
FF12
00EF
01F2
FF6D
0079
FF3E
FF5D
0182
01A1
01F7
01F6
0125
0118
00C4
012E
01B6
0042
0012
FF49
00D4
FFD0
FDFA
00CD
025B
FAEF
FCF4
FEA5
FF65
0006
0037
063C
0502
0132
02AB
01EE
015B
01FF
00FE
0323
0359
009C
00ED
00C8
014F
0052
00FF
0258
0164
00F9
0074
FF1D
FE74
FDE8
FE8B
0188
FF78
FFA9
FFF3
FEEC
065A
06D1
039E
0325
03A5
00E3
FFAB
FF90
FFF7
003D
FF23
00A6
FF26
FF2A
027E
0199
FE98
FFB4
0367
008E
0022
FFA5
01C7
02AC
0032
0000
FF7A
FFDF
FDF2
0268
02AA
0297
021F
FFA4
0062
FF9A
00F6
FE9D
FF4F
FE29
FE7D
FFB6
FE07
FDA7
FF37
FE79
FC0C
FDD8
FCE9
FEE0
FF9D
0052
0074
0055
0062
0027
0284
028D
FCD6
FE09
FC99
FEE7
FF0D
FFAE
FFFC
0033
01CB
0062
01C8
02E8
FFA5
FDAE
FEC7
FD5F
FF88
0052
00CC
FFF4
0001
001B
000F
0081
0070
FFE5
006D
0045
FFE2
FFC6
FF90
FFDB
FF34
FF72
FFFE
FF8E
FEF3
FF19
00D0
03AA
02BD
FFFF
0058
0066
003C
003A
0005
0078
FF9B
FFE8
0021
