FFA1
0074
FFA0
0082
FFCE
FFF2
FF76
0012
003E
0047
007F
FF9E
FED3
FF62
0092
00C5
FFED
FF96
FFED
0086
0059
FFCF
0018
004D
0012
0033
0025
FFAE
0002
005A
0050
FFF0
FFD2
FF1C
FC15
FCEE
FEFB
FFAE
FEBE
FECD
FDF0
0037
FF0D
FBB2
FF64
FD92
FCD5
FD9C
FC59
FD7D
FDB8
FD67
003E
FFB2
003A
FFC2
FFA0
0083
FFB3
FB4A
FB84
FE09
FE48
FD6B
019A
0270
00B9
FF55
012F
FC24
0009
FCD4
FBFE
0086
FF18
FAA6
FCA1
0360
01D9
0089
0247
02B4
008C
007D
0054
0015
FD0F
FA90
F9F8
0117
00D1
005E
FF57
01BA
04BA
060F
009D
0096
013C
0059
007F
FF78
FD51
FCFE
FD0D
FEAB
FE89
0205
0277
FEC2
FFF2
000B
FFC0
FFF8
FC60
F93E
FB19
FE35
01CB
02E4
02DF
031E
02AC
0250
022D
0133
0141
FF62
00AE
011E
FFF8
FF2E
0112
FE0C
FEBF
FE3F
FEB7
FEF0
FE5A
04FF
FFA5
FFC4
FC29
FCA7
FD79
FA03
FEC9
012A
0125
FF74
FF88
00A5
011D
0048
0173
000F
01B2
01C8
00AE
01C5
008D
FF40
FEE0
FE13
0067
046C
03AA
0458
FFFD
0065
FD3C
FE6C
FF29
FD25
FE3F
FDD4
FE3A
FD58
FE16
FE71
000F
0031
0075
013B
0151
017C
FF4A
FF43
FE4B
FEBE
0036
00A1
FE57
0171
00D4
033E
FF6D
FC99
FE36
0011
017E
FE60
FD56
FBB0
FEA5
FEF5
FEBA
FE7A
FF27
0132
FEB7
0160
0041
01DA
00FD
FF94
FCF7
FF50
0124
FF73
01A1
00C8
0101
019E
FE11
FB52
FFA2
0104
01C5
FCDB
FE72
FD7E
FE5E
FFD4
00CC
FEB1
FFB9
01BE
008D
010F
026A
015E
0117
00E2
FFAE
004F
0023
FFEA
FF9A
FF02
00F7
FF77
0042
FCF7
02E2
031B
FEED
FF2E
FD26
FE1D
FED2
007A
FF9F
FE85
FECD
000B
0059
008C
01D9
0219
019E
0299
0312
01CC
0100
030D
FF12
FDA8
FF13
FAEC
00A6
FDC8
0104
0122
FF31
00E7
00C8
003C
FF44
FF68
FE4D
FF44
FEB4
FF03
0052
FF57
FFAE
FFCD
00BD
012F
00B0
01C6
036E
03B7
FCC6
F9AC
FDA3
FE97
000A
FBFE
FF55
00C2
FE74
FFAA
00ED
01C5
0121
0096
002A
005A
0145
FFD2
FF45
FE50
FE49
FD8F
FCEE
FF9F
0047
005B
02B8
014E
0051
0041
00A2
FC45
0079
FF0F
FF53
02C2
FED7
0197
0130
FFF3
FF98
00D0
FF83
00D2
01C2
01AB
FEB5
FE3A
FE26
FE11
FCC9
00A6
0223
0323
0253
016B
06EF
022E
FE88
FC02
FE3B
FF8D
FD93
FF45
FDF1
010D
01F0
0096
0140
019C
02A3
0360
033D
036B
00BC
00BF
FFA1
FEE3
00C5
002F
0278
03A8
038B
023E
02DD
0653
06AD
0498
FE3E
FD69
FA94
FE6B
01C0
0156
01C6
023A
018B
01F6
02C8
0586
04E3
03E8
020D
004D
003A
0175
019A
0232
012D
01B8
0143
FEC1
FF59
0844
0A15
0427
FEC8
FDCF
FE4A
036C
0165
00AA
00C8
00C3
025A
03A6
0459
0526
049A
040F
0473
01F0
0114
023F
00FD
01FF
0171
00A4
00E4
FEA2
0170
06AC
08B4
054C
0026
FC06
007B
01FD
FE86
FDDB
011B
0135
01B1
0430
0544
05D8
06EF
04ED
02C9
02A6
0282
02D0
0190
00E0
021B
0105
0112
0165
FF84
06F6
098D
05C3
0080
FBF5
03F9
FEAD
FF4B
FF9D
FF14
00C0
00F5
01A4
027B
03CD
0410
02EF
015C
005A
008E
0000
0026
0079
015D
0258
0241
0095
FFF3
0464
02FC
06EB
FA9C
FD86
0100
FE1F
0204
01B6
007E
0005
0130
0041
0098
0016
0364
0241
FFDB
FECA
FEE0
FE94
003B
003C
0074
019A
023D
022F
009D
0083
0048
03FF
FE8A
FA90
FDA2
FF2C
015F
0115
005C
0143
002A
003B
01AA
00A0
0093
00DD
0082
FD96
FD45
FEA7
FFCA
FFC9
00E0
0082
01AD
0304
FD75
FE3B
0268
00E2
0043
FCF4
FFDF
0264
0113
018D
0064
035D
00B2
FFD9
0153
00B9
01D5
00F4
FF99
FE73
FC98
FC52
FE12
FE5C
00E4
01D6
FF11
FFF2
FE21
FC5F
0044
FE44
FD60
0112
0071
0232
0020
0078
01CF
018C
006E
0112
FFB0
0138
0182
0136
FEA6
FDFB
FD41
FF13
FD77
FEB9
FECE
FD7C
0051
01DF
FD50
FBE5
FF99
0096
FDBD
FECD
013F
0116
000E
0179
03BD
02D4
01F4
016D
0258
031A
036A
020E
FEA8
FDAB
FD48
FD51
FD0F
FE81
FDB7
FDE5
FE3C
FDEC
004C
FC65
FBEA
0118
FF94
004F
FF10
FB41
FE20
0031
007B
0302
04AD
039D
02A3
027A
0151
0159
FF92
FE9C
FDB6
FC56
FE67
FF56
FE08
FF71
0034
FFFC
FEA7
FD7F
FA33
0005
FF9F
FFC4
005A
FA2B
FB49
FD6E
FFE9
0158
02C6
01E6
0216
0340
032F
01DF
011D
007A
0203
FCF1
FE00
FF20
FDF7
FE76
002B
FF95
00B5
0358
FE99
FF8A
FFB7
0010
01CF
FD1A
FE8C
FD44
FE5B
FD2B
FBAC
FA97
00D1
FF25
FCEC
FFF6
01A5
01AE
00AC
FF62
FDDA
FC52
FDEB
FB44
F994
FB3F
F83F
01A7
027A
FFE2
0083
0063
002A
FD87
04C2
0281
0010
FC83
0071
FF81
FE19
FB60
FCF5
FD93
FDB9
FAD4
FE70
FE85
FF52
FD07
FD18
0010
FDD6
00E5
FF85
FEF0
0063
FFBF
0018
0025
006A
FFD2
FE8A
FE05
00D7
01B3
005D
0018
FC5B
FD09
FD8C
FA03
FCEE
0032
00FC
00D3
00EE
0232
0271
FCFD
FE04
FB25
FFAE
FFAD
006C
FFC7
