00000085
00000052
FFFFFE5B
FFFFFFC2
000000E4
000000CA
00000048
000000D0
000001F6
00000200
FFFFFEFD
00000153
0000006F
000001A8
000000B0
FFFFFF77
FFFFFE0A
00000173
FFFFFFE0
000000BA
000001CC
00000239
0000017A
00000005
FFFFFEFC
0000003E
FFFFFF42
000001B1
000001BE
00000156
FFFFFEEF
000000A7
FFFFFE7C
FFFFFF56
FFFFFD57
FFFFFDC7
FFFFFC91
FFFFFC02
FFFFFD27
FFFFF571
FFFFF38E
FFFFF627
FFFFF785
FFFFFFEB
000003D1
00000412
FFFFFC2F
00000179
000001B0
FFFFFD28
FFFFFE74
00000032
FFFFFF8A
00000034
000001ED
0000004E
FFFFFF66
000000A1
FFFFFE6F
FFFFFFF1
FFFFFDC5
000000E8
FFFFFB6F
FFFFF468
FFFFF3EA
FFFFF1AE
FFFFFCD4
000003C1
FFFFF71E
FFFFFAAA
FFFFFB5A
FFFFF463
FFFFF703
FFFFF3A5
FFFFF0EB
FFFFF929
FFFFFBD1
FFFFF3F1
FFFFF68F
FFFFF911
FFFFFA40
FFFFFFEF
00000233
000001D6
0000012A
000000A4
FFFFFF6E
FFFFFC13
FFFFF7E7
00000026
FFFFF95E
000005A3
000001BD
FFFFEF0A
FFFFF412
00000680
00000471
000001C1
00000764
00000C75
000006FD
0000030F
000008D6
00000620
0000124D
FFFFFB10
000004CE
FFFFFA11
00000810
000008D0
00000224
00000180
000001C6
FFFFFF1A
00000572
FFFFFFC1
FFFFFDE1
00000182
00000364
000006D6
00000A4A
000004C1
000005D4
00000090
FFFFFB03
FFFFFFD5
000000CA
000005A9
00000749
000003BC
00000211
000005C8
00000903
FFFFFF23
FFFFFE9F
FFFFF1E4
0000000E
FFFFFAC6
FFFFF6CD
000001DA
FFFFFE13
FFFFFE02
00000196
FFFFF12F
FFFFFE6F
00000EC4
00000880
000009E0
000017A9
000014BD
0000022A
FFFFFCFB
0000015B
0000029A
0000020B
FFFFFFDF
00000A3C
00000507
0000069D
0000032C
00000147
00000670
00000649
000005B5
FFFFF64A
FFFFF72D
FFFFF9DE
00000088
FFFFFF0A
FFFFFF85
0000038F
00000786
000006C3
0000082E
FFFFFA0D
FFFFFCEA
00000253
00000347
000009DA
00000427
00000616
FFFFFA70
FFFFF760
FFFFFAE1
00000184
000004DB
000003B0
00000336
FFFFFE29
0000093C
FFFFFE9D
FFFFF820
FFFFFA13
FFFFEFE9
FFFFF6FF
FFFFFEE9
000001D4
00000DCE
000006E3
000010C4
000004B6
00000049
00000407
FFFFFEE7
FFFFFB94
00000542
00000691
FFFFFF5E
FFFFFEC0
FFFFFA4D
FFFFFA8F
FFFFF9FE
0000020E
00000471
0000039C
00000328
00000555
0000068E
0000032C
FFFFFF95
FFFFF44C
FFFFE626
FFFFFF9F
FFFFFCA7
FFFFEC5B
00000A3A
00000180
FFFFFEB5
00000114
0000022D
FFFFFBF7
FFFFFB11
FFFFF8C6
00000108
00000393
FFFFFC2E
FFFFFEE4
FFFFFA04
FFFFFDC4
0000045B
00000411
0000074C
0000058B
0000059E
00000642
000006F2
0000083F
000007CC
FFFFEFBF
FFFFEF68
FFFFFD32
0000000F
000003AA
00000CF2
FFFFFC2B
0000014B
00000599
0000011F
000001A6
000000C9
FFFFFA7A
0000013A
000002EB
FFFFFE9B
FFFFFCC0
0000039E
000003A9
00000142
000006A3
00000562
000008C5
000007AB
00000CA2
00000788
00000B6A
00000933
FFFFFA08
FFFFF561
FFFFF0A9
FFFFFD10
00000223
00000671
00000C29
00000B6E
000001DA
00000097
00000573
FFFFFE48
000000B6
000004B6
00000274
0000002D
0000017D
00000BDC
00000265
000000CB
00000472
00000AA7
000005F6
000009F9
00000AAD
000006C3
000009F2
00000951
FFFFFC49
FFFFF5D8
FFFFF8D6
FFFFFE47
0000065F
000004A7
00000EF5
00001207
00000785
FFFFFF90
000000AB
0000028F
00000617
00000C32
00000A1B
00000868
0000022C
FFFFFC76
FFFFFBB9
00000244
FFFFFBA2
0000037F
0000004C
000003C3
00000940
000005F8
00000534
FFFFFFFF
000001D2
FFFFF085
00000237
FFFFFD8C
00000493
0000069F
00000739
000003D1
FFFFFCEB
FFFFF9F7
FFFFFE26
000009F1
00000CA8
000009DE
00000609
000000BA
FFFFFB13
FFFFF2D4
FFFFF810
000002E4
000001D5
FFFFFB37
0000004C
FFFFFADE
FFFFFE85
FFFFFC71
FFFFFE75
FFFFF5E9
FFFFF244
FFFFEC1F
0000067A
000002BF
00000036
00000221
00000671
000001B6
FFFFF7E4
FFFFFB12
FFFFFF0E
0000021D
000004C3
FFFFFE24
FFFFFACA
FFFFF86C
FFFFE97A
FFFFEA3D
FFFFF9AE
FFFFFBF4
FFFFFEF3
FFFFFCCA
FFFFFB19
FFFFF541
FFFFFE01
FFFFF313
FFFFF396
FFFFF123
FFFFE6A3
FFFFEB3A
00000B6D
00000214
000000C7
0000052C
00000CF6
0000021E
FFFFF4FE
FFFFFA2F
FFFFFC45
FFFFFC7F
FFFFF7F3
FFFFEEE0
FFFFF1E2
FFFFE739
FFFFEB68
FFFFF2AC
FFFFF79E
FFFFFAE4
FFFFFA75
FFFFFBB0
FFFFF6C6
000001DD
FFFFF858
FFFFF2D3
FFFFF5D7
FFFFF538
FFFFE9FB
FFFFF7C4
FFFFFE82
0000003C
FFFFFFAD
00000230
000005A3
FFFFFD44
FFFFF9BF
FFFFF435
FFFFF747
FFFFFB93
FFFFF2DB
FFFFF259
FFFFEE05
FFFFEB67
FFFFF15E
FFFFFB6B
FFFFFD6E
FFFFFF23
FFFFF3CF
FFFFFC2A
FFFFFF02
00000365
00000083
0000004D
FFFFF7F1
FFFFF5AF
FFFFF423
00000155
0000091B
0000018B
00000203
000003A7
00000937
FFFFF6D0
FFFFF80C
FFFFF8F7
FFFFF95B
FFFFFF28
00000201
FFFFFCCE
FFFFEEC3
FFFFED4F
FFFFFCB4
FFFFFF84
000003B4
000003F1
FFFFFCB2
FFFFFF6F
00000398
00000723
FFFFFEE9
FFFFFA56
FFFFF52F
FFFFF9CE
FFFFF724
FFFFF15A
FFFFFF0B
FFFFFFC5
FFFFFED2
000003B8
000005E0
00000403
00000340
000000FE
FFFFFD36
00000577
00000DA2
00000446
00000091
FFFFFFC6
00000125
FFFFFFCF
000003F0
00000570
FFFFFFF8
00000126
00000852
00000776
000001A2
FFFFF702
FFFFFCCE
FFFFFFB7
0000026E
00000496
FFFFFA7B
FFFFFFBD
0000029E
00000137
00000AD5
0000055D
00000405
00000F24
000007E7
00000C71
00000C61
0000082E
000002E9
FFFFFE1F
FFFFFE3A
00000225
00000480
00000744
00000125
00000A86
0000067E
FFFFFF5D
000002C8
FFFFF7F7
FFFFFFAB
FFFFFD24
FFFFFFC6
FFFFF98D
FFFFF1C6
000000C0
FFFFFE1C
00000315
0000090D
FFFFFB0D
00000E28
00000FA0
00001073
00000B40
00000BAC
000004D5
00000029
FFFFFD39
FFFFFF52
FFFFFFD2
0000033E
000002AB
00000094
000004D6
FFFFF50D
0000017C
00000283
FFFFF7BB
FFFFFBC9
FFFFFAFA
000002CC
FFFFF2C8
FFFFFC0D
00000058
00000159
0000054C
000002E7
FFFFFE55
00000AEF
00000662
000005F8
0000088D
000006EC
00000186
FFFFFB82
0000024A
00000048
FFFFFD4B
00000419
0000016C
FFFFFC73
FFFFF808
FFFFF691
FFFFFC18
FFFFFA8A
FFFFF4CD
FFFFF525
FFFFF6A3
0000018C
000000D6
FFFFFCF4
000000BB
FFFFFD2C
0000032E
000008F4
FFFFF64E
00000320
FFFFFB89
FFFFFF04
FFFFFEEB
FFFFFE05
FFFFFFB2
FFFFFF08
000002CF
00000314
0000012A
000003D4
00000208
000002A5
FFFFFE3A
FFFFFF23
FFFFFAEC
FFFFF633
FFFFFDC7
FFFFFFBD
FFFFFCEA
FFFFFA78
00000981
FFFFFB95
FFFFFE6B
FFFFFD87
000001CF
0000061A
FFFFEEC2
FFFFF60F
FFFFF7BA
FFFFFABC
FFFFF70F
FFFFF994
FFFFFEEF
0000021F
FFFFFE87
00000354
0000000F
000001D8
000007FA
0000041F
000006E8
FFFFF8F6
FFFFF6AF
FFFFF47D
FFFFF6EE
000001E9
0000018A
00000391
000009DE
0000003D
FFFFFE4E
00000006
00000123
000002B3
FFFFF88E
FFFFFD0F
FFFFFDD7
000005B9
FFFFFE8E
FFFFF117
FFFFF5D3
FFFFFD6F
FFFFFD2E
FFFFFFD4
FFFFFC44
000003BB
00000280
FFFFFCC2
FFFFFC4B
FFFFF6EB
FFFFF9D7
FFFFFCDC
FFFFFFDA
000002BD
000004B2
00000C1B
000009E8
FFFFF8C7
FFFFFE3E
FFFFFEAF
00000157
00000720
00000C1F
00000DED
00001970
00000D48
000003E7
FFFFFBB8
FFFFF701
FFFFFBC0
00000221
0000036F
00000078
00000190
000004B8
FFFFFFD5
0000039D
FFFFF608
00000131
00000484
00000BB0
FFFFFEE2
FFFFFE24
00000032
00000085
0000009B
00000195
FFFFFF39
FFFFFDFD
FFFFF5CF
000006FF
00000B50
00000622
FFFFFF2B
000005C5
00000939
0000056A
FFFFFF16
000001BA
00000D71
0000007E
000007B8
00000818
00000573
FFFFFC08
00000023
00000028
FFFFFF90
00000677
00000757
FFFFFAD6
FFFFF918
FFFFFE86
FFFFFDFE
0000003A
00000061
00000232
00000246
FFFFFBC8
FFFFECD5
FFFFF0BE
FFFFFA02
00000BA3
0000086A
0000044A
0000019E
00000239
0000003E
00000D5E
00000684
0000033B
000006CF
0000090B
00000637
000007F3
0000079B
00000449
00000327
FFFFF85A
FFFFF653
0000046D
FFFFFECE
00000046
00000025
FFFFFEA1
FFFFFF77
000001DE
0000089A
00000FA5
00000840
FFFFFF52
FFFFFD96
000004C2
00000D78
00000535
FFFFFF16
00001347
000011D8
0000002A
00000CF7
00000DC2
00000278
00000CEC
0000089E
00000605
000000F4
00000C87
00000004
FFFFFF91
FFFFFEEF
00000215
