FFFFFED8
00000082
FFFFFE92
FFFFFE71
FFFFFE78
00000010
0000017F
000000F8
FFFFFDCE
FFFFFDED
000000A3
000000A7
FFFFFE31
FFFFF9D2
FFFFFBB3
FFFFFD0E
000000DD
00000076
FFFFFF78
00000019
FFFFFE50
FFFFFF31
00000185
FFFFFDD5
000001C2
000001B6
FFFFFE01
FFFFFDBA
000001AD
FFFFFFD4
FFFFFFB7
00000122
000000A6
FFFFFC82
FFFFF974
FFFFF717
FFFFFA8A
FFFFFA7B
FFFFFE63
000003D6
0000050E
FFFFFF47
FFFFFF26
FFFFF631
FFFFFA20
FFFFF85A
FFFFF988
FFFFF606
FFFFF499
FFFFF8EC
FFFFF9B8
FFFFFC8D
000001B5
000001AB
0000018F
FFFFFE2A
00000068
FFFFFEE4
00000099
FFFFF5FF
FFFFF145
FFFFFA04
FFFFF798
FFFFF59D
FFFFF488
FFFFFBDB
FFFFF7DD
FFFFF588
FFFFFE2D
FFFFFFF7
FFFFF2E7
FFFFF56D
FFFFF76C
FFFFFCD6
FFFFFF47
FFFFF626
FFFFFAD8
000001B3
FFFFFCF1
FFFFFC9A
000003AB
0000011A
FFFFFE6E
FFFFFDDE
000000B7
FFFFFE14
00000098
FFFFF1A6
FFFFF16D
FFFFFE10
FFFFF2BA
FFFFEC65
FFFFEBC7
FFFFF445
FFFFFA82
FFFFFE37
FFFFF975
FFFFF6FA
FFFFFA48
000004BF
0000013F
FFFFFBEE
FFFFF917
FFFFFA2C
FFFFFFF8
0000024F
00000029
00000694
0000072A
0000036D
0000079B
000001C3
FFFFFEF4
FFFFFCD7
0000059C
FFFFF6AE
0000054E
FFFFFD3B
00000666
00000C3B
00000752
00000584
00000525
FFFFFB2A
00000076
00000284
000001ED
000002F0
000003F3
00000432
000007AB
FFFFFF81
0000038F
FFFFFD73
00000982
00000876
000005DB
000002EE
FFFFEBCF
FFFFF5A9
FFFFFF39
00000042
FFFFFCE3
FFFFFAC5
00000558
FFFFFA62
00000D32
00000C60
00000639
00000164
0000027D
FFFFFA12
FFFFF9D0
FFFFF87D
FFFFFE8E
00000345
000003F8
000004D9
00000912
FFFFFED1
FFFFFE7B
FFFFFB8D
0000034D
00000D78
00000FC4
00000B58
FFFFF0BC
FFFFF47A
00000004
FFFFFE5F
FFFFFFA3
FFFFFF60
FFFFF85E
FFFFF7F9
00000491
000005FB
0000041C
00000365
FFFFF97E
FFFFF86A
FFFFF548
FFFFF810
000002E9
0000025D
FFFFFCB1
00000147
00000118
FFFFFE4F
FFFFFA79
FFFFFCFA
000002D2
000004F6
FFFFFE9E
FFFFFEAD
FFFFFE76
0000053C
FFFFFFE4
FFFFFE64
000004CF
FFFFFEDA
FFFFF6F5
FFFFFB73
0000061B
FFFFFF9A
FFFFF3B2
FFFFF9C7
FFFFF872
FFFFF9B8
FFFFF7F1
000001B7
FFFFFE36
FFFFFEE3
FFFFFA29
00000097
00000528
00000768
00000508
000006E0
00000790
0000019E
00000266
FFFFF79E
FFFFF88B
00000475
00000E16
000000E6
00000C6C
FFFFFA67
FFFFF4F0
FFFFFE79
FFFFF4A2
FFFFEF58
FFFFEDEA
FFFFFD48
00000097
FFFFF9D0
FFFFFB84
0000047F
FFFFFBE4
FFFFFD45
FFFFFA2C
FFFFFEF9
000008A7
00000A65
00000337
0000058F
FFFFFFF6
FFFFF366
FFFFF6DA
FFFFF078
FFFFF1E3
FFFFFBFE
FFFFFFB2
FFFFF931
FFFFFB7D
FFFFF710
FFFFFDD4
000001FE
FFFFF17D
FFFFEF57
FFFFF8CC
00000284
0000037A
FFFFF9EB
00000111
000004A8
FFFFFAD4
FFFFEDFE
FFFFF7E5
00000619
00000EED
00000808
000006A5
FFFFFE6B
FFFFEF48
FFFFF05B
FFFFF47F
FFFFEFB9
FFFFF0CD
FFFFFD11
FFFFFD7C
FFFFF9DF
FFFFF839
FFFFF9C5
0000051C
0000039A
FFFFEF3C
FFFFF2F3
FFFFFFAE
000003B8
FFFFFE7B
FFFFFF9F
FFFFFF89
FFFFFF3D
FFFFF0BE
FFFFE4D6
FFFFF224
00001090
000011C7
00000C86
00000290
FFFFF9FA
FFFFE99F
FFFFEC33
FFFFEE33
FFFFF9E7
FFFFF8CC
FFFFFF2E
FFFFFD3E
FFFFFD29
FFFFF61E
FFFFFDF2
FFFFF9EF
FFFFFFA9
FFFFF6D4
FFFFFD2B
00000429
00000046
0000003E
FFFFFDE7
00000595
00000197
FFFFF40C
FFFFE4F3
FFFFFB50
00000BA9
00000B0F
00000C0C
000000A1
FFFFF880
FFFFEDD7
FFFFF9E3
FFFFF8AD
0000009A
FFFFF507
FFFFFD36
FFFFFACF
00000071
FFFFF5CF
FFFFFD54
FFFFF3EB
FFFFFB39
00000276
FFFFFD78
000005E6
000000AE
FFFFFF9B
0000032E
00000E6A
00000A97
FFFFF191
FFFFEF1C
FFFFFD78
00000825
0000088D
00000B4C
00000432
FFFFF4B5
FFFFF205
FFFFF962
00000B4F
0000019F
FFFFFBFB
FFFFFD51
000001B7
000000D5
FFFFF369
FFFFF87D
FFFFF9E2
FFFFF8F3
FFFFFCE3
FFFFFD35
000001C7
00000493
000002EB
000002C5
0000070C
000001CC
FFFFF431
FFFFF4E4
FFFFFB58
00000AA5
000008DF
000005B1
000002DA
FFFFF227
FFFFF664
FFFFFDCD
000001E8
000003B2
FFFFFEAB
FFFFFECD
FFFFFF42
FFFFFD24
FFFFF4E1
FFFFFAF0
FFFFF64A
FFFFFA9A
FFFFFC08
000004CC
0000070A
0000085E
FFFFFE7D
FFFFFC39
00000317
FFFFF8E8
FFFFFAE6
FFFFF8EF
0000051B
00000C85
000004CC
00000B2D
FFFFF9BE
FFFFF200
FFFFEDF1
FFFFF3D0
FFFFF8DB
00000622
00000666
FFFFFFD3
000000EF
FFFFFF61
FFFFFF7C
0000041A
FFFFFA74
FFFFFD98
00000043
FFFFFFDA
000007A8
00000B3F
00000049
FFFFFF92
000002C3
FFFFFE96
FFFFFC1C
FFFFFF5F
00000AC7
00000D0B
00000561
00000309
FFFFEDC9
FFFFF309
FFFFFD71
FFFFFD99
FFFFF000
FFFFFB42
000008DB
0000015C
00000213
FFFFFDDD
0000053A
000003A6
FFFFFB20
FFFFFFDA
0000048C
00000093
000002D6
00000227
FFFFFC97
FFFFFD46
000000B4
FFFFFD93
FFFFFA7F
00000090
0000059A
00000AE5
00000346
FFFFFB01
FFFFF514
00000164
FFFFF97C
FFFFFD24
FFFFFB47
00000684
000009F5
00000858
00000038
FFFFFC73
00000A1A
FFFFFC2F
FFFFFF13
000000E1
0000040A
00000277
000005AF
0000008B
FFFFFD3B
FFFFFC6C
FFFFF7A8
FFFFF871
FFFFFD8D
0000011E
000008B3
00000473
FFFFFD9E
FFFFF5BF
FFFFF6B7
00000781
0000042A
0000015E
000008E6
00000D00
000006F7
00000A00
FFFFF664
00000092
000001DD
00000735
000005FB
FFFFFC64
00000439
00000902
00000584
00000420
FFFFF9EE
FFFFFA0C
FFFFFB1F
FFFFFE5F
0000032B
000004AF
00000AC1
00000235
0000027A
FFFFFCE5
FFFFFFE2
00000852
000005FC
00000464
00000669
0000096F
00000D1A
00000FE4
FFFFFF87
FFFFEEFA
FFFFF8B7
00000B09
000007E5
0000006D
FFFFFEAD
0000018D
00000804
000005CF
FFFFFEAD
FFFFFB2A
FFFFFC93
000002DD
0000049D
0000021A
0000074D
000002F3
00000291
000000A3
FFFFFC88
00000886
FFFFFFF2
FFFFFEDE
0000006F
00000479
000010B4
00000A6A
FFFFFFBC
FFFFF99B
0000033B
00000783
000000C4
00000240
FFFFFACC
00000497
00000404
00000500
0000009E
FFFFF9E3
000001EF
00000204
FFFFFFA3
FFFFFD68
00000716
000007D8
00000B66
00000CAD
00000260
0000015A
FFFFFA4D
0000011D
000006B8
FFFFFEAC
00000804
FFFFFBB8
00000169
00000602
000008C5
0000033D
00000234
FFFFFCE1
FFFFF80C
FFFFF874
00000186
00000384
FFFFFA63
FFFFFC1E
000000A6
FFFFFE49
FFFFFA4E
000000BE
000000CB
000001FE
000004C0
000003E6
00000058
FFFFFF6D
00000695
00000B27
0000029B
000001BF
FFFFF602
FFFFFE3D
FFFFFE17
00000350
000007EB
00000632
00000006
FFFFF999
FFFFFEE2
00000041
FFFFFBDC
FFFFF88C
FFFFFB97
FFFFFEA8
00000093
FFFFFC09
FFFFF8BC
FFFFFC32
FFFFF60A
FFFFF691
000001CD
00000475
0000048F
00000A52
00000D77
0000002E
000005E5
000001C7
FFFFF91A
FFFFFECA
0000005E
000000B1
FFFFF6EA
000003CF
FFFFF756
FFFFF500
FFFFF65A
FFFFFE68
FFFFFD9E
FFFFF871
FFFFFE42
0000030E
FFFFFCE4
FFFFF7DB
FFFFFE28
FFFFF9F5
FFFFF4E7
FFFFF3A6
00000206
0000015A
0000027E
000003C1
FFFFFA3A
FFFFF5B8
FFFFFA86
FFFFFA51
FFFFF770
FFFFFE19
FFFFFE36
FFFFFF2E
FFFFFC22
FFFFF68B
00000174
FFFFFE9B
FFFFF910
FFFFFDF2
FFFFFEB5
FFFFFEFC
FFFFFE44
000003EC
FFFFFE3E
000001C6
FFFFFD5D
FFFFF7CC
FFFFF8FD
FFFFF9E8
00000096
FFFFFACB
FFFFFE62
FFFFFAC1
FFFFFB91
FFFFFB3E
FFFFFCC5
0000094F
00000632
FFFFFDE4
FFFFFE42
000001A3
000007D7
0000037D
00000D8D
000010CE
000008EC
000009C5
0000014B
FFFFF9C7
00000687
FFFFFD32
FFFFF370
FFFFFE13
000000EA
FFFFFE4B
000008BF
000003B4
FFFFFFC8
FFFFFF0A
00000507
FFFFF961
FFFFF08D
FFFFFE38
FFFFFB84
000004DA
0000053A
FFFFFF8E
00000164
FFFFFE6A
FFFFFFBD
FFFFFF48
00001337
0000127E
00001822
00000D6E
FFFFF9BB
FFFFFDC9
FFFFF3BD
FFFFFB20
FFFFF7C8
FFFFF19A
FFFFF3C4
FFFFF429
FFFFF1B0
FFFFEEDC
FFFFFC0B
FFFFFD12
FFFFFA04
FFFFFC3B
FFFFF782
000005F9
0000029D
00000334
FFFFFEA6
00000081
000001DF
FFFFFFB0
FFFFFFE9
FFFFFE4B
0000002B
FFFFFF71
FFFFF902
FFFFF9F7
FFFFF9A4
FFFFFCE9
FFFFF6B4
FFFFFDFC
000002B9
FFFFF7A6
FFFFF1C5
FFFFF4EB
FFFFF5B4
FFFFEF4C
FFFFF495
FFFFF9AD
000004A3
FFFFF9DE
FFFFFD82
FFFFFD7E
00000236
FFFFFF34
00000106
0000017A
