00000AED
00000A5D
FFFFF668
00000D23
00000352
FFFFF8FC
00000A15
000010AD
FFFFF601
FFFFFED3
00000329
00000693
00000225
00000C77
FFFFFF7D
FFFFFFE4
FFFFF75D
00000551
0000045B
000000C9
FFFFFE18
FFFFF9A0
0000081B
FFFFFFCB
00000A69
FFFFF459
FFFFF780
000002DF
00000552
00000DA7
00000894
00000231
