FFFFF8DA
0000000C
FFFFFB49
000001C7
FFFFF751
00000C00
FFFFFEAD
FFFFF397
000000C3
0000022A
FFFFF531
000003C8
000011C2
000007C6
FFFFFB4A
0000028E
00000E84
FFFFF7FB
00000D20
000005D2
FFFFFD29
FFFFFD50
FFFFFD9E
00000C12
FFFFEF92
00001297
FFFFFAED
000004AF
FFFFFC72
00000DE4
FFFFF9B4
00000F4A
FFFFFADA
00000FBF
0000048B
FFFFF832
000003D3
FFFFF513
FFFFF54C
FFFFFB1F
FFFFFD04
FFFFF25A
FFFFF576
00000184
FFFFFEF0
FFFFFA2A
000000AF
00000517
000005C3
00000AC8
000003CE
FFFFFE19
00000501
000010E5
00000280
00000C69
FFFFFF39
FFFFF71C
FFFFF956
FFFFF797
FFFFFD75
00000458
FFFFF6B0
00000D10
