FFFFFF53
0000015D
FFFFFE52
000001BD
FFFFFE48
000000D5
FFFFFDF2
FFFFFE28
000000FA
FFFFFE8A
FFFFFE49
000001EF
FFFFFE36
00000113
FFFFFF09
FFFFFDFB
00000127
00000154
FFFFFE8E
00000236
000001AD
FFFFFF47
0000005D
000000FD
00000093
000000D2
FFFFFE6B
FFFFFE6E
FFFFFF9C
000001B8
0000008E
FFFFFE63
000000F7
FFFFFF92
00000177
0000004E
000001FB
00000116
0000020A
000002BC
00000503
0000041A
FFFFFDA3
00000078
FFFFFF7F
0000032A
00000263
FFFFFFFE
00000055
FFFFFFA0
00000331
FFFFFE31
00000017
FFFFFFC7
FFFFFE1A
0000008D
00000038
FFFFFE4F
FFFFFF73
FFFFFEDB
0000013C
FFFFFF0D
00000072
FFFFFFC7
000001F1
000004B2
000003FE
FFFFFFE2
00000255
FFFFFC15
FFFFFC2D
FFFFF682
FFFFF740
FFFFF8C9
FFFFFBDA
FFFFFE3F
FFFFFE28
FFFFFF71
000001B1
000001AD
00000560
000000F5
FFFFFE1A
0000000F
0000004D
000000FC
00000195
0000016F
000001AC
FFFFFE90
FFFFFB60
FFFFF9AE
FFFFFCED
00000649
0000058E
00000C17
00000E66
00000147
FFFFF60F
FFFFF648
FFFFF579
00000458
00001007
00000AC8
FFFFFE5E
FFFFFFEB
FFFFF9CE
FFFFF3CD
00000031
00000F54
00000B97
FFFFFEB4
0000019B
FFFFFD59
0000004E
FFFFFFE0
FFFFFF21
FFFFFEFA
FFFFFECE
FFFFF9A4
FFFFF35D
FFFFFE1C
FFFFFD7D
00000047
FFFFFE5D
FFFFF7C3
FFFFF898
FFFFFF69
FFFFFE71
000008F5
0000100D
00000AD8
00000C88
0000115D
00000754
00000546
0000042F
000001A2
00000681
00000592
000000C7
FFFFFEAB
0000008A
0000017F
FFFFF71F
FFFFEED0
FFFFF6BD
FFFFFF91
00000573
FFFFFF49
FFFFFC15
FFFFFD09
FFFFF975
FFFFF9D8
FFFFFE58
FFFFFDBC
FFFFFCEA
FFFFFBF4
FFFFFDDB
FFFFFE44
00000365
00000F41
000009F7
000005B5
0000061C
00000522
00000461
00000321
FFFFFE6E
00000405
000005AC
FFFFFF27
FFFFF69F
FFFFF854
FFFFFF06
00000512
000005CA
00000762
000007B0
00000173
FFFFFF65
FFFFFC72
FFFFFDC0
FFFFF915
FFFFF7DC
000000B8
FFFFFF0F
00000408
0000028F
00000A96
000003A7
00000250
00000837
FFFFFFF3
000000E2
0000066D
FFFFFE69
00000896
00000B68
00000400
00000478
00000009
00000222
00000921
00000742
000008B2
0000095B
0000067B
000003BC
00000728
00000123
000000D1
000006F7
00000554
00000692
00000339
00000476
0000077C
000009E2
00000681
000004C2
FFFFFC09
00000E06
000007ED
0000009D
000004AE
00000FA0
00000255
000009B9
FFFFFDFC
FFFFF8F8
00000604
000001C1
FFFFFFE4
000003A6
00000A53
00000B49
000009C6
000006B6
000006E1
000009C8
00000559
00000258
0000038F
00000619
00000AB9
00000929
00000F60
00000A8C
FFFFF961
000004F3
0000024D
000001AC
0000046A
00000804
FFFFFBAC
0000001E
FFFFFDCD
0000011B
0000050A
0000009F
FFFFFEAC
0000035E
0000033D
00000760
00000835
000007B6
00000672
0000054B
0000045D
000008A7
00000668
0000083B
0000012D
00000463
00000E53
00001065
00000BE0
FFFFFD38
00000955
00000236
000002BA
00000A5E
FFFFFF9C
FFFFF81E
0000093A
00000104
FFFFFE9D
FFFFFD39
FFFFFC0B
00000463
00000178
00000371
00000509
FFFFFE42
0000023E
FFFFFF7D
00000097
00000749
0000066F
0000077A
FFFFFF61
FFFFFD5E
00000901
00000DA9
0000080B
00000BFC
00000170
000000DD
000002F7
FFFFFBC1
FFFFFBB6
00000114
000000C1
FFFFFF9E
FFFFFBFA
FFFFF65A
FFFFFBFB
FFFFFC0F
00000044
00000111
FFFFF5A9
FFFFEF99
FFFFF92B
FFFFF9E4
FFFFFE63
FFFFFCC6
FFFFFD43
0000020D
FFFFFC05
FFFFF78E
00000005
FFFFFFA8
000001C5
00000ADB
FFFFFE90
00000038
00000344
0000020B
00000005
FFFFFF6E
FFFFF926
FFFFFC02
FFFFFFE7
FFFFFF94
FFFFFE2A
FFFFFF62
FFFFFE89
0000023F
FFFFEDCD
FFFFEA6B
FFFFF33E
FFFFF49C
FFFFFB52
FFFFFA59
FFFFFA4B
FFFFF6E5
FFFFF72B
FFFFF967
FFFFF9C6
FFFFFCD4
FFFFFFD8
00000972
FFFFFBFC
000001F2
0000041C
000008D8
000002C9
FFFFF62B
FFFFF44B
FFFFFCEC
FFFFFE5D
FFFFFF36
FFFFFE0A
000004CB
000007E5
FFFFFB77
FFFFF486
FFFFF905
FFFFF487
FFFFF82E
FFFFF977
FFFFFAF8
FFFFF951
FFFFFA4D
FFFFF4D0
FFFFF941
FFFFFE54
0000010C
000002CD
00000BFC
FFFFFF6B
000003FE
00000152
00000978
00000167
FFFFF780
FFFFF96D
FFFFFCC5
FFFFFE68
FFFFFD33
FFFFFE5B
0000083A
00000168
FFFFF2E4
FFFFF019
FFFFF8DE
FFFFFB67
FFFFF593
FFFFFBEE
FFFFF39F
FFFFF4E6
FFFFF46A
FFFFFC6C
FFFFFE8B
0000040F
FFFFFAE2
000001E7
00000776
00000456
000001E0
FFFFFDFA
00000489
FFFFFE1F
FFFFFF6D
000002B7
FFFFF64F
0000007E
FFFFFD88
00000272
0000061F
FFFFFCE4
FFFFF915
FFFFF341
FFFFF2D7
FFFFF65C
FFFFF529
FFFFF805
FFFFF6D5
FFFFF0EC
FFFFF1EE
FFFFF8E7
FFFFFEF1
000004AC
000003E1
00000183
000005FC
000004CF
000001B8
FFFFFCC4
FFFFFE90
0000034C
00000333
000002B9
FFFFF4CE
FFFFF975
00000394
000005BB
00000327
FFFFFCEA
FFFFF7D0
FFFFFAD8
FFFFFA13
FFFFF8EE
FFFFFD17
FFFFFCEA
FFFFF718
FFFFF607
FFFFEE21
FFFFFC7D
FFFFFFE2
00000BA0
00000261
00000527
000006C2
000005ED
FFFFFE2D
FFFFFF90
FFFFFB79
00000321
00000509
000006F3
FFFFF4B0
FFFFF85F
FFFFFF09
00000090
00000259
FFFFFD24
FFFFFA7D
FFFFFCD1
FFFFF833
FFFFF7A1
FFFFFB07
FFFFFFE0
FFFFFC61
FFFFF61E
FFFFF1A9
FFFFFA68
00000398
00000680
FFFFF875
00000479
000003B8
000007C2
000003BC
0000007D
00000132
FFFFFDB3
00000A12
000002F1
FFFFFBA5
FFFFF877
FFFFF58D
FFFFFDCC
FFFFFBEC
FFFFFC50
FFFFFA3C
FFFFF830
FFFFF214
FFFFF964
FFFFFE99
FFFFFB35
FFFFFB2A
FFFFF128
FFFFF1A4
FFFFFDEA
000003BF
FFFFFB65
FFFFF2A8
FFFFFE73
00000AEC
000007E8
FFFFFF15
000000B7
00000B6E
FFFFF529
0000063F
00000621
0000029B
FFFFF8DC
FFFFFB9D
FFFFFE2A
00000074
0000006E
000003C2
FFFFFDB5
FFFFFA97
FFFFFA04
FFFFFC68
FFFFFE03
FFFFF852
FFFFF8D4
FFFFFF74
FFFFFE0E
FFFFFCA4
FFFFF2E0
FFFFF298
FFFFFDFA
0000099C
000006D7
000001EB
FFFFFF4F
00000D37
0000008D
000008CA
00000C76
00000A0A
000000D0
000003D9
000006CC
00000250
00000780
0000071D
FFFFFF7E
000003AC
000003E3
0000013D
FFFFFB60
FFFFFD90
FFFFFED5
FFFFFFF3
FFFFF8BA
FFFFF827
FFFFF7CA
FFFFF320
FFFFF899
000000EF
FFFFFF81
00000146
FFFFF951
0000130C
000006D2
000006C8
000007C1
00000662
0000004D
000005C6
000003B0
000006EF
00000BF6
000008C4
00000445
000007E1
0000081E
00000755
FFFFFF25
FFFFFE55
0000049C
FFFFFF9C
FFFFF6A9
FFFFFD85
00000024
000003FB
00000155
000003C0
0000016F
000001B3
FFFFF93C
00000E30
00000AFF
FFFFFD78
00000C1E
00000B91
000007F4
00000417
00000301
0000014A
00000B46
000005CF
000002C0
000001B9
0000051A
000000BB
0000036B
000005A8
00000798
FFFFFDC1
FFFFF7A5
000005E6
000005AF
FFFFFA67
FFFFFFCC
FFFFFFEA
0000002D
FFFFFE59
00000078
FFFFF947
00001123
00000768
00000A94
00000EA7
00000E44
000003EE
00000500
000002BA
0000072E
000005C3
FFFFFF34
FFFFFD09
000002F5
0000077E
00000BB2
00000C80
00000B13
00000607
0000087E
000006B7
0000042A
00000592
0000072B
00000049
FFFFFFF5
00000060
FFFFFED3
000002DF
0000036E
00000623
000006B7
000006BA
000006E7
FFFFFDC8
00000210
00000565
00000299
00000529
000004D3
00000394
00000629
00000B93
000010F8
000012EF
0000165C
00000CAF
00001214
00000249
FFFFFA57
00000E5B
0000048D
FFFFFD79
000001AE
FFFFFE46
FFFFFE5D
FFFFF422
000001FF
00000AA8
FFFFFD61
000005D6
00000AC5
000008E0
000009AE
000008B4
00000942
00000A04
00000A9A
000005D2
00000C1A
0000093D
00000CE5
00000DB7
00001477
000008B6
00000840
00000423
FFFFFEC9
000005BD
00000047
000000A4
00000071
FFFFFE06
00000121
00000138
FFFFFF56
FFFFEE1E
FFFFECF0
FFFFEE28
FFFFFAEE
FFFFFA3C
FFFFF81B
000002AA
00000067
0000000B
000007B7
00000545
00001363
00000B2E
FFFFF85B
FFFFFFBB
0000168E
0000038A
0000031E
000000C7
000002FF
0000009F
0000001D
FFFFFF3B
000000F0
0000013C
0000013D
0000011A
FFFFFF51
00000154
00000061
000007F7
00000208
00000241
00000119
000008AC
0000092A
00000466
00000B1A
00000728
FFFFFEC5
FFFFFE91
000000EF
FFFFF553
FFFFFE3D
FFFFFCB6
FFFFFC70
FFFFFCB5
FFFFFF37
00000056
000000E4
0000007E
00000175
