000016C5
FFFFE9E6
FFFFE295
FFFFF2AB
000008DD
FFFFF7CD
000011EA
FFFFE15D
FFFFF2F3
000002F5
FFFFFD76
000010DA
FFFFF09E
FFFFEFAB
FFFFE55C
FFFFF45D
FFFFEFE0
00001326
000002BD
00000A3F
FFFFFACE
00000788
FFFFF3C8
FFFFF555
FFFFF574
FFFFF350
000008FC
00000EA6
FFFFEA65
000009BE
00000984
00000FE4
