0000013E
0000002B
000001DB
FFFFFE5A
0000008B
00000021
000000E1
00000025
FFFFFF59
000001FB
000001BE
000000ED
00000B07
00000A3C
000004F7
0000061B
FFFFFE0A
00000224
0000007E
00000075
000001AA
0000009F
FFFFFDC0
00000205
FFFFFEA2
0000015E
00000091
FFFFFDD3
FFFFFDC7
0000001B
000001D2
FFFFFF76
00000177
000002C3
000006B4
000006C5
000008F7
0000074D
000008A2
FFFFFED8
FFFFFF5D
FFFFFE7F
FFFFF61A
00000429
000006DB
00000BDC
000011D6
00000A65
00000EAD
00000802
00000649
000005A1
FFFFFF36
00000107
FFFFFDC7
FFFFFEBB
0000002B
000000CC
0000016F
00000FC6
00000F8E
000008C3
00001111
00000569
000011AB
00000CFF
00000694
00000171
FFFFFB02
FFFFF7EF
000003F1
000000CC
000002E7
00000557
00000C12
00000887
00000402
000001CA
0000042B
00000D30
000004B1
0000015A
FFFFFDD1
FFFFFE9A
FFFFFF97
FFFFFDBF
FFFFF5F9
00000CF1
00000BE0
00000953
000011E4
000007D9
00000E37
00000997
00000645
000007F5
000000F9
00000784
000007C9
000003F8
0000021A
FFFFFE2B
FFFFF5CE
FFFFFB0D
FFFFFC01
00000664
00000562
00000A02
00000C7C
00000457
00000936
00000077
FFFFFEC0
FFFFFEC7
FFFFF27E
FFFFF735
0000032E
00000C9B
000009DC
000006B5
0000079F
000004D6
00000AC2
0000054A
0000039D
00000B09
00000C1B
FFFFFE94
FFFFFA29
000002F8
FFFFF5EC
FFFFFAEB
FFFFFAE9
FFFFF0E1
FFFFF428
00000DA5
00000CC2
0000039F
000004C4
000009D7
00000060
FFFFFFE9
FFFFF6A3
00000693
00000BAD
00000424
0000093B
00000A1D
00000579
00000346
00000693
FFFFFB3D
FFFFFEC9
FFFFF8BF
FFFFFD58
FFFFF4F5
FFFFF344
FFFFEB77
FFFFF23A
FFFFF356
FFFFFFDA
FFFFF88B
FFFFF846
000001B9
00000355
FFFFFDD2
00000897
000009A3
000001A5
00000143
000001FA
00000607
00000B00
00001285
00000B39
00000637
0000061B
00000084
FFFFFA08
FFFFFFB9
FFFFF722
FFFFF1F6
FFFFED2F
FFFFEE00
FFFFF19B
FFFFED12
FFFFED18
FFFFF912
00000260
FFFFF54D
FFFFFB52
0000027D
000000C0
000000C0
0000007E
000001DB
FFFFFEA2
000003E2
FFFFFAA2
FFFFFC85
00000F22
0000118F
00000781
00000889
00000728
FFFFFFBA
00000187
000001EA
FFFFF7B4
FFFFF140
FFFFF170
FFFFF2C2
FFFFF40D
FFFFF871
FFFFF521
FFFFEECB
FFFFF1B7
FFFFF851
FFFFF790
FFFFF965
0000081C
00000A81
FFFFFDFD
00000098
00000DC4
FFFFF97C
FFFFFB43
FFFFF7A2
00000B58
00000584
FFFFFD6D
000001F9
00000041
00000248
00000275
000000C3
FFFFF906
FFFFF04C
FFFFED2A
FFFFF442
FFFFF955
FFFFFAF1
FFFFFA35
FFFFF589
000003C0
000003EF
FFFFFBF9
00000598
000004D6
00000961
FFFFF3F4
FFFFFF0A
FFFFF9F1
FFFFF1E7
0000069D
000001B6
0000049C
00000273
FFFFF98A
000000B5
00000541
000002FD
0000010B
000002ED
FFFFFD6C
FFFFF667
FFFFF1B7
FFFFF79C
00000534
000000B0
FFFFFF6C
00000084
000005E2
0000062C
00000093
00000577
000008CA
FFFFFDA2
FFFFF5D6
FFFFF519
FFFFFA2E
FFFFFA3A
000008D4
00000698
FFFFFDBA
FFFFFC8D
FFFFFCA5
0000039C
0000030F
FFFFFE4D
00000301
000001A6
FFFFFCD7
FFFFF7EE
FFFFF912
000006B1
00000671
000003BD
FFFFFEED
000002AC
0000049E
00000B8C
FFFFFF20
0000067A
00000BF4
00000348
00000129
FFFFF04E
FFFFFCCA
000012B3
FFFFF82D
FFFFFDB0
FFFFF9EC
FFFFFF89
FFFFFAC9
FFFFFF1B
00000326
0000021F
0000019E
000001DE
FFFFF942
FFFFF6AF
000005D6
0000099B
00000BC8
000006EA
00000567
000006B7
000007A4
00000EDF
0000083A
00000F87
00001032
000004D7
FFFFFD5E
FFFFF3BF
FFFFFF85
FFFFFF2B
FFFFF563
000000A0
FFFFF146
FFFFFA14
FFFFFDD8
00000390
00000335
00000823
00000659
00000383
FFFFFBBF
0000038F
000008C0
00000901
000006EF
000007D1
00000692
00000658
00000923
00000AE9
00000D41
0000003C
00001541
000008F6
000004F4
FFFFEED5
000004A7
00000297
FFFFFA1E
FFFFFC31
FFFFED78
FFFFFDB7
FFFFFE8A
FFFFFCE1
000003A1
000002A1
00000450
000002F1
FFFFFD7C
000000B5
FFFFF95C
0000026D
000004FF
000002B4
00000815
000008CF
000001DE
000004A9
0000091C
00000E37
00000A94
00000118
000008B7
FFFFFD94
FFFFFE81
00000018
FFFFF930
FFFFFE97
FFFFF288
000000A5
FFFFFDF3
FFFFFF6E
000003C5
00000641
0000022D
00000608
00000319
000003E0
FFFFFF96
00000670
000005BF
0000043B
0000071B
00000664
000001A5
00000553
00000C1F
0000075D
00000358
FFFFFEFD
FFFFFDF9
FFFFFF2E
FFFFFA2D
000002B5
0000026D
0000063F
FFFFF3D8
FFFFF8B3
FFFFFF90
00000107
00000584
0000022D
FFFFFF89
0000016C
00000577
000008F0
00000B18
00000661
FFFFFE36
000000C0
00000201
0000081A
00000854
000007BA
000005BB
FFFFFFFF
FFFFFC56
FFFFFF3D
FFFFF723
00000A39
FFFFFC99
FFFFFFB4
FFFFFE77
00000635
FFFFEF13
FFFFF3DC
FFFFFBA4
00000158
0000017E
FFFFFD6D
FFFFFC74
FFFFFFCF
00000385
0000034F
0000069F
00000415
FFFFFCF4
FFFFFD94
000002F3
0000064D
0000001D
0000054F
0000036D
FFFFFD40
FFFFF7ED
0000059D
FFFFFA14
FFFFFC93
0000021B
000000A6
FFFFF6C3
FFFFF814
FFFFF5F3
FFFFFB7D
FFFFF71B
FFFFFAB0
FFFFFF02
FFFFFAC9
FFFFF776
FFFFFFBD
FFFFFFF7
00000567
0000017D
00000233
000004DC
FFFFFE71
0000048D
FFFFFC5C
FFFFFBFD
FFFFFEB0
FFFFFA22
FFFFF9F5
FFFFF06A
0000024B
FFFFEE91
FFFFFB39
FFFFFD63
FFFFFB72
FFFFF04A
FFFFF82F
FFFFFD7F
00000137
FFFFFC9C
00000468
000002AF
00000004
00000025
00000434
00000F6D
00000D88
00000836
00000369
0000007F
FFFFFB7D
000000C0
FFFFF342
FFFFEC6A
FFFFF4A9
FFFFFD4E
00000798
FFFFF942
000004ED
FFFFF19E
FFFFFA52
FFFFFABB
000008C9
00000625
FFFFFC0C
000009AD
0000045D
000004E4
00000367
FFFFFF7F
FFFFFD18
000008D6
0000099C
00000BD0
00000B37
00000D4F
000002F7
FFFFFA84
FFFFFDF3
FFFFFB30
FFFFEB3C
FFFFF0AA
FFFFF37E
FFFFFB47
FFFFFF8A
FFFFF9DC
FFFFFFC8
FFFFFFF2
FFFFF5E0
FFFFFF3E
00000860
000009B3
FFFFFE66
FFFFF71B
FFFFFB1B
FFFFF867
FFFFFC6F
FFFFF8D8
FFFFFFEF
00000A0B
000009C2
0000058B
00000511
00000A49
FFFFFD93
FFFFF848
FFFFF9D3
FFFFFCA7
FFFFEEBF
FFFFF25F
FFFFF6BF
FFFFF9D5
FFFFF8A3
FFFFF4B9
FFFFFA3A
00000354
FFFFF20B
FFFFFD9F
FFFFFE07
000004FA
00000330
FFFFEF51
FFFFF3BB
FFFFF93B
000000C8
000002CD
FFFFFF06
000005FC
00000898
00000564
000006D4
000003A5
FFFFF977
FFFFFC46
0000068C
000003BF
FFFFFCDD
FFFFFA52
FFFFF453
FFFFFDDE
FFFFFE67
FFFFFC25
00000185
00001069
FFFFFDF5
000000A1
FFFFFD13
00000731
FFFFFDB9
FFFFE906
FFFFE73F
FFFFF435
0000032C
FFFFFDFA
00000705
000005D9
000002D5
FFFFFF20
00000415
FFFFFDBD
FFFFFD8E
0000032A
00000319
FFFFFCE2
FFFFFDB4
FFFFF664
FFFFF316
FFFFFB2E
FFFFF6B4
FFFFFEEC
000004C4
00001054
FFFFFE86
FFFFFEBA
00000145
000000FD
FFFFFD7B
FFFFEC77
FFFFDC94
FFFFEAEC
FFFFEFE2
FFFFEDB1
FFFFF065
FFFFF11B
FFFFF095
FFFFFDFC
FFFFFEB4
00000091
0000020B
FFFFFB33
FFFFFBBC
FFFFF4FE
FFFFF278
FFFFFD9F
000001A6
FFFFFC32
FFFFF7BE
FFFFF2B9
FFFFFDE4
000007EC
0000003D
FFFFFED8
000001FF
00000238
0000051F
FFFFEC6B
FFFFE4BE
FFFFDB1A
FFFFDEE1
FFFFE1AD
FFFFE7CA
FFFFEC85
FFFFEE37
FFFFF732
FFFFF994
000007A9
00000102
FFFFFE3E
FFFFFAED
FFFFFA54
FFFFFF87
FFFFFF8D
00000A0B
00000849
000001B5
00000104
0000013A
FFFFFEF6
00000067
00000020
000000C6
FFFFFF05
00000112
FFFFF0E6
FFFFEA9D
FFFFED1B
FFFFE923
FFFFE200
FFFFE68E
FFFFF897
FFFFF52E
FFFFF6FA
FFFFFC18
FFFFF77E
FFFFFE0A
00000025
00000243
00000295
00000447
FFFFFD36
000008B8
00000694
00000900
0000076F
FFFFF884
0000005F
FFFFFDD7
0000023C
0000004E
FFFFFEF3
FFFFFDC2
FFFFF89F
FFFFF772
FFFFEFC5
FFFFE6F9
FFFFE75D
FFFFEB68
FFFFEAB5
FFFFEFE3
FFFFF6BD
FFFFEE17
FFFFD99A
FFFFE3B4
FFFFEA0B
FFFFFAE6
FFFFF473
FFFFE90B
FFFFE59C
FFFFF378
FFFFF371
FFFFFA17
FFFFFA1A
000000AB
0000018A
0000010F
0000006F
0000018C
FFFFFF3E
FFFFFFBF
00000160
FFFFFFC3
FFFFFC50
FFFFFB89
FFFFF868
FFFFFD0E
FFFFF4E7
FFFFF7A8
FFFFFBEC
FFFFF4FD
FFFFEE3E
FFFFF40A
FFFFFB6D
FFFFFB41
FFFFF4FD
FFFFF99F
0000026E
000005C5
0000006C
00000068
FFFFFFB8
FFFFFED3
000000A8
FFFFFDFC
