FFFFFF86
FFFFFC4A
FFFFFFC4
000003FE
00001172
FFFFFBE4
0000038E
000016EE
FFFFFEE1
FFFFFB68
FFFFF5FA
00001A55
FFFFEEFE
00001085
00000F0E
FFFFFD35
00000236
000001CE
FFFFFB44
00001612
0000046B
FFFFFC3F
00000971
FFFFFA51
00000AAC
000005B0
FFFFFBCC
00000016
FFFFF8DC
FFFFF8E4
00000584
FFFFF34C
00000219
FFFFFADA
000001CB
000003D4
FFFFFC4A
FFFFF7C9
00000C89
00000291
00000AE7
00000872
00000759
FFFFFA55
000003D0
FFFFFE5A
FFFFE5F2
00000574
FFFFFD13
FFFFEEF4
FFFFFCD2
FFFFE3CF
0000000C
FFFFFBF1
FFFFFB0A
0000037D
FFFFF3BC
FFFFFD87
FFFFFF99
FFFFFDF6
00000B87
000005D1
00000215
FFFFFBC4
