FFFFFF02
00000241
0000010B
FFFFFDD3
00000193
FFFFFDC0
00000083
00000117
FFFFFE7D
000000DB
FFFFFE85
0000011A
FFFFFE83
FFFFFE31
FFFFFF5F
FFFFFF1F
00000024
FFFFFE18
000001C9
FFFFFF35
FFFFFEBA
0000008E
FFFFFF81
000000A8
000000BB
FFFFFE8D
00000073
0000010F
FFFFFF6C
0000009A
00000042
000000DE
0000006C
FFFFFED7
0000020B
FFFFFE2E
FFFFFD02
FFFFFA09
FFFFFAB5
00000659
00000429
00000EB3
00000B31
FFFFF39C
FFFFE9EB
FFFFF453
FFFFF502
FFFFF779
FFFFFC0F
FFFFFB64
FFFFF9E1
00000080
FFFFFE14
00000052
FFFFFE63
FFFFFDD4
00000131
FFFFFE27
FFFFFE80
FFFFF533
FFFFF17F
FFFFF59B
FFFFF3B6
FFFFFF12
FFFFEF7C
00000069
FFFFFC18
FFFFF8F4
FFFFF675
000000E1
00000075
FFFFFBA8
FFFFEE7E
FFFFEF64
00000015
00000AC8
000009AC
00000C28
000006BB
FFFFFB69
000002A9
0000012B
FFFFFED9
FFFFFE67
00000213
00000160
FFFFFE4A
FFFFEDE5
FFFFF15A
FFFFF987
FFFFF2EF
FFFFFCDA
FFFFFB99
FFFFFDF2
00000235
FFFFFC1D
FFFFF31B
0000044C
00000A5D
00000CB0
00000DD3
0000026B
FFFFFAE4
FFFFFB5A
00000020
000003C2
000007D2
00000345
FFFFFF6F
FFFFF5F1
FFFFF18F
FFFFFEB5
0000013B
FFFFFDB5
000002FA
FFFFFA65
FFFFFAEC
FFFFEE98
FFFFF876
00000C3F
00000478
00000722
FFFFF921
FFFFFC14
FFFFF72F
000006A8
00000C26
00000971
000005DF
000006C7
000009A1
00000841
00000A9E
00000190
00000EF8
0000081E
FFFFFD78
FFFFFC58
FFFFEEEB
00000229
00000124
00000175
FFFFFD97
FFFFFEBE
FFFFFE11
FFFFFE02
00000701
00000DB5
000005D9
000001F8
FFFFFADA
FFFFF3A4
FFFFF466
000003C2
000001CB
0000055C
00000389
00000A1B
00000D4C
00000F85
0000078E
FFFFFF9D
FFFFFF40
FFFFFC13
FFFFFA82
FFFFF592
FFFFEF04
FFFFFF72
00000192
000001EB
FFFFFB72
00000710
FFFFFE46
00000027
000001F3
00000034
FFFFFB86
FFFFF2B3
FFFFF5C5
FFFFF898
FFFFFD0C
FFFFFFF3
FFFFF927
FFFFFC9C
0000013C
0000038E
00000846
00000920
0000082A
000002CB
00000573
FFFFFF2D
FFFFF11D
FFFFEBD2
FFFFED23
FFFFFB38
00000130
FFFFFB98
0000015F
FFFFF8C5
FFFFFDE7
FFFFF62A
FFFFFDDD
FFFFF92B
FFFFF1F5
FFFFF7CA
FFFFFEDD
0000032B
000006C0
0000040F
FFFFF680
FFFFFE2C
FFFFFBB4
00000254
00000695
0000098A
000005C4
0000071A
0000098B
00000504
00000453
FFFFF919
FFFFECE1
FFFFFC88
FFFFFF89
000000B1
00001559
00000D45
FFFFFA7E
FFFFF27B
FFFFFBB4
FFFFF95E
FFFFF6EF
FFFFFB38
FFFFFE62
FFFFFCA7
FFFFFB01
FFFFFBBE
FFFFFADA
FFFFFB9D
FFFFFBB7
FFFFFF9F
0000068E
00000C98
00000389
00000704
0000056B
000005BF
0000030C
FFFFF5B5
FFFFF646
FFFFFB6C
FFFFFFA5
00000067
000017D0
00000707
FFFFF1F7
FFFFF43D
FFFFFB96
FFFFFA06
FFFFFCF6
FFFFFE5B
FFFFFD6E
FFFFF4EC
FFFFF3E8
FFFFFA23
FFFFFAE6
FFFFFA14
FFFFEE70
FFFFEFD1
FFFFFE47
000011FF
000011FB
00000ABC
FFFFFEFA
000007EC
FFFFFF5E
FFFFF499
FFFFF747
FFFFFA62
00000069
0000023F
00001660
00000A17
FFFFF2C3
FFFFFD54
FFFFFCC1
FFFFFF73
FFFFFC14
FFFFFE97
FFFFF8A5
FFFFFD4A
FFFFF861
FFFFFA81
000002FD
FFFFFA39
FFFFEA1C
FFFFEE2C
FFFFFDFD
00000A0B
00000D95
000006AF
00000720
00000A6D
FFFFFA01
FFFFF2DE
FFFFEACA
FFFFFA27
0000033A
0000073B
000011B2
00000080
FFFFFBBF
FFFFFCD0
0000014B
000002CB
000000C9
0000039B
FFFFFD06
FFFFFE11
FFFFFE5E
000008D1
0000042E
FFFFF551
FFFFE326
FFFFDED4
FFFFF857
0000088E
00000D55
00000237
FFFFFF30
000006EE
0000041A
FFFFFFE0
FFFFEF56
FFFFFFC4
000001FD
00000469
000010D1
00000414
FFFFFFEA
000001F9
00000413
000000D6
FFFFFFF0
000005A7
000001C7
00000043
000004D3
000004B4
FFFFFC72
FFFFE98E
FFFFDDDB
FFFFE712
FFFFF673
000009A4
00000853
000001C2
00000389
00000819
0000077E
FFFFFC08
FFFFF89D
000000A3
FFFFFF62
00000893
00000D59
FFFFFF07
00000B4E
FFFFFE3B
000002ED
00000288
00000825
0000028C
000000BD
0000043E
0000062C
00000266
FFFFFE4D
FFFFEFEE
FFFFE3E8
FFFFEF22
FFFFFEFA
0000025A
000006CD
00000007
00000197
FFFFFE4A
FFFFFE72
00000592
FFFFFC0A
FFFFFFE1
FFFFFFCA
FFFFFF32
00000523
FFFFF7F1
000003E0
00000620
00000598
00000F50
000009EA
0000001E
FFFFFD86
000002B0
00000077
00000528
FFFFFBEC
FFFFF3D9
FFFFEFDA
FFFFFD8A
000002EA
000007E6
0000081C
00000167
FFFFFFEB
FFFFF90D
0000021C
000001D3
00000506
000003D3
FFFFFF69
FFFFFC40
00000068
000000D3
FFFFFE66
000007C3
00000810
00000FB4
00000517
00000680
00000106
FFFFFF03
00000002
FFFFFF35
FFFFF782
FFFFF490
FFFFF59E
FFFFFB5B
000006AB
000009DF
000006B7
00000990
00000A07
FFFFF4E9
FFFFFC82
FFFFF653
FFFFFB56
000003FF
000002A7
FFFFFC0B
FFFFFDD8
FFFFF787
00000213
0000009D
000006E7
00000942
000006EC
00000C33
0000000D
FFFFFC18
FFFFF5DB
FFFFF4B5
FFFFF6DB
FFFFF79A
FFFFF75F
00000103
00000894
00000667
0000084A
00000BDE
000005A8
FFFFF4E0
FFFFFA09
FFFFF7A5
000000A6
00000873
FFFFFF31
FFFFFE1D
0000045B
FFFFF9EE
0000030E
FFFFFFF2
000009C9
000008A2
000007B0
000008EF
00000197
FFFFF6CB
FFFFF542
FFFFF99E
FFFFFCA8
FFFFFDB3
0000012E
0000053E
00000635
00000213
FFFFFEE6
00000751
000008AC
FFFFFEFF
0000012F
00000025
000009D3
00000748
00000060
0000015B
00000636
FFFFF9EB
000002B3
000000C4
0000020D
0000028A
000007A5
00000E61
00000040
FFFFF5D6
FFFFECF3
FFFFF568
FFFFFF1B
000000B1
000005AB
00000537
00000780
00000154
0000002A
0000099C
000009F5
000008B7
FFFFFF44
FFFFF02A
00000BE6
000009E8
00000203
000007A8
000006AD
FFFFF76F
FFFFFE09
00000323
0000049F
00000661
000009A0
000010C2
00000140
FFFFF47C
FFFFF535
FFFFF9BD
0000032E
000007F3
0000047C
00000434
0000013F
FFFFFEF9
000000E5
00000E6B
00000EB4
0000054B
FFFFFC3F
FFFFF0B1
00000D09
00000A32
FFFFFF95
000009B7
00000A21
FFFFFF6D
FFFFFE39
00000741
0000085E
00000879
000003AB
00000207
FFFFFFDD
FFFFF997
FFFFF89B
FFFFFB36
000001ED
0000042E
FFFFFFC2
FFFFFCC4
0000037A
000008B1
00000559
00000CC8
000002EE
000000B6
FFFFFAB2
FFFFF66F
000010A5
FFFFFFCD
FFFFFDC4
000004DD
00000935
00000E71
000006A0
00000AA9
000009A7
000002B5
00000234
0000005B
FFFFFFD6
FFFFF89C
FFFFF50C
FFFFFA0B
FFFFFD74
FFFFFDE8
00000425
00000101
00000250
00000454
000001B1
00000372
000005F0
000000D7
00000360
FFFFFD31
0000039B
FFFFFEDF
000000A1
000000EA
0000005A
0000044A
0000012A
00000A60
00000A9A
00000871
000003A7
00000095
00000182
FFFFFFE5
000002AF
00000343
FFFFFFB2
FFFFFEED
FFFFFFEE
000002DC
0000032B
0000016D
0000007F
00000167
00000C57
000006C2
00000828
00000070
0000014D
FFFFFF6F
FFFFFF9A
FFFFFEAF
FFFFFDE5
FFFFF6A2
FFFFF6E5
FFFFFDF7
0000082D
00000CA7
00000649
00000459
FFFFFF24
FFFFFFCE
00000117
FFFFFE9F
FFFFFE47
0000005C
FFFFFA9D
FFFFF7D7
FFFFF038
FFFFF88A
FFFFF952
FFFFF7E7
0000035F
FFFFFC6F
FFFFFD6C
FFFFFC81
FFFFFFAE
FFFFFE6D
FFFFFF7F
000000F5
00000564
FFFFFA9C
000005FE
000006BB
00000524
000008A8
00000AC2
00000CBB
000002F1
00000465
0000084C
FFFFFF2F
FFFFFB7E
000001C4
FFFFF9B8
FFFFF406
FFFFF342
FFFFEEF7
FFFFF197
FFFFF4D9
0000013C
00000121
FFFFF9F8
0000036A
00000058
000001A4
00000086
FFFFFE36
000003A4
00000303
00000761
0000078A
FFFFFDA0
FFFFFC40
FFFFFBBC
FFFFF8E3
00000010
000003DC
FFFFFE2E
FFFFFDD0
00000D92
00000ABF
FFFFFEFE
FFFFF3E1
FFFFFD21
FFFFFAE0
FFFFFE7F
FFFFFF5C
00000146
FFFFFD48
FFFFF8D4
FFFFFDC0
000000FD
FFFFFE7E
0000000F
FFFFFDB7
FFFFFE4B
0000010B
00000B93
FFFFFDD5
00000368
00000AE4
00000EFC
00000867
00000705
00000290
0000031D
00001050
000010CE
00000B54
FFFFFF6D
00000039
0000049E
0000013C
000004A1
00000AE8
0000081F
00000577
0000071F
00000143
00000234
FFFFFFA4
FFFFFE97
FFFFFFFA
000001D4
FFFFFF6A
000004A5
00000C9C
000006C1
FFFFFA56
FFFFF97C
000003FA
00000696
00000734
00000798
000012DD
00001800
00001A16
00000BBD
00000A5F
00000233
00000B10
00000CA4
00000A89
00000423
FFFFF845
FFFFFE20
FFFFFE7C
00000055
FFFFFE9E
