FFFFFDCD
0000008A
FFFFFF7B
FFFFFECA
00000006
FFFFFF17
FFFFFEBE
FFFFFDC1
FFFFFF54
FFFFFE3B
FFFFFE23
00000195
FFFFFFA3
FFFFFD6C
FFFFF726
FFFFFCB1
00000105
0000022C
00000035
FFFFFEF9
FFFFFE66
FFFFFE37
00000032
FFFFFEDF
000001AC
00000175
00000179
FFFFFE10
FFFFFDCD
FFFFFF68
00000132
00000189
00000279
FFFFFFB4
FFFFFD60
FFFFFC6F
0000025D
000001B5
FFFFFE0D
000001C2
000004D6
00000766
00000305
FFFFFB07
FFFFFD2B
FFFFFC40
00000554
0000007E
0000020F
00000340
000000EA
FFFFFCB3
000001E8
0000007D
00000212
FFFFFED3
FFFFFF03
FFFFFEAE
FFFFFF53
000004E6
000005D2
0000028A
FFFFFF64
00000064
FFFFFA31
FFFFF33F
FFFFF1C6
FFFFFD0D
FFFFFDCA
FFFFF791
FFFFFB0A
FFFFF5FE
FFFFF9DC
FFFFF775
FFFFF77D
FFFFFB35
000000CB
FFFFFEC0
FFFFFFF7
FFFFFC75
FFFFFE77
FFFFFF81
FFFFFE34
00000122
FFFFFDFA
000000B6
FFFFF822
00000272
FFFFFA3A
00000028
FFFFFF86
00000366
00000609
FFFFF711
000008B7
0000088A
FFFFFE20
FFFFFB86
000005A4
00000052
000001BC
000001B3
FFFFFCAF
FFFFFDA8
00001169
000008E4
000000DA
000007A9
000002CC
FFFFFBC8
FFFFFD40
0000006D
FFFFFFEE
0000021B
FFFFF972
00000B88
000006A5
FFFFFC02
FFFFF819
FFFFFF86
000002A7
FFFFFF77
FFFFFF22
000004B6
00000414
000001BC
FFFFFF50
0000049A
00000205
0000052F
00000108
00000363
0000011B
0000012F
000005B0
00000065
00000B08
00000DCB
00000D54
0000004D
00000170
FFFFFFF9
FFFFFCFD
000002B5
FFFFFD8F
00000274
FFFFFEC1
000007F2
00000271
00000378
FFFFFE48
000000C7
00000776
00000597
000006A2
000003F2
0000017D
000002CC
FFFFFF91
00000151
FFFFFC36
FFFFF4C5
FFFFF3B4
FFFFF6AE
0000046D
00000D1A
000007AD
0000020A
FFFFFF71
FFFFFD5D
000006C2
FFFFFAB0
00000455
00000321
000006BA
0000048A
00000308
00000633
FFFFFDA2
00000087
FFFFFF44
0000001F
00000146
0000026F
0000041F
0000019F
FFFFFCFC
000001C5
0000063D
00000643
FFFFFD03
00000544
0000021D
FFFFFFD0
000000E9
FFFFFCB1
FFFFFE5C
000007C2
0000049A
000001A8
000002BF
0000053E
000005CF
000001F3
FFFFFC6B
00000214
FFFFFDAC
FFFFFCFB
00000185
00000080
FFFFFF78
000004F1
FFFFFE40
FFFFFF61
FFFFFF30
0000004D
000001EE
FFFFFF96
FFFFFE23
00000707
0000020A
FFFFFD71
FFFFFE57
FFFFFBCA
000004FE
FFFFFD8C
00000C66
000006FF
FFFFFFC5
0000023C
000004CA
FFFFFEFD
00000408
FFFFFEB7
FFFFFF39
00000080
0000018D
00000546
000002E5
000003E7
0000054D
FFFFFEA0
000004C7
000000F8
FFFFFFF6
00000295
00000102
FFFFF36F
00000031
00000452
000009FE
00000523
00000076
0000073A
00000630
00000197
0000009C
00000090
0000057F
FFFFFFAE
00000196
FFFFFF50
FFFFFB4D
FFFFFF75
000003A2
FFFFFCEB
00000240
000000B8
0000043D
00000168
FFFFFCD5
FFFFFDD3
00000476
00000393
FFFFFE3B
FFFFFB04
FFFFF881
0000023C
000008E8
0000002E
0000026B
00000101
FFFFFFC6
000003AA
0000029E
FFFFFB65
FFFFFC3B
00000283
FFFFFDE9
FFFFFC30
FFFFFADD
FFFFFE58
FFFFFE06
FFFFFC65
FFFFFECB
FFFFFEFD
FFFFFE6D
FFFFFEE5
FFFFFF00
FFFFFF0B
000001CC
FFFFFC56
000005BC
FFFFFC19
FFFFF613
FFFFFEA9
FFFFFB02
000001F0
000005DA
FFFFF63B
0000050C
00000CE6
00000190
FFFFFEC6
FFFFFCB4
FFFFFD64
000002E7
000004AA
000002F3
0000026C
00000397
00000354
00000018
0000011D
FFFFFCF8
0000032C
000001A7
FFFFFED8
FFFFFF62
FFFFFDB4
FFFFFF15
FFFFFAAF
FFFFF81B
FFFFF6F4
0000046F
000000D7
00000789
00000141
0000056B
0000063C
0000053A
0000056D
0000024D
FFFFFD13
FFFFFEC9
FFFFFE23
FFFFFBCB
000003F6
00000146
00000393
000002EC
00000589
00000363
FFFFFF30
000005BF
0000020C
FFFFFF69
FFFFFA8B
FFFFFBBF
000002D8
FFFFF1C3
FFFFF30D
FFFFFAB7
FFFFF8EE
FFFFFB3B
0000003F
FFFFFF40
000000B1
000003E4
00000311
FFFFFDE8
0000020C
00000421
FFFFFFB5
000004E5
FFFFFF97
000001D4
0000022C
FFFFFF8A
00000219
000001B0
00000146
00000744
000003A9
00000026
FFFFFFA2
FFFFFB60
FFFFF1B5
FFFFED0B
FFFFF208
FFFFF5E3
FFFFF870
FFFFFC61
00000253
FFFFFCE6
FFFFFB48
000004BF
00000508
FFFFF8CA
00000037
0000033E
FFFFFE79
0000015D
00000210
FFFFFFD8
FFFFFD53
FFFFFBCC
FFFFFFA1
FFFFFE1C
0000022D
00000260
0000066F
0000069F
000005D5
FFFFFC91
FFFFF2E3
FFFFEFC0
FFFFFA0F
FFFFF191
FFFFF88B
00000098
000002E7
FFFFFEDC
FFFFFA4F
00000D93
000001B8
00000078
FFFFFC51
FFFFFFB0
FFFFFE41
FFFFFF1F
FFFFFE65
00000109
FFFFF885
FFFFFA46
FFFFFF6C
00000046
00000414
0000019A
000004C7
00000C0F
0000045C
00000872
FFFFFF56
FFFFF42E
FFFFF9CD
FFFFFC7A
FFFFF1E3
000004DB
000004FA
0000028C
00000153
000007D7
0000017F
FFFFFCED
FFFFFCAB
000001CB
0000033E
0000006F
FFFFFEEE
FFFFFDBC
FFFFFF0B
FFFFF8C6
FFFFFDD3
FFFFFEB5
FFFFFFDE
0000017D
00000509
000007A8
FFFFFE0E
000001CF
0000010E
FFFFF725
FFFFEF22
FFFFF3BB
FFFFF720
FFFFFF98
000003E7
00000196
0000074A
000003B2
FFFFFFBC
FFFFF6AE
FFFFFCCF
00000008
00000388
FFFFFDA2
FFFFFF0B
FFFFFFC2
FFFFFCA2
FFFFFAB6
FFFFFD3E
000003E0
00000375
0000022A
0000060B
FFFFFF9D
FFFFF8AF
0000010A
000005C1
FFFFFC66
FFFFEBBD
FFFFFE39
FFFFFA8A
000004FD
000001B6
FFFFFE4D
00000475
FFFFFDA5
FFFFFF16
FFFFF89B
FFFFF894
FFFFFF6A
FFFFFDEA
000001C5
0000059A
FFFFFF0B
0000004B
FFFFF70D
FFFFFEE1
000003D1
0000082E
00000211
000003F5
000004AE
FFFFFBCC
FFFFFEAF
FFFFFABA
FFFFF72A
FFFFEBFA
00000564
FFFFF578
FFFFFF3F
FFFFFBB2
FFFFFC04
000003B5
FFFFFF9C
0000065C
FFFFFEC6
FFFFF8E3
FFFFFED1
FFFFFC2B
FFFFFE59
FFFFFC03
00000054
FFFFF99B
FFFFFC70
FFFFFB9F
00000287
00000669
00000A06
00000A9B
00000155
FFFFFF55
FFFFFAAF
FFFFF278
FFFFF6D9
FFFFEDDC
FFFFF56C
FFFFF888
FFFFFE1C
00000D5D
FFFFF5C8
FFFFFBB2
000002A1
000001C0
FFFFFDC3
FFFFFB7E
FFFFFBBC
FFFFFABB
FFFFF951
FFFFF79C
FFFFF640
FFFFFA3F
00000063
000000CF
0000052C
000005C4
000002AB
00000085
FFFFFF5C
FFFFFD25
FFFFF899
FFFFF1EB
FFFFF32A
FFFFFAB1
FFFFF43F
FFFFFD15
FFFFFDE8
00000317
FFFFFA12
FFFFF7B8
FFFFFD20
000000CA
00000316
0000033C
FFFFFDDC
FFFFF973
FFFFF8CD
FFFFF993
FFFFFA2C
FFFFF84E
FFFFFF42
000004DE
00000381
00000664
FFFFFEB1
0000000D
FFFFFE60
000000D1
FFFFFBED
FFFFED4D
FFFFF0DE
FFFFFCD5
FFFFF5C9
FFFFFF08
FFFFFEA8
000002C6
FFFFFC31
FFFFFBA7
000000C5
FFFFFD1C
FFFFFCBE
FFFFFE9B
FFFFF91E
FFFFF51C
FFFFF6F8
FFFFFE32
FFFFFF95
FFFFFEC7
00000112
000004BF
000008F6
0000089C
0000029C
000001E4
FFFFFD8C
FFFFFA30
FFFFFEE1
FFFFF3CD
FFFFF3EA
FFFFFD5C
FFFFF635
FFFFFFAE
FFFFFF7B
0000014C
000007EC
00000397
0000010A
00000263
FFFFFD1A
FFFFFF6A
FFFFFB1D
FFFFF8D2
FFFFFC15
FFFFFC55
FFFFF7DB
00000082
FFFFFFA2
0000040F
000006D0
000005D5
00000671
FFFFFF8F
FFFFFA53
FFFFFBCD
FFFFF777
FFFFF9C3
FFFFFD8B
FFFFFC80
FFFFF89D
000001B9
FFFFFFEE
000000A2
00000C3A
00000C60
00000A84
00000B34
0000000C
00000390
00000244
FFFFFDC8
000001EB
FFFFFE1F
0000003C
00000722
000004AB
00000378
0000082B
FFFFFAD4
FFFFF8C9
FFFFF9A1
0000019E
FFFFF63D
FFFFFD19
0000051D
FFFFF858
FFFFFB2B
FFFFFC32
FFFFFDC3
00000047
FFFFFF90
00000573
FFFFFED5
0000023F
00000D04
FFFFFE6C
000000BE
00000669
0000093D
00000E0F
000008AE
00000499
00000AC4
00000520
FFFFFC6C
00000218
FFFFFAE3
FFFFFD33
000005BA
0000005D
0000008E
FFFFFE0B
FFFFFF7E
FFFFFC6F
FFFFFD15
FFFFFD7A
FFFFFE92
FFFFFDCB
0000013F
FFFFFFD8
0000040A
00000441
00000717
00000BAC
00000F28
00000D19
00000C78
00000CA1
0000099F
00000852
00000705
00000EF4
00000155
00000A04
000014BC
00000B6D
000002EB
0000055F
00000655
00000556
00000AAE
00000779
00000268
FFFFFEDA
00000210
0000021E
FFFFFF05
0000009F
0000014E
FFFFFD9E
00000436
00000508
00000740
000007C1
00000298
000000DB
000002FB
00000896
0000016C
00000B32
00000BF4
00000250
FFFFFEEC
0000069B
000006CB
0000021F
FFFFFD68
00000162
FFFFFC9D
0000000C
FFFFFECA
FFFFFE91
000000A0
