00000040
0000004C
000009B5
FFFFFA88
FFFFF46B
00000BE4
00000619
FFFFFE9D
0000081F
FFFFF24C
00000795
00001BAA
00000E39
00000D82
FFFFFB16
FFFFF910
0000067C
0000001E
0000002D
00000932
00000575
000002F9
FFFFF62C
FFFFFB86
FFFFF63A
00000312
00000BBA
FFFFF50B
000002F0
000012E1
FFFFF9CF
000011F7
FFFFFA8B
00000837
FFFFF75B
00000BAC
000000F2
FFFFFD5B
FFFFF5B3
00000AFF
00001321
00000393
0000041F
00000B88
0000066F
FFFFFE0F
000006DD
FFFFFDC0
0000156A
FFFFFE4A
FFFFEEC5
000009B4
00000ABC
00001EE5
000005C9
FFFFFD4A
00000EB1
FFFFF1E2
FFFFF93C
FFFFFF94
00001FA1
FFFFF75C
FFFFF95E
00000D4E
000002DA
FFFFF89B
FFFFF740
000003A2
FFFFFECD
FFFFF610
000014E6
FFFFF9F6
00000255
000016E0
00000B68
00000873
000007CE
000003A0
000004E7
00000342
00000347
FFFFFDF3
00000C51
000004FD
FFFFFFAB
FFFFF614
FFFFF3F6
000007E7
000011C0
00000170
000000B4
FFFFFDF7
00000E64
000007BB
0000082C
00000D64
000009A4
FFFFFB69
00000DB5
00000448
00000FA9
FFFFFDD0
FFFFFDE8
FFFFF642
000000A1
000000D3
0000019F
FFFFEF4F
00000193
0000044E
00000083
FFFFFE5D
FFFFF462
00000401
00000064
FFFFFBBA
00000FA3
000005F6
FFFFFF77
000000D3
FFFFFC78
00000C3C
FFFFFD39
000005AE
FFFFF92F
FFFFF932
0000186A
FFFFF2B8
