FFFFFEA2
FFFFFFAE
000001C9
FFFFFFA0
FFFFFE3B
FFFFFF59
0000017D
FFFFFEB0
00000229
000000F2
0000014D
000001F4
00000111
FFFFFE6D
00000185
FFFFFDC6
00000017
FFFFFE82
FFFFFE69
0000004C
0000007F
00000033
00000086
0000007A
FFFFFF66
FFFFFE8C
00000156
000001BE
0000012A
FFFFFF7A
0000019F
00000112
FFFFFD5C
FFFFFEA8
0000004E
0000013F
000001B6
FFFFFF29
FFFFFFCD
00000476
000001E5
0000099F
0000076A
00000721
000006E1
FFFFFF91
FFFFF539
FFFFFAF7
FFFFF5F9
FFFFFB5B
FFFFFD64
FFFFFAFE
FFFFFEAC
000000E6
00000080
00000134
000001F2
FFFFFEE4
0000003E
000008F5
00000A51
FFFFFE84
FFFFFCA9
0000039A
00000068
FFFFFE33
FFFFFB9C
FFFFFD21
FFFFFE23
00000714
FFFFFE77
FFFFF4F2
FFFFFE8B
000003C6
000000C7
FFFFEB08
FFFFEFFA
FFFFEBFE
FFFFEF16
FFFFF43F
00000481
00000414
000001E2
FFFFFF0E
0000013A
FFFFFEB7
000004C8
00000999
00000906
FFFFF724
FFFFF61A
FFFFFD17
FFFFF6CF
FFFFF8C5
FFFFEF77
FFFFEC92
FFFFF318
FFFFFB8C
FFFFED98
FFFFE5D8
FFFFE906
FFFFF5EA
0000004C
FFFFF6CF
FFFFFAC8
0000016B
000009D5
FFFFFDC1
FFFFFE76
000010AF
FFFFFDF7
0000007D
000000C6
FFFFFF30
000005E3
00000376
FFFFF935
FFFFEB1F
FFFFEBCF
FFFFEC01
FFFFF276
FFFFF18E
FFFFEB16
FFFFE702
FFFFE9BD
FFFFE86A
FFFFE702
FFFFE683
FFFFE92D
FFFFF242
FFFFF2B0
FFFFE835
FFFFECFA
FFFFF4C5
FFFFFE16
FFFFF8A5
FFFFF922
000003FB
00000518
FFFFFC7E
000000DE
00000176
FFFFFD68
FFFFF0AA
FFFFEC1C
FFFFEF38
FFFFE893
FFFFF100
FFFFF270
FFFFEAD9
FFFFE845
FFFFF1A0
FFFFF4CA
FFFFF4D4
FFFFF025
FFFFEC0C
FFFFEC4D
FFFFF066
FFFFF4D6
FFFFF87C
FFFFF839
FFFFF932
FFFFF916
FFFFED99
FFFFF1DB
FFFFFAEF
FFFFFBDF
FFFFFD90
0000014F
FFFFFBBE
FFFFFCA0
FFFFF99C
FFFFF432
FFFFE9AF
FFFFEE23
FFFFECA9
FFFFECF2
FFFFEC60
FFFFEE4D
FFFFEE08
FFFFF1A7
FFFFFD70
00000050
FFFFFE3F
FFFFFBC1
0000074E
00000EB8
00000492
00000165
00000226
FFFFF271
FFFFF296
FFFFF4E3
00000A76
FFFFFFA3
FFFFFC29
00000210
0000004D
000001DC
00000087
FFFFF10C
FFFFEB9B
FFFFF4CD
FFFFEDB6
FFFFF034
FFFFF179
FFFFF629
FFFFF5B5
FFFFFF67
00000448
FFFFFDB1
FFFFFE5A
00000631
00000852
00000D4F
000006B2
00000190
00000154
FFFFFF70
00000051
FFFFFC55
00000276
FFFFF853
FFFFFABC
FFFFF117
00000885
FFFFFCD5
0000011E
FFFFF464
FFFFF982
FFFFFE1A
FFFFF7D8
FFFFFF4B
FFFFFC74
00000239
000000FD
FFFFFF69
000003CB
00000146
FFFFFDFB
0000053A
000005AC
0000075F
000005D7
00000455
0000001F
0000050E
00000B4C
000000D2
FFFFFDDD
FFFFFCA0
0000058C
00000577
00000721
FFFFFD5A
00000129
FFFFF6F0
FFFFFDE9
FFFFFEBC
FFFFF78C
0000000A
000007F3
00000590
000001B8
000007DC
000008F3
00000551
00000538
FFFFFB31
FFFFFCAF
FFFFFF99
00000501
0000004A
FFFFFC9E
00000853
000004D1
000007A9
000009E3
00000AF7
00000FB4
00000560
000005DF
000000AC
FFFFF49B
00000086
FFFFFC4C
FFFFFF89
FFFFFE14
00000505
0000093B
00000697
00000686
0000073E
00000DD2
00000A34
000001E2
000000DC
FFFFF8F8
0000004D
00000229
00000591
0000020F
FFFFFFF9
000002F9
00000736
00000AA8
00000C79
00000959
000005AD
FFFFF53B
00000A78
FFFFFF17
0000077F
000002AE
FFFFFEB8
0000054F
00000887
000007CB
000008CB
00000ACA
00000854
00000F24
00001023
000009C9
FFFFFCF8
FFFFFFFF
000003BE
0000050A
00000EDA
00000269
000008FA
000009C2
00000C50
00000A23
00000610
00000B2E
00000501
000001FD
00000BA8
00000BD5
000010D5
000005E7
00000326
FFFFFE07
0000013B
0000057A
000004DE
000003CB
FFFFFBC5
FFFFFE04
000003DB
00000129
FFFFFEB5
FFFFFDA4
000004C9
00000472
0000025A
0000015A
00000444
00000747
00000032
00000880
00001538
000013EB
FFFFFDAC
00000241
00000E48
00000C21
00000A01
00000630
000002F7
FFFFFE62
FFFFFE34
FFFFFFE3
00000014
FFFFFB05
FFFFFA7B
FFFFFFED
00000299
FFFFFE61
00000273
00000262
FFFFFC9C
FFFFFB4D
FFFFFD59
000006B4
00000417
FFFFFEFA
FFFFFF6B
00000539
00000A86
000005F5
FFFFFC83
000000A9
00000918
000007C6
000002B5
00000004
FFFFFEFF
FFFFFC4F
FFFFFEB3
FFFFF998
FFFFFEE4
FFFFFBA5
FFFFF70C
FFFFFDC7
FFFFFF9C
0000006E
0000026F
00000150
0000011F
00000557
00000692
FFFFFFC5
FFFFFFEC
FFFFFCEF
FFFFFFAB
FFFFEC51
0000117B
0000057A
FFFFFC93
00000075
FFFFF561
FFFFFC8E
00000340
000000D5
00000067
FFFFF863
FFFFFE15
FFFFFEF3
FFFFFCCF
FFFFFB01
FFFFF73E
FFFFF9B5
FFFFFC5D
00000057
00000387
00000401
00000405
00000500
000004DC
FFFFFECE
FFFFFAEA
FFFFFA8E
0000037A
FFFFF0CA
00000549
FFFFFA9A
0000005A
000000FB
FFFFF4F2
FFFFEE2C
FFFFFACB
0000013C
FFFFFB2C
FFFFFCE9
00000032
000000BA
000004ED
0000001F
FFFFFAE4
FFFFF9E4
FFFFF9F9
FFFFF9D3
000002B1
000003AE
00000319
FFFFFB7A
FFFFFFCB
FFFFFD8C
FFFFFEF6
FFFFF6FB
FFFFF7C4
FFFFF161
000002FC
FFFFFE8C
000001CF
0000002E
FFFFF8E6
FFFFFD9C
FFFFF2D5
FFFFFDFD
FFFFFEE3
0000035F
00000362
000003AA
00000474
000006DB
00000177
000002F9
FFFFFF7A
FFFFFEF3
FFFFFB15
FFFFFD11
FFFFFDFA
00000027
0000046F
FFFFFA33
FFFFFDA3
FFFFF654
000002D2
00000397
FFFFF0B4
000003D2
00000BE7
0000019E
000000CD
FFFFFA91
FFFFFA1A
FFFFF8E5
0000036F
00000601
000005C0
000004A5
000004B6
000001E5
000005D2
00000762
00000360
FFFFFA40
FFFFF46A
FFFFFF9C
000003BD
000001E7
000000F0
FFFFFD23
000004D2
0000050C
FFFFFFB3
00000620
00000A9A
00000B57
000002FB
000010DA
00000520
FFFFF1DF
FFFFF4F5
FFFFEC42
FFFFF975
FFFFFFBB
000006B5
00000308
FFFFFEF8
FFFFFF82
00000D08
00000BF2
00000259
FFFFFB25
FFFFF647
FFFFFF77
0000061B
00000389
FFFFFD6C
FFFFFC31
00000685
0000088C
00000893
0000028A
000009A9
0000047C
00000045
FFFFFA11
FFFFFF5B
FFFFF848
FFFFF66C
FFFFF50B
FFFFF73F
FFFFF9BD
0000054B
00000517
00000276
000000CC
000002E7
0000068D
FFFFFCF7
FFFFFE13
FFFFF7BE
00000039
FFFFFE5E
FFFFF797
FFFFF824
0000004C
000009D3
00000A5F
00000F3B
00000C0C
00000454
000001C4
000000AC
FFFFFF80
FFFFFF5D
FFFFF9A6
00000616
FFFFFF8B
FFFFFCFF
FFFFF8C1
FFFFF444
FFFFFA5B
FFFFFBA2
FFFFF88F
FFFFFA16
FFFFFCDC
FFFFFF31
FFFFFCF3
FFFFF765
FFFFFAA9
FFFFFCD1
FFFFF9F9
FFFFF785
00000453
FFFFFB48
FFFFFE27
00000ACE
00000055
FFFFEF56
FFFFFE44
0000025A
0000003B
FFFFFB55
FFFFF549
00000DD5
000005F9
FFFFFC87
FFFFF871
FFFFF647
FFFFF8E4
FFFFF1A1
FFFFF15D
FFFFFA50
FFFFF949
00000383
FFFFFA5F
FFFFF8D0
FFFFFD30
FFFFFCEE
FFFFF65D
FFFFFAA7
FFFFFE9B
FFFFFA36
00000048
00000757
0000035D
FFFFF5AC
FFFFFE8A
FFFFFFBC
000000F3
FFFFF393
FFFFEF89
000008B7
0000075C
00000103
0000008C
FFFFFBF5
FFFFF7EF
FFFFF176
FFFFF4B6
FFFFF96D
FFFFF906
FFFFF8AD
FFFFF996
FFFFFF98
000000D0
FFFFF997
FFFFF9B4
FFFFFC8D
FFFFFC40
0000011A
00000222
00000C3B
0000010B
FFFFFFA3
FFFFFDD5
FFFFFF9C
FFFFFE62
FFFFF8FA
FFFFF9A3
0000050A
000005DA
FFFFFF89
000001ED
FFFFFF5E
FFFFF9FA
FFFFFDC2
FFFFFD56
FFFFFF4C
00000095
FFFFFE43
000000CA
FFFFF9A9
0000004A
FFFFFBF1
0000029F
00000152
FFFFFC54
000002CB
000006EC
00000338
FFFFFE15
000000C2
FFFFFEE2
000001D4
00000241
000005F2
000009D9
FFFFF964
FFFFFBAB
FFFFFDEE
00000B68
000007CC
00000548
00000358
00000028
0000039F
FFFFFEE3
00000A1D
000002D7
0000065C
000001A2
FFFFFE76
00000A56
000010B2
00000F74
000003C9
FFFFF43E
FFFFF69D
000001ED
00000081
00000177
FFFFFFCA
000001CF
000001B1
00000677
FFFFF43E
FFFFF5E2
FFFFFB0D
00000F0A
00001306
000013E7
0000086F
0000032D
000009D3
0000109E
00001A04
0000067F
00000712
000008A0
0000086D
00000DCF
00001650
000014BC
00000FA7
00000185
00000177
00000356
000001F0
FFFFFF4D
FFFFFE2C
000000CD
FFFFFE80
00000194
0000037B
00000C24
000008D8
00000752
00000ADC
000004AA
000009D8
00000967
00000A9E
00000DC1
000017F3
000006D7
00000AC7
000013AF
00001463
000007C4
00000388
000008EB
00000D81
00000636
FFFFFFE1
00000187
00000222
FFFFFE86
