FFFFFF7E
0000060E
FFFFF913
000002EB
FFFFEC2E
00000226
000008FB
FFFFFE8E
0000059D
FFFFFFB4
FFFFFF4D
000023CF
0000072F
FFFFF7A6
00000C3E
FFFFF8C6
00000748
00000013
00000099
000002BE
0000095B
FFFFFF66
FFFFEE22
00000226
FFFFFE89
00000A2D
FFFFF8A9
00000437
000003B6
00000218
00000978
FFFFF3B7
000001C9
00000002
FFFFFEB2
FFFFF4AE
00000686
FFFFF71C
FFFFF8AB
00000166
00000254
FFFFF7E7
00000E75
FFFFFAA0
FFFFFC47
00001F47
FFFFF14C
FFFFF6C6
FFFFE8DD
000012C2
FFFFE793
FFFFFCB2
FFFFF836
00000255
00000282
000006A2
0000008D
FFFFF52D
00000D13
FFFFF29C
00000B7C
FFFFFDFD
000001C6
00001E23
000002AF
FFFFF9C4
00000F3A
FFFFFA5E
000009AE
000008CF
00000F3D
000004BC
FFFFFCB8
00000482
FFFFFE7D
FFFFFB66
00000018
00000A91
0000027E
000005DF
0000000F
FFFFFE2D
FFFFFE9C
00000CCD
00000A51
FFFFFB3F
000000F3
FFFFFB62
0000105B
000008F3
000004E1
00001D43
00000AB3
FFFFFFA6
000004F6
00000ACF
FFFFF880
00000031
00000E8A
FFFFF729
FFFFFF06
000009B8
000002C9
000001E2
FFFFF8A5
0000048C
FFFFF9AD
00000BE6
FFFFFC76
0000156E
000014DF
00000050
FFFFEA39
FFFFF97E
00000785
FFFFFC56
000001A4
FFFFFD7E
00000733
FFFFEE14
FFFFFB1A
FFFFFCEF
FFFFF56C
00000434
00000C56
FFFFF84B
000018E4
0000105E
