FFFFF51B
0000120B
00000BD1
FFFFF6AC
FFFFDDE4
FFFFF458
FFFFF1B8
FFFFF3BD
FFFFEE85
FFFFF639
FFFFF8C1
FFFFFF4E
FFFFFFB9
000005BB
00000B5B
000006D9
FFFFF937
FFFFF993
00001999
00000E5A
FFFFFC15
FFFFFC7D
0000104C
FFFFF4F7
FFFFEA26
000017DA
FFFFF610
FFFFEA34
FFFFF28A
00000A8D
00000CB3
FFFFFF36
