FFFFFDC6
00000132
000001BE
FFFFFE28
000001A8
0000009A
0000023C
FFFFFED2
FFFFFDBE
FFFFFE53
FFFFFF46
FFFFFE94
FFFFFF35
FFFFFE42
FFFFFFA9
0000006D
FFFFFF86
00000092
000000E5
00000183
FFFFFFBB
000001C5
0000006A
00000087
FFFFFE25
00000130
FFFFFE8F
FFFFFDC3
FFFFFEAD
FFFFFF52
FFFFFE63
00000104
FFFFFD16
FFFFFF74
FFFFFF32
00000038
00000303
00000219
FFFFFFF4
00000317
00000342
00000113
00000658
FFFFFB47
FFFFF8BB
FFFFF6F8
FFFFFDBF
FFFFF903
FFFFF695
FFFFF70A
0000005B
FFFFFD88
000000EF
FFFFFF75
FFFFFEB4
000001A4
00000114
00000226
FFFFFE84
FFFFFB6C
0000003A
FFFFFD8C
FFFFFF83
FFFFFDC5
FFFFFBDF
000003F4
00000B54
00000ADE
0000047B
00000B9B
000008E2
000001E2
FFFFFBE9
FFFFF708
FFFFE589
FFFFED18
FFFFF352
FFFFFAD3
FFFFFBA2
FFFFFD5A
FFFFFE65
FFFFFE2F
00000067
00000223
FFFFFE7A
FFFFFF71
00000B6A
00000672
FFFFFAD3
FFFFF9DC
FFFFFA04
FFFFFA81
FFFFFE55
FFFFFC17
FFFFFBB8
FFFFFFB8
00000759
0000090E
FFFFFE34
FFFFF5D0
FFFFF6EC
FFFFF8DB
FFFFF24B
FFFFEA6B
FFFFE27A
FFFFED09
FFFFFAB4
FFFFFF13
000005DC
0000033E
FFFFFF0C
FFFFFF92
FFFFFEDF
FFFFFF20
00000DDF
FFFFFB88
FFFFFB6E
FFFFFFF7
0000009D
FFFFFA8E
FFFFFE0B
FFFFF068
FFFFF75A
00000400
000004A5
00000986
0000038C
FFFFFD86
FFFFF905
FFFFF157
FFFFF6D9
FFFFEF26
FFFFED68
FFFFFFFB
FFFFFE11
FFFFF39D
FFFFFA11
FFFFF4E5
FFFFFA3F
FFFFFCCD
0000017E
FFFFFF25
000006A1
FFFFFABD
FFFFF8AE
FFFFFD3B
0000012B
00000465
00000320
FFFFFAB3
FFFFFC7C
FFFFFFCE
000004BF
00000802
000007BE
00000838
FFFFFD08
FFFFF596
FFFFF355
FFFFF3A6
FFFFEA11
FFFFEF67
FFFFF1F5
FFFFF02A
FFFFF765
FFFFFACD
FFFFF809
FFFFFE17
00000171
FFFFFFF0
FFFFFB8D
FFFFFE22
FFFFF768
FFFFFFC7
00000525
00000192
00000487
00000472
FFFFFED3
0000007B
00000333
000002E0
000004E4
000000D0
00000070
00000168
FFFFFBD2
FFFFF1E0
FFFFE9BC
FFFFF19C
FFFFEE6C
FFFFF3E1
00000250
00000871
FFFFF12F
FFFFFBF6
0000030F
00000A3B
000002E3
000003EC
FFFFFBDE
FFFFFD86
00000147
00000113
00000243
00000257
FFFFFC40
FFFFFD44
FFFFFFAF
000007B9
0000081E
00000669
00000A91
0000067E
FFFFF93D
FFFFF23A
FFFFF228
FFFFEDFF
FFFFF1D6
FFFFEFCA
FFFFFED9
00000963
00000100
FFFFF398
FFFFFB7A
00000A94
000002AF
0000021A
00000218
FFFFFFDE
FFFFF9D2
FFFFFC87
000000AD
FFFFFF27
00000293
FFFFFEF0
FFFFFBE6
00000363
00000A9E
000013C1
00000ECF
00000235
FFFFF784
FFFFF0CF
FFFFEBFA
FFFFEFA6
FFFFFA07
000002F4
FFFFFE8C
FFFFFEB9
FFFFFEC9
FFFFF358
0000016C
00000751
00000B6F
000003E4
FFFFFFB1
FFFFFC19
FFFFFB3C
FFFFFDD4
FFFFFB56
FFFFF9FC
FFFFFE3E
000000E0
000003B2
00000600
00000C83
0000184D
00000C00
FFFFFC5A
FFFFECCB
FFFFEE43
FFFFE885
FFFFF4F7
0000020E
0000043C
FFFFF7A7
FFFFFE60
000005F3
0000093E
00000268
00000734
00000276
FFFFEC54
FFFFF252
FFFFF3FD
0000006A
FFFFFDEF
FFFFFDE6
FFFFFB71
0000009D
000006FD
0000017C
00000919
0000108E
000015D4
00000C00
FFFFFDCD
FFFFEC23
FFFFEC45
FFFFEFC5
FFFFFCC7
00000112
FFFFFA4D
FFFFF935
00000701
000004F8
00000DFC
000005F2
000006AF
00000E35
FFFFF818
FFFFF5A9
FFFFF8EF
000003F3
0000070F
0000060B
0000048A
000005D1
00000479
FFFFFFCA
000005DA
00000FBC
00000CF3
00000A16
FFFFFE8E
FFFFF21A
FFFFECD3
FFFFF3B4
FFFFFFFF
0000027B
FFFFF9C4
FFFFF7A2
FFFFFF8B
FFFFED16
00000FEF
0000069C
000002A1
000010B8
FFFFFBE6
FFFFF631
FFFFF5C6
00000475
00000728
00000565
00000347
0000069B
FFFFFDA0
0000018C
00000210
00000AF0
0000090C
000007FF
FFFFFB2F
FFFFFA87
FFFFF326
FFFFF67C
00000206
FFFFF6D9
FFFFF9CF
00000041
00000434
FFFFF4BE
0000131C
00000624
0000026C
00000A7E
FFFFFE9B
FFFFFD54
FFFFFA66
00000477
FFFFFF40
FFFFFCD8
000002A4
000006F7
FFFFFEE7
FFFFFBCE
FFFFFDE9
0000028A
000002AA
000008A2
00000286
000003A9
FFFFF8BD
FFFFFD8E
000000B4
FFFFFB27
000001DB
000003C0
00000403
FFFFF9EE
000004E8
FFFFFB2A
0000018A
000006C6
000007C4
000005E5
FFFFFFBA
FFFFF49F
FFFFF425
FFFFFE3C
000002EE
000000F3
FFFFFE0F
FFFFFF5D
000000EC
0000050F
000003F7
00000615
000004DD
000000FA
0000014C
FFFFFAFB
FFFFFB69
FFFFFFC4
0000084A
FFFFFAAC
FFFFF8BF
00000893
0000067D
FFFFFE88
FFFFFD8B
0000018E
0000053F
00000C53
FFFFFBB5
FFFFF54D
FFFFF7FD
FFFFFEC8
FFFFFE3B
FFFFFD2D
FFFFFF9D
00000076
00000361
00000291
000004CA
00000444
000005E0
FFFFFA44
FFFFFB37
FFFFFBF0
FFFFFF03
0000052B
000007A9
FFFFFCA5
FFFFFBEA
00000C93
FFFFFC51
FFFFFFBD
000003C8
FFFFFF74
0000060E
00000723
FFFFFE37
FFFFFE84
000006D2
00000763
000005E7
FFFFFD1C
FFFFFB71
FFFFFF88
0000014C
0000006F
FFFFFED4
00000478
FFFFFE39
FFFFFBAD
FFFFFBCE
FFFFFF2B
0000015F
FFFFFF4A
00000271
00000079
FFFFF31E
FFFFFD6B
00000185
0000010A
000008C7
FFFFFB3D
FFFFFD8F
FFFFF930
FFFFFA52
000009A1
000002FB
000005B0
000004F1
FFFFFE30
FFFFF2EC
FFFFF6CC
000000E7
00000704
FFFFFF2D
FFFFFECA
FFFFF739
FFFFF7D8
0000005E
000001EC
00000090
000004FC
0000056E
00000844
000005A4
000007E9
FFFFF87E
FFFFFF43
000005C6
FFFFFEB9
FFFFFFD9
FFFFFCBE
FFFFF2EE
FFFFFC0A
00000398
000003D7
00000273
FFFFFBBA
FFFFF396
FFFFF3ED
00000719
000006C3
FFFFFB07
FFFFF487
FFFFFA81
FFFFFE17
00000003
000000FE
0000020B
000007AE
0000047E
00000C87
000008DB
000012E5
00000A13
0000025A
FFFFFBE4
FFFFFBDF
00000502
000006B3
FFFFF2AE
FFFFF57C
000003DC
0000015E
FFFFFEB0
FFFFF1B1
FFFFF22A
0000001B
000008BB
00000298
FFFFFBEA
FFFFF87E
FFFFF763
FFFFF928
00000027
000000A0
00000059
FFFFF65D
FFFFF7FB
00000233
000003AA
00000658
000009AE
000001DD
FFFFF6A7
FFFFF675
FFFFFE69
FFFFF9B6
FFFFEB18
FFFFFC51
00000073
FFFFFBE6
FFFFFA4F
FFFFF95D
FFFFFF98
00000CC3
0000091C
000006FB
FFFFFB6C
FFFFFBF3
FFFFFA0C
FFFFF908
FFFFF60E
FFFFFB2D
FFFFFEB1
FFFFF5D0
FFFFF9F6
0000017C
00000530
000004F3
00000599
0000013B
FFFFFF05
FFFFFEE7
000008B0
FFFFF8B6
FFFFF696
FFFFF7AD
FFFFFBDC
FFFFFD40
FFFFFEBA
000003B0
00000248
0000098A
000001CC
00000445
FFFFFD6E
FFFFFE0B
FFFFF78F
FFFFF5B2
FFFFF5D1
FFFFF7C4
FFFFFC0C
FFFFF6C9
FFFFF619
FFFFFC15
000006E1
000005E6
00000170
00000100
00000100
000003CC
00000B03
00000384
FFFFFDFF
FFFFFCE0
FFFFF9CD
FFFFF8B3
FFFFFE27
00000517
FFFFFE80
FFFFFF39
00000554
FFFFFFCB
FFFFFE15
FFFFFE18
FFFFFC34
FFFFFE3A
FFFFFFB6
0000037A
FFFFFA89
FFFFF876
FFFFFAA9
FFFFFDD1
000002DC
000007BD
FFFFFE99
FFFFFDDB
FFFFFF27
00000194
000008D8
00000226
0000007B
FFFFF62E
FFFFFFF0
FFFFF8EB
FFFFFF0A
00000739
000002D8
000009B2
00000A6A
0000011F
FFFFF938
FFFFFD9A
0000066D
0000009A
FFFFFB27
FFFFF7C6
FFFFFBB2
FFFFFAFD
00000052
FFFFFAFB
FFFFFD49
000007CD
00000167
000000CB
00000229
000005CB
00000250
00000527
000005B0
FFFFEEC9
FFFFF8B0
00000594
FFFFFFCB
00000704
00000CA7
000006EA
FFFFFE20
FFFFFA5F
FFFFFAA6
FFFFF9CC
00000970
FFFFFF50
00000791
FFFFFAD0
000005C4
0000098E
0000032C
FFFFFDCE
000007D4
00000B93
00000219
000000FD
000001C8
FFFFFF84
FFFFFDF4
00000A85
000001F6
FFFFF185
FFFFFA01
00000CB3
00000957
000000FF
00000255
FFFFFC07
FFFFFE04
FFFFFE01
FFFFF844
FFFFF5A4
FFFFFA85
FFFFFFED
FFFFF52C
FFFFFA9E
00000153
000001C7
FFFFFE7A
FFFFF6FD
000007A9
00000837
FFFFFDFF
FFFFFEDD
FFFFFF91
000000B4
FFFFFEE8
FFFFFF1C
FFFFFA28
FFFFF9E4
FFFFFD4B
00000AA8
000010EF
00000378
00000769
00000ABF
00000767
00000AA6
00000A1D
00000385
00000616
000007CC
00000028
FFFFFFC8
FFFFFE5B
FFFFF890
FFFFF7D2
FFFFFFD1
FFFFFF83
0000016D
000000A5
FFFFFE49
00000057
00000090
FFFFFE07
00000005
00000668
000002EA
FFFFFF68
00000004
000005F0
00000BC0
00000301
00000093
000002A6
FFFFF642
FFFFF554
FFFFFCBE
FFFFFE3F
00000330
000008CC
0000078D
00000AD4
00000952
FFFFFF97
FFFFFEB7
FFFFFF74
0000001F
00000191
