00000199
FFFFFFB4
FFFFFE4C
000000D8
FFFFFF89
0000005F
FFFFFDE1
FFFFFF9B
FFFFFE2F
FFFFFF88
FFFFFE97
00000001
00000133
000002E4
FFFFFC8B
FFFFFD31
FFFFFF36
00000243
FFFFFF60
00000145
00000108
000001F9
FFFFFE1E
FFFFFF36
0000014F
FFFFFFE4
FFFFFE8E
FFFFFDDB
00000128
FFFFFE33
00000237
FFFFFF8A
000000C9
FFFFFFC3
000005B9
000007F2
000008F0
0000061B
00000755
00000DEA
00000CF0
00000DA4
FFFFF582
FFFFF7FF
0000083D
00000EF4
00000D90
0000077E
000008F6
000007A5
00000408
000003ED
00000095
FFFFFFF9
FFFFFFE8
FFFFFF3F
000000E2
FFFFFFA9
00000058
00000E11
00000A7E
000002EA
000005FE
00000B34
00000E19
00000AF8
00000036
00000254
FFFFFD5A
FFFFF1D2
000001B9
00000177
00000173
000000A6
FFFFFC81
FFFFF71E
00000051
000008D9
00000FFB
00000C56
FFFFFD44
FFFFF980
0000012F
FFFFFFEE
0000002E
FFFFFE70
FFFFF6D8
00000A1C
000007BF
000002E2
000005F4
0000036F
000000AC
000008BA
00000449
0000055F
FFFFF58E
FFFFFEA6
00000546
000000AD
00000437
FFFFFE4E
FFFFF850
FFFFFE0B
000001F4
00000DF3
000006C1
00001044
00000936
FFFFFCB9
000006EE
000001F9
FFFFFF3E
00000098
FFFFF55B
FFFFF558
00000094
FFFFFC3C
000000C6
FFFFFF70
FFFFF0F0
FFFFFD78
FFFFF9F5
0000007C
FFFFFF84
FFFFFC05
FFFFFADF
FFFFFCEF
FFFFFDE6
00000396
000002EB
00000725
000006D4
000006D4
0000042B
000002FA
FFFFFE1E
FFFFFAB6
000003C4
00000B5A
000000F0
FFFFFF41
FFFFF384
FFFFF4E9
FFFFFFFA
FFFFF7C2
FFFFFC43
FFFFF932
000000B8
FFFFFEAF
00000374
0000051B
00000175
000002C7
000001D4
00000063
FFFFFF27
000004B8
00000569
000000D9
FFFFFFB6
FFFFFD3D
FFFFFD1F
FFFFFF1A
000004BF
00000B9D
00000D09
000009DF
FFFFFDC0
FFFFFC3B
00000AF7
FFFFF7EA
000004C1
00000AC1
000000D3
000003B3
0000026C
FFFFFE63
FFFFFFDC
000000C0
000002A4
0000024C
FFFFFEDD
FFFFFF69
000000E2
0000011A
00000064
000004ED
000003A0
000008A4
00000DAF
000002B6
00000529
000006F6
000007AD
0000088E
00000211
FFFFFCDE
00000838
FFFFF7B4
FFFFF962
000007AD
000002B1
FFFFFF94
000004FF
000004A2
00000517
000007E2
FFFFFC73
0000001B
FFFFFB4D
FFFFFF49
FFFFFDCB
0000024A
00000404
00000510
000004E0
00000915
00000D09
00000641
000002BA
FFFFFC49
0000058D
00000B26
00001074
000002E7
00000550
00000174
FFFFF96C
0000005F
00000AB5
0000000E
00000728
000002A1
FFFFFCDD
0000005F
000004CE
00000278
0000003A
FFFFFD54
FFFFFE5D
FFFFFDC0
FFFFFEC8
00000031
0000048D
0000075D
00000253
FFFFFAC3
FFFFFD8D
0000043E
FFFFFD5F
FFFFFDDF
0000052C
FFFFFB37
FFFFFA42
FFFFF912
FFFFF86D
00000311
000004E2
00000363
0000019F
FFFFFD96
FFFFFEBF
00000025
000002F6
00000361
000000A1
FFFFFA29
FFFFFC82
FFFFFEF4
FFFFFBD6
00000214
00000632
FFFFFE35
FFFFF3FD
FFFFFBC4
00000397
00000D6B
FFFFFB7D
FFFFFEA8
0000042B
FFFFFFD8
000000C2
FFFFFB93
FFFFFC88
000004EC
0000055A
00000123
FFFFFE28
0000037F
FFFFFD36
FFFFFE67
FFFFFFE4
FFFFFEB2
FFFFFE51
FFFFFAFC
FFFFFDE5
00000182
000000D4
FFFFFB89
FFFFFBF8
FFFFFA34
FFFFF959
FFFFFCCF
FFFFFF80
FFFFFE7D
00000231
FFFFFB22
00000195
00001065
000004AB
FFFFFB66
FFFFF30D
FFFFFDC0
0000062D
000004C5
000000DF
00000156
0000016C
0000052A
000003CF
000000F1
FFFFFDDB
FFFFFBD0
FFFFFE76
0000038F
0000007E
FFFFF9B6
FFFFF9A0
00000078
FFFFFE61
FFFFFCCE
FFFFFFC8
FFFFF73F
0000042D
FFFFF68D
FFFFFF24
000002CE
FFFFFD7B
0000040F
FFFFF5F1
FFFFFFCC
0000052D
FFFFFF59
0000003C
000006AE
00000303
000009BC
000004DF
FFFFFD23
FFFFF7CF
FFFFFC78
FFFFFFEA
00000077
FFFFFE60
FFFFFD06
FFFFFDDA
FFFFFE83
000000DE
000003D0
000003B1
FFFFF335
FFFFF772
FFFFEF96
FFFFF8D7
FFFFFFFD
FFFFF86A
FFFFFCC5
000001AB
00000044
FFFFF869
FFFFFA62
000003BF
000005CD
00000849
FFFFFF7B
FFFFFB97
FFFFFCB1
FFFFFAB3
FFFFFEE7
FFFFFED2
FFFFF744
FFFFFE19
FFFFFA73
FFFFF6F2
FFFFF731
000002C6
00000700
FFFFF9C9
FFFFF5B0
FFFFF374
FFFFF91F
000003A6
FFFFFCB8
FFFFF7D0
FFFFF68A
00000283
000005CC
FFFFFC1E
0000003A
FFFFFC0A
FFFFFED3
000002FC
FFFFFE6A
FFFFFD84
FFFFFD8B
FFFFFCD6
000000B0
FFFFFCCD
FFFFF9EB
00000051
FFFFF9CD
FFFFFDB3
FFFFFFCD
00000537
000002B3
FFFFFFAA
FFFFFF04
FFFFF598
FFFFFDB5
00000202
FFFFFE43
FFFFF441
FFFFF65D
00000149
FFFFFF1F
FFFFFE0F
000002E7
FFFFFDA6
FFFFFC2C
FFFFFBE0
FFFFFB32
FFFFFFCB
FFFFFE28
FFFFFAA1
00000247
FFFFFD7B
FFFFFC0B
FFFFFF8C
FFFFFE7E
00000205
00000328
0000038F
0000049E
000002AE
0000015D
FFFFEF78
FFFFFF9F
FFFFFEAF
FFFFFC31
FFFFF15D
FFFFF748
FFFFFD35
FFFFFC6E
FFFFF95C
00000268
00000437
FFFFFC7F
FFFFFF80
000001DA
00000448
FFFFFF9F
FFFFFEC4
0000032B
00000027
FFFFFC71
FFFFF8F5
FFFFFE20
0000081E
FFFFFCDE
000000BA
00000148
FFFFFD36
FFFFFF29
FFFFEBD1
000001D2
FFFFFEBB
FFFFFA90
FFFFFB6A
FFFFF99E
000001DB
FFFFFC39
FFFFF950
000000AD
000000AC
00000426
0000061F
00000303
00000535
00000468
FFFFFFCB
FFFFFF30
FFFFFF58
FFFFFDFF
FFFFFD22
00000151
0000060C
00000071
0000022E
000004D9
FFFFFDA3
000006F2
FFFFFAF1
000008C7
000006F9
FFFFF900
FFFFFBCF
FFFFF79E
0000035F
FFFFF8BE
FFFFFFDE
0000010E
000003EE
00000623
000003D9
0000044F
00000DBA
00000590
000003C1
00000261
FFFFFDBE
FFFFFC3D
00000146
000004F5
000001BE
0000037C
FFFFFFA1
FFFFFD73
FFFFFD63
FFFFF968
FFFFFD77
FFFFFB03
FFFFFBC8
00000621
00000654
000003B4
00000691
FFFFFDC4
FFFFFEB6
FFFFFDBF
000001F8
FFFFFF4C
0000032F
00000241
00001033
0000094B
000008EB
00000068
FFFFF7C7
FFFFFE85
00000396
00000439
000008DD
000002C5
FFFFFFB5
FFFFFCCD
FFFFFF73
FFFFF5A9
0000037B
FFFFFE00
00000094
00000918
000007CE
0000055B
000006C4
FFFFFF01
FFFFF7ED
00000283
0000025F
000001E2
0000051C
0000037F
00000ADA
000007C7
000005E7
0000007F
FFFFFA06
FFFFFCB0
FFFFFFA4
000003D8
000000DE
FFFFFB8D
FFFFF8BD
FFFFFA8A
FFFFFD18
FFFFFF32
00000068
FFFFF7FF
FFFFFB70
FFFFFB61
FFFFFF17
FFFFFE76
000000EB
FFFFFAA9
FFFFF952
FFFFFF91
0000028F
0000057A
0000028F
000006D4
00000654
00000081
00000043
000001A4
FFFFFE27
00000465
FFFFFFAD
FFFFFEB4
FFFFFBB5
FFFFF731
0000033B
00000293
FFFFFD7E
00000381
000012C5
00000126
FFFFFC42
FFFFFB62
000006FB
00000338
FFFFFBA0
FFFFFA79
FFFFFD48
0000022D
FFFFFC1A
000000BC
000004F9
0000068C
00000634
000001E5
00000219
0000016E
000003F4
00000382
FFFFFF98
FFFFFC5F
FFFFF5A0
FFFFF3A1
FFFFFBDD
FFFFF6D0
FFFFFAAF
FFFFFBD3
00000242
0000026D
FFFFFE31
FFFFFE94
FFFFF277
000007F2
00000775
FFFFFD69
00000294
00000342
0000004F
00000105
00000367
00000336
FFFFFF73
FFFFFD37
00000214
FFFFFF4D
FFFFFE64
0000009F
FFFFFB25
FFFFF760
FFFFF525
FFFFF78A
FFFFFA55
FFFFFE0B
00000039
FFFFFB2B
FFFFF67C
00000204
FFFFFF23
000000A0
00000245
000006A2
00000B44
00000BC7
0000018C
FFFFFF57
FFFFFF97
000001A5
000003A3
FFFFFC83
FFFFFE91
00000532
000000C0
00000210
000006C5
FFFFFD54
FFFFFA41
FFFFF297
00000284
FFFFF36C
FFFFF9B9
FFFFFD22
0000030B
FFFFFFEC
FFFFFC14
FFFFFF5A
FFFFFE7F
0000001A
FFFFFE72
000004C4
FFFFFC5D
FFFFEEA1
FFFFF7B2
FFFFFDE9
FFFFF276
FFFFFB49
0000022D
000009F5
FFFFFC56
FFFFFD51
FFFFFAA3
FFFFFE40
00000057
FFFFFE10
FFFFFBF8
FFFFFFD0
FFFFFE7D
00000B7A
00001295
00001060
00000ECD
FFFFFF1F
FFFFFF5C
FFFFFF8E
00000227
00000080
00000050
FFFFFFEA
FFFFF7A1
FFFFECA5
FFFFEB3E
FFFFFE5E
00000F04
000005F5
FFFFF2F8
FFFFFB68
0000109C
00000FAF
00000010
FFFFFE43
0000008F
FFFFFDEC
FFFFFF63
0000073C
FFFFFCE6
FFFFFB27
FFFFFF71
000004F3
FFFFFE21
00000075
00000073
FFFFFF26
0000000C
00000196
FFFFFF47
000000B4
FFFFFDDB
000002DA
000009D9
00000712
0000080E
00000263
FFFFFAA0
00000523
00000900
0000029F
00000454
FFFFFAEA
00000155
000006AD
000004A4
0000025E
FFFFFFC9
FFFFF27D
FFFFF8B0
FFFFF670
0000019B
FFFFFF71
00000048
000001C5
