000007DF
00000AE0
00000ED8
FFFFE8F7
00000E89
FFFFFE4F
00000B3D
00000B74
00001E90
FFFFEB52
FFFFF105
FFFFE4FF
FFFFF9CD
0000041F
00000FDE
FFFFFDD4
000011A5
FFFFE5F3
0000075D
FFFFFE8E
FFFFF9CE
FFFFF91C
FFFFE669
0000008F
FFFFF3E7
00000A42
FFFFFE48
00000CCC
FFFFF8F6
FFFFF2DB
FFFFFB63
00000DAA
