FFFFFAD7
FFFFE4E3
FFFFFCF8
00000AD2
000010C7
FFFFFE6A
FFFFF9C3
0000050E
0000045B
000009B8
00000917
FFFFED71
FFFFFF30
FFFFF94B
FFFFEC6F
FFFFFF04
00000605
00000735
FFFFFBA5
00000015
000005BF
00000156
00000990
0000051B
000007BC
FFFFFF53
0000000B
FFFFFFA5
FFFFFDAD
0000029D
00000323
0000015E
0000059B
FFFFFFE5
000001D6
00000335
0000056A
00000917
000004CC
FFFFF31C
0000040B
FFFFF3C8
FFFFED7E
FFFFFFB2
FFFFF955
FFFFF74C
FFFFF1BB
0000097C
FFFFE715
FFFFFFB2
FFFFFC9C
0000051B
000004AE
FFFFFEA2
FFFFFCAA
FFFFFE59
000002BF
0000009B
00000500
00000CE6
FFFFE1D7
FFFFFBAD
FFFFEF96
FFFFFA2F
FFFFFF3A
00000D9F
00000737
000007F3
000007A1
000004A9
FFFFF785
00000A70
00000279
FFFFFF58
FFFFE7D6
0000066F
000004C8
FFFFFFF6
FFFFF7E0
000003D8
FFFFEDC8
000003CA
00000B1F
000002C6
000000C4
000004CA
0000097A
00000131
FFFFFB67
FFFFEB9C
0000027E
FFFFE7F9
FFFFFE17
0000026B
00000613
00000323
000010DB
FFFFFFAF
FFFFF967
000009D1
FFFFE712
000006CC
00000AC7
00000B0A
00000433
000004D4
FFFFFFC3
000010DA
00000270
FFFFF44F
FFFFF526
00000759
00000096
00000C64
00000490
000001AF
FFFFFD45
0000039B
00000682
000003D3
000004E1
FFFFFCBD
0000004A
FFFFFDA1
FFFFFDE3
FFFFFC60
FFFFFC20
000003AC
