FFFFFC83
FFFFE7E4
00000252
FFFFFFB4
FFFFEE6B
00000C8D
FFFFFED4
00000BA2
FFFFFD69
FFFFFF65
FFFFFDA3
FFFFF266
FFFFFFA6
00000842
FFFFFD6B
000012AA
FFFFFF8F
00000222
0000014C
00000983
0000089D
00000126
00000210
00000461
FFFFF999
00000267
0000087A
00000430
000003C5
00000B02
FFFFFFE4
00001010
FFFFEB43
000000F7
000004F0
FFFFE74A
00000AF1
00000E7D
00000183
00000BFA
00000F75
FFFFFC47
FFFFFA7B
00000845
00001102
FFFFDD4B
000003FF
FFFFF3D6
0000170E
FFFFECDB
FFFFF337
00000205
00000831
FFFFF7DE
0000054D
00000EBA
00000611
FFFFF79A
00000766
FFFFF51D
FFFFF541
000000DD
FFFFF76A
FFFFFCF3
FFFFFE18
00000439
000004E3
00000B9F
000000AB
0000014D
00000014
0000049D
FFFFFFD7
FFFFFA3A
FFFFFB0D
00000178
0000034C
0000034B
FFFFFEE1
0000040C
FFFFFF57
00000891
0000035F
0000089D
00000485
00000B26
00000020
0000081C
000001E9
FFFFE89A
0000013A
FFFFFC98
000002BF
0000030A
0000092B
00000EB8
FFFFF66E
000000DC
FFFFFB72
00000272
000006E9
000000C7
00000ADE
00000878
000004A5
FFFFFB6F
00000E55
FFFFFEE0
FFFFFA01
000000A5
FFFFF61B
00000487
FFFFFB88
FFFFE9D5
000004CA
FFFFFE93
FFFFFF29
00000C16
000006D2
00000451
FFFFFF48
FFFFEC75
FFFFFC1F
00000857
000008D3
FFFFFACE
00000027
FFFFF9C3
