00000134
0000005B
FFFFFFBF
0000010D
0000009D
FFFFFEC6
000001A4
FFFFFFA1
000000AF
FFFFFE61
00000027
FFFFFF9C
00000087
00000661
000008C4
000004CC
0000020C
00000194
FFFFFDF2
00000145
000001E3
FFFFFDE1
FFFFFEF8
00000240
FFFFFF1A
FFFFFF37
00000011
00000033
FFFFFE7B
FFFFFFC4
00000179
00000122
000001A5
FFFFFEDB
FFFFFE36
FFFFFF07
FFFFFE9F
FFFFFD0A
00000457
00000461
FFFFFFB4
FFFFFF74
000000D3
FFFFFCF6
00000037
FFFFFF27
FFFFFC6A
FFFFFBBC
FFFFFB99
FFFFFE9F
FFFFFE19
FFFFFDCA
FFFFFF3F
000001DD
0000012A
000001B5
FFFFFE1C
000001BB
FFFFFF2C
FFFFFD31
FFFFFFF3
FFFFFE4B
FFFFFE5F
FFFFFEFE
00000331
00000341
FFFFFE19
FFFFF8D9
FFFFF670
FFFFFFC9
00000782
000009E3
000003D7
FFFFF990
FFFFF2B0
FFFFFA6E
FFFFFE63
00000503
0000017D
00000694
00000564
00000662
0000007A
0000016A
0000004D
FFFFFFDC
00000BC6
00000665
FFFFFE80
FFFFF804
FFFFF84B
FFFFF695
FFFFF428
0000034D
FFFFF5B2
FFFFED95
FFFFFB0C
FFFFF634
FFFFF64B
FFFFF4E6
FFFFF754
FFFFF19C
FFFFF371
FFFFF848
FFFFEDBF
FFFFF903
00000159
FFFFFC85
00000A46
00000871
00000870
0000002D
FFFFFF78
FFFFFE94
00000B9D
FFFFF26E
FFFFF924
FFFFF476
FFFFF723
FFFFF423
FFFFF52C
FFFFFC92
FFFFFC9F
FFFFFEE4
FFFFFF72
00000104
00000136
FFFFF63D
FFFFF5FA
FFFFFF75
0000052C
000001F9
FFFFF9EF
FFFFF160
FFFFF88F
00000AD2
00000666
0000014A
FFFFF9CD
000001E0
FFFFFF47
000000A8
000006B7
FFFFFAE6
FFFFFDD0
FFFFF88B
FFFFF81C
FFFFFC6D
FFFFFC66
FFFFF8E1
FFFFFB6F
FFFFFD37
FFFFFA1F
FFFFFA6A
FFFFF9CD
FFFFFE67
FFFFF6F0
FFFFF503
FFFFFE30
00000368
000004F6
0000020B
FFFFFF7A
0000031A
000007AD
0000053D
000008A1
000002F6
FFFFFEF6
FFFFFBE2
FFFFFBB5
FFFFF2A3
FFFFF7FA
FFFFF605
FFFFFA6B
FFFFFE09
FFFFF50D
FFFFEE8C
FFFFF396
FFFFFB17
00000505
FFFFFD90
000000CF
FFFFFFBC
FFFFFF78
000001DC
0000076D
FFFFFF48
000005C8
000003C2
FFFFFB0E
FFFFF875
FFFFFBA0
000005F8
00000F5A
000005CD
0000024A
FFFFF56D
FFFFFC89
FFFFEEF5
FFFFF45F
FFFFEEAD
FFFFEA03
FFFFF2DD
FFFFF4BE
FFFFF196
FFFFF593
00000352
00000039
00000291
00000587
FFFFFF10
00000581
00000A3D
00000916
000000F6
000009A8
0000114B
00000793
FFFFF8DA
FFFFF4C3
FFFFF758
00001639
000009BC
FFFFECCF
00000A67
FFFFFE87
FFFFFBF2
FFFFF60F
FFFFF07A
FFFFF5BA
FFFFF747
FFFFF77A
FFFFF890
FFFFFCEB
FFFFFED3
000000A3
00000487
0000064A
000001F3
FFFFFF31
00000B28
0000061C
0000080A
0000082F
000008B4
000001D8
000000FA
FFFFFE51
FFFFFD9A
00000787
FFFFFDDA
000001A2
FFFFF551
FFFFFDA4
00000DB9
FFFFF41D
FFFFF69F
FFFFFB01
00000036
FFFFFDC2
000000EB
FFFFFBFD
FFFFFB03
000000F2
000004DD
0000082B
00000AC7
0000049B
000006EC
00000B5E
00000591
FFFFFE29
00000614
00000076
FFFFF62D
000003DC
00000425
000005B7
00000317
0000033F
FFFFFDF6
FFFFFB52
FFFFF891
FFFFECC0
FFFFFE87
000005CD
000003A8
FFFFFC07
FFFFFC7B
FFFFFC70
FFFFF5A3
000001F0
00000646
00000EAF
00000F23
00000441
00000646
000001F4
FFFFF741
FFFFFAF8
00000B04
FFFFFB23
FFFFF30E
FFFFFAB9
00000804
00000B60
0000009E
00000359
FFFFFEDA
FFFFF84F
FFFFED7A
FFFFF09A
FFFFFD16
000002AC
FFFFFE2C
FFFFF108
FFFFF69B
FFFFFC29
FFFFFC1D
000000D3
000001D4
00000797
00000AB1
000000DC
FFFFF7B9
FFFFEF62
FFFFEA72
FFFFF86A
000002D7
FFFFF9CE
FFFFE94B
FFFFE7B7
FFFFFEE4
FFFFFE7C
0000059F
00000003
FFFFFDC4
FFFFF5EE
FFFFF8A3
FFFFFAE9
FFFFFF93
FFFFF9D3
FFFFF869
FFFFF68F
FFFFF530
FFFFF407
FFFFF6F6
FFFFFCE2
FFFFFDF4
00000292
FFFFFED9
FFFFFA81
FFFFF212
FFFFF46D
FFFFF0B7
FFFFF620
FFFFF81F
FFFFF8CC
FFFFE7CE
FFFFEFF2
00000759
00001429
0000066E
00000641
FFFFFCD7
FFFFFDD9
FFFFFE71
0000052D
00000730
FFFFF711
FFFFFD48
FFFFF45A
FFFFF27D
FFFFF6CA
FFFFF76E
FFFFFAF6
FFFFFACB
00000012
FFFFFCEE
FFFFFADC
FFFFF681
FFFFFBD1
FFFFF3D6
FFFFF0A4
FFFFF454
FFFFF74B
FFFFF2D2
FFFFF51A
FFFFFE34
0000177D
000006F4
0000028E
FFFFFF80
00000633
000003C9
FFFFFFC7
FFFFFBA8
FFFFF276
FFFFFF98
FFFFFADE
FFFFFA7D
FFFFF9E0
FFFFF4D0
FFFFF76C
FFFFFAB2
00000274
FFFFFDE1
FFFFFD37
FFFFF823
000002BE
FFFFF8F4
FFFFED7C
FFFFF864
000000E2
0000003B
FFFFFF0B
FFFFFDFC
000019A6
00000663
FFFFFFA8
FFFFFDC9
0000098B
0000091D
FFFFF9F1
FFFFF6E9
FFFFF3E8
FFFFF6FB
FFFFF933
FFFFF551
FFFFF9D4
000000D8
00000679
00000908
000002CB
000001C9
FFFFFE6B
FFFFFC2D
FFFFF257
FFFFED69
FFFFEE56
FFFFF85A
FFFFFA8F
FFFFFB34
FFFFFB6E
00000351
0000171E
00001143
00000007
FFFFFD3A
000000D3
000003CC
FFFFFB60
FFFFFF3F
FFFFFD2F
000001A6
FFFFF7FD
FFFFF545
0000001C
00000633
00000C06
00000C71
00000778
00000364
000001C0
FFFFF671
FFFFF075
FFFFEB98
FFFFF385
0000080E
00000B0C
0000005C
0000029C
0000153D
000014AC
00000B26
FFFFFF19
FFFFFFCD
FFFFFB93
0000044D
000005EF
00000574
0000088E
000006B1
FFFFFD3A
00000017
000001ED
00000836
00000BC9
000009ED
0000073E
0000013B
FFFFFB28
FFFFF403
FFFFFBD4
FFFFFC1C
000002D9
00000D0E
00001198
000003EC
00000356
00000F35
00000563
0000139F
000000EF
FFFFFB9D
FFFFFA2D
0000063C
00000E89
00000547
000008E2
0000087F
0000026D
0000082A
FFFFFF63
000004AB
00000ECD
0000091C
0000038E
FFFFFAE6
FFFFF67A
FFFFFB32
000001F7
0000011A
0000051A
00000616
00000719
00000ACC
00000763
00000D61
FFFFF69F
00001214
FFFFFFC5
FFFFFB94
FFFFFF7F
00000257
00000657
00000444
000000A6
00000142
FFFFFD55
00000396
00000457
00000987
00001061
00000CA7
FFFFFF76
FFFFFE57
00000294
000001D5
00000432
000003FF
0000051A
00000818
000008B2
000011A3
00000704
00001609
0000112D
00000F52
FFFFFE4F
FFFFFD6D
0000065E
000002B3
000004E9
00000400
000002EC
FFFFFD2D
00000096
0000007E
00000727
00000A6D
00000F8A
00000376
00000317
000002C8
0000064F
00000467
0000076D
0000067A
0000035D
00000512
0000030C
00000C85
00000F98
0000112F
000009D9
00000554
0000047C
FFFFFA3A
0000050E
00000876
00000D6A
00000B89
FFFFFE6F
FFFFFCD0
00000126
00000739
FFFFFD6F
FFFFFF54
0000067B
000001B2
00000240
00000340
00000323
FFFFFF34
000002F5
00000370
00000643
000002D5
FFFFFED9
00000C15
000015CE
00001127
00000E3D
00000199
000001AC
FFFFFD26
FFFFFF2B
0000074D
00000B19
00000BEA
000002FD
0000004B
00000330
000004B1
FFFFFEF0
FFFFF6DC
FFFFFC06
0000011D
00000465
00000296
000001E1
FFFFF82D
000000DD
0000066F
000008F3
0000031E
FFFFFDDC
00000A50
000014AA
00000D9A
00000239
FFFFFEDF
FFFFFF4C
FFFFFDD2
FFFFEEB2
FFFFF970
0000047F
00000385
0000026E
FFFFFB55
FFFFFAAD
00000048
FFFFF706
FFFFF93D
00000295
000001DA
FFFFFF70
00000782
000001EC
FFFFFC86
FFFFF821
000002A0
FFFFFF44
FFFFFCEF
00000037
0000050F
00000071
0000056B
000007D1
00000198
00000047
FFFFFF5C
FFFFF8B7
FFFFF501
FFFFFA90
FFFFF7D2
FFFFFDC3
FFFFF470
FFFFEC5A
FFFFF44B
FFFFFADC
FFFFFD17
FFFFFB56
FFFFF976
00000283
FFFFFACA
FFFFF01B
FFFFFCB1
0000041A
000002AE
FFFFF533
FFFFFBE4
00000144
FFFFFB71
00000D60
000008BE
000004BE
FFFFFF37
FFFFFF52
FFFFFDC2
FFFFFEE3
000008DD
00000C4B
FFFFF99F
FFFFFC79
FFFFFB7F
FFFFFA7F
FFFFF601
FFFFEF87
000002BC
FFFFF575
FFFFF762
FFFFFE18
FFFFF3F6
FFFFEFFD
FFFFF9F0
FFFFFAFE
FFFFE721
FFFFF3A4
FFFFFC9F
000004C6
00000837
00000771
000004BA
00000814
FFFFFF25
FFFFFED9
0000004A
000001FB
FFFFFEF5
0000033B
00000425
00000511
000005BD
000003B5
FFFFFF66
FFFFF627
FFFFFC2F
0000062C
00000113
FFFFF5E3
FFFFF308
FFFFEFF5
FFFFEFE9
FFFFF396
FFFFF7E6
00000002
000001B7
FFFFFE45
FFFFFC63
00000017
000001DF
FFFFFDC1
00000235
00000073
FFFFFEB0
0000006C
FFFFFFCF
00000239
00000714
00000224
000000D4
FFFFFFCB
FFFFFD79
FFFFFEF8
00000098
FFFFFF91
00000002
FFFFFBD2
FFFFFDFE
FFFFFE81
000001BF
FFFFFFEF
000001AE
000001C2
000003AA
000003AD
0000056B
0000007D
FFFFFFF2
FFFFFF57
000001DC
