00000142
00000060
0000002F
0000011C
00000135
FFFFFFAF
00000214
0000017A
00000045
FFFFFE13
000000E0
0000005C
FFFFFF91
00000539
000007B2
000008DA
00000228
00000154
0000015D
FFFFFF64
FFFFFE59
FFFFFE32
000001D4
000001CD
00000115
000000C6
000000C3
00000032
000000CF
0000008B
0000001B
FFFFFF13
0000009C
000000A5
000005B9
00000574
000001AF
000001BE
00000098
0000024A
FFFFFF1A
FFFFFC7D
FFFFF623
FFFFFCFC
00000F3E
00000DFB
FFFFFD1D
FFFFFF27
FFFFFEC0
FFFFFEEC
000003FB
0000036A
00000211
00000009
00000146
000001D3
FFFFFEA7
FFFFFE05
00000224
FFFFFF93
FFFFFCEB
000003B1
00000CD5
00000F46
0000119E
000011CF
00001482
00000AED
00000618
FFFFFF10
FFFFFED0
FFFFFD51
FFFFFC12
FFFFF82B
FFFFF932
FFFFF278
FFFFFD84
FFFFFD49
FFFFFEFD
00000930
00000510
0000063C
00000235
FFFFFF36
0000017C
000000C5
00000E68
00000674
FFFFFD6D
000002D5
00000BD2
000007AB
00000E51
000010C3
000009BF
000008CE
00000843
000004E6
FFFFF97C
FFFFF94B
FFFFFA49
FFFFF3FA
FFFFF84C
FFFFFBF0
FFFFFF4D
FFFFF899
FFFFFD2F
000002B3
00000049
000004AB
FFFFFE4B
00000055
000001BE
FFFFFE38
00000EDA
FFFFFBFE
FFFFF97C
00000759
00000F9B
00000BE2
0000080B
00000784
0000090E
000000BB
FFFFF8B5
FFFFFB42
FFFFFF99
FFFFFED6
FFFFFFB3
FFFFF559
FFFFF2A8
FFFFFFFA
FFFFFB64
FFFFF8B6
FFFFF93F
FFFFFA1D
0000021E
FFFFFD03
FFFFFBE6
FFFFF751
FFFFFE9B
FFFFFF2B
00000E01
000000F6
0000035E
0000038B
00000079
000006B4
FFFFF855
FFFFFA5E
FFFFF5D7
FFFFF2CE
FFFFF8E6
00000194
FFFFFF00
000004E4
00000857
FFFFFF50
FFFFF7BD
FFFFFCAB
FFFFF621
00000415
000002E8
000002F9
000005F8
00000548
FFFFFFF9
FFFFF6B0
FFFFFF02
FFFFFF84
FFFFF2F3
000006C8
FFFFFFBD
FFFFEF0C
FFFFF68C
FFFFF90F
FFFFF32C
FFFFFDBF
0000053E
FFFFF983
FFFFF6B0
FFFFF9CE
FFFFFD95
000002FC
000000F0
FFFFF8D1
FFFFF5FB
FFFFFC9E
FFFFF7E6
FFFFFAE0
FFFFFAEB
FFFFFD6C
FFFFF6B6
000006DD
00000439
00000C53
FFFFFF14
0000033D
FFFFFA75
000000BA
000002C8
FFFFF715
FFFFFDF0
000002F3
FFFFF922
FFFFF781
000001F2
FFFFFA41
FFFFFA9B
FFFFFD33
FFFFFF52
FFFFFC68
FFFFFD00
FFFFFBB8
FFFFFB45
FFFFFCE9
FFFFFB48
FFFFFE9D
00000291
FFFFFBE9
FFFFF7BC
00000400
FFFFFECF
00000917
000000E1
0000038D
FFFFFD1D
FFFFF7C3
0000067B
00000265
FFFFFD05
0000063D
FFFFFC2F
FFFFFE81
FFFFFFD3
FFFFFE84
FFFFFD8F
00000556
0000053D
00000077
FFFFFB83
FFFFFDA3
FFFFFB5C
FFFFFD75
000000C9
FFFFF8BD
000000E7
00001076
FFFFFE42
FFFFF860
000008AE
000006E7
FFFFFB9A
000002F3
0000060F
00000151
000009CD
00000C82
000008E6
00000540
00000578
000002FD
000003C5
0000055F
00000DEC
00000954
000005D9
00000047
FFFFF9A6
FFFFFF9B
FFFFFA47
FFFFF85D
FFFFFB9A
FFFFF28E
0000016B
00001571
FFFFFB5A
FFFFFB6B
00000F0C
00000947
FFFFFD64
FFFFFFE7
00000383
00000500
000009D9
000013FF
0000100E
00000EB7
00001154
000009B5
00000E4E
00000F02
00000452
FFFFFF3F
FFFFFA2F
FFFFF948
FFFFF62E
FFFFFECB
FFFFFEAA
FFFFFBC4
FFFFFB11
FFFFF900
000000AF
00000D54
000004FA
FFFFFD11
0000092B
00000B7C
FFFFFA81
00000301
FFFFF3E8
FFFFFB2D
000013D8
00001057
00000A0C
00001304
000012A3
00000BB5
000006C3
000006CB
FFFFF35A
FFFFF06F
FFFFFE74
FFFFFA57
FFFFFA38
FFFFFD89
FFFFFFBB
000000AB
00000378
0000015C
0000058A
000008D8
0000083C
0000093B
FFFFFA59
00000F59
FFFFFB56
00000297
00000E09
FFFFF720
00000810
FFFFFF62
FFFFFA78
00000437
FFFFFF2F
FFFFF593
FFFFF6B8
FFFFE86A
FFFFEA50
FFFFEEF9
00000097
FFFFFA1A
FFFFFEE5
000000FE
FFFFFD28
000004CD
00000777
00000B31
00000129
FFFFFC34
00000EF2
00001440
00000CC8
0000101B
0000056B
0000061C
00000C88
FFFFFF0D
FFFFF03A
FFFFEAC0
FFFFE943
FFFFEA1D
FFFFE974
FFFFE814
FFFFE703
FFFFE7E1
FFFFF33C
00000355
000004B2
FFFFFD96
0000016A
00000293
000000E5
00000237
00000877
000009BA
000001D6
FFFFFEA0
00000FAD
0000053F
00000D3D
00000B8B
000000A2
FFFFFDCA
00000590
FFFFFDEF
FFFFDF5B
FFFFDBB7
FFFFE12D
FFFFDF4B
FFFFDF46
FFFFDCD4
FFFFEC53
FFFFF84C
00000695
00000BB2
0000093F
0000007B
FFFFFBB8
00000264
0000002A
000003A3
FFFFFDA8
00000605
0000073F
0000093C
0000034B
FFFFFA15
000016B1
00000B24
FFFFFD5E
FFFFFC11
00000496
FFFFF354
FFFFD6B7
FFFFE111
FFFFED95
FFFFEA3E
FFFFEB79
FFFFEEBC
FFFFFD69
0000096A
00000C0A
00000F78
00000CE7
FFFFFDF0
FFFFFA4E
0000005E
00000468
000003DE
00000322
FFFFFD0D
000002A1
00000582
000005D8
000004B3
00000583
00000C08
FFFFFBC4
FFFFFD54
00000396
0000017C
FFFFE60B
FFFFEFE6
FFFFF573
FFFFF934
FFFFF93F
0000059F
00000915
0000098C
000006D3
00000ECF
00000512
FFFFFCB8
000000CF
0000054F
000002C4
00000273
FFFFF7B6
0000030B
00000331
000005C2
FFFFFDC3
000002E6
0000050B
0000075D
00000162
FFFFFCA6
00000438
000004DE
00000099
FFFFF9E3
FFFFF8F0
FFFFFD2D
0000066B
0000042F
00000A1A
00000B1C
00000985
00000A43
000004B9
FFFFFA04
FFFFFFB7
00000453
FFFFFE51
00000531
FFFFFFFF
FFFFFC67
FFFFFD29
FFFFF876
FFFFF7E9
00000A05
0000068C
0000119D
FFFFFF10
FFFFFE79
FFFFFFF1
000001FB
000004A2
FFFFFD4F
FFFFFDC6
00000B4C
000003AE
000001D7
000003F0
FFFFFF20
00000537
0000091E
0000043F
0000000A
00000237
000001D2
FFFFFEFF
000003A3
FFFFFEA3
FFFFF5C8
FFFFFF7B
FFFFFCA0
0000008F
00000D01
FFFFFECF
00000AF7
FFFFFBBB
000000EC
FFFFFF8E
FFFFF4A9
000003CD
000005AA
0000002A
0000072A
00000024
00000404
000002BB
000006C9
0000015F
00000821
00000782
00000659
FFFFFE3B
FFFFFB75
FFFFFDE7
0000013A
FFFFF716
FFFFF9E8
FFFFFB80
FFFFF944
FFFFF76C
FFFFFC0F
000003FF
00000634
FFFFFE00
FFFFFE95
000007FF
FFFFFFAD
0000017C
0000005D
000003D8
00000824
000002CF
000001D6
000002C4
000007FC
00000245
0000022A
00000451
0000029C
FFFFFB31
FFFFF617
0000019C
FFFFFE2E
FFFFFD86
000005E1
FFFFFFB9
FFFFF8AA
FFFFF8B6
FFFFFC68
FFFFFFCF
000000F1
000000A1
000001FF
00000B74
00000B27
00000D62
FFFFF864
0000010A
000001A9
FFFFFF6A
FFFFFF85
000003EF
00000049
00000639
000008D3
00000403
00000369
FFFFFAC9
FFFFFACB
000007C1
0000095D
FFFFFECA
FFFFFEAB
0000026E
000005D6
FFFFFEE3
000005E0
000005AB
FFFFFE44
00000249
000000AF
0000069A
FFFFF9C5
00000709
0000070E
00000099
FFFFFB8C
000001B4
0000041F
00000243
0000034A
FFFFFFDF
00000506
FFFFFF61
00000235
000000E4
00000819
000009C6
000007A4
FFFFFE38
FFFFFF86
000002F7
000008D2
00000483
000005DC
FFFFFB75
FFFFFFAE
FFFFFF11
FFFFFE31
00000281
FFFFED31
FFFFFD95
0000014E
00000088
FFFFF9DB
FFFFFE31
000006B6
0000030D
000000A1
FFFFFED5
0000050F
00000152
000008FA
00000ACA
000009C2
000009D4
00000264
000000BB
00000121
00000EBB
00000C0A
000000F4
00000154
00000193
00000222
00000047
000000E4
FFFFFBED
FFFFFDCD
FFFFFE46
FFFFF99C
FFFFF495
FFFFF0F7
FFFFF7CE
FFFFFC3C
00000157
FFFFFE4B
FFFFFFE9
FFFFFAE9
000003EB
00000A79
00000C51
00000A8E
FFFFFFED
00000347
00000207
000007D7
00000CBC
00000843
00000769
000004F8
000003B7
FFFFFDDA
FFFFFFEA
00000082
FFFFFEE6
00000181
FFFFF140
FFFFED64
FFFFF5F7
FFFFF638
FFFFF9B1
FFFFFADF
000002E5
FFFFF906
00000155
FFFFF7FC
FFFFFD7F
00000575
00000B39
0000042D
FFFFFCA8
0000010F
FFFFFD95
FFFFF043
FFFFF580
FFFFEE51
FFFFF10A
FFFFFFCF
0000030F
FFFFFEF5
FFFFFDE3
FFFFFF16
FFFFFDE8
FFFFFBB5
FFFFEA9E
FFFFEA08
FFFFF0C6
0000076F
FFFFFCE3
FFFFFB1A
0000032E
FFFFF8EC
FFFFF096
FFFFFE2A
FFFFF9D1
FFFFFA90
FFFFF07D
FFFFF03F
FFFFFA65
FFFFFCE1
FFFFF93E
FFFFEB26
FFFFF2D6
FFFFF9F1
FFFFF786
00000206
FFFFFFCD
FFFFFDFD
000001EB
FFFFFF85
00000142
FFFFFEE9
00000B15
00000C53
000008CB
000009E1
0000086E
00001090
0000117C
00000910
FFFFFB42
00000B21
00000B3F
00001423
00000FA6
0000060D
FFFFF8C5
FFFFFA1C
FFFFF309
FFFFEDED
FFFFF5A0
FFFFFF45
FFFFFF19
FFFFFE73
000000DF
FFFFFF4C
