0000019C
000000AC
000000D8
00000222
FFFFFFAF
FFFFFED9
FFFFFFBD
FFFFFFCB
FFFFFF25
FFFFFE1F
FFFFFEFF
FFFFFE81
00000285
00000506
000008FF
000003D1
FFFFFE63
00000112
000001FC
00000170
FFFFFFD7
FFFFFE95
00000206
000001F8
FFFFFEEE
FFFFFDFE
FFFFFDD5
FFFFFF1A
FFFFFF37
000000BE
FFFFFE22
FFFFFEA6
FFFFFF5A
00000197
00000229
00000490
00000606
00000554
00000362
00000182
00000133
FFFFF916
FFFFF4D3
FFFFF653
000006DB
000004C8
0000095C
000003D3
000005A2
000000D2
00000345
000001F5
FFFFFE5F
FFFFFF4D
FFFFFE7B
0000018B
000000DD
FFFFFF0B
000002FC
000001F6
FFFFFDE7
00000381
00000AFD
000008E6
00001151
00001332
00000E18
00000710
0000069B
FFFFFCE9
000005F6
000008D5
0000012F
0000027B
00000D3C
FFFFFA3D
FFFFFF70
000007A3
00000533
00000D5B
000006A3
000004B1
00000117
FFFFFE23
00000103
FFFFFF5D
FFFFF582
FFFFFFF5
00000748
000004EF
00000DCE
0000061D
000008FD
00000937
00000431
FFFFFEA7
000000B6
000003E0
00000019
000000F0
0000053E
FFFFF8F4
FFFFFC44
FFFFFFC2
FFFFF59F
0000094D
000000C1
000002D4
0000089E
FFFFFCED
FFFFFEBF
FFFFFDFB
000000F9
000000B4
FFFFF3D0
FFFFF638
FFFFFF64
00000CE4
00001108
00000AA5
00000962
0000083E
000008D8
FFFFFD79
FFFFF8C9
FFFFF62C
FFFFFAAF
FFFFFB4B
00000524
00000733
000000A7
00000530
000003E4
00000530
FFFFF9A5
000001D4
000000C2
FFFFFCF0
000004ED
00000B4C
FFFFFE01
00000049
FFFFFCC9
000004C7
0000080F
FFFFF809
FFFFFE10
0000014E
FFFFFFE8
FFFFFAEC
FFFFFECC
FFFFF671
FFFFFCE5
FFFFF7FD
FFFFFD3A
FFFFFC71
FFFFFCA3
00000050
FFFFFCDA
00000269
00000634
000006C9
00000381
00000045
FFFFFE9A
00000176
00000D00
00000C60
FFFFFF29
0000026F
FFFFFD1C
000001B7
00000588
FFFFFF0F
0000026A
000002E7
00000543
FFFFFFF5
FFFFF861
FFFFF99A
FFFFFC8B
FFFFF851
FFFFFB61
FFFFF675
FFFFF615
FFFFF46B
FFFFFB26
FFFFFF0C
0000062D
FFFFFD92
000003E1
FFFFFE9F
FFFFFFA8
000000EB
00000196
00000154
00000197
FFFFFB49
000002CD
FFFFFF15
00000BEF
000000A0
FFFFFF40
000000D7
00000731
FFFFFC41
FFFFFA59
FFFFFA0A
FFFFF8D6
FFFFFE64
FFFFFDE7
FFFFF822
FFFFFA6F
FFFFF8DA
FFFFF863
FFFFFAC7
FFFFFEDB
FFFFFDFB
FFFFFE88
FFFFF815
FFFFFD9C
00000950
00000063
0000010A
00000D2A
FFFFF954
00000943
000006C6
000007BC
FFFFFDA6
FFFFFC9A
FFFFFF69
FFFFFBE8
FFFFFB48
FFFFF891
FFFFFACC
000001FD
000000FA
FFFFFFEB
FFFFFC01
FFFFFDE4
0000024B
FFFFFE6B
FFFFFD08
FFFFFB30
FFFFFB06
FFFFF3D2
FFFFFC68
FFFFFBE5
00000081
FFFFFEE0
00000234
FFFFFF4D
FFFFF128
000001DD
00000356
000001BB
00000495
FFFFFDA3
000003BB
FFFFFE55
FFFFF6DB
FFFFF4DB
FFFFFD4A
00000016
FFFFFE44
FFFFFEDD
0000042D
00000453
0000077D
FFFFFE86
00000319
FFFFFD90
FFFFFD4C
FFFFF5A1
FFFFF394
FFFFFACA
00000274
FFFFFFC9
FFFFFA0E
FFFFFC43
FFFFF91B
FFFFF832
000005CA
00000810
00000C24
000005D9
00000666
FFFFFDF0
FFFFF8B3
FFFFFB49
FFFFFFB9
FFFFFEF0
FFFFF78D
FFFFFEB8
000004E9
0000046E
00000699
FFFFFFE3
FFFFFF8A
FFFFFC43
FFFFFD85
FFFFF033
FFFFF7A9
FFFFFF23
FFFFFCC5
00000390
FFFFF9CC
FFFFF995
00000DC5
FFFFF9FF
FFFFFFAD
00000134
000001C5
00000289
00000063
FFFFFF8E
FFFFFC34
FFFFFBC9
FFFFFFD5
FFFFFB27
FFFFEC15
FFFFF3EA
FFFFF6CF
000002C9
00000301
FFFFFFF3
FFFFFE6E
FFFFFB38
FFFFFC00
FFFFF683
FFFFFEBF
00000303
00000C2A
0000073D
FFFFF307
FFFFF81E
FFFFFDD7
0000009A
0000041A
000001CC
0000038B
FFFFFFA8
FFFFFD5C
FFFFFCCD
000002FE
00000309
000000D7
FFFFF978
FFFFED98
FFFFECF3
FFFFEF18
FFFFFDFE
FFFFFD95
FFFFF9EF
FFFFFBDA
FFFFFDDD
00000125
FFFFFD6A
FFFFFD2E
00000685
FFFFFBF5
FFFFF822
FFFFF4F9
00000647
00000010
FFFFFEEF
000004E5
FFFFFD02
FFFFFE3B
00000467
00000466
00000646
000003F1
00000064
FFFFFDB3
00000062
FFFFFCC5
FFFFF51C
FFFFF862
FFFFF83A
FFFFFDEF
FFFFFC0E
FFFFFE68
FFFFFBC4
FFFFFCDA
FFFFFE85
000001C3
000001BB
FFFFFEEA
000006AE
00000A8B
00000359
FFFFFD58
FFFFF84C
0000020F
000000B5
00000223
00000983
000006E7
0000043F
0000057D
000000B0
00000413
00000887
000008FC
000003ED
00000293
FFFFFE7F
FFFFFA4F
FFFFFACF
FFFFF8A4
FFFFF700
FFFFFD79
00000606
000006C5
00000934
000011EF
0000119D
000005F2
FFFFFFC5
FFFFFE62
00000163
00000850
000002C9
00000A1F
000005C3
00000862
00000549
00000275
FFFFFF00
FFFFFFF9
000009CF
00000A79
00000AB6
0000022F
0000040C
FFFFFDCF
FFFFFC05
00000101
FFFFF860
FFFFF7FD
FFFFFC6B
000005B4
00000A45
0000123C
00000F61
00000F66
FFFFFF20
FFFFFEF0
FFFFFD81
0000066A
000003C1
000009C7
0000060D
00000811
00000272
FFFFFE4A
FFFFFFC5
FFFFFE90
000005E0
0000058A
00000907
00000745
0000039B
0000019C
FFFFFEE6
000000E5
FFFFF93E
0000017A
000002C9
000006CD
0000094F
00001BC2
00001170
00000CC6
FFFFFF6F
FFFFFD9F
000001D0
FFFFFC68
00000505
0000010A
00000113
FFFFFEC2
FFFFFF76
FFFFFFDD
0000010F
FFFFFF1B
000002D2
00000454
00000457
000000FB
000000FA
FFFFFEB8
0000007A
FFFFFA26
FFFFFC9C
FFFFFF49
000000CA
00000340
FFFFFCA0
000009FE
FFFFFE47
00000F10
FFFFFA6C
FFFFFD6E
FFFFFF83
FFFFFAF7
00000045
FFFFFB41
FFFFFCFD
FFFFFF7F
FFFFFF94
FFFFFE58
FFFFFF1D
00000116
00000A54
000006AF
0000079C
000002B1
000003CD
FFFFFDC2
FFFFFA15
FFFFFC1F
FFFFF9EA
FFFFFC58
0000000F
00000020
000004C1
00000BF6
FFFFF00A
00000682
FFFFFDA1
FFFFFBAA
FFFFFDA7
000001A1
FFFFFDE7
FFFFFD89
FFFFF709
FFFFFF40
FFFFFD7A
FFFFFE2E
00000644
000000C5
0000015F
0000065F
0000078A
0000057D
00000783
000003EA
00000316
FFFFF858
FFFFFE97
FFFFFD0F
FFFFFFF6
0000087D
FFFFFB08
00000A84
000009FC
000003CB
FFFFFFF0
FFFFFB83
00000871
000005CF
FFFFFCBB
FFFFFF77
FFFFFC34
FFFFFEB8
FFFFFD59
FFFFFE84
000005DF
000006C0
000001B8
000000E1
00000398
0000075B
000003D4
00000292
00000046
FFFFFC68
00000257
0000048B
00000286
000000BA
FFFFF6C8
FFFFFEF6
00000455
FFFFF54F
000001A4
000000D6
00000507
00000687
FFFFFF29
FFFFFB55
FFFFFD25
0000005D
FFFFFD7F
FFFFFD9D
00000119
0000022D
00000062
FFFFFF27
FFFFFFEC
0000013D
FFFFFD35
000003CD
000000AC
FFFFFC27
0000030B
00000077
00000670
00000BDD
FFFFFF45
0000065C
00000E1E
FFFFFF6C
0000001C
FFFFFFD2
000004A0
00000FDC
000002F4
000006BC
000000BB
FFFFFFBA
FFFFFD95
FFFFFE30
FFFFFD0A
0000005E
000000B5
00000256
FFFFFF80
00000103
FFFFFD5D
000001B3
0000034D
00000511
00000504
00000C3B
000005CC
00000128
FFFFFE8B
000005A2
000002A2
0000014C
FFFFFFBD
00000186
000004A7
00000CEB
00000464
FFFFF847
FFFFF521
FFFFF24E
FFFFFD88
FFFFFAFB
FFFFF8A1
FFFFF60B
FFFFF93A
00000083
0000057C
00000658
FFFFFFC1
000002D8
000008A9
00000962
00000929
0000120C
00000939
FFFFFC1F
FFFFF535
FFFFFE94
FFFFFF74
FFFFFEF4
000001EF
FFFFFDC3
FFFFFC46
FFFFFBD1
FFFFF973
FFFFF5C1
FFFFEF06
FFFFF27A
FFFFF618
FFFFF645
FFFFF6DC
FFFFF8C5
FFFFF7CA
FFFFFD54
000004CF
FFFFFD0C
0000041D
000000CA
00000C15
00000B7C
0000048A
00000363
FFFFFF00
FFFFF4BE
FFFFFC98
00000334
00000246
FFFFFE60
00000227
FFFFFDC4
000000F3
FFFFF62B
FFFFF9CC
FFFFF5E0
FFFFF7FE
FFFFF8A6
FFFFF8B7
FFFFF528
FFFFEE3A
FFFFFAAE
FFFFF5C0
FFFFFB5C
FFFFF68B
FFFFF7CE
FFFFFC4E
FFFFFD33
FFFFFBEC
FFFFF820
FFFFF9A7
FFFFF29F
FFFFF1D7
FFFFFFEF
0000024C
0000001D
000004A6
FFFFFE04
00000111
FFFFFEBE
000000A5
FFFFFF57
0000032A
FFFFFD43
FFFFFB37
FFFFF782
FFFFF047
FFFFE68C
FFFFECF0
FFFFFEEB
00000055
FFFFFAE8
FFFFF47C
FFFFFB91
FFFFF8F6
FFFFF9E5
FFFFF874
FFFFF718
FFFFF3C1
FFFFF802
FFFFF6C6
FFFFFB3F
FFFFFDB6
FFFFFFF5
00000147
00000055
00000046
FFFFFE96
0000001D
FFFFFDBF
FFFFFFB0
00000124
FFFFF92F
FFFFFB65
FFFFF89D
FFFFFC16
FFFFFE8C
000002CC
0000065A
FFFFFAB7
FFFFEF70
FFFFF875
FFFFF65F
FFFFED5C
FFFFF308
FFFFF917
00000508
FFFFFA6B
FFFFF6A0
FFFFF781
FFFFFDD8
000000A7
000001BE
000000D6
