FFFFFEFF
FFFFF516
00000C95
000006DE
000008ED
00000D29
FFFFF4A3
000009CE
00000D87
00000677
00000B9F
FFFFFC06
00000A21
00000B17
000000D2
000003D7
0000023D
00000C55
0000047B
00000B22
00000E0D
FFFFFD1F
00000B22
00000A7F
FFFFFD10
00000B29
00000634
FFFFFAEA
000009EE
00000C59
00000AE0
00000BAC
FFFFFE2B
00000C0D
00000317
00001143
FFFFFF8D
00000F58
FFFFFDA7
FFFFFEE0
00000AB2
FFFFFE49
000009E4
FFFFFD55
FFFFFE55
FFFFFD53
FFFFF725
FFFFFAAF
00000ED2
FFFFEAE1
0000028E
FFFFFEF7
000005D0
000009CB
00000691
000010DE
000012C8
00000349
FFFFFB56
000004B4
00000596
FFFFFDE4
FFFFFC7E
FFFFF6C8
0000059A
FFFFFF90
FFFFFF19
00000952
00000831
00000633
00000123
FFFFFC20
0000080C
00000B30
000005A7
0000045E
000002C4
000006EF
0000021A
00000B26
000005BC
000005F6
00000BDC
FFFFF687
0000066C
000002B6
FFFFF967
00000A20
00000B0B
FFFFF399
00000694
FFFFEC82
0000095F
00000BAE
00000B8A
000016FF
FFFFFFCD
00000082
FFFFF847
FFFFF6BE
000000B4
FFFFFB0C
00000482
FFFFFB30
FFFFF9CD
FFFFFC6C
000008DA
FFFFF6F0
FFFFFFE9
FFFFF63B
FFFFF9B9
0000095E
000012C3
000003B9
FFFFFCA3
FFFFF9E8
00000DD1
000004C0
000003B9
00000A2C
0000039D
000006BA
0000033F
0000033D
0000035B
FFFFFFA9
00000574
00001A57
