00000189
00000024
FFFFFF9F
FFFFFDC4
00000135
00000027
000001E1
FFFFFDE9
FFFFFF0E
FFFFFF67
000001D4
0000012C
00000836
00000490
00000121
FFFFFF70
00000018
00000107
000001FB
FFFFFEF0
0000003C
000001F1
00000162
000001C3
FFFFFE8B
00000043
000001E4
00000045
FFFFFF9E
FFFFFE00
FFFFFF52
FFFFFF1C
00000054
00000228
000002EF
000001C5
00000144
00000308
000003D3
FFFFFFE8
00000216
000007E7
00000EE8
00000D0B
FFFFF927
FFFFF6D9
0000099D
000009B8
00000B2E
0000075A
0000049A
FFFFFE5C
00000011
0000001D
FFFFFDDF
0000021D
00000135
FFFFFDCB
FFFFFE6B
FFFFF574
FFFFFB5D
00000196
0000052B
FFFFFEC1
FFFFFD9A
FFFFFAC2
FFFFFEC8
0000030B
000000D6
0000064B
00000383
0000043B
00000078
FFFFF1DE
FFFFF53D
FFFFFD8B
00000595
00000806
00000C3A
FFFFFD57
FFFFF76B
FFFFF9E4
000001BA
0000000F
000001BE
FFFFFED6
FFFFF870
FFFFF8D9
FFFFFF07
FFFFFA3C
FFFFFAD5
00000026
FFFFE9EB
FFFFEBEA
FFFFFB8B
000000DF
FFFFFF8A
FFFFFCB2
000000FF
FFFFFFAC
FFFFF189
FFFFFD6B
FFFFFE4C
FFFFF57B
FFFFFB2B
0000095F
0000112F
00000DB1
FFFFF6DC
FFFFFCFE
FFFFFA5E
FFFFFFC3
FFFFFEEE
0000004D
FFFFF4E5
FFFFFB3E
FFFFF792
FFFFF890
FFFFF6DE
FFFFF503
FFFFE981
FFFFF340
FFFFF245
000001F5
0000008E
00000063
FFFFFF29
FFFFFC3B
FFFFFF87
FFFFFBE2
FFFFFD81
FFFFF97C
FFFFFC4A
000009C4
00000992
00000F09
00000890
0000069C
00000E7A
000002CA
00000102
FFFFFE45
FFFFFC92
00000281
FFFFF5B4
FFFFFFDE
FFFFFD95
FFFFF31E
FFFFEEF4
FFFFF96F
FFFFF76D
0000038E
00000525
00000306
FFFFFE21
FFFFFC61
FFFFFB0B
00000113
FFFFFE91
00000162
FFFFFF09
FFFFFD9A
FFFFFCA9
FFFFF6EF
FFFFFE57
FFFFFDC3
00000AD2
00000604
FFFFFE13
FFFFFBB8
0000055A
0000017F
000004E1
000009FD
00000944
FFFFFC10
FFFFFC86
FFFFF4B7
FFFFFBEC
000002B3
00000336
FFFFFFD6
0000005C
FFFFFCB9
FFFFF9E6
0000018B
00000239
00000482
00000BD4
0000009B
0000015A
0000046B
000005D0
00000989
0000030D
FFFFFA92
FFFFFF80
FFFFEF5B
0000002B
FFFFFEED
FFFFFA20
FFFFF410
FFFFF788
FFFFF690
FFFFF29F
0000007C
00000461
0000057D
0000051E
00000409
00000269
000007F7
000000C3
000000BC
000002A0
00000460
00000499
000004E5
00000580
00000C0A
FFFFFDA9
000004C7
FFFFFFEF
FFFFFB96
FFFFFBBA
FFFFF5AE
FFFFFF32
FFFFFD9A
FFFFF4B1
FFFFF468
0000029B
FFFFFABC
FFFFFBC6
000000F7
00000611
000006DE
00000846
000002B3
000008DD
0000057A
0000022E
000001FA
0000051F
00000200
0000014C
00000347
000002CA
0000039F
00000ED3
00001D79
000005B7
00000851
00000125
00000491
FFFFF3BC
FFFFF2A4
FFFFF873
FFFFEE87
FFFFF9B5
FFFFEED7
FFFFF926
000002DA
FFFFFF67
000003EA
00000069
000006FA
00000861
000006A0
0000039B
00000205
00000045
0000020D
FFFFFDA8
000003F8
00000283
00000421
00000DA4
00001ABD
00000973
FFFFF81C
0000018F
00000510
FFFFF73A
FFFFEF83
FFFFF9D6
FFFFF577
FFFFF1CC
FFFFEFB1
FFFFF9D3
00000159
000004E9
00000534
0000067B
000001D4
000002BD
FFFFFE42
FFFFFC16
FFFFFB45
000002CD
FFFFFF7D
000001B7
FFFFFC4F
00000424
0000031A
00000999
00000D92
000002A8
FFFFF81D
FFFFFF3D
FFFFED5F
FFFFF975
FFFFF343
FFFFF946
FFFFFC93
FFFFF9B0
FFFFF68B
FFFFF9E4
00000293
00000516
00000122
0000005D
0000048D
FFFFFFF4
FFFFFDE2
000003CE
0000026E
0000003D
FFFFFF83
FFFFFD33
00000022
FFFFFF86
000004D1
00000D40
000002ED
000013F1
000000EB
FFFFFDCD
FFFFFE58
000003EB
FFFFF78F
FFFFFE36
FFFFFC63
FFFFF1E6
FFFFF5F3
FFFFF96E
0000019A
FFFFFD81
00000AB2
000002DF
00000629
0000014A
000003BD
000001E0
00000230
00000288
FFFFFBEB
000001E9
0000019D
FFFFFF64
00000710
0000009D
000002E7
00000643
FFFFF5BC
0000064D
FFFFFD74
FFFFFB1F
FFFFF695
FFFFF9A9
FFFFF217
FFFFE978
FFFFF5F2
FFFFFEBB
00000932
0000085C
000008F2
00000BE8
0000073A
0000091A
0000095B
FFFFFFED
FFFFFE99
FFFFF87D
FFFFFEBA
000004FC
FFFFFF34
FFFFFAED
FFFFFA17
FFFFF708
000001F9
FFFFFA39
FFFFF679
00000381
FFFFFFC5
FFFFFC2A
FFFFF58B
FFFFF626
FFFFF6CB
FFFFEA61
FFFFF6A1
FFFFFEEA
00000533
00000B00
00000885
000003B7
00000425
00000A24
000004C9
0000011B
FFFFFA6B
FFFFFB14
FFFFFE92
0000053E
000002DE
FFFFF9E7
FFFFEEF6
FFFFF041
FFFFFFAC
FFFFF28E
FFFFF8A0
0000038B
00000212
FFFFFB0B
FFFFFC85
0000009D
FFFFF934
FFFFFAC8
FFFFFE6E
FFFFFF84
00000040
000003B2
FFFFFEF8
FFFFFFA8
00000236
0000024B
FFFFFF7C
000003AE
0000027E
FFFFFF00
FFFFFACB
000000E4
00000270
FFFFFD99
FFFFF963
FFFFF6DC
FFFFF775
FFFFE9B6
FFFFF36C
0000071F
FFFFFFE0
FFFFF659
000001AE
00000503
000002E9
000005C3
FFFFF9ED
FFFFFCB4
FFFFFDBD
FFFFFC5F
FFFFFD6C
000001DB
FFFFFFA1
000002D0
000003DE
000003A1
FFFFFC52
FFFFFABA
FFFFF7B7
FFFFFD6A
FFFFF3C3
FFFFF722
FFFFF8D6
FFFFF6C7
FFFFE544
FFFFE3DE
FFFFF5D3
FFFFFDBC
00000303
FFFFFCFA
FFFFFEA2
FFFFFF35
00000325
000004B0
0000023D
FFFFF7DB
FFFFFE4C
FFFFFE2A
FFFFFBB9
00000076
FFFFFEDE
00000549
00000880
0000064D
00000235
00000138
FFFFFBE8
FFFFFB80
FFFFEFF8
FFFFF95D
0000025B
000000C4
FFFFF418
0000036A
FFFFF2A6
00000415
FFFFFBE0
FFFFFE31
FFFFEE06
FFFFFC67
FFFFFC90
FFFFFCDF
FFFFFECF
FFFFFF4D
FFFFFF6C
FFFFFA26
FFFFFF45
0000054C
000007FD
00000966
000004A2
00000446
000006AA
FFFFFCD1
FFFFFED6
FFFFFC75
FFFFF1EA
FFFFEDB8
FFFFF308
FFFFFCA5
FFFFFA4E
00001442
FFFFF849
0000046B
FFFFF682
FFFFFB16
FFFFEB95
FFFFF282
FFFFF4D2
FFFFFB34
FFFFFCBD
000001E3
FFFFFEB5
FFFFFA1B
FFFFF827
0000036E
0000058F
00000584
000003FA
FFFFFE69
00000241
00000268
FFFFFFBF
FFFFF2BA
FFFFEE4E
FFFFEC04
FFFFEF8A
FFFFFB7E
000004CC
FFFFFCDB
FFFFF8CF
FFFFFE33
00000673
000000CF
FFFFEA3B
FFFFF7E3
FFFFFE9E
FFFFFDB8
FFFFF943
FFFFFD5A
FFFFF802
FFFFFB08
FFFFFD9A
000000C1
000000C0
FFFFFF6C
FFFFFEA5
FFFFFF7A
000001F9
0000003E
FFFFFE05
FFFFEF30
FFFFED57
FFFFF369
FFFFF5C2
FFFFF69D
FFFFF73E
000003DF
00000754
00000342
FFFFFB3F
FFFFFCA1
FFFFFB2B
FFFFF9A9
FFFFFD9E
FFFFFE3D
FFFFFC91
FFFFF962
00000239
FFFFFD08
0000022D
FFFFFF55
FFFFFEE1
FFFFFFA2
00000042
FFFFFAF7
FFFFFDF9
FFFFFDB0
FFFFF2FD
FFFFEF5C
FFFFED0F
FFFFEFBF
FFFFF5A9
FFFFF57F
FFFFF888
FFFFEE90
00000189
000002F3
FFFFFDF5
FFFFF26B
FFFFFDC0
000002DA
FFFFFFB2
000001A4
0000008F
0000006F
0000033A
000003F5
000003C1
00000106
00000386
000008DB
000000B7
FFFFFF03
FFFFFF51
FFFFFCB5
FFFFF1AB
FFFFEFBF
FFFFEBC6
FFFFED21
FFFFF7F9
000000CA
FFFFFC78
FFFFF01B
FFFFFEB6
FFFFFEA2
00000183
FFFFEF67
FFFFF113
0000026E
0000020E
FFFFFEC8
FFFFFEA2
0000005D
000004E3
FFFFFF37
FFFFFE6A
00000702
00000920
0000050E
000004E9
FFFFFFCA
FFFFFA84
FFFFFEDF
FFFFFD17
FFFFF531
FFFFEF2C
FFFFF5DE
FFFFF175
FFFFF4A6
FFFFFA2D
FFFFF574
00000231
FFFFFF7F
FFFFFDC6
FFFFF766
FFFFEC9E
FFFFF7DB
FFFFFF2D
FFFFFC29
FFFFFB33
0000022B
00000535
000006EA
00000652
00000A25
00000BBF
0000023B
0000064B
00000520
FFFFF440
FFFFF641
FFFFF289
FFFFF844
FFFFF458
FFFFF5AF
FFFFF9C5
FFFFF7A4
FFFFFC1C
FFFFFBBF
FFFFFEBE
FFFFFDEC
000000D8
000006A8
000001E4
FFFFF14C
FFFFF69E
FFFFF0FA
FFFFF960
FFFFFCFD
00000BD4
0000004F
000006AB
000003AE
0000049F
000005C2
000000D5
00000A4F
00000B4E
0000039D
00000115
FFFFFCDA
FFFFFB06
0000005E
0000002C
FFFFFADC
FFFFFE8D
FFFFFA51
FFFFFFAC
FFFFFDBA
000001AD
FFFFFDB8
00000763
00000EC9
000003FD
000000F4
000005CD
000007F3
00000DF2
000004B5
000005F8
000009EC
0000033D
00000C90
00000794
0000097F
00001729
00000F8F
0000050D
000004BE
00000572
000007E5
00000545
00000644
00000251
FFFFFE06
0000018C
0000022F
000001B3
FFFFFE48
000001B6
FFFFFF0B
000005B1
00000955
000007FD
000009AD
FFFFFF68
FFFFFE77
00000A77
000009FE
00000148
00000B55
00000BC9
000000BA
0000006D
00000B55
0000017F
FFFFFDED
FFFFFE38
FFFFFFFA
FFFFFF91
0000020D
FFFFFE66
FFFFFEAF
FFFFFFAB
