FFFFFBF9
FFFFFCD4
FFFFF4FC
FFFFF889
00000C14
000005B5
FFFFF7D7
0000016E
FFFFFF55
FFFFFB0F
000005EC
FFFFFB39
0000063D
000002D3
00000C8E
00000855
FFFFFACD
0000085F
0000099B
00000F15
00000497
FFFFFD5D
00000D3B
000002BF
FFFFF55D
0000057A
000003EB
000005C5
0000042F
FFFFFA4D
000006F1
FFFFEC81
FFFFF9D0
0000084D
FFFFFAC8
0000099F
FFFFF78E
000001B1
000000C4
00000148
00000617
000002E9
FFFFFD0D
FFFFFCA8
000004AC
0000099D
00000262
FFFFFCFC
00001623
FFFFF388
FFFFFB40
0000080C
0000025C
FFFFF7F6
000001B3
FFFFFF99
FFFFFEF9
00000ED0
00000543
000006F9
FFFFF653
00000898
00000F08
FFFFEAE5
00000075
00000E9A
FFFFF1EF
00000A01
000007F4
00000B7B
FFFFF431
FFFFFD77
000007DE
FFFFF47A
0000081E
00000185
000005F4
000001BF
000006E0
00000688
00000B81
0000063B
000005B0
FFFFF12C
00000AAB
00000705
FFFFF9DC
FFFFFF76
00000580
FFFFF22B
00000D7F
FFFFF30A
000002CB
FFFFFA93
00000913
000002A7
FFFFF6B9
00000003
FFFFE97C
FFFFF7C4
FFFFF65C
FFFFFBE6
00000360
000003D6
FFFFF801
FFFFF09E
00000913
FFFFFCD7
00000C5F
FFFFFF82
FFFFE96C
000002FC
00000B8A
000004AC
FFFFFB1B
00000D23
000004B2
00000216
FFFFF2EA
000006F6
0000024A
00000BD4
FFFFF9C4
000002A1
000000F8
00000F84
FFFFE986
0000116E
