00000954
FFFFFCD7
FFFFFBB1
FFFFFB08
FFFFFE5A
000008A7
00000AD8
FFFFF2E0
FFFFF965
000000F2
00000C91
00000075
00000196
000019DD
00000A99
000005C6
00000D29
FFFFEEC8
FFFFF49B
000005D1
FFFFFD17
00000354
00000043
00000C3D
0000131D
00000B37
0000023F
000006FE
000004BF
FFFFFFB0
00000010
00000EB4
0000062A
00000548
FFFFFD16
FFFFF9E7
FFFFFCF2
FFFFF6C4
000004A0
FFFFFCA0
000004EA
FFFFD894
0000130E
FFFFF78C
0000032B
00000361
00000356
00000230
00000B76
FFFFFECF
FFFFFC2C
FFFFFC76
000002E0
FFFFF75D
000000A2
00000DEE
FFFFFE1D
FFFFF95B
000003AB
FFFFFAFE
000002A8
000002B5
00000897
0000040E
