0000004A
0000010B
00000CDB
FFFFFD43
000006E7
FFFFF86E
000013DB
00000831
FFFFF8C7
FFFFFE2A
FFFFFDC7
000001D2
FFFFFF82
FFFFF0C9
FFFFF5C6
00000437
00000212
FFFFEBCD
0000088A
00000829
00000952
FFFFF02B
FFFFF68E
0000047E
FFFFE859
FFFFFD04
000000BA
00000EBA
000004EE
00000B67
00000FE7
000005A3
00000490
FFFFF096
00000DCF
FFFFF86E
00000B2F
000006FE
000001C8
FFFFFEB0
00000A0E
FFFFFB59
000000CB
0000067B
00000D87
FFFFF608
000008DB
FFFFFB2A
00000029
FFFFF278
00001145
FFFFFC53
FFFFFBAD
00000CDD
FFFFF3AA
0000039D
000000A5
00000E16
000000A1
FFFFF445
FFFFF314
FFFFFCDD
00000687
00000A2E
