00000263
FFFFFB1F
FFFFFE86
FFFFFD50
0000051A
000010ED
00000704
FFFFEF63
FFFFFE8E
000003D5
FFFFFD52
FFFFF805
00000FCB
0000128D
00000608
0000030B
00000EAB
FFFFFA30
00000398
0000063A
FFFFF9B0
000010CC
FFFFFB53
00000501
00000CBA
000000EB
FFFFFE24
FFFFF866
000002E5
000002A1
FFFFEDEE
0000088F
FFFFF876
00001045
0000048A
FFFFF09B
FFFFF494
FFFFEF48
00000C6E
0000014C
00000B91
FFFFF1D3
FFFFF3AA
000001B8
000001AE
FFFFFAEC
FFFFF7BA
00000518
00000B31
00001CCB
0000001E
00000655
00000619
0000015A
00000A41
00000DE6
00000520
00000312
FFFFFE47
00000ED5
0000079D
000007C7
FFFFF7C4
FFFFFF08
