FFCB
FF9D
000B
FFE2
0091
FF8E
0070
0031
FFFE
FFFE
FFA1
FFD5
0124
002C
0003
FF59
FFEE
FFDA
007F
FF94
FF7D
0032
FF85
0082
FFF7
FFDD
0043
FFB6
FFBC
FF6E
006C
FFF1
00B6
00FF
022D
0251
0308
01CB
0183
054B
053E
03FF
FCFB
FED6
0053
0207
03CA
02F6
02DC
01CD
0176
01F2
008F
FFD1
004F
0042
FFF9
FF98
0039
036B
03F6
00AF
00AF
0220
019D
0126
007D
FFA8
001D
FBED
F9B7
FC75
FC2C
F8BA
F953
FC84
FBE8
FFDA
01F8
02F0
FF9B
FE54
FFCA
003B
0020
004E
FF5D
02CC
FEDD
FF4C
0094
000B
0167
017E
0125
00F0
FD07
FF42
FED4
FD75
FE1B
00A8
FE74
FBB7
FC4A
FB24
FD02
0120
0287
FD85
FD9D
FF70
FF9A
FF8B
FF18
FF81
FE67
FEE4
0029
01C7
FF03
023D
FFCA
0222
026F
014D
0079
0123
FF3E
009F
00C5
FE8A
FEC7
FF8A
0248
01CA
FF29
FEFA
FE86
039A
0072
FFE0
FEC2
FA9E
FEEA
0124
021B
005D
023A
020F
0306
04B8
030B
03D4
017C
FF9B
FF7A
00DE
00C9
FF85
FEEB
FFA3
004B
FE30
FFAF
014C
0173
01F1
0034
FE30
0527
015C
00B2
0263
0013
0022
0006
0037
01A2
0342
02C9
02FF
02E6
0202
015C
00C4
0100
0293
001B
0456
0350
FE8C
FCD1
FBEE
FA74
FDCE
0167
FD55
03E3
052E
FF20
00D7
01D4
01A9
FFAC
0231
03C4
035D
01E6
0260
01A3
02A7
0278
02D6
0465
02C4
023F
0303
026F
01E1
01E1
FF56
FAD5
FE3C
04CE
01C1
029B
0307
FC29
0037
00EB
00BC
0310
0468
02E9
044D
025D
000B
032B
03DF
0446
02A1
049E
02B4
0201
0214
0249
0330
0402
FEB1
F93C
FA1E
007F
031A
0084
004D
FDEE
0107
FD07
FE8A
FF33
0191
01F7
0186
0195
0068
009F
FFDA
01D6
033D
0302
02DF
0268
0202
0276
04EA
069B
FE51
FA4F
0147
00CD
04C3
0387
FF61
00C1
008B
FEDC
FEF8
FE81
0282
00B6
011F
FF06
FEF0
FF2D
FE41
0177
0284
01A0
00D2
024C
021C
0455
03DB
035B
FF15
FAD3
0046
03B9
0782
05B8
018A
FCDD
FD92
00B8
01DE
FFBD
FF26
FFC8
0096
FD74
FD64
FC3F
FCCE
FFA1
FF56
FE59
FF81
00D1
0208
01A0
02C0
018E
FCB3
FBA7
FCB5
02D7
050F
01A9
015E
FE5F
FEFE
01FA
FF73
FE5A
FE7C
FED7
FF78
FD8F
FE67
FC8C
FD61
FD68
FC91
FE16
FE9F
00E6
FFFE
02AB
0230
027B
FCE2
F92C
FC10
FF90
0268
03BA
FECA
008D
00E8
036A
01BE
0149
00A3
0077
FF25
FF2C
FF6A
FECD
FE05
FB66
FB58
FF21
FE50
FE83
FE6C
0031
00E6
00A6
000C
F91F
FE26
01C8
0111
07C8
FCC4
FF5C
03AA
02B5
0457
02C2
0191
FF97
FEE4
FFFB
01E3
FF5A
FE9A
FB31
FE7E
FE8A
FE81
FEB8
FF84
FFCF
005B
029D
0039
FCE5
011E
0203
FCE0
02C8
FE75
007E
032D
0286
0591
01EB
00CB
FECF
FB56
FD6F
0002
FED4
FF42
FC1B
FF87
FE61
FDC6
FEDE
FEF6
FFB8
00FD
0207
FF12
FAAA
FDF0
0288
FC3B
FEDC
FDF8
0100
02C4
0329
039F
01C1
FEDD
FC6E
FB92
FE81
FEF7
FF78
FF55
FD4D
FDE1
FCE8
FDAA
FE90
FDB0
FE19
FFCF
FF65
FBC1
FAD9
FF82
FFEC
FDB5
FEF0
FE95
003D
030B
008A
000C
FFC6
FF76
FF1F
FDD6
FFBA
FF0E
FFA4
FF16
FD15
FEF6
FE18
FDA7
FEBA
FE5F
0010
00F8
01AE
019A
00CD
FFF2
02DA
FE2D
FF32
FB0E
009F
0099
0000
FFA0
0072
01C2
01E7
0046
FE3F
FDB2
FE72
FF62
FEC3
0041
0076
FECF
0103
002C
02EA
002A
FEF4
FF1A
0087
FD19
FF36
0445
01D4
FCBF
02A9
010E
009E
0070
0074
00D0
00BC
0018
0042
FD5A
FE35
FF67
FE20
002D
FE92
FF57
018C
00D6
02FF
FD05
FD5F
FA48
FFD6
FE5D
0030
01D8
053D
00E4
015E
02D9
0021
0015
00B2
0087
00CA
00BF
0106
FF66
FEBF
FFB4
FF72
FEF2
FE2D
FF90
FE79
FF8E
FFA2
FC56
FC13
FD3A
FFAE
FE1A
FE8F
0170
02E1
0059
FF94
FFC1
FFA5
FF7A
FE9C
008C
0072
0086
012D
FFD7
FF3B
FF4D
FED8
FE15
FDAE
FCED
FC73
FCCF
FEF8
FE4E
FD2D
0155
05CC
00A6
FEC1
FE2C
0230
0096
FC64
FD17
002C
015A
01EA
00C8
01A7
011A
02AB
0235
01E0
00F7
00B5
008C
FF95
FE4A
FB9F
FCD9
00B4
FD77
FC26
FFCF
FFE3
01B4
0024
FF80
FBA8
FF31
FF18
FF85
0154
01FA
027C
024B
01F9
017D
022B
02AC
04B1
01A2
026C
024F
FF3C
FDA9
FB97
FBA4
FBA8
FB25
FD11
FF94
FC28
FF6F
0092
FF94
01DF
FFE0
0159
03EC
0185
FFF2
0141
00F5
00EA
009B
0210
021F
0268
0261
03D0
00D6
FEF8
FD2D
FBBA
FA6E
FC95
FC92
FEB1
FD19
FC8C
FF88
FFFD
FFE8
FD17
0545
034C
FFC5
FF15
003A
FFF0
0078
00D3
0367
00D5
FF86
0123
0342
052F
01C7
FFA1
004A
FE44
FFDA
0085
015B
036D
01EF
FF08
0048
FF95
FFF8
0036
FFF3
FC8F
FBAA
FD6E
01F1
0367
0373
0283
02BC
01BB
049C
0512
0343
0436
02F9
05A8
0684
00D5
01B8
06F9
03DA
0186
0217
FFA7
FF73
002E
FFA8
FFFC
0083
01EA
0560
02C3
010B
01D2
00FF
064B
03CB
0417
0A6B
06B9
02FA
0470
0B5E
0587
0194
02D1
0316
038D
04E4
0062
005A
0038
FF73
0057
FFCA
FFE8
0014
0040
0060
FFA5
0088
0018
FF9D
0016
FF98
FFD7
007B
FF94
0010
FFD4
004B
FFE0
0018
FFD0
FFEA
007E
FFFB
FF86
0042
FF8A
FFB9
003A
FFE2
0079
FFB8
FF8A
FF79
0020
0046
FF55
FFF4
FF35
FF98
FFD0
FEC2
0269
026B
01CA
FFCD
FFD9
FF9A
FFDC
0025
007D
FF81
FFA8
0007
FF7A
003D
0030
0006
0072
FEBA
FFF0
0002
FFEB
FEA2
FD63
FE04
029A
018D
FBD7
F985
FF69
041A
032B
0162
027E
031C
02D7
009C
0019
008F
0033
007F
FF95
0083
0074
FF77
0010
FF36
FF4C
03C9
0341
04B6
02D9
FFB4
FF70
FD59
00F3
FF37
FEC8
FF1E
FF08
FCFD
FE1C
FD25
FCC4
FCF8
FE01
FEF1
0344
FD18
006A
008B
0007
00F9
FFF2
04C3
051B
0643
0845
0521
04D1
03E4
0345
012E
01A2
0081
FF39
0225
FE54
FDBC
0230
0161
FECE
0043
0156
FF86
0156
010C
02EB
002A
FFE0
0068
0157
0211
0380
069A
04D4
008A
FFE9
00EB
000E
007F
00F8
01EF
FF9E
003C
FFB9
FF53
FFF4
FFE1
013C
FEBC
FFBD
01C2
00C4
0426
0390
FE48
0059
02A0
020F
0582
0278
015D
018F
FFCD
009A
FF3C
FF6A
0165
0249
02F2
014E
00D2
010C
00E4
0121
FFB5
0099
FF15
FE38
FF39
0029
05F9
053C
0317
0043
047B
00C9
050B
01F6
032D
0249
FFBF
FF0C
FE28
FF6E
012C
009C
015E
0273
00D6
015A
003F
00A6
006D
02AF
01ED
FF5C
FFCD
0129
0900
035E
03B0
0099
0163
02BB
00A8
FEC8
005E
001A
FD90
FE7F
0050
020B
00AC
00EB
021C
00D9
003E
FF3F
FEDB
FF89
FF39
FDDB
FF70
0053
FEEA
FF93
035D
0109
0354
FFBF
0123
FCFD
0027
0057
FE82
00DE
002A
FFFC
010F
FF2E
FE6A
FF9B
0057
00C0
FF1D
FBE8
FA90
FCC1
FBC0
FCB0
FCDE
00A9
FD63
FAC5
031C
00BA
019B
FFD5
007B
FEDA
0561
FFA2
FED0
FFB0
FF5D
0150
FEBE
FECD
FE3C
FEE3
FF29
FF8A
FD00
FCC3
FCE0
FCF6
FCBA
FD60
FDCC
FECE
F8BF
FA2A
FF35
014E
001C
FF89
FE46
FDB2
04F8
00C3
FF07
FF40
FF57
FD6D
FD45
FDDF
FF74
018D
0270
00C3
FFC2
00D7
01F9
0075
FF53
FF79
0021
FC04
F822
F81D
FE30
010A
0274
0090
FF56
FBAA
001A
FFD9
0052
FEFE
005E
FF66
FEC8
0174
022F
01E7
018C
0341
01F2
01DA
016B
017D
FF41
0043
009C
FEEB
0067
F7AF
FBDF
033D
02AA
025D
FF30
FE20
013C
01F3
024F
FF7B
0332
FFE7
0105
017E
01D4
02F5
0385
03EB
0137
0130
FFE5
FF58
FE36
FEE6
00A2
FFFC
0201
0237
FD3F
FF22
FDD9
00BB
01E7
0013
00D3
FFE0
FE6E
00B1
0178
01F2
02A0
0266
01AB
0288
01DE
0256
017C
00B2
FDB7
FE24
FDB3
FE96
015B
008B
04BA
04F9
FFA7
FD4C
FD87
00E7
0200
0366
00B4
F88C
F95B
FC69
F963
FDCF
00DC
0259
01E1
0330
0280
014A
FF9C
FFAD
FEA8
FE95
FFC8
002C
01DB
0156
0441
05C5
0012
0126
FE54
005F
028A
039B
0072
F7E5
F829
F6C8
F5FB
F789
FC62
FF71
00F3
0287
043B
02A2
FFB8
FF8E
0013
00BC
0098
0096
01BC
0255
0312
05DE
FD23
FBB3
FDCB
0010
01AC
0060
00B3
FC51
F7C7
F7D7
F767
F42A
F332
F3D6
F73D
F80D
FAD0
FD22
005B
FE42
0024
0059
0094
006A
01E8
014A
03A6
0278
FBF6
FAF4
FF23
0324
016C
02CB
0715
0009
FBCA
FCA5
FB93
F936
F49D
F2A1
F320
F0FC
F639
FB77
FE3F
FFDA
FFDD
0066
00E6
01E2
0440
0177
01D9
0351
FC6F
FA24
FFD0
006B
02AB
04E0
094D
03BC
0114
FF88
FED0
FD86
FCC5
FD05
FD51
FCB6
FD63
FE47
FF29
006C
FF07
00F4
0111
0225
024B
FF86
0141
01BF
FDF4
FB57
FED1
0035
03CB
0074
06B1
0505
00AE
01E7
01C7
0231
0288
0166
020F
0224
0154
0136
0040
007B
FFE2
FFAA
0036
003A
005F
0123
FFFB
FE8A
FACE
FCEE
0147
FFE9
0339
FECE
0140
04AA
01D0
01C1
02E1
02C6
0295
02AA
0230
038C
0242
013F
008B
FF2D
FE72
FF11
0045
0140
FF43
FF64
FF4E
FB38
F950
FE70
0061
000C
02CE
FEC4
0065
033E
02BD
FF61
00A5
01D7
0045
0230
02F9
00D6
0079
FFFA
017A
FF55
FFC9
FF07
0135
0307
0026
FF6B
00B1
F7E3
F918
009F
0055
0051
0051
0457
07A8
087E
0575
0192
015B
0160
019B
0292
0367
01C6
01A6
005A
012F
0091
0021
FF40
FE39
006E
FDCB
FB38
FB68
FD9E
FDB9
03F9
FFCD
FF78
FF9D
FE33
06A4
0813
0348
05EB
05A1
01E9
01A1
01D5
00A3
00D2
0071
0058
FF6D
FF56
017A
FE7F
F93F
FCEB
FFCD
FE21
FEA3
FD8D
0382
03C0
FFEF
0015
FFFA
01A5
FD9D
0560
0722
06BB
091F
076B
0507
02BF
01E7
02CA
00EF
FF24
FF76
0034
FDED
FDD8
FF69
FBF8
FD79
FE01
FCF7
FECF
001C
0071
FFDB
003B
0065
0074
036C
0600
066E
06D6
02EE
03AB
0501
056A
0398
02D4
0368
02C0
02D4
0246
03D8
0458
0288
053A
05EA
0455
034E
0073
0033
FF82
0034
FFA1
0037
006E
FFC2
FFBB
0089
FFBE
FFC2
016C
0046
FF88
0092
0282
04D9
03CE
FD9D
FBFE
FB3D
FDB9
FC9F
FFF5
FF19
FF49
006C
008D
0013
FFFB
000E
FF9C
000B
FFE5
0078
FFD9
FF94
004D
FFA3
0054
0064
FFBB
FFF8
FF96
FE23
FE97
FE13
FFFF
0008
FFEF
FF8A
FFB8
FFBF
FFB8
FF94
0031
FFA8
0028
006F
FFA3
003A
000F
0085
FF91
FE5C
FD68
FCCC
FDE5
FE51
FDE9
0214
01D8
01B9
01A8
007C
0172
01AD
FA4B
FD43
FD98
FD44
FC26
FC8C
FF95
0010
FFAD
FFC1
FFE9
006D
FE8E
0289
02C3
FE5E
FCCA
FB27
FA6E
F7D5
F7A7
FC1F
FBC6
FC1F
F9A9
F779
FB4E
FB94
FC23
FC51
FADE
F9C6
FCAF
FCC6
FCD2
FCF3
FFD6
FFDD
0054
FFC8
FC94
033C
038C
0171
FF88
001A
00DA
FD1E
014B
0018
00A8
009E
01AA
008B
0042
019A
01EA
0107
0335
0212
FEF7
FE22
FD95
00EA
0214
0053
FFD6
0116
FC19
0574
0090
FDB7
FE90
013D
FF20
020F
012C
026D
0094
0021
FFBE
02D5
0094
0188
0317
01BD
0238
032D
0269
025B
0603
037E
004B
FCEA
004A
FF81
FB13
02E0
FC58
FFF5
FF85
009C
0033
0237
0118
01B1
FF29
FF7D
FEEB
FEB5
FF2D
0115
00BE
012C
01F3
00E2
0319
008D
0124
00DB
00B0
FFCE
FF94
FED1
04C7
01A0
FED9
01C5
0027
0010
0299
01E5
0113
0023
FF9D
005D
0038
FF6C
FEA7
0013
00D4
0227
01D6
0227
02B7
022B
0244
01E1
0193
FEBA
0147
00EB
032D
0424
FE4E
01EA
001D
01B5
0318
023E
02F9
0153
00D8
00A6
012D
0021
0141
01B0
016A
00FD
024C
015E
01EC
02A2
00EF
00AC
FE5F
FEEF
0264
005D
01F9
029E
FE44
009F
0033
0114
018A
020A
00AA
017F
0195
FFDD
0177
01B8
03DA
00DE
015A
FF30
0170
02DF
01D2
01D5
054F
01E6
FCF6
0105
028B
0744
0223
010D
0062
FEE2
02CD
015A
0279
032F
01BC
0341
01E1
011E
0218
027C
0366
01D7
0028
FF03
0050
00F9
0087
FFFE
04AB
042B
00CE
FE4B
02AD
06E6
03F0
03D0
027E
FFB2
01CF
0286
03B7
03B5
0276
0111
0084
010D
02C8
048E
03E0
0032
FF37
FE05
0113
013E
00E1
0093
05A8
0584
04B8
FD54
0446
0727
057C
0216
01DD
FDDD
0116
0190
0161
004C
005A
FFB5
FF9A
0279
03F0
04C3
0229
01C3
FF51
FF12
FE8B
FF0E
0105
0135
029B
0277
0680
FD46
0181
074B
0055
00CB
FF36
FDF5
FF88
0043
FF92
FEFB
003E
FEEC
FEFF
01D5
02A0
03D3
013D
0095
009A
FF1E
FE33
FBFC
FD31
FDE4
FBDC
0043
051D
FA2C
FCE8
0261
00D4
00EF
001C
FE07
FD35
0151
FF5A
FF82
0060
0026
0100
01A2
0141
012D
FFE6
FEE2
FFE7
FEBB
FE73
FDA9
FD1D
FCD3
FDD8
FF1F
FE0D
FB0D
0253
016F
0602
FE8A
FF5F
00D0
FFBE
0064
0143
00BC
00FA
FFED
00CF
0182
FFBD
002F
FEB9
FFD5
FF71
FE74
001F
0000
FF2E
012F
00AE
FE30
F90B
FC9A
0246
014B
FF73
FC68
032E
045E
0399
025B
0061
FFBC
004D
FF0F
004F
FEB3
FE3F
FF1E
FCBC
FFDF
0178
0040
011B
0079
FEBC
01D8
008B
FCAC
FAE6
FC10
0138
00EF
0182
0082
042D
0380
0253
001F
00C1
FF1C
FE9F
FE8B
FFD8
FEB7
FCE6
FD0A
FB36
FE36
006A
002D
00F6
FECA
FF74
003D
0177
F835
F832
FD9B
FFBA
0100
FD74
026C
04BA
0335
02BB
0229
0074
010F
00B4
FFDD
004F
FDA6
FC97
FEB3
FDBC
01E8
00B0
00EA
014B
FF44
FF83
0107
0151
F913
FC92
019F
040A
01F8
FEB1
0122
0290
0279
0286
026C
02AD
01CE
035C
0327
0049
FF16
0081
0012
0035
FF5C
FF20
0138
006D
001A
0033
FF28
0017
FD99
FFD3
FA64
FED7
0583
032B
023E
034F
0393
0231
014A
0299
0299
022F
018D
02D3
003E
0006
FF0D
FE3C
FDDD
FFC8
00BC
00C8
FFEB
FF0E
FDE4
01A1
FEEF
FB7B
FBEA
FFB5
0288
FFF4
FDC0
0180
0273
00C1
FF70
01AF
0222
0159
00D9
0191
0246
FF74
FEF3
FE81
FFF0
FEDD
00A8
FF66
FEE6
FF77
FE9A
0043
0133
FB9C
FF67
FED2
FCA2
FD9B
FC26
FE7F
FEC7
FF0B
FEDB
FEC9
0004
FF2D
0153
01A6
FFBA
FFD4
0092
FFD2
FF55
FF1D
FEFB
007D
FF11
FFC2
FEF4
0116
01FF
0316
0147
FE88
005D
FD77
FE25
FD17
FA39
FD0B
FF17
FE81
FEBD
FE96
0086
00B7
00C6
01AC
014C
00E0
01D4
001C
FFF3
FF6D
FF64
0087
00AC
0279
021D
03E3
0142
007C
FFBC
FE3D
055F
023B
FE72
FE12
FC77
FD7B
FEA2
0046
FFB1
FE71
FFC7
007D
009F
0135
0278
00D0
FF4D
FF63
FD10
FD1E
FD80
0287
0210
01CF
FFA1
FF8F
FF82
0130
07D7
0468
0186
FDD9
FE96
FF08
FDCB
0067
FFB5
010C
021A
0231
02C0
03B1
02B6
0159
002C
0142
FE42
01FF
010A
FEEB
FB27
FCDC
0029
FF8C
FFC4
01E4
0378
01C1
0015
FE43
FF6D
0150
02B3
037E
0862
0509
0681
036F
05D2
076C
05C7
0527
0864
0458
067A
086E
071A
05DF
00A6
FED4
FFBF
FFF9
FF92
FF70
0217
FF8D
FD93
FEF7
FFC4
022B
0425
07BE
0C14
0BE0
0BD3
0A04
099A
0A85
0847
0693
07D7
0612
05A8
0940
03E9
FEF4
FFC9
003A
0040
0081
007C
006E
FFC4
00B7
02E5
04FA
036C
050D
0418
0300
0659
0700
0BEB
0BFA
0959
0730
0B08
04CE
0373
0018
0326
0548
03B9
FFA4
0054
FFF4
0083
0035
FF99
0031
FFB0
FF8C
FFE2
0023
FFCE
004D
0034
FFEE
0015
001F
00C8
FF75
FEA8
0008
FFB6
FF95
FFF1
FFCA
0043
FFA0
FFDD
007F
0017
FF89
FFF0
0067
FF7F
001E
0002
0197
0122
03CB
037B
033E
02A6
02A8
05E5
079C
04BE
FCFB
044F
0360
0594
0626
03CF
043F
0220
03F5
0395
FFA6
0022
FFD2
0049
FFE3
FF7A
0302
0486
04C0
0171
037E
04B2
05C3
061F
03D8
0280
046D
0128
00AB
01A7
0079
001F
0155
FF1C
FE4E
FFE1
025E
02B4
0124
0108
0007
0089
FF70
0035
FD9F
0481
FFB2
FE9D
0322
0159
0159
05C6
01D4
01D9
FF87
0269
0260
013B
018A
0091
FF7B
FD6C
FAE5
FCDA
FE55
0283
FE79
FD0C
FCB2
003D
0062
FFA8
FD5B
FD29
00D1
FE53
FF0F
FF5D
FE6C
00C6
FEA3
FED4
0133
006E
0186
0124
00FF
028A
004D
FF61
009C
FFDE
FE2C
FCDC
F9B7
FA70
0116
0554
002F
FFD7
FB7C
FAB6
030D
FE6F
FFC9
FE8C
FFE6
FEEC
FFC5
0182
0143
027D
02CC
01A7
0055
01B9
012E
00FC
FF61
0040
FD9E
FAC4
FE51
FFD7
01ED
01D9
0051
FE32
022B
FF69
0270
FE27
FDE8
0067
FF4A
FE79
FFD3
02B4
0229
0296
021E
018D
00B3
01D8
00B5
0155
00D9
0226
0057
FE18
FC7B
FA4F
FCE2
0102
0189
FD67
0378
FF78
FF59
FDD9
FEAC
00CF
0094
00F8
02D2
0274
021A
014F
FFD2
0212
0227
0126
01D8
007A
FFB0
01EB
01EA
02FD
00EE
F9A3
FD34
015A
059B
0274
00A7
030F
0018
0097
0281
02B3
03E9
02E1
0212
0127
0077
007C
00F6
00FD
01C0
006B
0061
00ED
01E9
036E
022A
03E3
0336
FD52
0060
FEB6
0035
04B2
FE63
03A7
0100
01E1
02CA
0239
020D
01EC
0271
00CB
FEF2
0012
FFEC
FEB5
FE0E
FEC1
008D
0252
0396
02A7
0140
03AF
0512
FE4D
FD64
0368
0006
0294
03FD
0063
0436
052A
03C7
020A
0235
0329
0232
001E
FECC
FEC6
FFB5
FCEB
FC55
FE88
0135
022E
03DB
0367
038F
032A
013B
F942
F9B6
0338
02A4
06F7
04A1
0091
03EE
044D
03DD
0574
035B
034A
01D3
005D
FF07
FF85
FF2E
FCD5
FE72
FF9D
0201
02DD
04B2
04B9
043E
054A
0230
FBF0
FE04
0249
01C3
0665
03D7
04AD
059F
0438
0413
033D
0340
0334
001E
0045
FD51
FDF8
FD2B
FEC9
002C
010C
0132
0302
0493
053B
06F7
0806
06E7
FDD2
F937
0329
FE0E
0436
04E8
0256
05BB
047C
036F
036E
0353
034B
0141
FEC3
FCAD
FDB8
FEA2
012E
0015
FEBF
006A
023F
01A9
02FB
059D
05F5
0239
FD2E
F866
FE5E
0001
008D
0730
FDE1
0158
03E8
02F7
0381
0260
0274
02C4
011B
FE3F
FEE2
FFDD
0038
FED2
FDDE
000E
FFB5
FF7F
0183
020F
0141
0044
FE91
FBFC
00CB
004E
FE32
FC68
FE4B
FE36
0033
0074
027F
00D3
018F
01F1
0133
0064
FF8E
0022
FFFB
FDF5
FEC8
FE8C
FD84
FEE1
FF6D
0076
FF35
FE38
026F
F942
FE2A
02AC
FEAD
FCC4
FEE0
FFBA
01AA
005E
FF42
00B2
00C7
01B7
016E
0003
FE87
FFE4
0010
00B4
FEE0
FD9F
FC71
FD27
FD60
FD5B
FD97
FCB4
FFB6
F83F
FE12
FFEE
FE52
FEFA
FF61
FD55
FF0F
FCA2
FBA2
FDAD
0113
0287
023C
0061
FF8B
00E0
FF34
0163
FF66
FDB0
FD9C
FFDD
FD64
FF54
FF5D
0163
0114
FF2D
FD11
02F9
FED1
FD78
FBC1
FC66
FB4C
FBB3
FCCB
FE9C
007A
028F
014A
00BE
FE8F
FE37
FEDA
FE9D
00A0
FFCE
FE95
0076
FEE1
0135
FF29
FDFC
0126
0132
FB86
FE19
04AF
FF53
FA12
FD21
FC9A
FE2E
FEF9
FEF8
0075
021B
009F
FFFE
FCC2
FD8F
FE3B
FF58
000A
FF2B
00ED
0140
0008
027E
FF8A
FCC8
FD6E
FD76
FCDC
0038
0314
00EF
FD9E
FD73
FFB6
FE79
001F
FF24
FF33
0165
007B
011D
FF27
FEEE
0014
FF24
FFD9
FF5A
0101
00DF
0029
0105
FE60
FD7C
FF9A
FD51
FDCD
FDCD
0230
0069
02AD
0049
0329
02CB
025B
0142
01CA
0266
01DB
0232
01B7
00E5
00E7
0107
0051
FEC5
FF16
FFD4
FEE8
FE52
FECD
FEB7
FE51
03EA
0166
FD40
FB69
FEAD
025A
01B4
0319
04A0
0487
0340
02CB
034F
0156
0286
01DC
0134
FFDD
0109
00B7
00A6
FF38
FE88
FEE3
FE49
FE09
FC12
FE24
FC58
0113
FFE8
FFB6
FB25
FCFC
0138
0147
0155
0296
0303
0336
010C
0054
02AD
0243
0279
00C9
0152
01C5
0015
01B8
0023
003B
007E
FF59
FE3E
FCAF
F9EA
0023
0059
0013
020F
FC0C
FCC4
0204
FE5E
FE84
0086
FFC3
FFC4
FFC8
0218
013B
001C
01D7
0250
FFE1
009A
013C
0110
FE64
FE3F
005C
00D7
FFE0
FEA0
FFDB
FF9D
0080
FF3A
0536
0082
FEC5
FEF4
FE7D
FC6A
FCA7
FDFC
FF62
FE06
FE19
00FB
FFF5
0252
03C0
02E4
029F
02F2
01BA
FDD9
FDD2
FF21
0069
FF81
0004
FFC1
FFBB
FFAD
0101
FD3B
FCF2
FEC8
0205
0255
02A3
FEC5
000F
021C
013A
0303
FFF0
019F
005F
0249
0417
0391
033B
03D1
0293
030B
00A9
0092
007E
FFB9
FF8A
005A
002C
040C
04CA
0596
02AC
0270
013D
06DC
0345
03CA
03C9
0BF0
04FE
023F
019C
0195
027E
023F
052B
050C
01B9
FFC3
FFE1
FF99
0053
0010
0088
FF79
FF7B
FFCE
0061
0005
FFBD
0009
004C
0027
FF83
FF70
0029
006B
0023
FFCF
FF81
0059
FF98
FFF7
FF9D
0028
0088
FF80
0026
FFFF
004D
0033
FFFF
FFB6
0008
FFDA
008D
02E6
02F1
01B9
0009
FEB8
003B
FFDD
0059
FCC5
FD85
FE35
FF93
02B9
014A
FF74
FF4E
024B
021F
FF75
0030
FF9B
FF71
FFEC
0005
FFC0
FD10
FE66
FFAA
FFDE
015A
FD0B
FC57
0030
FEF7
FF9E
FD76
FCD5
FA23
FBF5
FA55
FB24
FDA5
FE08
FD1B
FFB8
0229
010F
FF4C
FFF3
0057
0055
0030
0293
FFE4
0313
0387
02C0
0301
04AE
013E
0104
01E1
0614
02C6
03B1
025A
0050
FFAC
FFD9
035C
0537
009E
FB28
FAC7
FE76
02D6
03FD
0009
0048
0010
021C
03A2
FE2F
028C
032E
0184
0011
0019
FF9D
0203
FEDB
FF3D
00CE
0324
002C
005A
028C
0111
001A
00FD
0002
FF41
0042
0038
023E
FEAB
FFD2
0075
FCEB
0518
FDD3
00DF
0247
FF80
00F2
0129
0074
FE26
FE37
FFD1
011D
018A
019D
011A
01B2
0068
006C
0185
018B
0184
000F
02C0
0608
0216
006D
0272
02CA
0626
0252
0183
01C0
0054
032E
0226
007C
FED4
FE5F
FDE7
FE8B
FF2C
009A
009A
01AD
FEFC
FEF3
000D
FFD2
FFDC
044A
04C0
04B4
03ED
00CA
0757
02AD
04A2
0028
FF65
00B1
0275
0417
0234
00F2
012F
00BB
FF9B
006F
FF43
01F0
020D
0258
0175
0246
FFAE
FFA6
0016
00AC
0418
0412
05D0
0360
05C5
002C
FF2B
FF0A
FEF1
0074
019C
027A
0211
00F1
01AD
01D2
01DE
029C
01D1
01AC
01C8
00DC
0008
0043
0059
FFD5
0077
01EC
0387
035B
0370
018A
03F9
002A
FE04
02A1
0322
0216
0333
0272
0139
00BB
01E1
0361
0347
0436
0391
0258
FFD1
FECB
0015
FDF7
FD75
0068
FF8C
01E6
007E
FC7F
04B9
0175
02BE
0347
0263
01EE
0489
02FE
01BC
0209
FFE9
00B2
011A
0249
04A6
039B
02B8
01A9
FEA7
FE94
FDC0
FDAA
FC50
FE21
FC00
FC82
FD0E
FF9F
01FC
017D
03A1
045B
0182
029A
0177
0106
0024
0009
FFA8
01FB
01F4
00F2
01EC
FEF1
FFB9
FDF7
FF30
0109
FDF7
FC17
FB4C
FAEA
FB5E
FAA8
FCA2
052C
FF88
00C0
03C0
0131
FCB9
00E6
003C
00C1
010F
01DE
0276
01F7
002D
FFCB
FD30
FD1B
FE86
FEF4
003D
01C3
FED8
FDBE
FC79
FB65
F9F7
F901
F7EA
00D3
FEEE
000E
019E
01CF
FDCE
FDD0
FF18
FF59
FDFA
000B
0033
FFA8
FD65
FD27
FBBD
FC9F
FD75
010C
0177
0307
01D9
011F
FE81
FC5E
FA8E
FD25
F794
FBED
FD60
0160
01EF
06C3
02F9
FDE9
FC25
FAD6
FC95
FE3A
FDC2
FCA5
FA9D
FBF5
FB49
FCFD
FFDB
0022
0042
0290
02CB
01A8
02BB
0228
01C9
FEFE
FBD5
FFB9
FDD2
01B8
016F
02E5
00B7
FF62
FF21
FD90
FCC7
FB97
FD2F
FD73
FD8A
FDDF
FCEE
FDCC
FF8A
FFF0
FF09
0200
0226
0383
034F
010F
0069
022D
FCB8
FD20
00D3
0266
03D8
046C
007B
FE7E
FED0
FCC8
FE13
FD65
FCCF
FCFE
FD29
FC54
FCC0
FCB4
FEC4
FE7C
FED1
FFFF
01B5
0229
00C5
01C0
FFD3
02B3
F786
FBD8
012F
FF94
014F
FEB3
01F0
0013
FDE5
FCDB
FF79
FEE4
FD8B
FD9F
FDE2
FC82
FD4F
FC78
FEB6
FDAC
008E
01D0
0157
002C
01C3
014C
FF19
FE3F
FE0A
FE0D
0067
0319
021A
01E5
017B
0065
FD6A
FE68
0031
FFD4
FD47
FE40
FDB0
FC1F
FBCE
FD12
FFE4
0080
0166
0175
FFB5
FE06
01BC
02CC
FED4
FEA3
FEE8
FE6B
0196
FF4F
049C
046A
0267
0162
FFCB
0079
FF48
FF88
FEAF
FE2C
FF9E
011D
FFFD
FFD9
0252
0177
026D
008A
FE1A
FECB
00DA
006B
FFE5
FF17
FD78
FD50
00C2
FFD5
FFF8
029E
018F
00A4
01AF
01E6
00FF
024A
02F8
014F
01FE
0382
03D8
03A7
0303
01A4
01C2
004A
FE52
FD49
FFCE
0044
0169
FC72
FAEE
0004
0148
FF19
FE30
FFC7
FD57
FE19
FED9
0046
0295
0230
0394
03A3
03CF
0520
043B
05A9
04A3
0337
003B
00B2
FE57
FE26
FE9F
01B6
0287
FD38
FD0F
01EB
014E
FEFF
FEDC
FEA0
FCA4
FC7C
FEB3
FFCF
0130
022B
02E5
0279
020F
03DE
02DE
0373
02B4
0098
00CA
00AA
0002
FFD2
FE4E
00A9
00C6
FA9E
FB4A
02A4
00EE
FFB9
FFD4
00E8
0049
00E9
003B
01C2
01F2
00B9
024D
0257
027C
0143
0003
0034
FFBF
FF91
024C
012B
FE7D
FE4C
FD1F
FE8E
FCBB
FC01
FCF1
02B4
0061
0092
003B
FF2E
0476
0819
03B3
0422
01FD
0192
0101
0038
0086
FF2F
FF67
0098
FF6D
FE03
0175
FE9A
FC46
FB06
FBB5
FC28
FC15
FB30
FD99
009E
000D
FFB6
005A
FF56
005A
04E1
02D1
020B
06BE
05B6
042C
FF64
018E
0351
0184
FEBE
FFF1
FF46
FF93
002F
02B9
FE01
FBC2
FF06
FE6E
FF92
FFB9
FFAE
0036
0065
FF72
FFE7
0017
FDB3
FEC5
FF3F
0377
038A
00EB
0428
0582
0142
0558
042F
05D5
03A9
02AC
02D9
0392
FEFE
FB6C
FF50
0200
006B
0115
FFF4
FFF0
FF83
002B
FF87
005A
FFE3
FF40
000B
021E
02D5
FFBC
01A6
0169
01C7
0659
00D4
FE99
005A
0800
03E4
01E6
002D
FEA8
FE2D
019C
FF99
0017
003F
FFCA
003C
FFB7
FFDA
FFB7
FF7A
0035
FF8A
0078
0040
FFAA
005A
FFA7
FFE6
FFA7
0164
0096
002B
FFAB
002D
0070
FFC5
0053
0004
FFA1
004F
FFBD
FFAB
FFD6
FFF9
FF80
0031
001F
FF33
FEAD
FF33
FF39
FE46
FE80
FE1B
FDEA
FDAF
FE3B
FD6B
FB4B
FD34
FCF0
FCF0
FDEF
FDED
FE44
FE1F
FF73
FF87
004B
0080
008C
006C
FFD1
FFF9
FE72
FE3F
FF2D
FEE2
FE22
FDB2
FE3F
FD64
FDA1
FC4D
FCBB
FE2F
FD23
FED1
0100
FFE1
0027
FEF8
FBA9
FA93
FE29
FDD4
FE02
0010
0016
FFDD
0061
01EF
FE88
008A
007D
FF80
FDA7
FB52
FB61
F944
FC1C
012E
FF25
FEA3
FDD4
FD61
FEE6
FFF2
FED8
FE9F
FF01
00A0
FBBB
FDAC
0118
02D9
FF77
0053
FFE0
FFD5
FE19
FF31
FC3C
FBB5
FB1C
FA8F
FC5D
FE86
015B
0291
026F
00AD
00EC
0028
FEE4
FEB6
FC71
FC58
FCD3
FD13
FDE3
022F
02A9
0138
FC8C
000A
0076
02E4
01B9
01EB
0164
FE8B
FB73
F921
FF4F
0152
005B
00A1
FE92
000E
FF11
0178
00F6
FF31
0269
02B4
00F2
01C8
FF71
FDFD
FE4A
0382
0191
0081
01D5
0422
FE96
01C7
0292
FE2A
FB5C
FBBF
FC07
FD1C
FD76
FD9A
FD09
FDD0
FE91
FFC3
FE7A
FFDD
025E
0294
FF03
01CD
028E
0323
03CA
0469
FE76
0008
FEEF
02FB
009A
FCB9
00CF
FD78
FC84
FCB8
FD73
FD34
FC97
FBE0
FD68
FF6E
FFB2
00C7
FFEE
0013
00E6
00FC
0074
009E
FEFC
00DF
04D1
0468
FFB6
02BD
FE86
0295
008E
FE5C
FD68
FCD9
FEF4
FF58
FFA0
FDBC
FDB5
FD80
FF18
FFB0
0166
017C
01A5
00D3
0243
0331
03E4
01FF
024C
059E
0813
00C4
0388
FFD5
FE46
0230
018C
FDC1
FB27
FCD0
FFDB
FEA2
FFD4
FF22
FFDB
FEC7
FF71
FD0D
FFF3
01B4
02A7
022C
027A
033E
04A1
03AA
00DE
05C1
0687
0179
FF9B
FFF6
FF89
FD03
FFDD
0108
FC47
FC3F
00A9
0033
FF2F
00AE
0096
0123
FBE9
FB6F
FF2F
FFDC
0120
FECD
FF42
000A
0279
0256
015C
0416
04FA
0598
FF1A
FF8E
FCF5
FBAE
FF4A
FDAA
FEB9
009A
FF79
0033
FF57
0013
FF62
FE3D
FBBB
F9EE
FC18
FD8C
FBEE
FAB5
FC43
FBDC
FC16
FB0A
FBE5
FDA3
00E6
03BF
FF28
FF27
FD08
00E1
FFE9
FDA5
0080
042E
00F1
0061
FF17
0263
015C
034D
0373
FFFA
FE0D
FCEA
F9B4
F92D
FA19
F92C
F80E
F356
F15B
F445
FBDA
011A
FE1A
0388
FEB1
FD63
0058
FDED
00D0
0230
028A
02B0
0189
0317
0453
066F
0553
0517
00BF
FF8C
FEFF
FECC
FCDD
FAEF
F802
F772
F79D
F72A
FDEA
03CF
0255
021E
FFDB
FABE
01AB
FF30
0131
01CD
00B8
020E
032F
034C
03B2
0496
0463
046F
0266
0231
0270
0108
FD00
FB5F
FBE1
FC67
FD87
0153
0171
07EB
02C6
0214
01FB
FFF4
02F6
016E
01DC
FF01
FF17
009B
00F6
001B
FF01
02B0
034B
02D3
0156
03EA
0169
FF38
FDA0
FD01
FCDE
FD0A
FD1E
04F7
045C
078E
03A1
FF32
00C9
FFB7
0178
00CF
00E0
FFBB
FEC4
FD7D
FEBB
FF7E
FF3C
01FF
02A1
01C5
009D
0107
00DA
FE21
FF3A
0165
02FF
013E
FEE5
022D
06FB
08AF
027A
0077
00CB
FFBB
0232
02B0
0336
0064
FF5D
FF0D
0118
00D1
009A
FF3B
0117
0131
009F
0128
FFE8
FFED
0042
0035
006B
FDCE
FD7E
FDF5
FD9C
FDFD
0052
FBC1
01CB
FD4F
0303
034C
04DD
0228
FF8C
FE4B
FFBD
FFFA
003F
004B
01CF
0054
018D
0215
FFA7
0089
00F5
FFB8
FE4B
FF27
0074
0240
FD99
FBDC
03B8
01A4
FD08
FC9F
0107
0079
025E
00BE
FF7C
FEF7
FF51
0089
FED4
FE06
FFA1
0062
02E6
0308
0202
036D
013B
01E1
0001
0028
0324
0439
030B
00A3
02E3
FFCB
FD4D
FF26
FEED
FE38
FF70
0003
FF6C
00BF
013A
FFDB
01AB
FF07
FE7B
FC8B
FFE8
00CE
03C3
03DE
01F8
0322
008B
00BE
01A6
038E
0161
00F9
0127
02EB
004C
00B3
FED7
FD30
FE3B
FE82
FFCD
FF5E
FED6
FD7E
FE88
FEF1
FDC7
FD8E
00D0
0186
0425
02FC
02BD
045C
0387
0259
014A
03F7
016A
FF4A
FF52
0230
01EA
0281
004B
FD36
FFED
FEF1
FE88
FE18
FFA8
FF53
FF9C
FDE5
FF6A
FF1D
0010
FFA5
0272
0233
0201
01A5
0292
00F7
0307
0363
0032
042E
FFF6
FF8B
0060
038C
036F
FE57
FE1D
FE70
FC42
0055
017C
00C4
FF0A
FDDC
FEF1
00E4
0026
0052
FD79
FE50
FEEF
FFE6
FF4F
02ED
02F1
021A
032A
0452
0071
FFAB
FF8A
028A
0596
0105
FDF9
FD5F
FCFA
FF75
02E4
FFDD
0053
FEAE
FF6F
0062
FED9
FFC7
FD5D
00C5
00DF
0018
03A9
0170
0064
0177
0153
01B9
008C
008F
FFAF
022D
FF67
FDC6
FD16
FD91
FCF4
FD66
FEB9
FC94
FC92
FD63
FE81
FCF6
FCA3
FD74
FB7A
FDCD
FC0E
FC01
0290
028E
0261
021E
FF68
0176
FF96
FF91
004C
FF9E
0095
045D
FDEE
FEA0
FF9C
FE22
FC66
FD8B
FFE0
0068
FE35
FDBD
FF7F
0141
01DD
00C4
FEF4
FE20
FFB7
005F
FCE3
FCC7
0060
0085
0010
FFCE
0085
0051
FFCB
007F
0084
01EC
0171
FFA9
015B
FFA7
047F
0244
00AF
02F8
05E5
016D
FD6F
FD14
FF8E
0303
FEE4
002A
FFB3
0056
0020
0080
008E
FFF2
005A
000A
007D
FFFB
FF80
FF93
0053
0002
FFE2
FFEC
0051
FFEF
002A
00A8
014C
FFC4
FFBD
FFCE
001B
0041
006B
0016
FF9E
FFDF
FFAF
FFF5
001F
000F
0043
FFAE
FF74
FFE5
FE66
FD91
FDAB
FF05
FF11
FDDF
011F
FF20
0373
0211
FEFE
019D
0170
F9BF
F92F
FC3C
FE4E
FF4C
FF27
0053
0034
0006
FFB5
FFE6
0016
FF65
0199
0194
FE13
FA8E
FB4D
FF1E
004E
008A
FEC1
FD79
FA4E
FBBC
F7F5
F8D0
FA20
F964
FA34
FBA0
FE22
FB71
FFE6
020F
02A8
FFF4
003C
0031
0058
FF1D
FFA9
FA60
FEB5
FF1F
018F
021B
0071
0397
05BE
030F
00A3
022A
01E2
FF8E
00E5
FE1A
FDE0
001A
FD1A
FB3A
FAD1
0084
0137
FD15
FF77
FFD8
FFA0
018F
FFDF
FE86
FD7F
01BD
00CC
01BE
03A3
033C
04E0
0343
0194
0065
010A
00EE
02BF
01C9
0259
0179
FED7
017A
FE43
FEDA
FE58
FB39
0251
FFC0
FFEC
FE51
FEF4
FFBF
0193
0515
039A
0654
042C
050C
0385
02BA
0225
015B
FF75
00B9
FFF6
00E7
0089
0021
FE76
FF98
00F2
FE2F
FD4A
FE77
FFFD
0017
0281
03A6
0756
02F5
067E
073B
0444
0320
02E1
0389
02D7
028A
02CD
0080
FE46
FEF8
FDB6
FDBF
FF86
FFCB
02CC
02BB
FED3
FC13
F9D8
F6E9
FC21
008F
0280
05FD
0653
01E0
0305
0775
023E
00C3
00D4
012A
0312
02F1
04BC
02CE
FF5C
FF46
FF94
0000
0199
02AC
0204
00C0
00A1
FED9
F9C7
F7A4
FB78
0322
05BF
0315
FDFC
FF79
FF9A
0130
00A4
FF78
014B
01A3
0229
0474
03E1
0391
034B
01E1
0095
0220
0225
03AA
01FA
02A8
FFB2
FB39
FAC3
F754
FA9D
0279
026C
015E
FCA5
FCDD
FDAF
FB79
FC46
FB1E
FD2A
FD23
FDCD
0112
0106
017C
FFCC
011E
0256
0331
03C6
03B6
01EE
01FA
01C2
FC26
FC10
F9BC
FB42
0287
0177
0643
FD75
F917
FBDF
F93E
F925
F8DC
F9D5
FB15
FCF0
FD75
00C2
FF29
FDB8
01D6
03E5
030A
01F3
02B1
0259
0282
0002
FD1F
FFAE
FBE1
FF10
03D8
04B6
0045
FD48
F753
F7AF
FA64
F95F
FAF6
FC16
FEB7
0016
00E7
0026
FC64
FCA3
FEDE
0294
013C
0027
0018
FF81
FEEF
FE28
FD01
FD50
F97A
FB12
01DA
023B
FF4F
FB45
F885
FB51
FEF9
FE04
FFCE
005B
0181
0224
027D
FEE9
FC4F
FBE3
FF0B
0028
004C
FD8D
FD91
FB72
FE48
FCB6
FFC8
FEB3
FB90
FC98
000C
01D8
02D7
FB36
FB91
007F
0269
022F
025F
0282
0433
020B
FFE3
FD9E
FD9C
FB10
FCC4
FE6B
FE26
FB4A
F9AE
FA80
FD7A
FDDF
00D3
0166
FE94
00E0
FDAC
0110
0367
FECF
00D8
02FB
023E
0399
014A
0195
016B
FFA7
FEA8
FE29
FE70
FC4C
FBD6
FD76
FD76
FC50
FBA7
FD94
FE4F
0136
0279
02D2
0473
0230
FEE2
00BD
0293
FF81
021C
032B
001D
00CD
FF56
FFF7
FFA3
FC55
FD57
FEBE
FDEE
FEDB
FCA9
FFE4
FFE6
FF1C
FF5E
00E9
011C
013F
0486
031D
08A7
0241
01DD
029F
0269
FF32
01F6
0168
FF1A
0135
FF61
00CD
FEA4
FD91
FFC3
FFF2
FFBF
FFFA
FF00
01D9
0171
01B0
02C7
023E
FFFA
00D9
0270
0226
0694
02EE
FF8D
01F0
05CB
FF96
01C1
00FD
FE8E
003E
FF91
00D8
FE83
0094
00AF
FFF0
FFFC
FF2A
FF6F
00B7
00CA
0210
028E
03A5
0279
0274
02EC
04A4
0507
0382
02AA
00F0
050F
0037
0121
00FF
FF8B
0072
00EF
FFBB
0081
0134
0072
006A
FEEE
FF7F
0039
0208
023C
01CC
01BE
0318
02EB
00C1
0030
026E
02BD
FEB1
FF55
0570
0299
035D
0274
023D
002C
006B
00AC
0047
00B7
0144
01B3
00EC
011C
FFE2
FF16
0198
FF8A
FEEE
0138
01B0
00C7
FEE2
FE42
FFD9
0084
FEC5
0092
0298
0310
0501
01F9
027D
006D
00D9
007B
0197
01D3
018B
01C1
01E2
023F
00B0
FF9E
FE11
FE41
00A1
02AC
00CA
FEE1
001C
FEC6
006A
FF23
FFAB
FE8C
0250
0750
FFD3
FEC7
FE3A
FDB4
FE7A
FF07
FE58
000C
00D4
01A7
00B4
0024
00DA
FFF6
FE8D
FE8F
01B1
0054
0071
02C2
0364
FDFB
03FF
04FE
014C
FE96
FF23
0759
FE72
FC74
FD7B
FEC1
FF95
FFE9
FFF1
FF2F
004F
00EA
014C
00CC
00AC
FFEB
FFF7
FF5F
01D1
00E7
002F
03B3
FFEC
FB8E
0052
FDEE
00C1
FF76
0076
0292
012A
FF68
0007
0167
0385
0089
0079
0149
0203
FF7E
00C7
00D4
FFAD
FD6F
FDB2
FCBC
FDF9
FFA6
FED3
FC26
FB5F
FBFF
FE40
FC59
004E
0056
FFFC
01E7
04D2
0757
062A
03CA
00F2
00E7
0041
FFEF
010B
0019
0134
0201
0041
FE0E
FD6B
FC3C
FA51
F9FE
FCA6
FADD
FA44
FEBF
FE01
FFC0
FFC1
0044
FF93
FB1C
04B3
05E5
02B2
FF88
032F
0360
02EA
0127
02EF
036E
0152
FF7B
01F5
01B2
FDF9
F9A9
F605
F47C
F89F
F9CF
FDAA
004D
FF82
00D5
0080
FF80
FF85
FFBB
FEE0
FA93
FC6A
FF71
0285
0362
00D2
01C3
0117
00AC
0137
015D
050F
0440
0246
FFDE
FE9D
FA57
FB1F
00B1
0194
FF62
02BE
0009
0006
FFEC
0086
0089
FF7A
00E5
018F
FE78
FE24
FE8E
FEC7
FDE7
FF23
02D0
0843
01B3
032F
02DC
064A
022F
018D
FFFF
008B
009F
0179
FFF4
FF93
007C
007F
FFB7
0091
FF89
FF72
FF9E
001D
0061
FFAC
FF9F
FFFD
FFD2
000F
FF7F
FEC1
FFBF
0058
0086
FF96
005F
FFE2
FF96
004A
FFFA
FFBD
FFBA
0042
FF88
FFCD
0010
0068
004A
0049
FFF2
FEAF
FCC0
FCB6
FCE7
FD82
FD78
FD22
FBDA
FBF2
FF80
FAFD
F9FC
F9D2
FC41
FC76
FD7A
FDA4
FC30
FC96
0063
0012
FFB9
004C
FFB1
0057
FBD5
FD9C
FDCE
FE28
FC60
FA9D
FA3E
F924
F859
F5DE
F5B1
F55A
F6AC
F938
FD2D
0146
00E0
00F5
0112
FE64
FC18
FBB7
FE13
FE96
FFC5
0074
0021
004F
FBD6
FD29
FE06
FB16
F842
F608
F435
F315
F36C
F5A3
F322
F2DB
F69B
FA07
FB75
FE75
00DE
00E4
00ED
02BD
02DE
00C3
FCE1
FE01
FF8D
FFA0
FF85
FF7F
0148
01E3
0196
FB9D
FA3B
F9F0
FA22
F881
F8F2
FD9B
FD23
FD42
FDB2
FE18
FEA0
FEE5
FFE2
005D
FF2D
00EC
015E
02BE
00B7
006F
FE23
FC7D
0057
FFC3
FF3B
FEA7
FB35
FF20
FFD8
FDA2
FD48
FFFA
FF8B
02A8
0360
FE9F
FF11
FF91
FF71
0002
FE2C
FCF7
FF52
FE47
FFFF
0026
FF3A
FFD7
FD6A
00AB
0013
FFBF
02DE
FF40
FCD8
034A
003E
FE96
005F
01BC
021D
0108
0024
00C7
0040
003B
FE81
FD6D
FCF7
FDF5
FF29
FF18
FF6B
FF35
011C
0147
0088
FE53
FFDC
FD15
01F0
FE65
FD62
0134
00CF
00C9
016C
00CF
00F1
011E
FFFD
0069
007F
FFC3
FF70
FEE8
FE48
FED1
FE5B
FE79
FF2E
0009
006D
0275
00C6
FD86
FEED
F9EF
0238
006E
FF39
00B9
0146
01B6
00C5
0009
0031
005D
FEE7
FF05
FEB7
FF4B
0129
00F9
00BA
FF15
FF35
FF33
FFA4
FF8D
03C9
0353
FF5C
FF27
FFCC
FD1F
01A7
FB98
FE48
FF17
00FF
012C
009C
016A
01BC
00D8
FF83
FFD1
FFDE
0264
03A0
0288
01FE
0165
021F
0155
0147
014D
026F
0085
FF0D
FC0F
FFB4
FF46
FCBB
FFB0
0066
FDDE
FFBA
008C
0253
00C2
01F7
FFDB
FE62
FDB3
FD0A
FFDB
0019
FF96
0053
016F
0397
02BF
01AF
00C5
02E2
02A5
032D
FCED
FE9D
FA59
0281
0190
0183
0010
009D
012D
015B
01C1
008C
FED9
FE04
FAF0
F8D7
FDB4
FF8B
FEAC
FDC5
FF2A
FF7F
0059
0292
00D6
017F
02F2
0426
FCFC
FF0A
FFD5
FFAB
FD89
FF0E
003A
02BF
031B
0351
0192
036D
0134
FFDD
FE20
FBA4
FE16
FE6F
FE09
FCF1
FED6
FF06
FF97
FFFC
0049
FFB9
003F
00B0
FA9A
0062
FEA0
FEC0
FBA8
01A0
02DF
017F
0503
03B8
039E
03C4
030A
0136
FF40
FDDE
FEBF
FE4D
FF29
FFD6
FEAC
009F
FF40
0074
FF84
FFED
FFEA
FE69
FD4A
0182
FF48
00A6
FF60
027E
0385
0330
0429
0644
05EE
04A1
01E9
0216
006E
FF7A
0085
0022
0166
FEB6
FE8F
011C
FE65
001C
0130
0110
FE26
FA53
FE12
0081
002B
028B
03B2
FF23
02BF
0364
0244
04ED
06A2
0641
0618
04BD
0130
013A
0194
01EB
018A
FEBE
FEBE
FEB5
FF92
0026
0287
0009
FD3A
0280
FC58
FCF7
FF4E
013C
FEBE
FA52
FF13
FF76
0042
02AE
04B4
0686
0633
06E4
048D
0202
028E
0088
00A0
FF45
FE4A
FEBB
00BD
00B5
00A3
010F
FC64
FD98
FAC6
0031
FF8A
025F
FCDD
FA5E
FE86
FE1A
FEE7
FE45
01A2
034F
035B
03F9
04F8
023F
01DE
012C
00D0
0076
FD68
FEA7
FF32
FFB9
FE44
FC83
F84C
FDAD
FB1F
FC35
00AF
044F
FC52
F891
FBF6
FB97
FAB2
FBDF
FBA4
FDE4
FFF8
00CE
01E7
005C
00C8
0079
FE94
FE33
FE24
FF51
FF08
FDBA
FD7D
FD71
FBAB
0126
FA7D
005C
FC4A
038E
FC83
FBAA
FCBE
FB13
F974
F912
FB10
FA28
FBC5
FAD0
FE23
FEFC
FF1F
00B0
0034
001B
FFB7
FF55
FF05
FC2F
FD34
00E7
FE1E
FBCC
FF11
0074
FF87
034E
00C6
FEB5
FC1A
FC01
FA7B
F99A
FC81
FA69
FBC5
FB18
FEBF
FFC6
0125
023B
026E
0082
0124
0087
0098
00D3
02A6
015E
00BF
FB42
00E6
FF5A
038C
0460
0104
01D4
0083
FEAB
002C
FFC2
FEBB
FCB9
FD9E
FD88
FE2F
FF60
0099
FFED
FF60
FE6A
0056
010F
019D
0215
02F7
01FF
034B
FCE1
0012
001D
01C8
0490
03E1
036C
01EC
02C5
0269
01D7
01CF
FF89
01BA
FFC6
FF43
FF7A
FFA3
FD57
FFEC
00C8
00AF
01F4
0260
0161
00E8
01EC
025A
0316
FF84
006D
FF7E
0471
05FE
02F0
030A
0499
038A
03E8
0244
016F
016C
FF93
FFFA
0066
FF2A
0023
00AA
018F
007B
0133
00E7
FE9D
FDFA
007A
0294
0470
FFE5
003E
000C
FD8E
04FF
0381
FFC3
034B
03C6
01AA
0198
028A
024E
FF59
0254
0174
FF9C
0028
01CB
01F1
01DB
0167
0157
02A5
009E
FA35
FC4A
FD75
FFB8
0074
FFB1
0346
FC46
0292
0415
00E9
FF79
FCD0
FFB3
FE50
FDD9
FEF2
02DE
FFF7
000A
FFF5
0079
0245
026D
00AA
0344
0764
059E
029B
01BE
FD9D
FFEE
002D
0000
FFF2
0104
0234
0334
033D
FDD8
FB6C
FBC1
FEA3
022A
0165
011F
FE7F
00EC
025C
0345
FE7D
FDAD
FF1D
01EA
0299
0005
FCF9
FE2F
005A
FFA9
FFBF
000F
FFB3
FF9D
FE2E
FF72
FD1E
FCF9
FD51
FE52
FB10
FCBB
FD4A
FD45
FED2
FEB3
FF2F
FD3A
FC1B
FA90
FE55
0293
036A
0306
0067
FFF0
0022
002C
FF88
FF6E
0027
0000
FFF1
0055
007C
FFED
FFB6
0088
006D
FFA8
FEEA
FF89
00BB
007B
0029
FFB5
FFDC
FFA0
006E
FFD3
0092
FFB6
FFA3
004F
FFC3
0016
007E
FFA7
FF77
FFF6
FFB6
FE4C
FDC9
FCFE
FD4B
FE82
FDB0
FFBA
FCE9
FFC8
02AD
019A
0259
FF2F
FA65
FBE4
FC40
FCD2
FD3A
FCE1
FFCF
FF9F
FFF8
0083
006F
FFDD
FCC0
023B
01BC
FEE6
FE21
FCDF
FACB
F928
FA7E
FB23
FCC5
FD72
FBED
FBE4
FD86
FDB9
FD6D
FD6F
FE6C
FCD1
FACC
FC3E
FCB8
FE1C
005F
FFCC
FF7C
FF88
FDE4
01B6
000F
0002
FD85
FE45
FD29
F966
FFA3
FF44
0118
00BF
003D
FFF8
FF76
012C
0125
FFA1
0294
0030
0065
0018
FEEE
024A
0017
0047
FFD1
00E5
0186
04C6
0054
FE96
FFD1
002D
0118
0169
012F
03C6
02E6
0162
01DF
026E
0126
01A2
021D
FF52
0085
0021
00F4
FFDF
05AA
0564
054C
FD48
FFE6
0041
FC22
040A
FDEB
0062
00D0
002A
FFB4
0005
FFBA
02E4
02F5
035E
0168
01E4
0197
024E
0194
012D
01B1
FFD6
00C7
FEF4
020E
04EC
FDD8
FCE3
0058
0302
00C9
0400
FF62
FFF3
00E8
FDAE
FF85
01B0
024E
014C
0212
0424
0397
0405
03DC
04B7
0408
0333
0289
020D
010D
027E
019B
028E
0017
FD58
FFAA
057D
FEB0
046C
016B
FF4D
00C6
FEAB
0220
00FE
011D
FFF7
02DB
03CB
0374
0541
0466
02BF
034C
032A
00F2
00AF
018F
0306
0182
027E
FE18
FDF7
FCA7
00BB
FECF
0376
01E7
FF1D
0096
016F
0231
0140
0066
FFE1
02F6
039E
0370
03E3
054B
024F
051F
02A1
01FC
0296
031A
01F2
0399
0289
0374
05FA
0332
021B
0016
0540
02D8
00C0
04D8
0222
0345
0179
007F
0053
03E8
03CF
0384
033F
0338
03D3
03F8
02E8
0341
02C8
036F
04C5
0229
04E2
026F
FD3A
02C6
0090
FF93
04B5
037F
01E5
04FA
033A
02B6
00F8
FFF1
02A6
040C
03DA
0248
FF6A
004E
001A
025C
02A3
0427
02A9
03E2
023B
0037
FD06
FFC3
FFEB
0133
0241
FD39
03A3
05E7
01E9
034F
02DC
01FD
009F
00FB
03C6
032D
043C
02DE
FFE6
FE5A
013A
01F9
02BD
0432
0062
02B9
017D
0045
FEBC
0731
FE9F
FDE4
040C
FB88
022F
0463
02D8
01BC
0174
FE65
FFDD
00F3
0149
0115
02BB
0293
010B
FDF2
0046
0307
057A
0403
01FE
FF30
0091
FDAF
FD35
0098
FC7B
FD4D
01CB
FD82
0155
01BD
FE9C
FE41
00DF
FD96
FEDA
FFED
0239
01E8
0439
031A
0151
FF81
FFF3
032B
0395
0337
014F
FE8F
FC59
FB8D
FE10
FE81
FC2D
FD3D
01F5
FFA3
FCF1
FD2E
FB93
FE46
FEC5
FDD8
FD1F
FFD9
01AD
028C
04C5
0360
0146
FE84
01F7
01AD
014F
FFF4
FF6A
FB8D
FCE8
FB02
FE64
FC6D
FCCF
FC9F
01B2
FCC4
F970
FFDF
FDAE
FFAF
FEBF
FF06
FDDD
FFBF
00BA
0141
01C1
01DF
00D9
FEDB
0116
0215
0164
FFE6
FDA9
FD80
FCFF
FD36
FB5D
FC3C
FD40
FD0B
02FA
01C5
FFA1
0259
FCD9
FE29
FE8D
FF14
FE73
00A2
FF60
01A5
00A9
FEEA
FD99
FE14
FFE6
00E9
006E
FF21
FBD0
FC84
FCF8
FEBB
FA14
F993
FFCE
FFE1
016F
FF26
0101
0263
FD38
FF82
0053
FF6E
FFB2
FF78
00FA
010B
FE72
FC3D
FD09
FEA3
01F5
FEE4
0120
FECA
FCCD
FD83
0048
00E1
FB78
FD8E
0306
03F5
0172
02BA
0000
FEDA
FF6E
FFC2
FF7D
FF49
00A6
019C
0247
FE4D
FC69
FB86
FD6D
FEC5
FF29
FF07
0126
0063
FFAD
00AB
FF13
FFCE
FD34
0173
FCE6
FE3D
039B
006F
FF68
FF3D
0207
FFDF
FEFE
FFE8
000C
01F4
FF3F
FF73
FD7A
FC28
FC4C
FCF7
FE7E
0027
018C
0106
FFBE
FFC8
FF73
FF17
FBB4
FBFC
FC2A
0050
039C
FDE5
FD9C
FEA3
00A5
01C2
0037
000A
0058
0001
FE12
FD6F
FFE3
FDF8
FCE7
FD3A
FD94
FE5D
0068
0193
008E
0082
00AC
FD7E
FD98
FB6C
FEC2
FE37
FDD5
0065
FD64
FEB5
FCF6
0285
0228
FF24
005E
FF47
001E
FFCF
FFB4
FE3F
FEFF
FF51
FE3F
FF53
00A1
0028
FF74
0049
FEBD
FC9A
FE42
FFAA
FF45
FD74
011F
0008
0027
FE6E
FB54
0249
0242
0190
00F4
010D
02BD
0292
0194
0163
FF6B
FFC9
00E3
FFE0
FFBE
00BB
FFAB
02BD
0209
02B3
009F
02FE
FF62
FFD3
FF76
0365
0706
019A
FE29
FFBF
0241
031E
017B
02D7
0341
01B7
0383
01E0
0074
0190
00DF
00F4
01C3
0244
00DC
0238
044F
04DD
012C
FF81
FFCE
0004
FFF8
FF38
0795
063C
01A6
0279
031F
01AD
0015
03E8
044E
046A
0555
0428
04A9
04C1
00F5
0147
04A3
0482
01BD
01A6
0517
001C
F9B2
FC9F
FFA3
FFD8
FF75
0383
FBCB
00E8
062B
0666
0372
043E
0645
0B26
0A08
06B0
04E8
0463
0471
065D
05D3
0794
0AFD
07D6
0490
FFFB
0226
02AF
FDB2
FE51
0070
FF86
0025
FF91
025E
FEC3
0158
03B1
06F0
0705
0B10
0C9F
0CE8
0D9B
0EC9
0F88
0801
0A13
0AEF
09E9
088D
0C06
084D
03D1
03AB
02F6
FFE1
FF9B
FF89
0000
FF79
002E
0011
0273
0376
04D9
044F
0534
0568
06FF
03B0
04BC
0072
0936
0759
01CE
FD55
0037
0325
FB46
FB01
FD9A
FFA2
0020
FF73
004F
0084
004B
007B
0007
001E
008D
0060
0019
0041
FFFD
005E
FF71
0055
00A8
004A
FE6C
FDF7
0025
0081
FFED
FF88
FFA6
FFE3
FF89
0008
000A
0027
FF78
FF8F
0041
0087
FFC0
002D
00F3
0222
0397
0470
029E
025F
046F
00DD
027E
0143
FE55
FF7C
FF4D
00BF
0639
0629
0518
03F4
03FE
0372
0017
FF7F
005E
002E
FFC1
FFA7
0339
FEB7
FFB2
0209
0506
05F0
0832
063B
047B
0665
04A4
0261
04E0
03C9
00F0
02BF
0346
015D
0160
01FA
0681
055C
FFC7
FE0B
0048
0090
0070
0002
FDDB
FF79
FFD6
003D
04A6
0214
024F
0614
017C
0436
0158
0144
FF00
FF00
00C0
FE8A
FFE3
00BF
FDF6
024D
028F
0369
02B0
000D
025C
FFB0
FF70
FEA3
FD3A
FAF2
013B
00FD
00EE
02E0
02E2
031C
02BE
004E
00EB
FF5A
FEE8
FDF5
01AB
0300
01A9
03BD
0210
0264
0262
0446
002D
0010
FFB0
03BC
001E
0050
02E2
FCB9
038C
FDA5
0072
0253
02BA
012D
043E
0195
FFEC
FE9E
013B
FEF3
0031
FF64
FE8C
003F
FFF3
FF8E
0175
02FF
050A
0221
0368
03B5
FFCE
0023
FD1F
FB14
0289
01DD
FEA9
00DD
00F7
0177
FEEC
0044
FEC2
FD2B
FE18
FD60
FD27
FE2D
FC1E
FD59
FC63
FB2D
FDE3
0298
03E6
0392
01A4
0267
006F
FEA8
FC6E
F9BF
00BD
0396
FF7C
00AD
0153
00DB
002A
FFBD
FD8E
FD5F
FDB9
FEFD
FF1B
FE90
FD47
FD4B
FB40
FEE9
002C
0019
0445
04C2
045E
0323
0334
FF54
FE83
FE0F
018C
037E
02CF
01BA
01B7
01EE
0028
FEAA
FC29
FCEE
FD69
FE5C
FF5E
FE9F
FD22
FD76
FD66
FF56
FC4E
FBE9
FFCB
047A
02B4
FCAF
FFAF
FBCC
FF3F
FFA9
FEEA
01FB
0099
0115
00F8
0047
0070
FE0F
F9D5
F9DD
FC27
FF13
00DF
FEDD
FF4C
000A
009C
006B
FBC4
FB09
004F
02B5
007A
FDD6
FF09
FEE4
FB8E
FE34
007B
01A8
0038
0203
01A1
0128
00BF
FE50
FB95
F858
F9DC
FF6D
FF6C
FEE6
FF22
0081
FFD3
FDAB
FB92
FC35
03C2
02D5
FD43
FF91
FFBF
0089
F987
FDF5
FDCB
01AD
0149
0208
022D
0304
012F
FEAF
FDC1
F976
FB87
FD56
FE52
FD54
FF66
00E6
FDFE
FD80
FAB9
FE10
0313
038F
FC0C
FD69
0027
FE65
FCD3
FE60
FCF1
0012
0011
00DC
01B6
024D
0200
0284
0104
FD41
FC6D
FD97
FF5D
FF1C
FEC6
004A
FEF7
FEE4
FE95
FF1A
029F
000D
F9E0
FAAB
014C
FF21
FECD
FC35
FCBB
00BE
00BA
01C9
0343
038A
044D
03DD
01A0
FEC3
FD63
FF7F
FFE4
00A1
013A
0274
004F
001F
012F
037F
009D
00AA
FD92
FF17
018F
FE44
FCAC
FE7E
0098
0221
01CC
02B9
02E8
0364
028F
044A
0117
0026
00C3
FFC5
00A0
00FD
0122
01B4
005E
0103
0322
0111
0216
042B
FC29
000A
01CC
FEE9
037F
0231
0119
00BB
0148
03EF
0236
0264
01B5
029F
02B8
03C0
0330
00FC
0182
0155
0041
0073
FFBA
001D
0140
014B
0117
0617
004F
00D8
FFB1
FF09
0149
0336
FFA0
0188
031A
00D8
009B
009D
FF6F
00E1
02D1
0433
033D
0272
0360
01B2
00A7
0095
0047
0108
0008
010F
004F
0642
FD9B
FF13
FF79
FE89
02E0
030C
0045
023D
0107
FEB0
0115
FF75
FF1E
0010
00D9
02E1
02C0
010F
036E
0146
01E8
FFF1
023B
00E0
FEEB
FFE9
FF7E
021C
FCE7
FC6A
FC5D
FFA5
FF59
04B5
0369
00BB
FF79
FF28
FE9E
FE2F
FD11
FF6D
042D
04DF
025C
001A
0202
00A1
00D1
FFED
0016
FE17
FC59
007B
01EF
FFE6
FB70
FE09
0000
FD3A
FD55
01F8
010F
FF62
010B
001D
FDDD
FC84
FE1A
00DF
01CF
042B
03AA
0205
01CF
0134
013A
FE75
FF5B
FF47
FF8F
0097
FFE5
FF95
019F
FFA5
004E
FF5C
0211
0309
FF6B
FDE8
FE0B
0027
FD76
FDE9
0117
0230
03CD
02FC
01AF
0216
00EF
003B
00F3
FE91
FF43
0084
016D
FF23
FF3D
FE12
01A4
FFF6
001C
0211
000A
0302
FF6D
FC3F
FB7A
FE4C
FFD1
014F
01A1
01F1
028D
0403
01B5
011C
FF7B
018D
FFC3
FFE2
009D
017A
03EE
023D
FF5D
FCAD
FE63
0003
00DA
0055
FF86
004E
FFFB
0016
FC97
FCD5
FF76
FE83
FFD4
FF5D
FFBA
0169
FF52
0072
008D
007A
00D4
0335
021A
04E1
01AF
FF62
FC30
FD48
FDB0
FF88
FF87
FFE2
0068
FB7C
FBA4
FDE4
FD77
FEC5
0109
FE75
FCCB
FCAC
FE5E
FEFC
0027
009B
0156
01A1
030E
03B4
03AA
04F7
0107
FE6D
FAE0
FE4A
FEF1
FF70
0071
0031
FE23
FB10
FB13
FEB8
FBDC
FBEB
FBA6
FD31
FB00
FE59
FEE2
FE4A
FEB8
FF19
0065
FF5E
0061
01E3
00D0
FF43
FED2
FE6C
FEDD
04D1
01D2
FFEB
006F
005C
02CB
FF5F
FDD5
FC78
FF30
FCDA
FA24
F87A
FE57
FEAF
FD91
FE97
FFC8
0191
FF89
FE91
FF37
FC92
FF0F
FF6E
FF65
0066
FC2F
005F
01AA
FFEC
0069
FFB8
005D
FFEE
FFC3
FD8E
FD7E
0043
024A
FD3A
FE91
0311
03EF
0005
FD8D
FCEB
FB5A
FCA4
FD3B
FB07
FBE4
FCA1
FB3A
FFC2
FC08
FF91
FFB1
FFAA
0066
FF81
0068
007F
0010
0017
0039
FFB0
FE4F
010F
FD06
0196
0199
00EA
FF66
0240
FD4F
F8B0
FC99
018B
02E3
FCF3
FAF0
FC35
FF91
0007
FFCC
FFDD
0061
FF74
FFB6
005D
FFE8
FFAC
FF93
FFD4
FF6E
FF9D
0055
007C
0016
0067
0058
0024
FFBD
FFD2
0004
0075
0084
FFA3
FFC5
FF9D
FF7E
0082
008E
001E
FFC2
FF9A
0067
FFCD
FFA9
00B6
0066
0020
0043
FF79
008B
0077
FF66
FFC1
FF9A
FF9B
0078
0075
FFC7
000A
006C
FF80
FFE4
FF8A
0085
FFEF
0033
FFE8
FFE6
FF87
00A2
005D
FF93
FF94
FF71
FF0E
01A0
0161
FFB7
FF44
0176
FCE3
FEB3
FBEF
F8AF
FB8F
FB2D
FAC3
FBBC
FF5E
FF7A
FF47
009E
0040
FF80
002C
FF7D
0084
FDBF
FFE9
0009
0030
FE62
FD57
01C3
0018
01A7
00F7
03CD
01CE
FF43
FE3B
FF43
FF55
FFD4
FE76
FDD1
FBD0
FA64
FB99
0208
03D8
0356
0051
007A
0095
FC50
00BD
FE2F
FD5C
00A5
02AF
00D3
0348
0179
049D
0430
028C
0255
033E
FFDF
FF84
00D4
FD3F
FC6A
FCFA
FD83
0031
FFD3
01AC
0410
007B
007F
000C
FFCE
01BA
004D
FC30
FFD6
0032
0122
0280
0365
0414
02F5
0391
0376
015B
020A
02F8
027F
00C5
00FD
0166
0270
02E8
0152
06A7
031A
0049
005F
015C
02A5
FEC5
FDDF
FCE0
FF9B
00C8
02D2
022D
03F2
0374
03E2
048E
06A5
0886
054E
04A3
040D
01F2
012C
0152
0225
0254
0173
03DE
0132
0399
FF1D
0318
023D
FD36
FDD3
FF7C
FFC8
012D
038E
02DB
030D
03D5
0416
0615
0858
076F
0598
02E9
0391
016A
000F
0054
0111
FEDE
FD2F
FDE1
00D5
042E
0040
FFE4
FFBE
FC94
FE98
FF22
FEF1
FE1B
00AE
01A0
01E2
01E2
0433
03DE
0590
0330
035F
0106
0151
00C5
FE4D
FDC7
FF75
FEAD
FD8E
FEFA
01DB
043D
FFC9
FD41
0274
FBF0
00AC
FE9F
FEEC
FEC3
0149
01E6
012C
009D
00E7
0011
FF7E
FE98
FF4B
00C7
00FC
FFEF
FCDC
FCC5
FDF6
008D
FFF6
0277
00B2
FF17
0058
FBCE
0235
FD18
0022
FE29
020E
FF6E
0183
0157
0126
FEC7
FE5A
FECD
FD44
FCCF
FE82
FE5A
0047
FF2D
FE02
FD7B
FEE1
004E
0280
0016
039B
FD9B
FD8A
FDE9
FE9F
FF81
0186
FD74
0313
FF73
0073
0035
FDEB
FFB0
FDC0
FEDB
FC2E
FC61
FBDF
FE7D
FFDC
0001
FCD7
FE34
FDF4
FFCE
FF60
FFD3
07BC
FEC0
FDB2
007A
FE95
007C
00C3
FDEB
014B
FFD1
0103
007A
FE18
FE57
FD8E
FC96
FD21
FD2C
FD02
FE7B
FF87
0055
FE01
FF8E
FB8B
FDE1
FD6F
FE01
0429
FCFF
FD77
0063
FE6C
01D9
FCDC
FBE8
FDE4
00E9
FF04
FF57
FDB4
FD47
FE1B
FFFA
FF36
FDBB
FD1E
FEA1
008C
FE2C
FF85
FFDB
FD06
FD35
FC39
FB6A
FF70
FFE5
019C
0079
FEC3
FF37
FDE6
F902
FD10
000B
FECF
FC7F
FDE4
FF81
FF99
003E
00E4
FF02
FCAF
FDAC
FEA1
FB1A
FED7
0103
FD93
FC71
FD1F
FBF1
0080
0029
01F4
0053
FB5A
FBF3
FD73
FBAD
FD7B
00D9
00A7
FF1F
FE01
009B
011A
FFEA
FF5B
FEB5
FDDF
FCC7
FD52
FBAB
FDDC
FFF1
FC4E
FC1A
FF7B
FC6C
00F1
00F7
FEB4
00F7
FDD1
FC8F
FCCB
FC6C
FCA6
FF40
FF6F
009E
016C
019A
0209
0235
FE93
FCA5
FD7C
FBEA
FABC
FBD9
FDEB
FF26
FE0E
FD4B
FF01
0076
0002
011B
0085
00FE
FD8F
00F2
FEE6
FC5B
FC69
FD50
FF7F
003B
00A7
009D
03B3
02AB
FFBB
FD54
FCD7
FCF9
FC1A
FDA5
FE8E
FDB9
FD45
FD90
FDD6
01FC
FC66
FFFA
0243
00B1
FC8F
FEF4
021B
FD85
FD9C
FE4F
FE81
FEC2
FFE2
FD1D
0016
FDFD
FBF8
FD89
FD43
FD34
FF7E
013B
009A
FEB2
0068
FF91
FEF3
0261
FB36
FEFE
FE9E
FFFE
029C
FFD9
0100
FCFD
FE30
FFFF
FF30
FE69
FFBA
FF20
00BD
FE9A
FBF4
FD84
FDF8
00CB
02A9
02C0
0271
0081
FF9A
015A
01C9
03F8
FE1B
FE96
FF95
0042
038F
03E0
0122
00EB
006D
0027
01FB
0032
FDBF
FEEE
FFE9
0021
FEE6
02A9
02FD
01C5
0209
02F4
02EB
0214
0363
040F
02D0
0446
FE6B
0003
FEB7
0245
0411
02CD
01A9
FD77
FD83
FEC2
FF60
FF25
FF41
FF8C
00B6
0107
0264
0439
0416
01D2
0163
0390
054C
038B
0609
06FA
0437
0314
02EA
011A
FE5F
FD85
03E0
0415
00A8
004F
FF50
FFAD
FF8F
001B
FEB9
01A8
01F1
0214
03F0
0473
032B
00F0
00F5
0275
04EE
02D3
062A
078E
0600
0307
011C
00F2
0026
005A
0182
04B9
03DF
01F5
03FA
0164
0155
01FA
02A2
0527
0540
0428
04E9
043A
03F1
0206
00EF
03D6
04C4
0265
069B
08FA
082E
03B8
FF2F
0089
0053
004D
FEB9
FE53
02B1
008B
0316
032E
0398
034C
040B
0500
060A
0560
053F
0424
031B
0335
055D
04DC
0432
03AD
0466
0426
073F
000A
00EF
008C
001D
FFB8
FEF4
0145
0196
0056
0402
05CF
06C6
06FB
0434
04A3
0451
06F2
027D
036C
0324
03E9
041C
0759
0366
03F6
0557
05C3
063E
FC90
0112
FFDE
007F
FF7D
FF8C
FEF8
0040
00E2
0079
019F
FF6F
0022
05C2
062A
0393
03F8
0441
0120
0100
018A
0465
05FB
0422
00F4
0179
04D5
0079
008F
003A
006B
0060
FFEC
FFAE
0028
00EC
00C6
00AA
0169
00C5
FDE6
FFB5
00CC
001B
FD82
010F
FA4B
FEB3
FDC4
FC40
FCF3
FC67
FDB0
FD55
004B
FFF9
FFD6
008E
FFB1
FF89
FFB5
0068
FF7C
0039
FFA7
0032
0058
FF7A
005C
0025
0054
0012
0095
026B
0222
FF9E
0016
FFB2
FFA0
007C
FFC4
FF7F
FFFE
FFCA
FFF6
0010
FFA3
FFD2
0062
0074
FF98
00C6
00F7
02B7
0386
00D1
00AD
0085
00D1
FDC6
FDCE
FD59
028D
06CC
04ED
FF93
01CD
004B
0016
01F8
02D8
FFC9
FFDC
001D
0032
FF9F
FF84
00DA
02A1
0182
0044
0328
0430
026E
0237
0318
0115
0125
FEDB
002D
01A7
03A2
02B1
02F4
00DC
03ED
0328
FF81
05FD
02D3
0301
0091
003B
FF73
0081
01E6
0517
026A
FFF4
015A
0062
026B
029B
0334
02DD
05DF
01AA
FEFB
00E7
01EB
0196
0245
020D
0111
009D
00EB
013A
03F1
0452
FF66
0048
0074
0079
0314
03CB
01BC
032D
0490
02BC
048E
029A
04B6
056B
022A
FEF2
005D
00C1
00DE
0068
0047
FEA7
FD50
FBB9
FB58
F8ED
FC28
0145
05DE
FE94
FFC8
0020
0582
06F7
04A7
00EF
01B6
01DD
FF98
FFB1
0013
01E4
02C6
029C
00C2
0209
014D
FFE2
00AA
013E
0009
FFF5
FDE2
FBE4
FD64
FFD1
00AD
FCFD
0024
0259
FD46
0127
006C
FD1E
00B2
FE3A
FD95
00CC
01D7
0107
01A9
01EF
0318
0330
034F
0215
01B7
FFB7
000A
FE12
FD78
FDF6
FF0F
0153
00E8
FF1A
FF17
02F4
FEDB
FF9C
01F8
FCE7
FE4A
FBB9
FEF7
FEA5
FEC8
FFC9
0147
02AE
055F
0499
0362
0030
0068
FF6D
FF3C
FF79
FED3
FBDC
FBE2
00A6
00A6
0013
02EB
FE74
FBE0
FD1E
FF90
FD16
FD5C
FD23
FEB7
FD48
FF12
FF05
0167
0368
04BE
03E9
036F
0128
0083
010B
FFF5
FECD
005A
FD74
FB37
FE80
0221
0534
FED3
FABF
FE5E
0011
FF60
FD96
FED2
FF5A
FEB1
FE8F
FF00
FE8E
014E
03B5
03CF
03CC
01F7
00D8
0129
01E3
FF98
FE6B
014E
FEF1
F986
0040
0195
FC72
FE4E
FCA6
F93F
FEF5
FDF6
FF76
00B2
FF70
FFB9
FC8F
FE62
0067
01DF
01E5
0372
FFEE
0149
015F
0232
0183
006F
FFB6
FFF7
00CF
FC58
FCFB
01AB
FDAD
FCFA
FC95
F87F
FE08
FFFB
00D5
011B
FD97
FDEA
FC4F
FC09
FF1C
FFAE
027D
0283
00EF
007E
016C
01B0
01C1
01C1
0111
0109
019D
0316
0427
02C2
FD27
FD7E
FB3B
FBB5
FC05
0182
0156
00D6
FE53
FB6F
FD15
FD3D
FDFB
FF05
0224
047C
00D6
FFB8
01FB
013F
0274
00C8
00B7
FFA2
00ED
FD7A
0010
0068
FE57
0283
FE7B
FA44
FF93
FDE9
FEC4
FEAE
FB7B
FB86
FB6F
FC58
0010
0258
05B8
047D
00AC
002C
00CC
0055
0127
0129
0081
FF06
FF23
FEC5
FEDA
0350
0374
FE61
FEA2
F739
01E0
FDA9
FB39
FEB8
FB90
FB9A
FC27
0016
0334
02DC
04EA
040B
0149
00BF
0015
0157
0031
FF5C
FFFC
FF52
FE24
FF54
FE27
086F
01D5
FCC9
0093
F97A
FE61
FEC7
FF37
FF0B
FD03
FE33
FEEA
0115
0244
0291
0366
027E
0024
0269
01E0
0186
0053
FEE9
FF42
FD63
FDDF
01B9
0167
025B
0316
FBCA
03E9
FEE0
0041
0166
FFAB
FEDA
FDC5
FDA1
016A
051D
0470
02D3
029C
014D
FF5B
01CD
01B4
017D
FFD4
FF29
FF8F
FFEA
FF53
004F
04FA
0539
041A
0047
01DF
001A
00E1
00F1
FF73
0270
015A
0139
0222
03C9
03D7
0331
01C7
FF02
FFAD
00E4
011F
FF8D
012B
FEEB
00F3
FF75
FF5E
FECA
041A
01F7
06C3
FDE0
0110
FFAF
00D5
00B1
01B1
01F7
022B
00FB
00C6
02F6
029F
01CD
FFFA
FF8C
00E6
0228
01D6
006B
0232
FFF8
0081
0131
01C1
00A2
0330
FE6B
049B
00F5
FA75
FDF5
FEF1
FE7F
003B
00A0
015C
006A
00E4
0426
0241
015E
01A2
FFB3
007B
0229
02BF
0358
0268
013F
011D
0372
0462
FFCB
0433
031A
02F6
FF7D
FDB1
FF2A
010F
0061
0135
0171
0120
028B
011D
01E7
006C
FF3F
0012
009F
0123
0119
01B0
026B
019A
02A9
0160
0401
053E
0280
02A1
01D4
00AC
0174
FFE1
0623
038D
012C
FEE7
0142
0165
0068
FFF0
0054
FFF3
001E
0136
0193
0034
0110
0107
02E3
0178
FFEC
002D
022D
0436
FFCB
0105
003B
FEE6
017B
0067
0528
03E7
0336
01BF
01E2
017D
011A
018C
010A
0180
00AC
010F
FFCA
FE75
FF3B
FEB4
FF78
FDD8
00D5
FF2C
0219
041D
032A
FEB2
FC40
FE63
0024
0044
050F
0437
0081
0143
015B
0208
028F
00FC
0148
02B6
01AE
0084
FD8E
FE2C
FE98
FD28
FEE8
FF9C
01CC
021E
0810
08EA
028D
FF82
FF39
FFE5
0037
FFAB
FE9E
007F
0331
FE17
01FD
0172
0126
006C
01E2
01BA
0084
0018
FF12
FF08
FF0D
FF78
FFAF
00B9
01AF
0372
0239
0577
05D2
0271
00BC
FFFA
0003
007A
0196
FB52
FE39
00E5
0302
03BD
02FB
0135
01EF
0094
0156
FF6F
FEE3
FF26
0054
0130
FFE7
0337
02DF
0188
FF4C
0064
0318
FDDA
0068
FF73
004D
FF79
0036
009A
0221
00E1
0006
01BC
0331
03DA
05E9
0307
037D
02EA
0789
03E2
032C
041A
04D2
03CD
06F5
0352
00CE
0102
0201
FFB1
003C
FF8A
FFB4
FF76
006F
FFA3
FB86
F9BD
FF7B
021B
00C2
0141
0066
026E
0263
FDC9
036E
025A
FFBB
FD03
FFF6
0258
0055
FD8B
FE77
FD9B
004A
FF8C
004C
FF84
FF84
FF95
FFD1
FF71
FFC1
007D
FFE7
FFFD
005E
FF8D
FFCB
004A
0165
00F3
FF7D
0040
FF8E
0041
FFAC
FF8F
FFA4
008C
FFDD
007D
FF9A
001C
FFB3
0010
FFB9
FFCD
FFD3
0087
0066
00AE
0010
00DC
FFFC
0053
0167
0000
01B7
0357
FDC8
045E
02C2
055C
0673
047D
0470
028A
01D4
0095
FF94
FFA2
0074
0068
007A
004E
03C1
03FF
012B
00B8
00C4
002F
001A
FD98
FD9C
01BB
FC59
FC3A
FD36
FEDA
0164
02BC
0076
004E
FEDA
00FF
0519
02A2
FE76
FE4C
FF99
001C
0057
0044
FDDF
035B
03B5
FF62
FE6C
0095
FC81
FD92
F831
FDCC
FB7A
FDC2
01B8
0037
FE9F
FE28
FF61
0053
FFD7
01FC
00D9
00C6
0098
FC88
014E
FFC4
FF84
0034
FC56
FF72
FAF7
FE21
FC50
FA95
F452
F682
F89D
FBEA
FB80
FCE9
FD8F
FE9A
FD6D
FE15
FDF1
00F7
0092
019F
012D
0417
FFAD
FE39
FD66
0272
006B
FFDD
FE78
FC40
FD9A
FE7B
FB81
FB7A
F785
F925
FD12
FDB4
FEB0
FFE4
0074
FED0
FE09
FFEA
00F2
0044
0020
010F
0214
046A
0511
FF2F
039A
036C
0054
FDA7
025F
FB7D
FCBD
FFA4
FA8C
F785
F84E
F6E3
FC8A
FF44
0056
0123
0156
0126
FEDF
0009
FFF0
0033
012C
FF89
00D8
00A5
0388
FFA3
00BA
01FC
FFE8
FB6C
0113
FD87
FB13
FAFE
F77D
F4ED
F88E
FA3C
FE45
0147
0150
0240
01B4
0015
FEDA
0076
015C
0068
00C6
0029
FEA9
FF87
016D
FF89
0093
020A
FF9E
FEE5
0498
0157
FA0D
F8E4
FCAB
F8F7
F9B6
F8E3
FBD0
0127
0218
01B4
008E
FE2D
FDF7
FF3E
FEB9
FE9D
FF14
0156
FDBF
FEEB
0156
FDC5
FE4F
FC5E
0234
0298
0642
FBBA
FCF7
FD81
F9EC
F595
F695
F970
FB91
FF95
016C
0157
0182
FE7D
FDF2
FD95
FD83
FD22
FCAC
FE9E
FD3E
FC27
023D
FE8F
0348
03C9
023B
0188
0515
FD4B
FD94
FB56
FA46
F7D0
F7AD
FB6C
FC15
FF5F
00FD
0258
012D
003A
FE87
FE03
FE81
FBDA
FCBE
FBE6
FAAF
FAB8
0133
FFC2
02AD
0248
0132
0435
0298
FCBA
FCBE
FE7D
FF72
FD25
FA6A
FA37
FE2F
0052
01FD
0385
0090
FE79
FD5E
FBFA
FE20
FF68
FD07
FDF2
FBF0
F80D
F77B
F944
FC44
FF94
0053
03B7
0521
01C7
0151
011F
FF6D
FC31
FBCC
FACB
FF3F
0406
05BE
050A
00D2
FEEC
FD9E
FD18
FEFE
016D
FF82
FF32
FF0B
F77D
F555
F7B6
FB45
FE98
FF16
0100
02AF
041D
0421
022D
FEC4
FD4D
FC17
FE10
020F
037C
05CF
03AB
017C
FF0D
FDDD
FED4
FFE9
0188
0085
00B2
00D2
F8DB
F590
F592
F8B1
FE5F
0246
00DD
02AA
0431
01B7
FF3C
F91C
FEDB
0091
00CF
03FA
04AA
0483
02BC
FE56
FEBA
FF37
FF84
FFC3
FF89
02FE
024C
0075
F80D
F2E0
F6C3
F974
FEB0
01E2
0009
0307
0048
FB65
F959
F882
FFB9
00AF
01BB
040F
0442
03A0
00A7
FE88
FF86
FF55
01AA
012D
01A9
02B5
0337
002E
FBCB
F98F
F8D6
F8F2
FDAC
004E
FC72
FC13
FD7B
FE3B
FAB4
FBA7
FE37
0013
0003
0276
04FB
024C
FFC5
FE85
FF30
FED8
0184
01A6
02FE
018E
FF6E
FF39
FB9E
F71E
F51A
F8B8
FDA6
0026
FD84
FAC1
FFB8
FDF5
FD00
FDFD
FED9
FF8D
00AD
0336
0228
FFD6
FF34
FEBA
FEFB
FF36
02D4
0419
030D
022D
0030
FE92
FFD3
FBB8
F5CE
FEFA
FFA0
0302
FE64
FDC1
FF32
0087
FCF5
FEB2
FF63
FFDB
FF75
0017
007B
0111
0015
FF1B
00D1
0207
02ED
0251
0185
0087
005F
FCF5
FE93
FA27
F852
0253
FE63
008F
04A5
01AE
0096
0030
FF98
0194
0083
FFFD
FF7D
009A
028C
0302
FF2F
FF45
FFB7
00ED
FFC9
FFFE
016B
00D1
0149
FCDA
FE56
FB88
F9FB
FD9D
FDC8
FF87
023C
02BF
FE48
FFBF
00BD
FFB2
FF19
FF3A
00EA
0231
034B
0225
003D
006C
FF74
FF83
FEF5
FFE6
004B
009B
FFA4
0036
FFC2
FAAF
F9F5
FE9E
00D7
FF7B
FF7B
FE27
FE69
FFA6
013B
FE19
FF59
FF61
FFE9
008C
00FC
01E9
0201
005F
0008
0003
00F1
00C2
0030
0155
00E8
0405
00E0
FBAA
FCEC
006B
00D6
0027
FDCB
FC96
FFCC
FE38
FE84
FE82
FDF1
FDEE
FE97
008A
0183
02E3
01DE
0184
02C0
02F9
0140
0153
0186
0137
00DE
02C3
00C6
FA9B
FD04
00AB
00DD
0001
FF92
FCAD
00F6
FF1E
FFA9
005A
FEB6
FEBA
FF85
FF45
0088
00E7
FFCD
0064
00A1
009D
FF73
01EE
01CB
02E0
04A3
FE88
FE1A
FD10
FC76
FD65
0075
001B
FFC6
FCE7
FB09
FC77
00EE
FD97
FE5B
FE19
FFEB
005C
00A0
0064
0192
0126
019E
026D
FEE1
00F6
FEE8
0496
01DC
FF11
010E
01DF
FEEE
FF2D
000B
FFB6
002E
0039
FF4B
FD2E
FC4D
F8A4
F90F
FBA3
0034
0066
0122
0000
FEBF
FD9C
F985
F885
FB77
FD05
FD31
FD16
027C
0391
03D3
03B7
008E
0024
0036
003F
0019
FF8A
005E
FD83
FDB4
FF40
FC63
FD56
FEB1
0510
01CF
FF7A
FBC7
FC90
FF1E
0167
FB59
FD9E
02AD
00BD
0168
009E
FCD4
FFF5
007B
FFB1
005B
FFC1
FFF0
FFF8
005A
007C
008B
FD4D
FDBE
FDCC
FDD8
FCE1
FD15
FEF7
FD8E
FD19
004E
00EC
01EB
00CD
FFF3
0170
FFCA
0046
FFF9
FFDE
FF7D
0051
FFD0
0029
FF7F
FFFC
FF8C
0010
FF9B
0071
FFDD
0085
FF72
003F
0036
0033
FFA1
FE9B
FE86
0083
FFF0
FFCB
005F
FFEC
000C
FFA3
003D
0006
0087
FFB2
FFF9
FFBB
FF88
0001
FF98
0005
FF65
FE9A
FEF6
00AD
015A
035E
FEDD
FF64
013E
043D
FD41
FC35
FC91
02BC
01C9
015C
0006
FD7A
FD6B
006E
FFB9
008A
FFEF
0075
0004
FEE6
FD25
FD96
00D5
03EE
0342
05C3
03E9
0094
0428
0313
03A5
03AE
0138
006D
0251
02FF
026C
018C
02F5
03D3
FF13
0132
0011
003F
0010
0005
FF8E
FCB4
FD4B
FCE9
0177
0275
032B
0133
039B
042D
058F
002A
020C
0245
0266
016A
0105
0228
01CD
0007
0079
033D
065E
038F
FD44
FD08
0080
0021
0017
FE61
FD2B
0437
024A
023E
047B
06E9
04BC
04C9
01AD
041E
02AB
0175
FF7E
01F1
02FF
00BA
0218
037A
026C
0240
029E
00C1
FFC3
0021
04D7
0091
0080
FFFA
FC11
02C7
00D0
01F1
03D2
043C
0167
01E9
027E
03A7
0349
0368
0140
00C4
02A7
01E2
0240
0142
FFD2
FEC4
00A2
03F9
0667
012F
0256
005B
FDD9
FDBD
FDC7
01DF
0136
FFAA
00F3
0076
017D
002E
01EC
027E
0328
02D3
0453
032D
03F6
0130
0212
018E
FF49
FEC2
01A3
014B
03AD
0049
0270
0139
F9D8
00A7
0232
027E
FFE1
0016
FF00
FFE3
0072
00AD
00D1
0228
04F1
02AC
067B
0475
033E
0194
0183
FF79
0026
0044
008A
02B0
033F
0378
0148
FB87
FB41
0461
039B
044A
02BD
0152
0080
01F2
0249
009E
007F
013B
0299
021D
037F
02A6
00C8
0285
0151
FF6D
00F6
FE09
FCF7
FFB2
042F
0586
FF6D
017B
018F
0207
02DA
0145
0135
0133
007C
0166
0096
0000
FEFA
FFF0
0051
FEBF
FF7C
FF6E
00F0
01E9
0276
025B
00AB
FE98
00A2
FF9B
FED4
00FB
FAB3
00CC
0260
FF0E
0033
014F
014B
FFA8
0109
004D
FFEE
FE79
FF63
FFC4
FDB0
FCF7
FC0A
FD09
0149
0267
0245
00B3
FEED
FF9A
FF93
FD41
FC29
F957
FDDD
0443
FBBC
FDF8
FF70
FEB2
02C0
005A
01ED
009F
0007
FFDD
FF2D
0101
FF4A
FF62
FD44
FFCE
01B9
01E1
016C
FF9F
FE13
FF36
FE1E
FCF4
FA44
FCBD
FD90
022D
FDEC
00D4
0020
FE6A
0191
FF07
0007
FE17
FECB
FF59
0126
0192
01C7
00CB
00BB
009B
010A
0041
FFD7
FEAA
0148
0090
0358
0449
FA88
F6A7
FAA5
FECB
0022
FE6F
FC91
FDF0
FDFA
FDDB
FED8
00C6
0194
01C1
01ED
01E1
0270
01D6
0392
0232
0144
00F2
FFF4
FFCB
0145
028B
0205
FEF5
FDE7
F769
FD2F
FE1A
FF4F
F9EB
FCE4
FEC0
FED7
FE79
FFEC
013B
01E6
01C6
0316
017C
031E
024C
011D
0174
039B
01E3
020B
0085
010D
000C
FE48
FBE0
027B
F907
FE96
FDAD
FF70
FBF5
FFD2
FDC4
FD32
FEEA
00F8
01A1
0165
01AC
0165
0220
0263
01EE
00B8
0062
030E
010F
01C5
0008
FFE4
02D9
FF0B
FA57
006C
FE36
FE06
FF44
FCCB
00B4
0087
FDEF
FDF9
0034
00CA
0214
0154
0052
0256
02BE
00D2
00E6
FFD8
0248
0328
01C6
0149
00BF
FFDA
FF0A
FEC7
FCDD
FEF3
FC73
FA2F
0010
FDF0
0290
FCCF
FE0D
FDEF
FEA0
FF72
0112
FED9
FF35
0028
FF04
FE71
FF07
004E
0203
0260
02B0
01EF
0199
FFEE
FF9D
FFEA
FDB9
FBC3
FDC1
FAC6
FD59
FF38
01DB
00C4
FE87
FE03
FEC9
FEA8
FE56
FEE7
FE14
FF98
FE9D
FE75
FDE7
FFEE
0169
0192
0264
01A3
0292
0094
FD9F
FF1D
FE10
FCDE
027E
FBE8
FEFE
FBA5
FECA
00D9
00A7
0026
FFBD
FFD0
FECC
FE43
FEF9
FD2E
FC03
FB8A
000C
0047
01CE
0132
0070
0213
00F0
00FD
FFF3
FE78
FBD5
FA37
FF01
FE9C
FFC7
FCC3
FF94
010B
FF6C
FD58
FED5
0185
FE51
FE4E
FF70
FDB0
FD01
FE2C
00F3
01A9
0143
0088
FF0C
0085
02C2
01DB
0069
FEB4
FBDA
FA21
FE66
FEC1
FD19
02B9
0193
022C
FF4F
FF34
0129
0160
01F3
00BD
012F
0194
0161
029E
01A7
00EC
005E
0042
FE8A
00B4
0240
00FB
01C7
FE29
FC7C
F9B3
FB2D
FF30
FE17
017B
0395
0127
02A7
FE1F
0083
0166
0074
00B9
034C
0402
0375
039F
0197
00A5
00F6
0094
FFEF
01B6
0151
0358
0197
FFB1
FE8A
FC96
FAB9
FF39
FFB2
FFAE
FF48
FE37
00D7
FFAD
FE97
0216
027B
01C0
02D1
01E8
0253
03DB
02D7
0134
00FF
FEFA
00CA
022B
02B6
04D1
0239
0202
FEDF
FC02
F9A5
000D
FF8F
001F
01FB
00CB
010A
0368
0182
0404
04CE
04DD
0387
0552
0401
03DA
016F
024F
0282
FCB9
FDB9
0026
01C8
FFD6
0158
02DC
FCB4
FE32
FE08
0081
FF9B
003F
016F
02DB
FF27
007A
00E7
01B6
02C5
039D
06F6
03A0
010D
0176
02C5
0192
0138
FFDC
FFE1
FDF7
0132
0123
FC92
FDC6
FBA3
01C6
FE87
0029
0085
001B
0042
0183
03FC
FF58
0248
04F9
067D
0784
0311
016A
02D5
0358
0551
01ED
0347
02B9
01DC
FD99
0077
02A2
0127
0100
0428
0257
FF96
FF97
006A
0052
FF9B
FFEC
011B
02D7
036A
0256
00BE
029B
00C7
03A0
02EE
01BE
0374
04DD
0351
0118
025D
0438
02F3
FF62
00DC
FEE4
FFF1
FF8B
0041
0069
FFF6
0080
007F
FF9A
001D
0081
002C
FF7C
0057
FFB3
0084
0018
00AC
009E
FFA5
FF74
FFAB
006C
0007
FFF5
FFC5
003A
FFD2
FFD1
FFAD
0092
0019
FFE5
FFB8
0037
FFB2
FFA7
0004
FFC3
0002
0098
0042
0072
02CD
0175
039A
034C
011F
FCF2
FA6B
FB78
0200
0194
018B
00F0
FBF7
FBF6
001C
002A
FFAE
008D
FFB9
0024
00C4
FF8F
00AD
00D4
0074
0101
007C
FE5C
FE8A
0183
0434
0158
FEFE
FF74
FF7B
0262
FE65
01EF
010F
0549
03CB
000B
008B
FF6D
FF70
FF9D
001C
FFA5
FF48
FF33
FFEA
01CF
0138
004F
FC32
01DB
FF01
FEA6
FEAF
FDD3
FEC9
FCC7
01ED
05C5
02AB
049C
05BA
FE59
FDBD
FE9C
01D2
00E9
018B
FFD2
FFAA
FFB4
FF9F
FF9A
0076
0031
0079
FE00
023A
0616
0335
FDB2
FE7A
FA9A
F9E6
F9E3
FE55
0128
FF82
00AF
FE05
FC9D
FBE0
00AA
00CD
FC0C
FCE8
01F4
004B
006C
FE68
FE1E
FCD8
0126
FDB7
FCD0
0273
0312
0018
FF8B
0045
FC9D
FE42
FF7C
FEF6
FEA8
FCEF
FB2A
FCD5
FD5C
FF10
047A
03C6
01CA
0097
03AA
0054
FD6B
FFD2
FE56
00E7
0236
FD61
FC91
FF4F
FF84
FF09
00F6
020B
FF7E
FFE8
003F
FF60
FFF8
FE0C
FE52
FF8B
00CD
02C2
02CE
0378
0008
017A
02BB
007B
FBCC
0079
00DE
0052
FEB0
FDB8
FC55
FD42
0158
019A
0148
FFC1
0043
0123
FFF8
FE2E
FF86
FDC8
0031
000A
FE8A
FFD9
03E2
0326
00EC
0385
01CB
FF34
FB3D
00C4
0107
FEFF
FD7E
FF2F
01A0
0306
033A
00C9
0109
0250
010F
0057
FFA5
FB60
FCE4
FEC8
FDE0
FCA3
FE9D
FFEB
FFF6
01DB
0503
02AF
FA45
0159
FE1D
00F8
FD8C
FAD7
FB39
FF0C
0052
0150
FFC9
FEEE
0124
0182
0107
FFB7
FE51
FD64
FCB4
FFA3
FE17
FD69
FF41
011B
010B
0073
0064
0089
0251
0275
FED0
FDF7
FE0F
FDC0
FDE8
FDAF
FEC7
FF50
FF3A
FF4C
005C
0047
018D
0058
FFD4
FD35
FE14
FEA7
FE68
FDE8
FF55
023E
FFB4
FD69
FF42
FE94
0375
01F4
FED6
0076
FCB2
FC39
FCFF
FDB4
FF78
0289
01CB
0295
00CF
031B
012B
00B9
0029
FFDF
FFF3
FEFB
FF8C
FF33
004D
0073
FC1A
F922
F803
FD78
0048
001B
FF4D
FEF9
FA76
F947
F8BE
FB31
FEF7
014E
FF5E
00D9
0384
0535
0326
01A6
030E
02B8
00E6
01BB
007F
01F7
03E9
0191
FDA9
FC95
FAF3
FB44
0141
FEBF
FF48
FC07
FAA4
F8A5
FC3B
FD4E
0028
FEBF
00F4
0204
01F6
0306
0243
0461
0588
02BE
01D6
0070
00FA
04BA
046D
0176
FEAA
FC4F
FACD
FC61
FE18
FEEB
0030
FE99
FC3F
FF23
FD70
FC51
FFA0
FF13
0062
00BD
0145
019E
0436
05CC
0440
02D3
0008
FEAC
02F0
0326
010F
FF7D
FE31
FB7B
FE3D
F893
FEE7
FED5
006C
FD15
FE73
038B
FBAC
FDA8
FCF6
FD27
FEA2
FF2E
FF22
0134
0545
0640
03AE
010C
007C
FFDF
0097
0021
0177
FFA6
FE20
F9AE
F966
FB9A
FEBF
0035
0040
FDAA
FC67
0250
FF5E
FFEA
FDFB
FE5E
FC75
FC6F
FF59
0168
028F
030B
01B7
01FF
004F
FD79
FDA3
0049
FFA9
FE39
FE52
FA89
F6DF
F918
FED8
FF81
FFEB
FE98
FF4F
0105
FF2D
FD13
FD87
FF05
FCDA
FE45
FF46
FFAC
0037
0224
000F
005F
FCF4
FC30
FD1B
FE84
FF19
0096
FF97
FF72
0084
0076
FC91
FDE8
FF87
FCC6
0220
FF15
FB79
FBC6
FBA0
FCF2
FF18
FE77
0081
00E7
0134
00C3
FF42
FCF8
FAF4
FAF4
FA10
F8BB
FA8A
FB8E
FC29
FCCB
00EB
05A3
FE1B
0142
FC36
FAAA
0047
FC4C
F7E2
F99D
FC99
FD7A
FDB7
FEA6
0191
0321
FF95
FFD2
FDB7
FD65
FBC0
FAFB
FB02
FAD9
F976
FA97
F8D3
F9CD
FF95
01BB
0190
0069
FF3E
FC36
FB67
F989
F646
F8DE
FDF5
FDF2
FE75
0025
01D4
0190
FF25
FF44
FF17
FEED
FD8C
FC2D
FF55
FB32
FC13
FDA1
FB96
FABA
FD1D
01A5
0069
007F
FFBA
FD14
FC52
F85E
FB1F
FC43
FE0A
0053
00D5
0056
0081
00E0
FEFA
FDC7
FE82
FE63
FDA7
FEA7
0108
FD41
FF48
FF18
FF41
FFD7
FF7B
FEA4
0069
00D2
0017
FDCB
FA82
F8B7
FFCF
FF23
FFAC
00B8
FF16
00BA
FE19
FFC0
002B
FE0A
FDDA
FFA2
FE61
0143
02EA
FE06
01E4
01B3
00DE
028E
FFA7
008E
0026
FFAE
002E
FC5F
F95C
FA77
FE06
FEB2
FF4C
FED8
006A
0147
00E6
0018
FFB6
FEA3
FDBC
FF4C
FE64
00DC
00C8
FDD9
017D
03A8
0193
016E
0203
02CA
004C
FFB2
0056
FE30
FB3D
FC8C
0123
FFA9
FFBD
0010
011C
FFC9
00FC
004E
0134
015F
FF42
FF0F
FDA0
FEC4
FE99
00F0
035E
054C
0441
FFF2
00D0
0017
FF7B
0051
FFAB
0030
010B
0207
038C
009D
0020
FE44
FE43
FFBB
0088
FFBB
FFF3
006F
FD29
FB24
FCDA
FD52
FC1E
0237
023E
032D
062C
02A6
FFEF
FF14
0001
FF77
FF76
003C
009F
01C9
0326
0647
00CF
001D
FEE1
FC5E
FBCC
0053
01E0
01FD
FF06
FF07
FDCA
FD8F
FD9E
FC18
FC9D
FC9B
FE56
012A
01C5
FFEC
FFE1
FF8E
FFFF
FFAA
0059
0292
033E
03C7
02B4
0189
FEB3
FB79
FF5D
FE43
FCD6
FCB6
00FB
003E
FE98
FF88
FFE0
008E
0080
0070
009A
005C
0072
FFB7
FFD8
007E
0040
003D
FFE4
0084
FFF9
FFAE
FFEF
0033
FFFA
FF86
FFC4
FFE9
00BA
0214
0268
FFF2
FFF3
FFAE
FFF9
0013
FFDF
0044
0002
FFE3
FF9F
FFCD
006C
003C
FF73
0061
0056
FEFE
FE57
FD3D
FD55
FE21
FE43
FD6B
FD58
FAF2
FC06
0058
0006
0319
009D
FCAE
FC55
FE2F
FEEF
004B
0041
FF9D
FFF4
FFA8
FFF0
FFD3
FFB8
FE28
FFD0
FDAC
FF59
FEF7
FE20
FD81
006C
019B
FFCD
002C
FF41
FFEF
00AF
FFD4
FF57
FFA5
FECF
01E2
01A0
FD97
0286
0294
027B
003E
0067
0033
FFB3
0267
00FF
FF21
FFFD
FF67
024B
041F
FFA4
033E
0299
052B
006B
FF80
0150
0137
00E8
FF11
0088
00F8
FF46
FFE3
00BC
032B
02B8
FEE8
FFF8
FFA4
0046
0310
027D
0072
FF50
009F
00E8
0444
025F
0419
0440
02D7
01C1
0243
018E
0150
FF6A
FF35
FF32
FF69
FCBE
FD6C
FBB8
0147
006D
0038
FF95
002A
0011
03B2
0679
0195
FD12
FF4D
0135
005E
FFBA
0105
01A5
0324
0148
015F
027A
0324
01FD
0110
00CA
019E
FFF8
FE20
FFC3
FF24
FECE
0116
FF0E
0031
031C
FCB2
04A0
016B
FDFF
013D
FF77
FF9D
01A3
010C
00D4
015D
0211
0251
02BC
031D
0165
0243
FEFF
FED6
FEDA
FD14
FDD2
FE10
FCC1
FFC4
FFB4
FEC6
03DB
FCB9
00B1
0539
FFB2
0103
FE3F
FFDC
FF13
FF24
008E
0193
01A7
01D1
0140
00F4
FF70
FFA1
FE9E
FDD9
FED7
FF56
FBE5
F894
FB6D
0024
FFA6
FCB1
FECC
FC5B
FE52
0243
FE70
FF79
FF74
FF9B
FF8C
01C9
002E
006C
00B0
00EE
FFBA
FE16
FFF0
0011
0123
FFBC
FE21
0192
FE18
F49A
FB06
0279
01FB
FEEB
FA0F
FFF8
FE36
00D7
00DC
0200
025E
01AC
0091
FFE9
FF1E
00E2
0028
0019
0013
FF41
FF24
0191
012D
0022
FE95
01B9
00EE
F330
FC2F
00E5
FF0D
FE9F
F9F9
FD26
02BA
FFF2
02A3
0326
014B
00C6
FDDE
FE50
FDAF
FDA8
0002
FF41
FE00
0017
00B9
012D
01ED
012C
FF94
01AD
0175
FA44
00C7
021E
0130
FC8A
FAF0
FA4C
02AE
01D0
0010
FECF
FD7D
FDF8
FCED
FD17
FEA1
FE96
FFFB
00C7
FF1F
FECE
008D
0273
0272
00F0
0056
0052
FEEC
FE1D
0140
00DC
01AD
FCBD
FB61
FF57
FE9F
FFA2
FCD0
FCFA
FDB7
FDC1
FE6D
FFA2
FE10
00CF
0125
0204
FF5C
FF23
0085
020C
0273
019F
010D
FCE0
FBFC
FC26
FF6E
00C8
001D
0394
FE53
FE45
0077
FAFE
FAF3
FBF9
FC0C
FCC1
FC33
FCFC
FE58
0011
02FE
0262
FF65
0066
0035
011B
01E8
01A1
FF78
FD6F
FC87
FE62
FF3B
0197
00AC
FE1C
00C8
F934
FFA5
FA2A
F849
FC97
FCEB
FBD4
FAE5
FBB7
FE02
00DF
01D1
0333
0037
FFE2
00E6
00A4
0053
FE31
FDC9
FCD8
FDE8
FDF1
FF45
03E1
0057
FD74
018F
FCAA
FEC0
FE49
FD70
FF0E
FDAC
FD4F
FBE9
FB1A
FE6F
0024
0227
0212
0049
0091
0028
FED5
FF52
FEC7
FE11
FD46
FD25
0129
023A
0326
01FF
FDC7
04F0
FFC9
01B4
02E3
000A
FF7B
FE4A
FCF7
FE1A
FDD4
FCF9
FDD3
0129
0035
FF8C
00E9
00C2
00D1
00C2
FFFE
0112
0159
00E9
0250
033E
038F
031E
FFC8
0277
FFEF
0292
049D
01C0
012D
0053
FF31
FEDC
FC23
FC5E
FFCF
00D4
FF26
002C
00C7
0126
01EC
02F0
FFA8
00CF
00D7
00F6
012C
03EF
01E3
05A2
FFFD
0248
0170
038B
02EF
03AD
02CB
0112
FF89
FDBE
FE4C
FF11
004A
0138
FFB2
0059
0296
033A
02EA
0427
0132
0150
01F1
0257
037F
0407
FF7A
0490
0122
FC6B
FE3B
01C3
00EF
03B8
02D0
0307
00CB
00DB
0106
008F
0101
02D3
00F4
0200
0292
02F7
0462
02D7
01FC
0127
023D
0325
0180
02AD
01E9
0382
000E
FCD3
FEDA
02E8
0306
026F
0450
0358
02FC
019C
00EE
003B
FEFB
000F
00EC
00D4
023A
0248
0472
0265
0357
02CB
0191
0299
005F
FFFD
0135
0009
0182
FF6B
061A
01EB
00E3
FF1D
008A
010B
01FC
00A8
001D
0027
FF78
002A
0001
003C
01A0
0253
03ED
0326
01B7
FFFC
01F9
02B5
FD41
FDFE
FD07
FE98
0178
0195
0552
01BB
0198
FF15
0106
00A1
007F
0000
001D
006C
FF75
0036
FF7F
FEE9
00A6
01AE
0160
0078
0138
009B
01A4
0337
0184
FE8E
FCE1
FF07
FFA0
0087
04E4
03FA
FFFD
FF11
FFC6
022A
016C
00F3
004C
01E0
00B9
00BE
001C
00F4
009F
FFF2
008C
FF8F
0167
0068
04A2
06CF
019D
FFEC
0072
FFED
0028
002D
FDE7
027E
0239
FDE8
0339
0236
011B
0007
FF8E
FFD2
0081
0139
01F3
0021
FF69
017D
003D
002A
FEF5
02AC
008E
032C
0322
01FE
0104
0023
0035
FF7A
0087
FB98
FF4B
00B5
0202
02A9
0271
00D5
014D
FEBC
017F
0224
005E
FF79
0010
FFA7
FE86
FF9B
FE6F
FAF8
F874
F93B
FDC0
FE91
0164
FF80
0060
0033
008A
FF90
011A
FFBF
FD02
FF47
FED9
FE97
03AC
012D
FE5F
0067
013F
00FD
000D
00AA
00A1
FF7E
FFBB
FB3B
FB0D
FCE7
FF88
0002
FFEA
0002
FFE1
0008
FFD3
FFE5
FDF0
FCDC
FB18
FD49
FAEC
F98B
FBDC
F66B
F5CD
F3BE
F341
F3AD
F7AA
F3EA
F826
F8F5
FBB5
FC4F
FD1B
FFB1
003D
FFAD
006C
FF79
FF85
0089
0076
FFFE
FF75
FFC7
0032
FFC3
FFD7
FF74
008A
0079
002F
0063
0089
002E
FFD9
FFB9
FFBB
0030
FFA7
FF7C
FF89
FF9C
006F
007C
FF8D
FF8D
FFD2
0043
FFEF
007A
FF52
0057
FF6E
FEDB
0028
FFB5
FF3F
FE95
FF31
0018
FF9F
0103
0490
0390
FD97
FDBC
FE7F
FF05
FF85
FF4F
FF7D
008F
0076
0029
005D
FF86
002C
00E7
0091
FF0D
FF40
FFBE
FE6B
FE6D
FD1D
FC57
FE3E
FEEF
0244
0153
FFE4
FF6A
0132
FE01
0120
0220
0083
008B
00DC
0132
FFFB
FF99
FFB1
0084
02E3
FFED
FA7C
FDDE
FEEF
FAC8
FAA7
FBB8
FC58
FC30
FCDD
FF44
0453
03BC
02E7
0386
02B1
01CE
018B
0065
0182
000C
FD92
FE82
FADC
0024
008F
FEFE
03A1
FE00
FC8C
FBBE
FFF5
FF08
FB73
F9CB
FA1A
FCDB
FBB8
FFEB
02BC
03D0
0519
040B
02AF
029B
02A6
FF06
0004
FDF2
FD22
00CB
0477
FD6A
001B
FFAC
0466
FFB0
FBB8
FB7B
FD59
FB96
FA8D
FBCF
FC4E
FAA7
FB3C
FDA6
FDBE
FEB1
01CB
009A
02E1
0305
02B4
0389
0360
0346
0003
027A
FDA1
FA9E
007E
027A
FB78
0394
FE89
FC5D
FEC7
FC27
FF4B
00B9
FF45
FCB2
FBE5
FBD8
FBB6
FB7F
FDD0
FE2D
01E6
0348
02ED
0426
047B
0305
FE3D
FCDA
FD14
FF35
FE82
066B
FCF9
FF89
025A
FEE0
0017
FF7C
0232
012B
FF4F
FD3B
FD15
FCBE
FBD5
FC35
FDEE
FF21
02A7
041D
02ED
0532
0488
034F
0007
FE26
004A
FFF4
040D
045D
FFD1
FE6E
019A
FFF8
010E
02E2
0338
0246
018F
0140
017B
FEB3
FCD9
FC4F
FF1D
02FE
0426
0436
03C0
0192
0657
03D6
FAD2
FE5B
0503
03EE
0043
FFDF
01CC
FEFA
01EA
0428
01E7
03D0
04A8
0447
0268
02EC
0272
FDCA
FC7B
FC99
004E
028A
03D6
03D6
0314
028B
042F
04C0
FB07
025B
0619
0348
0045
FA6A
009A
0183
00AB
03F7
0463
04C1
0696
0334
0339
0353
FF69
FCD6
FCE9
FE90
026B
0440
03EA
0375
0310
01D8
0208
FF46
FB05
FCD1
01F4
0567
FBCD
0242
FE06
023B
02DA
02F0
0447
0611
02AC
0287
0092
FF3A
FCE2
FBC6
FD76
0051
0311
0217
01CC
0180
006C
FFC5
002F
FD25
F888
FA0F
FECA
055D
FD48
01F1
FE79
00B0
0484
014C
01B7
0188
FE20
FE43
FC1A
FAB4
FDB0
FBBD
FE68
0089
02DF
01F7
010A
0076
01EA
016B
FF10
FC4F
FDBF
0001
01BF
06BD
014C
00DD
0493
0214
FEA4
FE7A
FD0A
F9F5
FA53
FB52
F8F0
FC19
FDB3
FE49
FF57
0079
029E
00EE
0093
FF64
0158
0043
FFAC
FF10
0031
02E7
06D5
03D7
0066
021E
055B
FFA2
FB7F
F91E
F8AA
F936
F73F
F7AD
FC2B
00CE
0105
009C
0036
005F
0122
00CC
0070
FFFB
FF2C
FF1A
006F
0050
FF51
0255
09C2
0296
02FB
0042
0598
FDED
FB31
F81F
F822
F843
F9C7
FBEF
FF0E
0411
0245
028F
00AC
004B
0076
FE1D
FF24
FF0C
FD27
FF77
FFEC
FE68
01B4
038A
04B9
0213
0323
0252
0463
00E6
FB63
F878
F969
FBCF
FCC1
FF3A
01F0
02D3
0338
0326
010D
0130
00E6
FF03
FEC5
FE6B
FB46
002E
FD8E
FECC
002A
0309
046D
01DC
FFA4
0272
04FA
0057
FE0F
FB72
FBF0
FEB4
FED6
018D
01C3
0476
0481
022B
FF43
FE4A
FF35
FDC9
FCB4
FF5C
FC2F
FCAD
FB51
FEAC
01F8
01B5
04F7
0221
FF44
0124
0422
0165
FF77
FD54
FD7D
00AA
FFAD
01AB
02E8
0304
03A7
0143
FE01
FD66
FDBE
FD51
FE2F
FFCF
FD41
FA86
FAAA
FE84
0289
FE52
0051
02B7
00D2
00BA
0107
00A6
0095
FDCD
FF63
0180
0179
0262
0285
03BB
034B
0329
FFB3
FF38
FD19
FF5C
FE69
FEAF
FD31
FB52
F9B6
0040
0024
00ED
019E
03AF
0039
019F
0184
03FE
0211
FE31
0246
0348
029E
0146
026D
0429
025E
00C4
00AD
0072
FF12
005E
00CE
FFB9
FF8C
FE54
FCE4
00B8
0217
028D
027D
FF7F
01EA
0274
05A9
0590
0141
FEC0
0368
0184
00AC
0032
029C
00F0
0042
00F1
0222
00D9
FF00
021B
0260
01B9
FF91
FEC4
0134
03ED
0209
022D
0254
0033
016B
FE95
061A
0000
0098
029D
03BE
028C
00E8
01F1
003E
010E
FFB6
00D5
01CF
009A
002B
0206
0202
016A
0056
0183
0488
05B9
02C5
01F2
024D
0065
0042
0028
060D
FBC1
FEB3
0075
01B8
02BA
0105
00E3
0043
019C
01BA
03A6
014E
02D4
02B7
02E8
02C0
01F7
0126
01CA
036C
065A
0198
025A
047E
000C
004A
FFEF
FF48
FCC0
00C9
FF2A
0268
FDF7
FD10
FDC5
FE25
00EC
017E
00C9
03A1
02F7
037F
0426
0450
0475
0142
007D
FDE0
019F
01E1
0136
00FF
0045
006A
FFCF
FDD3
FE07
0033
FE15
0081
FF93
FF6C
FFE4
0002
FF41
024C
01B8
0112
02D1
01AD
FFF7
0006
007B
FCA2
F74B
F472
F6EB
FCDB
FCA4
0158
004C
0013
006F
0024
FDAF
F91E
FC6D
FB04
FC8A
FBA7
F9E2
FC72
FB80
F982
FAC6
FACB
FBE9
F96F
F79A
F9AF
F89D
F97D
F614
FAD2
0218
FF8F
0172
FFD3
002F
001B
0087
0066
FF7C
02E5
02E3
0249
0113
0346
FDFE
00B5
FAE1
F9F6
01EA
FEAC
FBFD
01F8
FDB4
FC7A
FB83
F9AE
FAD5
FB59
FEAD
FF7F
FF9D
FF74
FFCB
FF71
004B
0090
0058
FFE9
0063
FF7C
0026
FF72
0076
FFEF
FFBF
FEDA
008C
0179
01E9
0085
FFAC
0044
0074
0010
FF9E
0042
FF84
0020
0074
FFC2
0003
FF9B
000A
0089
0001
FFB6
FDCD
FD9D
FD4A
FDE6
FF44
FD57
0144
FE34
017D
FDCE
FD7B
0432
0361
FAB2
FBDE
FBEA
FD02
FD04
FC50
FFA2
0042
0015
FFF8
FFC1
0004
FE30
030D
023C
FE84
FCC4
FC3D
FE0D
FF3A
FFC1
FE19
FD66
FB40
FC1B
FAB8
FB9F
FB42
FD05
FACD
FD81
FEB4
F88F
FEFF
02C3
0221
0041
FF84
FFCB
FFB2
FC7F
01BF
FCB0
FD13
FB1E
FA0F
FC66
FD9B
FEC2
0040
00A3
FEBE
00E4
00EB
FFA1
FF0B
FBFB
FB80
FD7C
FE5F
FE60
FD08
0111
0402
01C7
0041
0052
FF3F
FE6D
FD53
FCEF
FBF2
FC8E
FC64
FBE7
FDB4
FEE8
0230
00E1
005C
0152
0242
012C
019B
FFC4
FEA7
FEC7
FC72
FE98
FDC0
03F3
06B2
066F
0042
008D
0065
FC6F
0455
FF3A
FAFE
FE9A
FF81
00C3
008A
014B
02C2
0315
0160
0143
0018
025B
016F
FFF2
FF4F
0019
FF4A
019C
0152
00AC
05DA
FF9A
FBF6
FFDA
026E
FF37
0678
006C
01D8
0261
009A
00F4
00BE
00BF
FE7D
FF3E
003F
0001
FEFD
0056
0122
0089
00B8
FEFB
011F
034E
0211
FF1C
0073
FF0F
FD30
003C
05A1
00DC
0385
0368
029A
028E
0019
0005
FEEF
FF20
FF85
FE6B
FF85
FD38
FE76
FFDB
02A0
0280
0136
FF07
0038
0162
0208
0036
01EA
FFB4
0042
0511
02DF
01C1
0121
01DF
006F
009A
FFE5
FDC9
FFE6
014E
FFF9
007E
000D
00BC
00D5
02A0
0205
0317
01BF
0146
0039
036A
0356
FE17
00E5
026C
040A
02E7
01D4
02E8
0272
002C
01FE
FD75
FC87
FE0A
FFEF
FF42
FF0E
010C
0157
00DF
003F
01DB
0154
0174
0226
023D
01D2
0338
0508
00BD
0234
0088
FDB7
02C5
FE69
056D
041F
FE9A
00C2
FE74
FD89
FE35
FEC1
FF46
001E
0117
01CD
0151
FFF3
0029
00F3
013D
011E
0290
02A3
0349
01A7
0018
FEAD
0153
FE9A
0156
04F1
00A1
069A
00AF
FDF0
FF74
FE7B
FE0F
FEF3
FF34
01CC
01FB
01EF
00B3
FF9F
FE55
FDD4
FE9C
0120
FFD2
0080
FE91
FD61
FEFA
0107
0270
FCCC
FF9E
05F7
0095
02F3
FF6C
004A
FFDC
FE8A
FDC9
FEF3
004B
00CE
044C
034A
0015
FDE2
FD8C
FE8F
FF91
01F2
0241
FFF1
FF29
FB75
0054
01CC
0150
FF89
FCE2
03DA
03EF
0495
0031
00C5
01CB
FEF7
FDB9
FFA0
0016
0362
04DD
0323
00FB
FE2B
FCD8
FF02
03C4
032B
0124
FEA8
0035
FEEE
01DF
04D6
0687
0373
FF51
0123
0576
0271
014F
0118
0050
002A
FDBE
FDE6
005F
0386
04EA
0399
01EB
FF62
FD3A
00EC
03AC
034C
FF91
FEB3
0070
000D
0269
0104
08E1
039B
FF07
00BD
05CD
01D1
0268
01A9
FE5C
FEFE
FF04
0083
015D
016B
02D7
027F
01D2
0109
FF2D
02C4
0369
0301
FF70
FE5F
FF9F
FFCC
0428
011B
0572
036F
00FA
01ED
000D
0130
0200
FEB3
FEA6
01C5
FF8B
0104
016B
0194
02E8
024F
01BA
0269
02CC
04CC
0375
025C
0010
0127
FFBE
FFC4
00C3
0397
0815
0549
FFAA
00DA
01EE
0191
0317
0016
0050
0199
0047
0187
0010
01D6
02CC
027A
FF7D
00C8
02A1
02D4
008D
FF68
FE19
0083
00F6
FFE9
0063
0532
030A
0641
FC47
0103
024C
0149
01B2
029D
0185
0095
0125
FFC7
00DB
0089
00A8
00E8
FF34
FFE3
018C
FF9A
FEF7
FDB3
FD51
FF3D
0062
016C
0223
021E
FE70
00FB
FD47
064F
FEFE
0086
0130
0205
0084
FF9F
FEC7
FECF
007B
FFA7
013B
025C
0023
FFB0
FF63
00B9
FF39
FC65
FDEB
FECC
00F2
0147
FEAA
FE96
017E
FDFF
004B
041B
0237
04C6
0250
01F0
00AE
0154
0074
FF26
001A
0188
0197
01D9
FEC9
FF41
FE02
FF85
FF5E
FE4F
FFB0
00AF
003E
0030
FCFC
FC57
FFF3
FD1B
FDA1
03AE
06B8
0348
FF7B
FCDC
FEC8
0071
FF34
FF8D
FF9E
01B6
0186
0047
FDC0
FEB4
FDF5
0006
FE6E
FF75
FDB1
FE30
0179
0157
FB5B
FE71
04B2
0039
FE3A
FF07
063B
022E
FE0B
FE6D
0114
023A
00F3
0247
01D1
0458
026D
00E8
FD35
FDEB
FEB3
FE9F
FD83
FE83
FE1B
FF65
0246
FF9E
FD31
FD69
FD9B
0173
0038
FF74
04B0
0481
00A0
FF22
0153
048B
0458
03D3
0491
0554
01F3
0113
FF88
FEFB
FE35
FE33
FE29
FD75
FE99
FFE4
00A7
0028
FCCF
FE7A
FBED
FFB9
FFC7
007E
FE25
00FF
0246
FE66
0228
00AC
0100
0163
FFCA
026F
02F6
0383
039D
0096
012F
0016
FDB1
FE1B
FE3C
FF3D
FD6E
FA9A
00BF
009B
FFBB
FFF3
0018
0052
FE6B
FC5A
0217
FF48
01AC
01BF
FF84
005D
037B
0245
0118
016B
FD16
0093
FFF9
FDA0
FBCB
FB3D
F760
F792
FB0D
FA9C
FE4C
FD60
015D
FF8B
FFB4
FFD8
FF82
FDF6
F8D4
F7F1
F9BB
FD17
FC66
FA21
FEB2
FE27
FBF7
FC84
F79B
FB40
F9ED
F91C
F974
F8F2
F66E
F6E5
F99C
FED6
FC90
0240
FF9E
FFEE
FFCE
003F
0018
0066
02FB
04B6
FEBF
FD6D
FDFC
FD53
FEB9
FD47
FD03
FFDE
F8A6
FBD0
038B
026E
FDB3
FA5A
F941
FA5E
FC32
FF77
FFD5
0066
0081
FFF3
0066
FFDD
FFE5
FFD7
FFCE
FFB5
0071
0015
0091
FF83
000E
FF8A
00F0
01C3
018E
01AA
FF86
FFB0
FFA5
0006
0072
FFDE
002F
0061
FFD7
005A
FFC0
FFDF
002D
0045
FFBA
FFA7
00D2
0129
041F
0409
02BE
02D7
032B
0093
00E5
FF3E
FE15
04B4
051F
04C0
05A7
04B5
0352
01A0
0374
044B
FF89
0048
FFEB
FFEC
FF70
0023
025B
FEE4
FF5C
016B
05D2
065E
07D3
079D
07B4
06EF
0340
0179
02FE
0520
0369
068A
092E
0745
087E
0654
04C2
0689
01DC
008D
FFDF
0046
0069
FFE1
FEEC
0208
0558
FFA1
0224
0152
0183
0526
04BD
0373
037B
0496
FEF2
FF79
FDF9
FDA1
028A
01C4
019F
050E
06B3
0707
023E
FF04
FC60
FFA3
0048
FF93
FFEE
FF44
018F
012F
0191
02D9
0481
04A7
05D3
0492
041D
0195
02C2
01CB
0373
0310
0235
0132
0238
00E6
FF6C
FE79
FFB9
0275
060B
FFCE
FFFC
FFD0
0409
052C
040D
FC1C
0003
0351
00C0
FFD9
018F
0350
03BE
0263
0300
0181
0202
029E
FF39
0279
037A
0345
017A
FE41
01AC
03B3
02B6
FDBA
0058
02CC
FB91
FBF7
0088
FF8A
002C
00BD
002D
0159
00F3
01D2
0256
0169
016C
0228
008C
01A3
004D
0102
01A9
FEEC
00EE
041E
04F4
061E
0255
FEEA
FEC0
0099
FD8F
FCF4
0393
014D
FEC7
FE66
0096
FF87
005B
00A2
0117
022B
021A
0350
01A8
0069
013A
005C
FF49
009D
0169
0141
0189
05AB
030B
003C
03C7
FBDD
FF6A
FFC7
01B2
0101
0033
0055
FF1C
FF87
FFA7
0060
01F7
038A
01AA
00FB
01DE
01AD
0029
00A3
FECC
FFD0
FF7F
0084
0278
06D8
072D
05F4
FD31
FA3E
002E
011B
FF64
FFE4
FFCE
FFE9
FF4A
FEA9
FF32
FFCA
0123
02D4
00FA
0055
00AC
FFA3
0002
0051
FFA5
FF34
001D
006B
0233
0639
0397
FC90
FDED
FD09
FC7D
FFE3
0063
FF71
FF59
FFF3
0086
FEC4
FF65
0138
034B
0043
0124
FEC0
FE59
FFF7
011B
FECE
FE98
FE52
FF7C
01FC
01E2
FEDB
01B3
FD7D
FD1C
FE1F
FA20
FDF2
FFC8
01B9
0052
FF8A
FF1F
FEA0
FEA7
00B4
01C7
02D9
0279
0011
FEF5
FFA3
FEF3
0024
FDC6
FF78
FE58
011A
0534
05FA
080F
FE73
FCD5
FC5C
FDC9
FE43
FFD8
0185
FFB4
FF1E
FC06
FE24
FF77
0125
02D4
0481
03F3
0019
FEC1
0013
FE7D
FFDC
FF45
009B
FF50
0343
03A6
0163
023B
FCCA
029A
FED9
FBE2
FFBA
FE42
FF9D
FD36
FD10
FDCB
FE99
FFBF
022F
02C5
0437
0378
02F3
008D
FED3
FFBF
0112
FFCE
FF72
01BF
0408
0089
009D
04A3
046E
011B
FF3F
F86E
0065
FDDF
FE10
FED0
FD6A
FD71
0033
02E6
04F1
020E
04D4
061C
026F
FFEC
FF74
009A
FF21
FDA0
FF45
FFC6
FF71
0153
FEC2
08D8
03E4
FF97
FEC2
FBC0
00B4
FFB8
FEC5
FEFB
FEC7
00CB
02D7
0215
0272
02F6
04F2
05D6
00BF
00F9
FEC2
004E
0045
FD33
FD59
FDBD
FDBD
028C
023C
00C9
01F5
FCF0
FFC2
FF5B
02D8
FEE0
FDB5
FF72
FE2F
FF13
004C
02AE
0338
0307
03E2
0422
0092
01B7
0019
0058
FF32
FDFD
FEF9
FF2A
FFAA
00D4
06FE
025B
0234
0074
FDD8
FFF0
008D
0012
FD38
00CC
001B
007F
011B
00C0
017C
027A
01B4
0140
FF42
0108
FF75
FF1B
0012
FF9E
00EB
FF57
00CF
FFB3
00B0
FFD0
0169
FC29
FF02
FCF7
FFAA
0115
00BA
02B7
0017
FDED
FFA8
003F
0029
02CE
009C
0043
FFF2
FEC7
FE7D
FEB3
0086
01EE
FEB0
FF8F
0344
017F
FFFD
FCBA
02F1
0209
FBD7
FAE3
FC98
FF08
015A
0261
00E6
FEC1
FE3F
00B0
FFFA
0152
01FC
FFF9
0017
FEBD
FEDA
00F6
FF9A
0102
01A0
0467
0709
001D
0141
0264
0026
FFF1
FF22
FDB7
0121
0161
008B
0316
0386
0181
0010
011B
01F3
010D
01FC
0141
00BF
FEA0
FE74
00A8
FF4E
03D3
0434
0682
0466
FE22
FE74
0114
0115
01E8
0202
0269
071D
029D
FF2A
032A
04FE
01D7
021F
0123
0244
01C6
0350
0301
014C
FF26
0065
00A1
01B3
03BA
02E2
04EA
02A9
FCA1
FD6E
FE8B
FEA3
018E
01E5
033B
07A7
04BE
01E6
0332
02F6
01F2
02F8
0221
0504
0349
03D4
0198
0006
FFF6
0036
013F
017F
0383
03A9
02CB
01BA
FE53
FD29
016A
FF43
0066
001D
0439
0511
0299
FEE8
FEEA
0065
034A
02DC
0257
0412
04C7
04CF
02B2
0136
0232
0030
0306
02F5
042D
0406
0519
06D8
FB58
FFC0
0038
FFFA
FFE1
0048
FEB8
FD20
FDE6
FAE6
FDC6
FE7A
0008
01EF
01C2
0357
04F5
046A
02E5
01E4
01EE
FEDF
0229
02B1
0223
0085
0022
0224
0141
00AB
FE32
FFCF
FF7B
FF7F
02E6
FC11
FC1A
FD0C
013C
FF1D
FE23
FEFF
0293
00B0
FFD9
0142
00D4
0193
013B
019D
00AC
00D6
0172
009D
0105
0160
FF5F
FD1F
00D3
FFF8
FFF4
0088
0004
0158
0352
FFE7
FE6E
FDC4
FE4F
FEAC
FED7
FFC8
00CF
FF17
0042
FE88
00A1
0095
FF4A
FCC0
003E
FE7C
FB75
FE86
FCCE
FF2A
FF94
0079
FFBF
001C
0052
004A
FE87
FB67
FF58
FFD9
FFBD
0046
FD3A
FFA1
FFC0
FB0F
FE05
0095
FF60
FA6C
FC98
FFAB
FFFA
FBFD
FC07
FD73
FFDF
006C
FF90
0038
FFEE
FF8A
FFA1
FFAA
FF87
0068
0013
FF92
FFD0
008D
FFF0
FFF6
FF09
FF95
012F
0157
FFC9
0055
FFBF
FFC0
FFB4
0012
FFF2
FF6F
FFB8
0085
FFEC
0067
FFC6
FF7F
001B
FFD3
FEE0
FEC9
FC68
FB9D
FD31
FD19
FCCF
FC58
FAE7
FF11
0275
FC00
FDB9
FD07
FA60
FC6C
FBA1
FDA7
FC61
FC10
006D
FF9E
0057
FFD5
002C
003E
FC50
FBAA
FB78
FE8D
FD98
FB4B
FA90
F7DB
F71A
F39A
F407
F62E
FAB4
FA5F
FCF4
00D7
0141
FF29
0135
FF86
FBD2
F9F1
FE24
FF1B
005A
FFF5
FFE5
003A
FB5C
FB13
FA30
FDC4
F9E1
F8BB
F670
F688
F837
F8DC
F27B
F361
F93C
FB0D
F9AE
F804
FAAE
FE9F
0013
0179
02E2
034A
0001
FCB9
FC8E
FFBC
004B
003C
03CA
FB6E
FE24
0072
FBA1
FCD2
FE27
FD3B
00CF
FDA5
FD9E
FEA7
FDE3
FA24
FBA0
FBB3
FE79
FF09
FFBC
01CF
0261
01ED
04C4
016D
FFF7
FC4D
FFED
0010
0213
FD1D
FBF6
FF98
FCBE
FE71
FDAC
FD45
FD4A
FEB7
FFFE
FE47
FF20
FCF3
FCBE
FE40
0060
0016
020A
0235
02FE
04B5
028B
03F4
FC71
FBF1
FFB1
0212
FCEB
FB3B
F923
FCC5
FDEB
FC0B
FCF0
000D
FF95
FEF2
FE4F
FE39
FEEF
FF6D
FE7E
FF8B
00E0
020B
030D
FFBA
01AF
0613
03ED
05E0
028D
FE13
FFBD
01EA
FB11
FC38
FD3B
FB92
FBF6
FAC4
FE43
FE5D
FEA2
00EA
012C
011F
FF82
FDDF
FE9B
FFA3
FFEF
01C6
01C0
020D
0305
037E
0448
054C
043E
FDD8
FB9E
FEE3
0062
010F
FCE9
FD01
FD3B
FF2E
FEDF
FEDD
0056
00F1
009F
0149
FE93
FCCA
FC82
FFA8
00B2
FF75
00DD
015D
01AF
0268
03F9
069C
06CB
011B
FFEC
FDA5
02E1
00FC
FCA8
FC51
FE4C
002C
00A8
0189
0060
0123
018D
00DF
FD5D
FB34
FD55
FF6B
0100
00C4
019F
0296
03A1
037A
00CA
0268
02C0
FB71
FFF5
FEF5
FDF8
00DC
FE4B
FCC5
FF31
0108
00D4
00F4
FF97
0041
009A
FCCF
F6A0
F58B
F967
FDB0
01A1
029B
FFD8
0135
0153
010B
0089
01C6
FB83
FE30
FDAC
FA2E
FC9F
FDB5
FE34
01CD
02A1
00CD
0138
009B
FFE5
FD89
FE01
FA50
F605
F7B9
FCA3
FFED
0230
0258
00E1
FF79
000F
FF2E
000C
0032
FD6C
FD35
FDA8
FC6A
FFD2
FBE9
FF22
02FA
031F
0199
FEE2
FE3A
FD94
FC38
FE94
FF52
FA82
FCE4
FE18
00C4
018D
02A9
020E
0396
0134
01FF
02A8
FFB2
FDE9
FB6A
0044
FFAA
FEC0
FE3E
FED6
0126
011D
0146
0043
FF41
FDA3
002C
0251
02F1
FE41
FE1D
0011
03BB
02AF
0257
0289
0275
007F
FF24
FDD2
FE90
0215
FFC9
FDAA
FFB4
F901
0442
021B
FFA4
014E
0145
0229
0113
013B
0296
04BC
038D
0206
0079
02E0
031F
0113
00F0
FFB0
FE48
FDB5
FC68
FA8A
FFDC
FCDB
FFC1
FD3A
01D8
FE6C
058A
01DA
FF5C
00CE
00E8
02A8
01C1
02A9
039C
034C
03D6
0250
023B
049F
015E
FF61
FFAB
FD0E
FC6D
FED4
FDDC
F8EF
F8CC
0295
0022
FFE3
01BD
0260
04AB
00A4
000B
0243
00A9
00CE
017A
0348
037E
0490
03B0
027D
03C1
03CC
01C3
0103
FE99
FE68
FEB3
FFA1
FD8A
FB00
FDCF
0327
0171
FFC7
008F
025A
0384
0084
0042
0200
00FC
0171
016E
0384
0395
03A2
021B
026B
0388
02F9
0132
FF28
FDC7
FE3C
005D
FE75
FDC2
FDFF
FCD2
0201
010F
FF7F
0004
0296
0509
0082
0107
00D2
FE80
FF9F
0019
0183
0326
0231
012F
023B
01AC
011B
FE41
FFD1
FFD7
0066
01B4
FDB2
FEFF
00AA
FC6F
0052
02CA
0001
FF60
014E
03E9
00E3
005A
000C
FE76
FFB2
FF67
00D7
FFF5
FD74
FFD8
00EE
01BF
00F6
FF7E
0172
007E
FED8
00EE
FCB5
010B
FFD2
FB36
0111
FF50
FFE0
FC43
0200
FE02
020C
FEA7
0013
FF71
FFD3
FDA7
FDFC
FDB0
FB9E
FE14
FFCB
00C8
02EB
01EC
020A
009A
0034
009F
FFE7
0307
015C
FBCF
00F5
FF09
0039
FCC1
01A8
FD76
00D8
0219
01A8
00DF
0254
0136
FF87
001D
FF39
0022
FFC1
00A6
0100
0151
0048
0033
002C
02B1
0417
03D5
FEE3
F943
FA12
006D
006D
00E2
FCC2
FC6B
02DA
00FA
007C
FF4E
FFF4
0022
0030
00F1
FF84
00D9
FF5E
FF06
FFC5
FEED
002A
0198
02BD
054C
0551
04AB
00BD
FC35
FA9B
0070
004D
0057
00AB
FA58
FD0D
FE4B
FDD6
FE47
FFF1
FE9B
FF92
002F
FE41
013F
003F
0012
FFAA
FE72
007D
0178
03B6
051D
056A
07CE
0011
FC98
FDCF
0074
FFDA
002A
02CA
FED3
FDC9
FAFD
FDD2
00A7
00B9
007E
00D0
02A9
FF8E
000A
FFD6
FF86
FF35
FE55
FFA1
038E
0257
0275
0263
03DA
FD62
0274
FEF6
006A
FFFB
006F
03E7
FA6B
F968
FCCE
0035
FE8D
FED1
FD72
00DB
FF48
011B
FFC1
0173
FF98
002D
000C
002A
FE83
FF2E
FD01
FB9F
FD6B
FABA
021E
FEEA
005F
0036
0034
FF98
018B
055E
02E7
03D9
0341
00B9
00D6
012A
015F
0127
022A
03DA
FEC4
FD59
FE98
FCC1
FD0C
005B
0063
FF42
01B0
0100
FE5A
005E
007D
007E
FFEA
0086
0070
FEB2
FE2C
0097
01FD
00B6
01A4
FD72
0125
FFD6
FDE3
00A7
FED7
FBE7
F8E1
FD41
018A
03AA
FE7E
FF35
FEE2
FF99
FF7C
FFDC
FFF0
FFFF
FFB0
002B
FF7E
FF88
FF95
0050
0024
FFC0
008F
0067
0025
0064
0040
0088
FFB2
FFAF
0011
005B
0090
0076
FF90
FFCF
FF9E
0081
FFEF
FF94
FFB5
FF74
0057
FFF6
FF81
FF70
004C
0007
FF4D
FF46
FFDD
FF85
FEB4
FEFE
FF20
FF32
FA56
FAA9
FB35
FFDB
FF16
FF33
FEBE
FEBE
FECE
004F
0020
0025
0039
FFC8
005D
0058
FFBF
FF63
FFFE
FEFA
FF7D
FEE1
FF08
FBA8
FBC8
FCC5
FC1C
FCE3
FA00
F8D0
FAD7
F96E
FFF0
007D
FF83
FEAE
FEE7
FED9
FF0B
FF7F
0024
FF75
FF99
0227
0047
FFDC
FB50
FBE1
FB1B
FAEB
FBAE
FBDC
F7DA
F706
F978
F884
F757
F7B6
F818
FD4C
FA91
FBC5
F9C5
FBF6
FC6E
001E
FFAC
00A2
0060
0035
0082
02C3
02F2
030B
FDE7
FD87
FD21
FA48
F888
F829
F989
FA36
FE0D
FCC8
FC0A
FD19
FAEF
FB42
FFE2
FFA7
0036
FF9F
0171
FC8B
F873
F9A1
FEEA
0021
003B
0016
FE26
FDF2
0547
033C
0004
FF99
00C7
FE5D
FD0B
FC4E
FB59
FC3A
FB34
FBCC
FE50
FF67
FDF2
FD42
FE7E
FFC7
FF54
00BA
FA08
FBCC
01CE
FF8C
FC8F
FF73
FF64
019D
03FB
033D
038B
0327
0003
FE35
FEE0
FE83
FF42
FFAD
FFED
0112
01F3
03F8
0265
030F
043A
0388
0160
005B
FAEF
FCB0
0189
0168
FC99
00DD
05E2
FE65
FD88
FFDC
0156
FF71
FF56
FEF6
FDBF
FFD3
FF3C
FF68
00E5
02F0
0342
0360
0422
0374
03C0
0334
03DD
FF28
F8F7
FD07
FF6A
FB16
00BB
0147
05B5
FF63
00B8
007C
0252
0248
FFFA
FD1E
FDA1
FE5E
FEEF
FF9E
0149
0240
040D
048A
0319
0169
0252
0269
00FF
FF92
FB52
FDC8
FD28
03E0
029A
0065
01C7
FEC6
019D
0208
0256
0061
FE37
FF3F
FF12
FE7A
FF32
004E
03B7
0359
03C8
04E8
03F8
01E4
0185
030F
FCD6
FE16
FD77
FC6B
0305
0497
020D
03B8
0122
0120
0102
FFDB
FE86
FE08
FED5
FF64
FF94
FEA1
FE5B
02DA
03E3
040B
00F5
01F6
03CD
00F0
0198
FFB8
FC88
FF7C
0196
FD26
033D
025F
FEA8
0120
0396
0124
0074
FE8F
FEFB
0034
FDF5
00AA
026F
FDEE
00AE
0576
049C
0201
011B
0283
01CF
0066
009B
FF8B
FEA8
FFB1
FE5D
FADB
03E2
0100
01AF
FFF1
058C
FE01
FB26
FCC7
FFF8
FE64
FD87
00C1
021A
FCC7
FEF7
0463
02BB
FFC0
FFE1
0148
FF5F
FDA3
FD0F
FCDC
F9FF
FB17
FF97
FAE9
036E
FD0C
0121
0305
0365
FF81
FABE
FE36
0107
FE6F
FEE7
00B8
FF5C
FD1F
015F
030F
018F
00D4
0002
FEA5
FEBE
FE24
FDEA
F98F
F9F9
FCAE
FFCE
FB77
FF71
FF1F
00AB
03B5
024D
FF73
FEE5
FF61
00E2
FF12
FECB
FE58
FE0D
003B
02D2
035D
0374
0181
FE4C
FE36
FFCC
FE3F
FD4A
F9C5
F9E9
FC2F
0258
FBC4
FFF7
FF67
FF17
FEF0
0247
019F
FE0D
002C
0059
FE92
FC50
FFE5
001B
01C2
0377
0328
02CB
01DC
00CD
0193
FE94
FD63
FCA3
FEA5
0115
FD5C
FD93
FD01
FF17
00D9
FF94
FD50
FCCA
0193
004B
FE92
FD41
FED2
0096
0268
017C
02D0
038F
0218
0140
02AF
00D1
FF4A
FD27
FAE9
FB76
FBF1
FC99
FD82
FA37
FCEB
FF34
FF78
009F
FEB5
FB7F
005C
FFC6
FD22
FDD5
FF96
002A
0025
00CD
01A3
032D
029E
0140
0067
FF51
FD6D
FC14
FE72
FE7C
FF27
FF16
FE10
0213
01A5
FC63
03D1
015E
02FE
F992
FB59
FC59
FBA7
FE1B
FED3
FC38
FD5C
00BE
0125
030D
0297
0041
FE17
FD27
FA28
F98B
FD7F
FD16
FC7A
FC26
FAFA
0392
042D
0070
018D
02D8
0397
F55A
FB35
FD18
FC1B
FF04
FCE2
FCB3
FCD7
FEA7
02EE
0316
0235
FC93
FAFA
F9A8
F5D7
FA70
FD15
FD9C
FD4F
F936
FCF6
0384
025E
047A
0016
FB8C
FFBF
F8AB
F8D7
FE46
FD62
FC55
FA37
FC7E
FD06
FE77
00C3
0226
FFFE
FC1B
FAD9
F94A
F78A
FAA4
FC91
0047
FFF2
FDD6
FFA5
0145
01D6
01BF
01C0
FE81
01B3
FB18
FDBF
FFAD
0171
004F
FEAF
FEAA
FF7B
FECA
006F
FF09
FF53
FBB0
FA27
F9D2
F9DC
FC33
00A3
023F
FE1B
FEC7
024B
02B2
FC69
0002
0158
FF5D
FEC7
00E5
006D
00F6
04C5
038F
03A1
0270
013F
FE20
FF1E
FF12
FFF4
FDE5
FB82
FA9A
F85D
FB56
FEB4
0089
0004
FF38
011B
015D
FF00
FFE7
0025
0041
FAEF
FBBD
FF6F
0202
017A
03BC
02DC
02D4
01BA
0051
FF71
FF2C
FDC5
FCAA
FAA9
F7B6
F630
F75D
FD8C
0103
024F
FF6D
00F0
007C
02BD
FFD6
FFAD
0046
01D7
01FA
0065
0491
022E
027C
024B
FF8A
FF30
FD95
FE50
FE5E
FDBD
FEB8
F897
F691
F637
F84F
FE50
FE63
FE02
016F
FF70
FFEB
0023
0020
0034
001C
FF0A
041A
0213
0304
FE18
FEA6
0102
FF22
FC3D
FF53
0169
0150
0299
0039
FD2C
FB17
FBCC
FE47
FFFD
FE4D
FE91
03EE
0203
FF5B
FFB6
0068
FFCF
FF7B
FFFD
0069
FF21
0230
037D
039E
038B
0351
026A
01E2
02EE
042E
04F6
0489
01B2
021A
04BE
0420
014B
022E
02CF
FD39
FC29
FDEF
0022
FFE7
0010
0081
0061
FF90
FF82
031D
0505
03AD
04AE
0166
03B2
0173
02FC
06C8
0765
045F
01DD
03E7
0183
0173
FF76
000C
01A2
0084
FF76
004C
003B
0062
FFBE
0011
008F
FFD9
FFF9
0022
0029
000F
002B
0071
004C
003B
002F
019A
0143
0198
FFA8
0015
0020
FFB6
0069
FFBC
0085
FF90
005A
FFC7
FFA9
000B
FFFE
004D
FFC8
0002
00EE
017F
032B
03AB
0231
0244
022B
0526
079D
03B6
FC2B
01DC
065F
07CD
0662
042F
0414
0262
02E5
038F
0092
0048
FFE6
006B
FFED
FFF9
0342
044D
04B5
0168
0398
059F
06EC
0972
0730
061A
03AB
FF4D
0001
01A6
000E
FFF8
01C6
003D
0124
047C
0450
0658
0378
01F6
007F
FFF7
FFCB
002F
FED5
0477
004C
FECF
038B
0129
02A0
06D2
01A8
035A
009A
0164
00B6
FF6E
FFBA
FE78
FE6E
FF10
FD35
FF12
FF20
FFC9
0243
FF0F
FFD0
006C
0002
FE72
FE02
FCDD
FF2A
FEEF
0150
FEEE
FE7A
FFCF
0071
0071
001D
FE2A
FF09
FE5D
FF4C
001E
FF6F
FFCF
FEAB
FC7E
FD5E
FCDD
F9CE
FD54
0328
0491
FFF5
008E
00AF
FDBF
0149
FB23
FDD4
FE99
0042
001C
0186
00FA
FFE2
0085
0007
FFFC
001B
0007
0175
0080
0035
007F
FE82
FD49
FEBC
FF30
036C
02BC
005F
FE74
0005
FD77
00B3
FA76
FC17
FF1A
FD47
FD95
008A
0139
013A
FFFC
0137
018A
0160
0121
01D8
014E
FF09
0103
FF68
FB77
FB64
FD18
FF11
01B5
0026
FD58
0485
FDD3
FDAF
F9A2
FC95
FD4C
FDFC
FF79
0143
012F
0060
020E
0206
0304
02B5
0250
0262
00B6
FFEB
0025
FE2F
FB47
FDFA
FD7B
FDF2
01D5
056C
04BC
0057
FE0B
F9B6
FB06
FD96
FD63
005C
007A
0133
0085
002B
012B
0338
0313
0421
02AF
FF63
0172
0069
FF74
FF1E
FD3D
FA78
F8BB
FC40
FF2C
010D
033E
0012
0134
FBEE
FD8C
FD61
FF0D
0043
0122
0229
0015
0043
FFE7
00AB
0025
FEED
FFBD
FFAF
017B
00E0
FE6E
FEA8
FDB3
FD0B
F967
FB65
047C
0093
0111
041F
FCE5
FC92
006A
00E7
FF26
FF51
0167
0123
00BD
FF85
FE0A
FFBA
FDF5
FF89
FEAD
0021
00CD
01CD
01AE
FF5C
005A
FDF3
FA20
FF01
0051
0316
0534
0006
FCAF
FD16
FF99
0249
008C
0027
0074
FE90
FFFE
FD89
FCB8
FD7C
FD54
FDBC
FDDF
002A
029B
02BF
03E1
0119
022A
0210
FEC7
FAB4
FD5C
01FC
FE1A
0413
FF7B
0105
FFA1
01F9
FF5B
0042
00E4
FE8C
FEFB
FC1A
FD0D
FFAA
FEA2
FF98
004B
FFFA
0205
0190
0173
02A6
029E
030C
FF62
FC3E
FE29
FDAB
014C
029C
02C2
01AF
00D8
02B1
FFF6
00DF
0139
00A3
FE91
FF38
024C
0254
012C
FF71
FE94
FFF3
0119
FE9F
FF66
022E
0356
02E3
FE9A
FFF8
0383
FF55
FE6B
FB52
01B8
006B
015E
016F
01CA
0231
0292
0309
030E
01A4
034B
00F9
00D2
FF53
FE0E
00ED
0042
0028
0043
01C5
012B
02C7
FFB8
06CC
039E
FFBD
FE0D
F895
FF9F
FDE0
01E6
00F1
0295
02B4
02BB
03B3
03DE
034F
043A
017D
00B4
FFE5
014F
0055
FF18
FF40
FEC1
FE60
0012
0204
02F5
FE0A
03FE
FF9B
FBBF
FBCF
FCCD
FF6D
02AB
0066
015D
00F2
0306
0531
0790
059B
0275
00EB
009A
01FB
009A
FE78
FD71
FE98
FF35
FFF4
FE09
FF21
044B
02FE
0486
FFDB
FE68
FE97
FDAD
FE71
0048
FFDA
FF63
0195
023C
04BF
059D
04F2
024B
007C
0052
009A
FF19
FE29
FEBD
FE50
FFC5
00F6
FE5C
FF26
0800
01A3
04D9
02D0
FE5C
FD04
FD03
FF79
FEEE
FFE4
FFEC
002F
014C
03C0
0166
0171
FF34
FF64
FF6B
0061
0285
0130
FFE4
FEBF
FFF6
0113
00CE
FF1E
0442
FE44
0293
FDAF
04E1
FBA7
FB9E
FF21
FD72
FF4C
000E
FEE7
FEDC
01E0
00B5
FFFB
FD9E
FF4C
0064
01D1
0305
01D8
009C
008B
01F0
04C3
01EC
FF32
010B
018C
01F2
FFC1
0456
0072
001A
0047
0132
FE9B
00E9
0005
FF79
00BD
FF6E
FFA6
FE0E
FFD9
012C
00BD
007E
0149
0101
007A
01C1
034D
0197
0150
01D8
00C6
FE88
FEFD
02BE
00D6
03C6
0257
01E8
004F
FFFF
0060
0092
01EA
FF60
0067
FF7D
FF9A
0035
00DE
0026
FFCA
FF49
FE44
0007
028A
03EC
0072
013D
059B
0131
FF1E
FE5A
011A
0361
037D
04B2
0355
02F8
02C1
0399
02D4
0047
01F0
00CC
FF69
FF03
0006
FD14
FEBA
FE1C
FF03
FFA6
0030
008E
FF4B
FF50
FCD6
00A6
0077
0009
FEDE
FD62
00E6
043B
0443
03C8
03E0
028A
017E
0141
0026
FE04
FDD4
FC5D
FCE8
FCA9
FD51
FF4C
FF28
00F3
059B
0323
FEC0
FDF3
FA9A
FFED
0012
FFFA
01E5
FAED
011E
032B
00A3
007C
01E0
0092
0031
FD61
FE49
FD08
FD3A
FDF4
FE72
FF7A
FF4C
FD75
001E
00F5
0103
00CD
074B
0422
013A
FF94
0013
FFE2
FD66
0434
0066
FED4
00AB
02CE
006C
FD5C
FCAF
FE57
FE41
FF4C
FFC6
FFC3
00E5
FFC6
FCE2
FEB2
0059
0215
0227
0175
02CA
011F
0226
FF9B
0051
FFF5
FFD3
01A4
0147
FD2D
FD54
0466
0881
0960
073A
044E
056B
0658
0C0C
06A4
04EA
00E4
0611
07C6
0717
0267
0208
00B0
01F9
01C7
0076
FF94
FFF8
FFEE
FFFE
FFC7
FF87
FFFA
01FB
0349
035D
03E0
0785
0811
0952
0746
0A26
04B6
03EE
05EB
0803
06DC
02A6
FF35
FE1F
FD86
FFE1
0051
005E
FFD7
FF9F
0041
008B
FFA8
004A
FFB9
FFD8
0068
FF9E
0005
003F
FFC3
007C
FFA6
FF88
FFCF
003E
0086
FFDD
0060
0003
0051
FFB4
0073
FFD1
0013
0071
FFDB
007D
FF94
FFA1
0080
0077
FF8B
FFEC
FF0C
FFA8
FEB9
FEB8
FD98
FDD5
FB5E
0304
FEEB
FB38
FA56
011C
0000
FFE5
FFFA
FFC0
FFD9
0051
0052
FFF7
0006
000A
0056
FCC2
0068
00FC
0113
FEE3
FE5E
FD69
FFC8
0107
FE1B
00D9
04D4
0458
06AE
015C
FD03
FBB3
FF46
029D
01D4
006C
015C
0281
026B
FFE6
0010
FF85
FFC5
02ED
0242
FCA3
FC62
FEAF
FE88
FAF6
00A0
002D
FF25
FEE6
00C9
FEE2
01E1
0290
FF16
FA87
FC66
FBCC
FC80
FD8F
03F0
038C
FE20
FBBA
0028
0031
FFB6
0293
FD70
0193
026F
0368
0237
03E7
012D
013D
001A
00D2
02A5
01D2
001D
0056
FF0B
FD0E
006B
FE8F
FD8E
FE5E
FDCF
FCEE
FC31
FDDA
FFB6
FFDE
FF90
03F2
0457
06A4
033D
028B
019B
0026
FD9F
FDD1
FEB5
010B
00C4
01F4
02E2
FF84
FEBF
FEC2
FD67
FD44
FE6E
FD56
FC82
FF80
FC01
FB4F
FD3B
0067
FFC8
FAD5
016D
00D0
FCBF
0005
FF3E
FE87
FE38
FEB0
FFE9
0088
0061
0170
0147
026F
00EF
00AD
FD57
FC2B
FDF7
F966
FA96
F80C
FA47
FE74
FF80
FFEC
0272
FC03
009E
01A1
FDAA
FF0C
FE57
FD49
FF54
FEDA
FED4
FE89
00C1
0090
0111
0217
02B9
FFE6
FE13
FDB1
FA26
F893
F7D3
F52D
FBAC
FF97
FF6E
0024
0352
FEBC
FF64
04B1
FEF6
FDF2
FEBF
FDCB
FD74
FFDE
FDF2
FEF7
00F5
0131
041D
037D
03D9
FFAC
FFCE
FB52
F692
F984
F5AD
F2F1
F805
FEF9
FC33
0037
024B
FC78
00C0
016B
000A
FCF1
001C
FE9F
FCDC
FD99
FDC9
FFBB
0205
04C1
074A
06AD
048E
00B2
FDEA
F95C
F69C
F860
F99C
F4F2
F7D2
FC0F
FC9F
FFD1
016C
FB34
FB45
FD4B
FE0D
FE85
FD5E
FC1D
FB0C
FDAB
FF66
011D
0436
06CD
0A24
07DF
043A
FDE9
FB36
F5CA
F4D8
F9EE
FBFE
F968
FDCE
FF9A
0413
FFDA
00E6
02D0
FE7A
FC55
FDCF
FD7D
FEDB
FE8B
00A4
02CD
03C1
0259
0443
067D
073E
0467
0006
FB41
F77D
F7D3
F86C
FBB3
FE1F
F96D
FE06
00DF
063F
FFA5
FFC0
036D
FF14
FE45
FD5A
00C0
02F9
0126
02A2
0105
013D
03AB
04DC
05EA
04DB
020A
FB7D
F9EC
F9B2
F92A
FBA0
FD2E
0160
03C7
03A4
FFA3
063B
02F8
FDD6
02AC
FFB4
FCCA
FDC9
031F
0138
01BD
0129
002F
00E4
03D5
04B8
0490
0386
00D8
FCDF
FC99
FCD4
FF91
FE80
FE22
01B2
0358
06A0
0409
02C2
FE39
FD08
0273
0246
FEAC
FF11
FCCF
FBE7
FF76
013E
FFB6
00E2
0361
038E
02FF
0122
FED8
FC9F
FC9B
FDE1
FDA6
FFB3
FCF8
0223
0020
062A
011D
01E1
FEAC
FFB3
02A9
FEA8
FF0B
FE8D
FB88
FCE3
00AE
00A4
FFEF
00CF
0162
02BB
0486
FFD7
FEB5
FD12
FBD4
FD82
FD02
FFE8
00DA
0057
FEFD
041E
0813
02B0
004F
0210
034B
FD0F
FEC2
FDEC
FD91
FFFE
017A
0369
00FE
0210
0133
020C
0305
FD3B
FE2B
FA23
FE53
FD75
FF33
FE75
0066
004C
0285
041F
0434
FFF9
0018
01A2
027D
FBAF
FF80
0002
0052
FFD6
0073
00AE
FFF1
FEAE
00E4
0307
023F
FB96
FBDB
FC53
FEE4
FE78
FEEE
00A9
01A1
0143
030F
0408
04ED
FE7C
0178
0293
0233
FC2C
0232
FED5
FE27
FF66
FFC7
025E
FE99
FEC7
0103
027D
FD9B
FBD5
FB7B
FF3B
FFCC
FF80
01F5
0248
017E
01D2
0134
03F3
0677
05F5
01C4
FBE2
FC92
FC84
014A
FD56
FD35
00D5
FEC9
0045
FE2C
FDA7
FF2B
FFFD
FBDC
FC65
FF31
0011
00E4
01A4
01B8
004C
FFD1
01E2
00D8
0526
043B
0431
0092
FCB7
FD8E
FFAD
0028
FAD8
FE70
00FB
FF08
FFAF
0121
007B
001C
FD10
FEDC
FF17
0253
01D3
02A5
0134
023D
FFE1
FF87
FFB9
0136
04FD
03A3
01D3
0281
FFFF
0180
04D8
001B
FFDF
FFFC
009C
0126
FEBD
017B
FEF6
FEF7
FD3F
FF51
00B1
015C
014B
020A
00CC
FF4D
00A5
FEDA
FE63
FF63
044E
009D
FF22
01AC
008F
0227
01E5
FEE5
0272
FFDE
001E
0016
000E
00DB
FE65
FDA3
FE91
0044
0006
0102
010F
031D
01DE
023D
01D8
FF3A
FDAC
FFA7
034E
02F8
FE44
0063
0013
0124
FF9E
0142
0097
FD46
FF29
FF65
013D
FF54
FFC4
0197
0074
FEED
000C
0097
031E
047D
0443
01BB
0144
FF2E
FE86
FCA2
0173
03E8
002C
FFAA
0073
010D
006E
030F
023B
FF4E
FEF8
FE23
FEE8
FF05
FF2A
FE07
FF00
00A5
FFC7
FF2D
01D4
04B3
03CC
FF37
FFEB
0188
01ED
FEBC
041D
048E
FF77
FFEB
FF73
FFF1
00BC
041C
0275
0059
0158
01CC
0103
FCEB
FA01
FA52
FC7F
FD16
FA48
F9D0
FCE7
FF14
FCAA
0119
FE3D
FFD7
FFF6
FCF9
0204
01E2
FFCA
006F
FFBE
FFA0
FF13
FF15
FE76
FA8B
F8C8
F98A
F3C8
F9C8
FD6E
F6FC
F37C
F5E6
F9F3
F644
F780
FC11
FDA2
FD8C
FB74
FB69
FB00
FFD4
FFC4
0027
001E
0065
FF9A
FFDB
0019
000E
FF19
FF2B
FF9A
FF30
0010
FFF6
FCEE
FA53
F8C7
F648
F9C8
F9B4
F9DB
FE9A
FF9F
FF8F
FEF1
009F
FFB0
FFD1
FFE0
FF9B
000C
FFC7
FF8A
FFF6
FFCE
FFBD
FFC1
FF7D
0053
0054
0062
0009
0049
FF12
FEC4
FF71
FFA6
FFD9
0081
FFF0
FF9C
FFAB
FF91
FF9A
0075
004E
FF7C
0011
FFAC
FFD9
0028
005A
FF96
FF9E
FFF4
FFD5
FED1
FF98
FEFE
FEDA
FE99
FFDD
FE6B
00D4
FFDE
FBD7
FBBA
FD50
FD1F
FDEE
FE59
FF10
FF5E
0045
FFC8
FFA4
0073
0060
FFFA
FFFD
FDE5
FDDD
FF91
FFF0
FED5
FE03
F9C4
F71D
F88D
FF08
00F9
FC0D
FA0F
F86D
F91F
FCD3
FCB2
FC4A
F8D5
FAB1
FA23
FCAA
FC7B
FF7F
FFCF
FF9A
FFB5
FEC2
FD88
01FE
FC83
FC42
005B
FCD0
F945
FA57
FD09
008B
FF96
FFB3
00FB
FDC9
FDFF
FFA6
FA95
FE0C
0206
03CF
01DB
FCF8
FFD9
FFD3
0079
005E
0174
FF21
0192
02AC
FFD2
FD88
0213
FCCD
FB67
FDFD
0017
0167
0212
02AE
01CE
0152
00CF
00C3
FF49
0167
03D6
03BD
02A8
0621
02C6
FD7B
FB1E
005E
0025
FB7E
FF43
FBBA
FF8A
FE6E
00F3
FCCA
FD18
FC92
FECA
00A2
017B
0112
008F
00CC
023C
FFCB
FFD2
FFD6
FFB1
00C7
FFA3
016F
02B2
FC11
FDC8
004E
FDC4
037A
FFBC
FEE4
FFC9
FE50
FF8C
FF09
FFD5
00C6
023C
004B
011B
001F
0048
FFC4
012A
010F
01F1
022F
0127
020A
03DE
03FC
01FC
FF8F
FDCE
002B
FBBA
FFBC
01AE
FEB4
FD76
FD57
FF49
005A
0223
0277
00E6
01B4
0133
FF6B
00A4
FF4A
0011
FFD6
026E
017C
00B9
00EF
04DD
04CC
0130
FE8C
FD81
FB39
FE82
FF27
02A5
FFBB
FD59
FF3E
FFE8
0098
01A1
00BA
018D
0220
022E
0122
00BD
004B
FEC5
02B3
01AA
0214
0258
000C
010C
08BD
062C
0335
01D2
0283
03F2
FFB2
013C
FFAD
FCD8
FF7F
FE35
FFA0
FFC5
FF71
021B
0374
0128
FF56
FF54
FFD4
019D
0230
018C
01BC
0309
0140
013C
080E
09D9
0322
FEE7
01D0
0333
0250
0114
0365
FCF1
FBC6
FCD5
FE69
FEB9
008E
011A
0357
00FD
FFC8
FFFE
FF24
00FB
01BE
0042
0311
0117
0279
03B3
0504
0421
009E
FFD3
037B
FF2E
0588
041E
037C
00AB
FE2A
FE85
FF45
0068
011B
01E1
03B8
0284
02CF
019B
0189
02AD
0244
FFFE
013F
002E
03D2
0654
043E
018A
06DF
011E
01FF
03EA
FF25
04AD
003A
FFF9
FA9C
FC4C
FE12
0014
0119
03CB
032A
02F3
0212
0278
0113
017C
00C9
FFBA
FF08
FFBF
0100
0444
0264
019A
032F
004B
FD1D
0157
01CE
0087
013D
FBE1
F855
FC91
FEE2
01C8
0446
056D
0440
0232
0231
02FA
00AD
0058
FFD8
007B
FFEB
FFE5
FF8F
FEE4
FE5C
00D2
FC28
FE58
01DA
02A0
0646
FEA7
FCCE
FBC6
F980
FBF4
FD9E
0168
03A8
0387
03EF
03F9
02C7
02A2
0056
014C
FEDD
FE33
FCFE
FEAD
FDAE
FD9E
FDAF
013E
F7A1
FE5F
01EB
0174
0158
FE22
FDA3
FD7B
FE4D
FC3A
FB75
FD6C
00E4
FFCC
022B
00E6
01D5
02E5
00A6
0256
0157
FDFB
FCD7
FD1D
FF3B
01FE
FE06
FF9E
FC49
FDEB
0313
0059
00D5
FF01
018D
FF28
FED1
FBAA
FC13
FB6D
FBE4
FCAC
FFAC
0037
00F8
0299
0180
0260
0118
FD41
FB63
FA5E
FC53
FE87
FB1C
F8D2
FA60
FDDA
0055
0151
00B1
FEB4
0011
FF56
FE34
FDC6
FC90
FD8E
FCDF
FECC
FF90
FFDD
0108
0222
0276
02E0
FE82
FC37
FBDB
FA5A
FC74
FE69
FBCA
FB7C
00D7
FCF7
04DF
015A
01E8
FCF6
FD51
FE6E
FF71
FEBD
FE7B
FE1E
FC21
FF58
FEF1
FFB3
002D
01A0
01E3
00CB
FE84
FD45
FD80
FB03
FA51
F9F8
F965
FF97
06C6
FCB6
013A
02DB
FF3B
FE26
FDEF
010C
0036
FEDD
001D
FDCE
FD3C
FDBB
FD7B
FD9F
FF7F
0162
01D8
00C6
FF98
FF9D
FDA6
F91A
F646
F789
F990
0163
016F
FCFA
0052
019A
FD39
FC6F
FEF0
0080
00D9
FFBA
FEFE
FE65
FF2C
FE1B
FF05
FF48
FECE
00D0
0151
0144
FDE1
FEC1
FB05
F865
F8F0
F818
F90B
FC52
022B
FFF0
FE8A
FFE7
FEF8
FDBE
FF4D
010E
0205
01AE
0043
FFD9
FFF0
007F
00B4
003A
FFE4
FFF3
FFC2
FEF3
FC16
FA1D
FA97
F741
F4B8
F7B9
FBAE
0001
FBFB
FF5F
FE30
00D0
FEA3
FF36
FDF9
FCD4
00C3
0100
002B
FF93
0008
00F8
0197
01EB
01C2
0106
FEF8
FF02
FADD
FA04
F6AE
F614
F563
FAB0
FCD0
FF14
FA6F
FF0F
000D
FFBF
FAB6
FF30
FEB5
FD06
FE54
FFAF
FFDB
FFDA
FFF9
003B
00AD
038C
03C1
0226
FF95
FECA
FD62
FB79
F6EF
F74C
FA43
FC14
FE57
FE71
FAA8
FFE9
FFE1
FF77
0192
023F
FBF9
0124
FF6C
00CA
0043
FF01
01B1
02A6
025E
03B5
016E
0294
0149
FC71
FCB1
FD1B
FB0F
F9EC
FD70
FE8A
FC61
FE38
FF06
0047
FFF3
FFBD
0144
02D6
FF29
0046
FE2A
FC25
FE6A
006F
02F4
0536
030D
0347
03C1
02E9
0263
02FB
03A0
02D4
00D6
FFAB
0118
064C
03C8
01F6
FF41
0034
FFF4
0051
003A
0064
0005
039F
0476
FEF4
FD68
FD56
FD1A
0223
03BA
02D3
0105
0053
03D5
0410
0198
0174
00B7
00FA
027D
00E8
0075
FD89
003B
0016
0073
0078
FF9A
0015
00DA
030A
0238
00F7
013C
FF9B
FEFF
FDB4
FDEC
FFF8
0437
016A
FEF9
FFC0
FFDD
018E
0369
0252
013C
005B
0023
0021
FFBE
001E
003F
0065
003C
FFC7
0053
0009
008C
007D
FF9E
008E
0050
0070
FF7D
FFA4
FE9B
FEFE
006F
0046
FFE2
FF7F
FF9A
0069
007C
FFD9
FFFD
0087
FFCA
0002
0001
0002
FF9E
FFFF
0070
FF8A
FDE0
FD82
FF32
0069
0179
FDC6
FF4A
FE60
0390
FDCB
FB07
FBE1
0228
010D
000C
0026
FCB1
FC5D
FF90
000B
008C
FF95
FFE3
0050
FF11
FC3C
FD0A
0092
0205
015D
049C
03F2
00FA
02FA
028B
04E0
0372
0499
029E
02B2
021C
02F3
02EE
039F
029C
FEFD
02EB
016A
0058
0083
FFEC
005F
006C
FBE6
FBBE
0076
FEE4
FEE5
FD8F
008A
FE4D
FF9F
FC1C
FC95
FD50
FED7
0076
0011
FEA8
FF4E
FDF1
FE7A
00C9
0277
03ED
FE7B
FE4B
FFCD
FFC9
FF83
0093
FBC9
0009
FF10
FF0C
FF84
0048
FE26
FF0A
FCA7
004D
00AE
0030
FDF1
FF83
0011
FE41
FF9E
FFD0
FF27
00ED
01CE
FFE9
FE35
FBE1
01DD
004C
0075
02A3
FBE2
FEF0
00DB
0047
FF19
008A
FFF7
009D
0010
00AF
020E
01F0
01C6
0085
002A
01D0
01B1
005A
FFA1
FEFC
01B5
01C6
00AC
FDB8
020B
FFF1
FD56
FE23
FE38
FF8D
FD39
FE7A
FE39
FE06
FEE8
007B
01E4
00F4
02BB
0443
03FB
04BB
02F6
01FC
00E0
00C2
001B
FD77
FE4A
FF1A
FF82
FEFE
0165
0184
FC0C
0066
0209
FD77
FB1F
FE06
FBF9
FC98
FF3E
0012
012E
0211
04A6
047B
0571
031F
0219
00A9
0179
00D0
FF6A
FEC2
FE67
006C
001D
0054
011C
FBE5
FFB5
FFAE
FE41
FCC6
FBD0
FCE4
FBDA
FFC8
00E3
FFE1
008D
FFAA
00DB
01C2
03BA
018C
007F
01AE
01DF
0028
FFD2
FE6A
FCBD
FC67
FED2
0092
FAE5
017F
0382
FEC8
FDF8
FAAF
FBC5
FDDB
FE1E
FF54
005E
0130
0014
001D
FED2
FF90
0193
009C
0286
03B9
0394
02F8
FED5
FEA7
FD3D
FC1C
FBBD
FD58
FFE1
0125
070E
FEAC
FB3E
FA6A
FD19
FD85
FEDA
FF40
00D8
FF3B
FFDD
FF70
FE14
FD7D
FEA7
0102
0325
0457
0526
0242
FF93
FF11
FD03
F97E
FD27
FA47
0072
03F2
FD58
024E
F9E4
FA2E
FEDC
FE75
000C
019A
0122
014B
0073
0105
FDE9
FD7F
FE12
009C
040D
0405
0406
0292
0161
008C
FEE5
F9F0
FA01
F8C5
FF63
0339
FFC3
0462
FC29
FEDD
FEF7
FFF6
011A
0275
00D1
FF9C
00FF
FEEB
FDA7
FCCF
FD97
0073
01A6
025A
0172
007C
003B
01E6
034A
00A9
F965
F64C
FED1
FF13
0106
02A0
FBCF
0198
FFC2
0066
00D7
0208
012C
016C
0035
FDF8
FED1
FE5E
FDC7
00DF
033B
00FC
0028
004E
0187
0186
0077
FE20
FC32
F9D8
FD6C
FDFF
001B
FD18
0017
0334
FF79
00BA
0265
0295
028C
0128
0050
FEC6
FE4E
FD07
FEEF
0285
0361
0144
0212
014D
FFE2
0021
FDCE
FA4E
024A
F9A2
FF04
FEA4
FEB2
FAF4
0171
FEC5
FFDF
01ED
026A
0392
0245
01BE
00B3
FFBA
FE93
FE65
0124
0392
0543
00B8
005C
0028
0078
0213
FE31
F700
FF88
017D
FE91
02A9
FD45
FEEE
FEFE
FE0E
01C9
01CC
0335
039E
02B7
0233
02A3
0072
FE91
FECF
011A
0542
04FA
01B2
FF9C
FF6F
FF22
0070
FD51
FA58
FDA3
0192
FC6D
0042
FDF7
036A
FC7D
FC73
00FF
005B
0231
0403
00D1
028C
0198
FFBA
FED1
0128
0353
03FB
023F
0219
0003
FF1C
FE7D
FED9
FC89
FE10
002A
013E
FADA
049E
FF5B
0400
0027
FE90
FEEC
00BC
00D7
0135
007D
0050
FFB5
FDEF
FEE3
01B8
02F8
03B2
0476
02F6
00AC
00CB
006A
FD01
FD36
FE5A
0225
04C5
FEB0
002B
FA54
FF3E
0073
003B
FF44
0098
01C3
00AB
FF73
FFFC
FF87
FD4D
FD23
00C5
0204
04D5
034A
0175
026A
0056
FF9E
FDBE
FFB4
0032
00C1
028F
02B8
008C
FC3D
FFDD
0133
00D0
FFBB
00B8
0185
FEA9
FF07
FFEA
FDE9
FC7C
FD53
0039
0120
0367
02C0
0292
01F3
007B
001C
0048
02B0
03DD
006A
0174
00BE
0071
0253
012E
00AE
0072
0335
017E
00B2
0233
0127
00C0
FDCB
FE64
FF08
FF54
FF33
01DE
0139
00F3
01D2
01D4
0287
01B9
0331
0469
FF0D
FB63
FF93
000D
FFD4
00F8
FF0B
016B
01C5
009B
003E
00AC
0136
02E4
0007
0092
0014
FF6E
FFBC
00FC
002A
00FF
0068
02B3
030F
03C5
02F0
02DB
FFB2
FAF7
FFF7
FFF7
FFC0
FD91
FA02
FCB4
00EF
009D
01D3
001A
00A9
00C5
000D
FF72
FE54
FED4
FE9A
FF47
002F
FFB1
0148
025A
0542
05F2
0450
0491
FDE5
FC82
FFDE
0027
0009
024A
FDD0
0087
0399
01AC
0339
0262
015D
00E8
FFC0
FD6C
FD2B
FBEA
FE81
FF9C
FF91
FEED
FFEA
01FB
02B2
0324
03EA
010C
0281
0085
FFD7
0014
FFB7
00ED
0306
0133
0243
FEDD
FFE2
01C1
009A
FE27
FE07
FD4C
FC4C
0067
FE56
FF55
FEF3
FEE4
FDA2
0187
0165
FDCD
FF06
FD22
03B1
FFD3
FF80
FFEF
0034
002B
025B
03BE
00F1
034A
05B2
07EC
097D
0410
015D
0260
033A
0787
03BF
0634
0502
0455
0243
044D
0694
0520
0528
0374
0084
005D
007C
0086
FFA9
0092
0046
FF25
004A
0460
040D
044F
0641
04FF
04AF
0535
06C1
0CBD
0BFB
09BE
09B8
05A8
081A
05E9
0693
062A
0364
0073
FF81
FF71
008F
0026
FFBD
FFE5
FFAB
0068
0079
0071
FFAB
0008
0029
FFD6
0074
0091
0006
00A2
00C2
FF7E
006D
0009
0012
006E
008D
003D
FFAD
000C
0049
0049
0076
FFA1
0011
FFE5
0063
00AE
01D8
02DF
023E
005A
003D
FFA2
FFDC
FEDB
0144
FD6C
FF67
0225
023F
02A5
013E
FF9C
FE24
0349
03A6
008A
0057
FFE9
0016
FF7E
FFCF
0053
0092
FD8A
00E4
031D
02FF
02DC
0510
04A5
0039
FDD9
FD74
FEBA
FE82
FEB9
FB69
FAFD
FC75
FC9A
FFB5
02E3
035B
00AD
0114
FFEE
FFBF
FF7E
006B
030B
01D9
0044
0092
01E4
FF0A
FF59
FDD0
FAA7
F9B7
FC74
FD2E
F995
F69C
F5B7
FA7F
F8D0
F8A7
FBCA
FB9D
FDD3
FFD1
00C4
0124
FF74
FFD7
0066
007E
0264
FEDE
01E9
042C
03AB
FDC9
FE8C
FB8F
FC25
FF27
016D
0090
FD06
FA8F
F8DD
F757
F5D2
F5ED
F91A
FE5E
FA9F
FCF0
FDC3
FD4D
FDC7
008F
FFFA
FFC0
FEC0
0127
04E5
0517
026A
018B
032A
00C4
0033
0110
0124
0117
FE46
FF3C
FE19
FA8A
FC70
F97E
F5A5
F610
F417
F586
FC16
FF3A
00C9
FFCE
FF94
0217
00EB
053D
035F
003F
0479
02FE
037C
0253
032B
030C
00C3
0098
004A
FFD1
00B3
FDDF
FD0F
FADA
FB52
FEC9
F96D
F7C4
F9B7
FE5B
FF6F
010F
022A
017F
0421
03B8
0229
FE9C
0319
0316
02BC
0351
0317
01A6
01E6
027A
016D
01B0
00EA
FEBB
FCE4
FB8D
FD4F
FD62
F9EC
F88C
F892
F927
FC9D
FDC2
FDAB
05A6
02D4
01BD
01DD
FFCA
0199
01C8
034D
0318
03C8
028B
01B9
025D
0420
02A7
0116
FFA3
FE24
FD54
FD34
FB65
FCC1
FDA4
F8CF
FB5B
FF22
FD2D
0271
05E1
02A2
01AC
0352
0255
02C6
0390
0363
03C0
0466
0310
045E
03B7
0589
0289
0108
00CA
FE3C
FCF4
FCFA
FC29
0029
FEB5
0088
FFBC
028E
0391
02CE
052B
03A3
0097
01BF
0322
0408
02E7
0370
0368
032D
0290
0065
0398
045B
01AA
0134
FFA2
FE3B
FDFC
FE43
FD9E
FF01
00B3
001C
02D9
0140
0365
046F
04AF
0351
0050
01F0
01DC
022F
027E
0042
003B
00E7
0066
FC38
FE7C
00A1
01A2
010E
0116
0140
FF5D
0116
FEBB
FD7D
FEAC
FA5A
FD03
F905
030B
02D6
0402
0323
01D6
03FB
00FA
FE10
FEEE
FE44
FED4
FC97
FADA
F89E
FA72
FFFA
02C1
0303
02D6
0372
FFA0
FE96
FD32
FD8D
FCB0
F689
00DC
0125
0489
FDDC
0181
0616
02AF
0380
FE3B
FF58
FD12
FD24
FD7D
FEA0
FD01
FB3F
FD5A
0180
018D
0260
022D
0148
FDCF
FEC7
0098
FD62
FF5A
0090
020D
018E
008A
FDDB
0159
07C7
018A
FF98
FBBC
FCE9
FB54
