FFFFFF24
000001E1
FFFFFEDE
00000025
FFFFFFE8
0000007F
FFFFFEDA
FFFFFE11
0000002F
FFFFFF0D
00000205
000001DE
FFFFFDA4
000001A6
FFFFFE8E
000001D6
FFFFFF18
0000019D
FFFFFEA5
00000072
000001FF
FFFFFF4D
00000055
000000FC
000001A0
000001DB
00000161
FFFFFFA8
FFFFFE0F
FFFFFE92
FFFFFF17
FFFFFF98
000000C0
FFFFFEBD
FFFFFDFF
FFFFFD6B
FFFFFBE5
0000006A
FFFFFE98
FFFFFE87
FFFFFB50
FFFFFC38
00000160
0000001D
FFFFFC27
FFFFFC2F
FFFFFC84
FFFFFD2A
FFFFFFB3
FFFFFE8E
FFFFFE2A
FFFFFDB2
FFFFFE51
00000031
000001C7
0000002D
000000CB
0000005A
FFFFFFE2
FFFFFE38
FFFFFF7A
FFFFFED3
FFFFFD05
FFFFFEDF
FFFFFAAE
FFFFF7AB
FFFFFE2C
000005E1
00000033
FFFFFD44
FFFFF5F3
FFFFF7D8
FFFFF65D
FFFFFC1B
FFFFFC37
0000052A
000001A5
FFFFF8A5
FFFFFB28
FFFFF9F2
FFFFFDAA
00000113
FFFFFF26
FFFFFFA7
00000237
FFFFFFC7
00000AD7
0000028B
00000016
FFFFFDE8
FFFFFCA7
000002FC
FFFFF1F2
FFFFF1AB
FFFFFA13
0000036E
00000338
000001E9
000002DA
00000755
FFFFFF74
00000750
0000165F
00000719
000005DA
0000028D
0000046C
0000069A
FFFFF30D
FFFFF89B
FFFFF51A
00000152
00000211
000001CB
00000ED0
00000C4F
FFFFFF0F
000004E8
00000663
FFFFFF56
FFFFFB35
FFFFFA84
FFFFFB4D
00000358
FFFFFEA2
000002DC
000004C8
000006B9
00000A86
000001A3
000001E0
0000027C
0000047C
00000CB8
000014F9
00000F68
00000743
00000947
00001088
0000007B
000001D5
FFFFFF1E
00000BD9
0000024E
00000041
00000F67
00000C0B
0000034E
FFFFFEC3
00000354
FFFFFBD0
FFFFFAAF
FFFFFF0D
00000189
FFFFFC76
FFFFFC6F
FFFFFCB8
FFFFFE0C
FFFFF97A
FFFFFD46
FFFFF919
0000009E
00000695
0000035E
000009EC
00001824
0000033E
000001A4
00000027
00000036
000006D6
00000156
00000134
00000198
000004C0
000002FB
000002E6
FFFFFBC6
0000018D
00000896
FFFFFF2D
000006CD
0000014E
FFFFFDB9
00000175
00000562
FFFFFECA
FFFFFF71
000000A8
FFFFF987
FFFFFB68
FFFFF9A8
00000168
000008E9
00000494
00000213
000001C8
0000074F
FFFFFF41
000002B3
FFFFFAF6
FFFFF8C3
FFFFFEB0
00000129
FFFFFB0D
FFFFFD5C
FFFFFF36
000000DB
00000721
000000EA
FFFFFD21
FFFFFEB8
0000006E
000003CA
000003D3
00000717
000003E4
FFFFFB78
00000090
FFFFFBA9
FFFFF31F
FFFFF3EE
FFFFF964
00000248
FFFFFE74
000003AD
FFFFFFF6
00000013
FFFFFFB3
000003CA
00000350
FFFFFBD9
00000234
000003CB
0000039E
00000116
000002AC
0000007E
00000086
000000E8
00000459
000002F7
00000840
0000095E
00000262
000000DB
0000082D
FFFFF1D4
FFFFF884
FFFFFE45
00000317
000006A0
00000573
00000793
0000092A
00000E4F
000007C5
FFFFFC32
0000064C
FFFFFC91
00000326
000006E0
00000738
FFFFFE1D
FFFFFBF9
000001E7
0000020D
000000CE
FFFFFD6F
0000061D
000003E2
0000037D
00000972
000004B6
00000448
FFFFF856
FFFFF952
000008CF
000003AA
00000AC6
0000054E
000003ED
00000979
00000B2A
00000A26
FFFFF94B
FFFFFB80
FFFFFD95
000003A2
000004C5
0000020B
0000005F
FFFFFD0E
FFFFFAB8
FFFFFE3C
FFFFF794
FFFFFB87
FFFFFDED
000000D9
000004E6
000007B1
00000057
00000978
00000663
FFFFFFB5
000012DC
00000D10
00000657
00000A84
000000AB
000009CB
000004BE
FFFFFE90
FFFFFA80
FFFFFF28
000003D8
000005ED
00000037
000003F2
FFFFFCE0
FFFFF765
FFFFFCA5
FFFFFDA5
FFFFF67C
FFFFFC7F
00000062
00000360
00000118
00000772
00000641
000009D6
00000C31
00000F36
00000B1B
00001143
00000DEE
0000058E
00000179
0000083F
FFFFFE24
00000690
FFFFFED9
0000037D
000004F7
0000044A
000000BA
000002B2
FFFFFF7B
FFFFF800
FFFFF972
FFFFFBCD
FFFFFEB6
FFFFFE82
FFFFFECF
00000191
FFFFFE54
0000062C
00000203
FFFFFDFB
00000FF6
00000308
000006B7
00000ACA
00000EF7
000006E5
0000014A
00000830
FFFFF96C
00000694
FFFFFE8A
0000014A
00000951
000001FC
00000672
000007CF
0000075B
FFFFFFA6
FFFFFD92
00000570
000002F7
FFFFFFE6
FFFFFCED
FFFFFA0B
0000007B
0000063F
FFFFFF01
FFFFFC80
00000026
FFFFFED9
FFFFFD62
FFFFF4B3
FFFFFC45
FFFFFEFE
000001C3
000005AB
FFFFF819
FFFFFF82
FFFFF85A
FFFFFE0C
000001E1
000004E7
000008EA
00000D4F
0000084D
000003A8
000002F1
00000857
00000745
000004B9
FFFFFEFF
FFFFFD02
FFFFFCED
FFFFFD3A
FFFFFF53
0000076D
FFFFFAB8
FFFFEE71
FFFFF4F4
FFFFF622
FFFFFC02
FFFFFFB6
0000029A
000002D1
FFFFFADB
FFFFFB8F
FFFFF189
FFFFFB3E
FFFFFB9E
FFFFFDC0
00000725
00000FE7
00000B2C
0000087D
00000954
00000BC5
00000980
0000090F
000001DA
000001B7
FFFFF9DC
FFFFFD56
000002BF
00000E67
000000FB
FFFFF724
FFFFF54C
00000010
FFFFFED6
00000307
00000248
00000965
FFFFF8B0
FFFFFC50
FFFFF4F1
FFFFF03A
FFFFEE4E
FFFFF3BD
FFFFFD58
00000B26
00000668
00000A26
0000093E
00000627
00000620
000005B5
000002CC
FFFFFBCF
FFFFF3B7
FFFFFB92
00000084
FFFFFFAF
FFFFF993
FFFFF23F
FFFFEA7B
FFFFEDF5
FFFFFC4E
FFFFFE3F
0000028A
000004BF
FFFFF961
FFFFF485
FFFFED96
FFFFE6A2
FFFFED46
FFFFE6AB
FFFFEF82
FFFFEE8F
FFFFFA79
FFFFFFF5
00000972
0000080F
0000085A
000002A0
00000012
FFFFF860
FFFFEFDA
FFFFF721
FFFFF426
FFFFF588
FFFFFC0A
FFFFF69E
FFFFFBD1
FFFFF580
FFFFF757
00000B03
00000158
00000813
FFFFF1CE
FFFFF647
FFFFF2B8
FFFFED4C
FFFFE4C5
FFFFDDC2
FFFFDE3D
FFFFEA60
FFFFEE36
FFFFEFBB
00000216
00000529
000005E3
0000050D
FFFFFC38
FFFFF486
FFFFF66F
0000002D
FFFFFB54
FFFFFCF8
FFFFF620
FFFFE738
FFFFFDDE
0000018A
00000708
00000630
0000082B
00000508
0000013A
000000E7
FFFFFAB0
FFFFF47F
FFFFEE85
FFFFE6D2
FFFFEDCE
FFFFEAA7
FFFFE754
FFFFEFBB
FFFFFC01
000003CA
00000257
000001CB
FFFFFBEC
FFFFFB1C
FFFFFE06
FFFFFA77
FFFFF9FA
FFFFF824
FFFFF6C4
FFFFF73C
00001025
FFFFFFA4
000008F7
FFFFFE34
000001A8
0000078A
00000821
00000AF4
0000028A
FFFFFC48
FFFFFF22
FFFFF9FB
FFFFF791
FFFFFA1B
FFFFF743
FFFFF816
FFFFFD42
000004C4
000003D2
00000089
00000365
00000133
FFFFFF9E
FFFFFB58
FFFFF89E
FFFFFF9E
FFFFFB81
FFFFFDA9
00000263
00000076
00000870
0000006E
000002DA
0000080D
FFFFFD29
00000F11
00000E52
00000B17
00000DF7
00000228
00000202
000004C1
00000569
000004CD
000000B4
000006E8
00000486
000006ED
0000019F
FFFFFF1E
FFFFF9C1
FFFFFE35
FFFFFBF0
FFFFF45C
FFFFF38F
FFFFF9F9
FFFFFC3B
FFFFFAE7
FFFFFF2F
0000013B
000002A1
FFFFFC4B
FFFFF8F5
00000B26
00000C3D
00000CBC
00000475
000005D7
0000054B
0000054F
0000033C
0000008A
000003FF
00000BA2
00000971
FFFFFFB1
FFFFFF00
FFFFF813
FFFFF5E4
FFFFFB61
FFFFF6F4
FFFFECB9
FFFFF309
FFFFFD90
FFFFFC3E
FFFFF891
00000045
000001C6
0000010C
00000956
FFFFFA6A
000008E3
000006BA
FFFFFFDE
FFFFFEDD
FFFFFDDE
FFFFFE57
000003DA
FFFFFE9A
FFFFFA79
00000045
00000467
FFFFFFD3
FFFFF87A
FFFFF084
FFFFF7F4
FFFFFB62
FFFFFE8F
FFFFF5BB
FFFFF53A
FFFFF689
FFFFFDA0
FFFFFC5F
FFFFFA02
FFFFFE7E
000000C0
00000226
000007A0
00000769
00000BE4
00000F6D
FFFFFD57
0000029C
000002C1
00000152
0000059F
FFFFFE28
FFFFFF2D
0000026D
FFFFFEC5
FFFFFE98
FFFFF0F9
FFFFEB7A
FFFFEF15
FFFFF389
FFFFFCB0
FFFFF6FB
FFFFF684
FFFFFCA4
FFFFF626
FFFFFAB5
00000041
FFFFFEEF
FFFFFEAA
FFFFFEB8
0000015B
FFFFFAC7
FFFFF4E0
000002D2
FFFFF7FA
00000278
00000D0B
00000D6F
FFFFFF00
FFFFFE08
000005A3
0000098F
00000905
FFFFFE53
FFFFFDF8
FFFFF9AA
FFFFF0C2
FFFFFB92
FFFFFA6F
FFFFF4B9
FFFFFB7B
FFFFFED7
FFFFFE8D
00000126
0000000F
FFFFFE1E
FFFFFF4B
FFFFFEDA
000000C2
00000A40
FFFFF829
FFFFFAF7
FFFFFBF1
00000AD9
00000947
00001639
000013E9
00000A4F
000003AA
000007B0
000016DC
00000F03
0000108D
000011F0
00000F6F
00000D87
00000EBA
00000493
00000594
FFFFFE24
FFFFFF8A
000006B6
FFFFFF42
00000193
FFFFFDC9
00000071
FFFFFEEB
FFFFFFC5
00000511
00000D40
00000987
00000BB0
00000D3C
00000491
000005F0
00000742
000006B1
00000C1E
00001544
00000EB6
00000AAC
00000605
00000D28
00000BF5
000002CC
0000048D
000004CF
000001D2
FFFFFFDF
FFFFFFE6
00000118
0000014E
