FFFFFF16
000001B4
FFFFFF2E
FFFFFE0E
000001D2
000001A5
FFFFFE1A
000000FB
FFFFFE1F
00000228
FFFFFDDB
000001BD
00000165
FFFFFDA3
0000009A
0000014C
FFFFFEC6
FFFFFFE9
FFFFFFFD
FFFFFF87
0000010B
0000020E
FFFFFDC4
FFFFFFBD
FFFFFF9F
FFFFFDFC
00000071
FFFFFF01
0000008C
FFFFFE67
00000087
FFFFFFBA
FFFFFE65
FFFFFF33
FFFFFE33
FFFFFEC7
FFFFF73D
FFFFFB14
FFFFFF59
FFFFFD78
FFFFFD25
FFFFF953
000000C9
000000E8
FFFFFDD7
FFFFFDA1
00000069
FFFFFD07
FFFFFE31
FFFFFDA0
00000219
FFFFFE3D
000000DC
FFFFFE3F
FFFFFE33
FFFFFE7A
FFFFFFD4
FFFFFF68
0000010C
FFFFFF0A
FFFFFEC9
FFFFFDA1
FFFFFC05
FFFFFBD6
FFFFF638
FFFFF12D
FFFFF579
FFFFFC89
FFFFEDD9
FFFFE6BE
FFFFF18A
FFFFFB36
0000025A
00000A6D
00000BD2
00000D67
00000851
000002CD
00000274
FFFFFFD5
FFFFFCAB
FFFFFEFA
FFFFFEFF
00000187
00000151
FFFFFDE7
0000000F
FFFFFF63
000002E1
0000047A
0000044A
00000202
00000292
FFFFFC3A
00000050
FFFFFE55
FFFFFD27
FFFFF36D
FFFFF8A7
FFFFFFA3
FFFFF8D9
FFFFF644
FFFFEF56
FFFFEE7F
FFFFF532
FFFFFC9F
FFFFF8AE
FFFFF572
FFFFFD52
FFFFFC68
00000044
0000015F
FFFFFF76
FFFFFF56
000003B3
00000DA4
00000582
00000090
FFFFFF32
FFFFFCA9
FFFFFE6C
FFFFFDAE
FFFFFF36
000003F5
000000AD
FFFFFB03
FFFFFF66
000000BB
000006F4
0000083F
00000D6E
00000D22
000001DD
00000143
00000180
FFFFF9E4
00000412
00000B70
0000086A
0000022B
FFFFFDD1
FFFFFF3C
00000084
00000690
0000000A
00000157
000000A4
000001F5
FFFFFCA6
FFFFFA37
000001AE
000005D6
000004E7
00000128
FFFFFD1A
FFFFFCC9
0000029F
00000900
00000CBE
000001FC
0000042C
FFFFFE9C
FFFFFCDD
FFFFFE58
000001B1
FFFFFED8
00000172
00000163
0000011A
00000274
000005FE
00000A2F
00000580
FFFFFF83
000002FF
000008F9
0000038A
000002FE
00000AE9
000009D3
00000775
000008AA
00000677
000003D8
000007B0
00000BF6
00000824
FFFFFB90
FFFFFAFB
FFFFFA55
FFFFF75B
FFFFF69C
FFFFFCF8
00000350
FFFFFDA5
0000041E
00000081
00000510
000000F3
00000835
000007E0
000008B4
000006BF
00000207
00000A2D
000001DE
00000728
00000734
00000A9C
0000096A
00000F4C
000009ED
000006AD
FFFFFDF6
FFFFFDC1
FFFFFD10
FFFFFBF7
FFFFF87F
FFFFF243
FFFFEB66
FFFFF16E
FFFFFCA6
00000AFC
00000ABA
FFFFFF26
FFFFFFAC
FFFFFE6A
000007B2
00000691
0000056B
00000996
000001B9
00000A25
00000787
000005C8
0000066C
00000525
00000910
00000274
0000039C
FFFFFBFB
FFFFF70C
FFFFF7D8
FFFFFA7C
FFFFF5BB
FFFFF770
FFFFFD18
FFFFEBF6
FFFFF68F
FFFFFDC4
000001F0
000001EE
000000B9
FFFFFFF3
00000712
00000326
000007C6
000006FE
00000DCD
00000C5D
00000CBC
0000053B
000006D2
00000723
00000226
00000049
FFFFFF78
FFFFFEE6
FFFFFB3D
FFFFFDF1
FFFFFC2D
FFFFF958
FFFFF4C9
FFFFF7A9
000002E1
FFFFFC03
FFFFF91D
FFFFFF8C
FFFFF973
000004EB
FFFFFFFB
FFFFFC98
00000141
00000D67
00000982
00000E90
0000111A
00000836
00000704
FFFFFCA1
000001A1
00000039
FFFFFDEF
FFFFFD58
FFFFFEA5
FFFFF9D9
FFFFFD96
000001EE
000004E6
0000012B
000002BC
FFFFFBB1
000003AE
FFFFFBCE
FFFFF154
FFFFF9A3
00000365
00000346
FFFFFCF1
FFFFFA06
FFFFFFA1
00000CCB
00001025
00000BF8
00000551
000002FF
FFFFFB19
FFFFF9F8
FFFFFC08
FFFFFC29
FFFFFFC8
000002E0
00000060
0000019D
00000586
00000CCD
0000081D
000002BC
0000017A
FFFFFA88
FFFFFE7F
FFFFF69D
FFFFF5F8
FFFFF549
00000CAA
FFFFFECD
FFFFF952
FFFFFEE8
FFFFFEF2
000005F3
00000E83
00000670
0000005C
00000000
FFFFFF22
0000007F
FFFFFE11
0000016F
0000039E
000000C8
0000037C
0000011F
000004D8
0000076F
000004E3
FFFFFDB2
FFFFFDC5
FFFFFE78
FFFFFE7B
0000022A
FFFFEB10
FFFFEEA7
000007C4
FFFFF9E3
FFFFFE5D
FFFFFE60
000003D0
00000198
FFFFFA4C
FFFFFE2D
FFFFF6A1
00000267
FFFFFCEC
000002A3
FFFFFE55
000001F2
000003E7
000003B1
00000106
FFFFFFC0
000004C8
00000347
FFFFFE30
FFFFFFEC
FFFFFFA1
00000340
00000583
0000032F
FFFFFEFE
FFFFF59D
FFFFF265
FFFFFC61
FFFFFFFD
00000380
FFFFFFD3
FFFFFD8F
FFFFF3CF
FFFFE27D
FFFFF239
FFFFFD88
FFFFFD01
00000112
FFFFFF3D
000003BB
00000171
00000471
FFFFFF0B
FFFFFD0B
000004C4
FFFFFC93
FFFFFF6C
FFFFFC86
00000418
000008B1
00000703
00000A4F
000000D2
000001E2
FFFFEEED
FFFFFA07
00000359
00000298
00000250
FFFFF973
FFFFF1BC
FFFFDD56
FFFFEA1D
FFFFEDAB
FFFFF39E
00000026
00000229
000007EC
000007D5
00000102
FFFFFFF4
FFFFFF7F
0000027B
000000B6
000000C5
0000000E
00000645
00000A5D
0000106B
00000E05
000009D6
FFFFFB01
FFFFFC18
FFFFFB99
0000001A
00000580
000009EC
FFFFF7AD
FFFFF6B4
FFFFEA04
FFFFE65D
FFFFE1E6
FFFFE46E
FFFFF522
FFFFFD4F
000002B2
00000581
000008D0
FFFFFF2E
00000489
FFFFFF23
FFFFFDBE
0000039A
00000193
00000313
000010C7
000011B8
00000C71
0000099F
FFFFF742
FFFFFF04
FFFFFBB8
000000F3
000004E7
000007E6
00000359
FFFFF51A
FFFFF315
FFFFEA69
FFFFEA5E
FFFFEE0E
FFFFE4FB
FFFFE61F
FFFFF32B
FFFFFE19
FFFFFE5A
00000281
00000592
FFFFFA08
FFFFFEC5
FFFFFE1B
FFFFFA0A
FFFFFDF2
00000C89
000006F2
00000098
FFFFFF3A
FFFFEE5E
FFFFFBCF
FFFFFE28
00000625
FFFFFE44
00000881
0000089A
0000090A
0000006F
FFFFFAF8
FFFFF2F4
FFFFEEDE
FFFFE7E5
FFFFE577
FFFFE5C3
FFFFE55B
FFFFE65C
FFFFF465
FFFFFCE5
FFFFFF4F
000000AF
FFFFFCE0
00000336
000005CC
00000AF9
00000368
FFFFFEA6
FFFFFE8D
FFFFFCD8
000000E4
FFFFFE0A
FFFFFE7B
000008B9
00000351
00001082
00000B1A
00000CC3
0000014E
FFFFFFBB
FFFFF931
FFFFF42E
FFFFF236
FFFFEA6D
FFFFEEA6
FFFFED22
FFFFF66C
FFFFF8CD
FFFFFF0A
000000D4
FFFFFFC5
0000043A
00000461
0000073B
00000599
000002F2
000001E4
00000227
FFFFF015
FFFFFCE8
0000006A
0000012E
000002FE
00001058
000012F7
00000D59
00000596
000004C4
00000790
0000034F
FFFFFAF3
FFFFF86C
FFFFF850
FFFFFB92
FFFFFCE6
000000CB
000001B5
FFFFFFF4
0000032F
FFFFFDF6
000002C6
000006CF
00000842
000005ED
000000AD
FFFFFBC3
FFFFF6B0
00000132
FFFFFE04
000002D8
0000047F
00000785
000011DE
00000B2B
0000081A
00000A89
000005CD
00000163
000003BE
000001EC
0000072B
0000035F
00000196
00000376
000004BB
FFFFFEA8
FFFFFBEF
FFFFFB1D
00000665
000008C0
FFFFFF7F
FFFFFA33
FFFFF82B
FFFFF606
FFFFF794
FFFFFFA1
FFFFFF2D
00000025
FFFFFDBE
00000898
00000741
00000295
000001BA
00000089
0000053B
FFFFFE53
0000037A
00000A83
000005C4
0000011D
00000552
00000524
00000094
FFFFFDE4
FFFFFA55
FFFFF796
000003D3
FFFFFE9D
000003D5
FFFFFBEA
FFFFF778
FFFFEE2E
FFFFF5F4
FFFFFD3E
000001E0
0000015B
00000942
00000BEF
00000A68
000007C3
000005D3
00000471
0000044A
00000443
00000A84
00000D0A
000002AA
00000645
0000056A
000004F9
FFFFFC39
FFFFFC45
00000012
FFFFFD0D
000005EE
00000646
FFFFFE84
FFFFFD2B
FFFFFA94
FFFFF1C5
FFFFF801
FFFFFFCE
FFFFFFB1
FFFFFF20
FFFFFD38
00000641
00000139
000003A2
00000A53
00000C62
FFFFFE26
00000011
0000034B
00000517
0000012C
000000EE
FFFFFE46
FFFFFEF9
FFFFFE2D
FFFFF909
FFFFF923
FFFFFE1D
00000441
000002E6
FFFFFB5A
0000043E
FFFFFB68
FFFFF700
FFFFFB5A
00000113
00000010
FFFFFF54
0000052F
FFFFFD85
FFFFF9DE
0000149A
00001F3D
00001195
0000092C
00000D58
00001379
000006A0
000009DE
00000D2B
000004B9
000003F9
000001DC
FFFFFFE7
FFFFF93E
000007DC
000001D4
000004B8
000001B8
FFFFFF2A
00000B83
FFFFFFF7
FFFFFB75
000000EE
000001FA
000001C1
FFFFFEF9
FFFFFE3E
FFFFFB34
00001372
000014E7
0000006E
FFFFF3EC
000002A1
0000114D
00000E18
000000E6
000004D8
00000783
00000700
00000753
00000FC8
000003E7
FFFFFCF4
0000047C
000005DB
00000C95
00000983
FFFFFE7A
FFFFFF84
00000017
FFFFFF3D
FFFFFF4B
FFFFFED4
000000D1
FFFFFDD2
FFFFFBD2
FFFFFC86
FFFFF888
FFFFFEC3
FFFFFC79
FFFFF517
FFFFF4EF
FFFFF4BD
FFFFF8B7
FFFFFD75
00000735
0000044B
FFFFFECF
FFFFEEFE
FFFFF92C
FFFFFFAE
FFFFFCC8
FFFFFBA5
00000280
0000007E
FFFFFF1A
0000017F
FFFFFF0A
FFFFFECF
