000004F9
00000082
00000A3F
0000003E
FFFFF477
FFFFE95C
FFFFFF11
00000821
00000327
FFFFFACC
FFFFFDF7
00000E61
00000827
0000040F
FFFFF0FA
FFFFFDC4
00000E92
000006C1
00000BBC
00000679
0000092A
FFFFFE39
FFFFFC4F
FFFFFAF8
00000DAE
00001182
000001D1
00000BCD
FFFFFB5C
00000126
000007B6
00000452
FFFFF036
000008CF
FFFFFDD3
FFFFFB55
00000370
00000006
FFFFDCC5
FFFFFF6A
FFFFF818
000016BA
000006CD
000007A7
00000E7A
FFFFF9D0
0000049D
00000418
00000055
00001460
FFFFFCA7
000008A6
FFFFFC1C
0000068E
00000372
000003B8
00000537
FFFFF001
00000198
FFFFF175
FFFFF4F4
00000635
0000079F
FFFFFF37
0000019A
0000052D
0000072E
FFFFFD82
00001152
00000B1C
FFFFF5AB
FFFFF8E5
00000396
FFFFFE3F
FFFFF0EC
00001D98
000005B8
000001E9
00000A34
FFFFFE22
00000561
00000890
FFFFFC4B
FFFFE7A7
00000659
FFFFF470
00000EE2
00000CC7
000002B2
000002E3
00000038
FFFFF11C
000004E0
FFFFF1E1
FFFFF885
00000C21
00000EBB
FFFFF054
000010BC
000009B3
000005AF
000014DE
00000780
00000299
000005C1
00000FF1
FFFFF69F
0000127C
00000D6B
000002F0
FFFFF465
FFFFFD05
FFFFFEF4
FFFFFBE4
000011D8
000004C3
0000079C
FFFFFC41
FFFFFFAB
00000407
FFFFFB1F
0000063E
000004DB
00000DB2
FFFFF68C
FFFFF8E0
FFFFFD42
00000CAE
00000288
FFFFFF65
0000073D
FFFFFA27
FFFFFF10
FFFFFBC0
FFFFF8A2
FFFFFF36
000004D7
00000174
00000E24
FFFFF709
00000290
FFFFEC3E
00000366
000000A1
FFFFEA6E
00000665
000007A6
FFFFF473
0000018F
0000012E
00000DCC
00000986
00000DEA
FFFFFD36
000007B4
000003D2
FFFFF8C9
FFFFFA03
00000E2F
FFFFFCF3
00000C4F
00000105
0000009E
00000277
00000AE8
000005B8
00000D12
FFFFF861
FFFFFA91
00000A5B
000007E0
000004BE
FFFFF6DC
00000999
FFFFF893
FFFFFC78
000000D1
FFFFF157
FFFFFB9D
0000051B
000001E4
00000401
0000026B
FFFFFE5C
000006F3
00001188
FFFFF9F2
00000A75
0000091A
FFFFFEFF
FFFFFFC4
FFFFFF98
00000263
FFFFFB1F
FFFFFE86
FFFFFD50
0000051A
000010ED
00000704
FFFFEF63
FFFFFE8E
000003D5
FFFFFD52
FFFFF805
00000FCB
0000128D
00000608
0000030B
00000EAB
FFFFFA30
00000398
0000063A
FFFFF9B0
000010CC
FFFFFB53
00000501
00000CBA
000000EB
FFFFFE24
FFFFF866
000002E5
000002A1
FFFFEDEE
0000088F
FFFFF876
00001045
0000048A
FFFFF09B
FFFFF494
FFFFEF48
00000C6E
0000014C
00000B91
FFFFF1D3
FFFFF3AA
000001B8
000001AE
FFFFFAEC
FFFFF7BA
00000518
00000B31
00001CCB
0000001E
00000655
00000619
0000015A
00000A41
00000DE6
00000520
00000312
FFFFFE47
00000ED5
0000079D
000007C7
FFFFF7C4
FFFFFF08
FFFFFF86
FFFFFC4A
FFFFFFC4
000003FE
00001172
FFFFFBE4
0000038E
000016EE
FFFFFEE1
FFFFFB68
FFFFF5FA
00001A55
FFFFEEFE
00001085
00000F0E
FFFFFD35
00000236
000001CE
FFFFFB44
00001612
0000046B
FFFFFC3F
00000971
FFFFFA51
00000AAC
000005B0
FFFFFBCC
00000016
FFFFF8DC
FFFFF8E4
00000584
FFFFF34C
00000219
FFFFFADA
000001CB
000003D4
FFFFFC4A
FFFFF7C9
00000C89
00000291
00000AE7
00000872
00000759
FFFFFA55
000003D0
FFFFFE5A
FFFFE5F2
00000574
FFFFFD13
FFFFEEF4
FFFFFCD2
FFFFE3CF
0000000C
FFFFFBF1
FFFFFB0A
0000037D
FFFFF3BC
FFFFFD87
FFFFFF99
FFFFFDF6
00000B87
000005D1
00000215
FFFFFBC4
00000461
FFFFFE61
FFFFFBE8
000007AB
FFFFF7AE
FFFFF611
00000190
FFFFF973
FFFFFC3E
000003B3
000000BF
000005A1
FFFFF678
FFFFFF59
FFFFFF0E
000005FB
00000026
00000584
FFFFFF9B
FFFFF706
FFFFF923
0000006F
FFFFF92C
FFFFF873
000002B4
FFFFFAAA
FFFFFBF4
FFFFF96F
000003E2
FFFFFE30
00000272
FFFFF6D1
FFFFF819
FFFFF79C
FFFFF7D7
000002C2
FFFFF963
0000018C
00000617
FFFFFF86
FFFFF909
0000004D
0000015E
FFFFFC85
000003D9
FFFFFB74
000005C4
00000344
000004E8
FFFFFD70
FFFFFBCA
0000020A
FFFFF9B4
FFFFF85A
FFFFF673
000004A0
0000042C
0000026F
FFFFFE79
FFFFFB7D
FFFFFDFF
FFFFF9F0
00000142
00000431
FFFFFB0B
000005FF
FFFFFF92
0000011C
FFFFF0F3
00000B46
00000C79
0000037C
FFFFFB7F
FFFFFB6E
FFFFFE68
FFFFF73D
00000BA7
000008D1
00000ED8
000006C3
000005DA
00000B59
00000D49
FFFFF9EA
FFFFFB74
0000099D
00000935
00000710
FFFFE487
00000B93
0000046B
0000096D
0000033E
00000A34
FFFFF7B1
FFFFF5B6
FFFFFC28
00000CAE
FFFFEE3B
000000AB
0000018D
FFFFF5E2
0000005F
FFFFFFE8
0000036A
00001042
000007EA
FFFFFC3C
FFFFF5AB
0000117B
FFFFFD06
00000528
000007D5
FFFFFF37
FFFFF912
FFFFF2FC
0000007B
00000CE0
0000108D
FFFFFB0C
00000961
FFFFF5B1
000002AF
FFFFF40D
00001056
000004F2
FFFFFE90
000005EB
00000357
00000365
000003A0
0000020F
00000C43
FFFFF968
FFFFFE7F
00001228
00000146
0000065B
00000A3B
00001230
FFFFF7EC
00000F4C
0000057C
000003F5
FFFFFFED
00000BDE
FFFFFF55
FFFFFB35
00000461
000010D5
00000018
00000A60
0000094E
FFFFF590
FFFFFDC2
FFFFF8CE
FFFFFAF2
00000229
FFFFFFE2
FFFFF6E5
000006CF
FFFFFE58
FFFFFB9A
00000B96
FFFFFF35
00001147
00000677
0000054B
00000C2F
000014A0
000012A8
000009BA
FFFFF80C
0000079D
0000005A
000003B2
00000E50
00000CAD
FFFFFC3D
0000013D
00000377
FFFFF9AA
00000EB5
FFFFF502
00000B48
FFFFF6ED
FFFFFF37
FFFFFB22
0000065D
0000067A
FFFFF823
0000023B
0000094E
00000271
FFFFFD13
FFFFFD27
00000878
FFFFF005
FFFFF3F9
00000804
0000047D
000001AE
FFFFFDFF
00000F28
FFFFFABF
00000182
0000070C
00000140
FFFFEEEC
000015C3
000005B7
FFFFE5B6
FFFFFF26
FFFFF90A
00000CC4
00000376
000014BD
FFFFF2E8
FFFFFB0D
FFFFF529
FFFFFC32
FFFFF372
FFFFFF42
FFFFFCA6
00000235
FFFFF3FB
0000029B
FFFFF488
000003C8
00000920
00000275
FFFFFFAF
000004D8
00000261
000012BA
00000C2D
00000425
00000280
FFFFFE4D
FFFFFBC1
000005F9
FFFFECDA
FFFFF22B
FFFFFCFC
FFFFFD0A
FFFFFA57
00000891
FFFFF82A
000001F6
00000191
FFFFFAFE
FFFFF07E
FFFFFA5A
FFFFFB28
00000122
FFFFF38F
FFFFFC19
000006B6
00000281
FFFFFFE0
00000456
00001B52
000015D7
FFFFFF39
00000399
000008D1
0000114A
FFFFED87
000005AB
FFFFF48A
0000039B
000002CB
00000A00
FFFFF7EE
0000057A
000008D8
FFFFFDF1
00000E8E
FFFFFE0A
FFFFF620
FFFFEBCD
FFFFEF17
000003F5
00000BEF
FFFFFF12
000016B5
FFFFF64D
FFFFF8C6
FFFFFC43
00000B4D
FFFFFEAB
00000100
0000055D
FFFFEFA0
0000186B
FFFFFB16
00000232
00000AF5
00000259
00000111
000000A3
FFFFFF0C
00000749
0000011A
00000942
00001041
00000CB8
FFFFF8BC
FFFFFB54
00000057
000001CF
FFFFF570
00000E3A
00000F4D
00000280
FFFFFB9E
0000105E
FFFFFB9C
FFFFFD2E
00000F34
FFFFF9F1
FFFFFF19
FFFFF836
FFFFFAF6
0000083F
FFFFFD36
00000836
FFFFFD77
FFFFFA1D
FFFFF7FE
FFFFF2DC
00000434
00000675
000014EB
00000FEE
FFFFFBB4
0000029F
FFFFF7D3
000001C7
000018AD
00000679
00000A4C
0000002C
FFFFFE3F
000013E6
00000D8E
FFFFFD1C
FFFFFECF
000000E1
0000021A
0000032A
FFFFF87E
0000018E
00000D22
00000941
FFFFF631
FFFFFEB5
FFFFFE4F
00000A6D
FFFFFA28
000001B4
FFFFE3FE
0000025E
FFFFFA11
00000A13
FFFFFC20
FFFFF633
FFFFFC40
0000003C
FFFFF8E0
FFFFFF56
FFFFFDE5
00000539
00000870
FFFFFD76
00000EDA
FFFFF83C
FFFFFAD7
0000021A
000005B9
0000047A
FFFFFB72
0000096E
00000657
0000004A
0000010B
00000CDB
FFFFFD43
000006E7
FFFFF86E
000013DB
00000831
FFFFF8C7
FFFFFE2A
FFFFFDC7
000001D2
FFFFFF82
FFFFF0C9
FFFFF5C6
00000437
00000212
FFFFEBCD
0000088A
00000829
00000952
FFFFF02B
FFFFF68E
0000047E
FFFFE859
FFFFFD04
000000BA
00000EBA
000004EE
00000B67
00000FE7
000005A3
00000490
FFFFF096
00000DCF
FFFFF86E
00000B2F
000006FE
000001C8
FFFFFEB0
00000A0E
FFFFFB59
000000CB
0000067B
00000D87
FFFFF608
000008DB
FFFFFB2A
00000029
FFFFF278
00001145
FFFFFC53
FFFFFBAD
00000CDD
FFFFF3AA
0000039D
000000A5
00000E16
000000A1
FFFFF445
FFFFF314
FFFFFCDD
00000687
00000A2E
00000265
000000EF
000008F6
000003BF
00000995
00000813
FFFFF069
000000AF
0000019C
FFFFF726
000015AF
FFFFF6C3
00000B8B
FFFFF786
FFFFF2F4
FFFFFD40
FFFFFC4D
FFFFF5CC
00000AB5
FFFFEF13
000001BB
00000C5B
FFFFFB62
00000BB1
FFFFFCE1
FFFFF77E
0000059B
FFFFFDB1
000001F8
00000BEA
000002A4
00000870
00000436
0000074F
00000633
00000009
00000A4F
00000748
FFFFF774
FFFFF8B2
00000815
00000CBB
FFFFFF20
00000391
FFFFFEDE
000009E4
00001390
00000826
0000056C
00000B43
0000074F
00001384
0000008D
FFFFFC97
00000243
00000870
0000113D
FFFFF6AD
00000420
FFFFF7E5
0000058B
0000023E
000004A0
0000100A
00000593
00000014
FFFFFA22
000002EE
00000AC9
00000D95
FFFFF757
FFFFFA03
FFFFFECE
00000220
FFFFF52E
000013F9
00000403
000010BB
FFFFFCC9
FFFFFBB0
000002EC
00000090
FFFFFB01
FFFFEF88
000000F0
00000863
000004AE
00000DE5
FFFFFB95
00000DF0
000001B1
FFFFFAAC
000006BD
FFFFFF68
FFFFF466
00000634
00000B66
FFFFFC25
00000A8F
0000073E
FFFFF9A4
00000972
FFFFF623
00000503
00000CD7
000007B9
FFFFEFDC
FFFFFDCD
00000917
FFFFFF21
0000041C
FFFFFB1C
00000491
00001088
00000428
000000DC
FFFFF98A
0000042A
00000C1E
00000180
FFFFFD8C
FFFFF928
00000A37
00001013
FFFFFA6C
0000033F
000003F3
FFFFFEBB
FFFFFF85
000001A3
000002C3
FFFFFF21
00001200
00000817
FFFFF5ED
00001169
0000002C
0000067F
FFFFFF0C
00000AD0
000002A8
FFFFEF51
000006BB
00000725
FFFFFCC5
00000565
00000B1A
FFFFEF7B
FFFFF717
FFFFFC76
00000AC3
FFFFFE10
FFFFEC68
FFFFF842
FFFFFB6C
FFFFF8A8
FFFFFF86
FFFFF5EE
FFFFFFF5
FFFFF011
00000FF0
FFFFF17F
FFFFFA3F
00000E0F
00000008
00000577
00001123
FFFFFA88
FFFFFA98
00001B34
FFFFFB41
000002CE
FFFFF94D
FFFFFF8F
FFFFF2A8
FFFFF825
00000755
FFFFFA34
00000976
00000AC9
FFFFFC1E
FFFFF95F
00001011
FFFFFD96
000003B0
00000E35
0000023B
00000B79
00000BDE
FFFFFCBA
FFFFF93E
00000449
00000323
00000064
FFFFF8A5
FFFFFD03
FFFFFDAC
00000061
000003BD
FFFFFA89
FFFFF878
FFFFFE3F
FFFFF9F8
FFFFFBD9
FFFFF7FB
00000212
000000DD
00000040
FFFFFA42
FFFFFD0D
FFFFFB30
00000693
FFFFF8E8
FFFFFED5
00000429
FFFFFCC1
000003F9
FFFFFA89
FFFFFF90
FFFFFCB7
00000690
00000544
00000091
FFFFFC97
FFFFFC3D
00000037
00000208
000005E2
FFFFFCE5
000006FC
FFFFF85C
00000235
000006C4
00000275
000002A0
FFFFFC4C
FFFFFD75
FFFFF8DD
FFFFF911
000000EC
FFFFFAAA
FFFFF8D7
FFFFFE70
000001D5
FFFFFEA9
FFFFFC37
0000013D
FFFFFD93
FFFFF9A3
FFFFF79F
FFFFFDED
FFFFFB7C
FFFFFBD6
FFFFFDB3
000003F3
FFFFFE45
000002EA
0000045D
000000E6
000000B6
FFFFF547
FFFFFB41
FFFFF895
00000188
FFFFFD47
FFFFFB6B
00000C13
0000039C
00000080
0000097E
0000049E
FFFFFBA3
FFFFFE45
00000EA6
00000862
FFFFFBB4
000001CD
00000BA7
00000B5A
00000A73
00001810
0000030E
00000265
FFFFFFF1
000003C9
FFFFFFFE
FFFFFEDD
FFFFFEE7
00000761
00000BF4
FFFFFBC6
FFFFF23B
0000030C
FFFFF6D5
00000462
0000022F
FFFFFB47
FFFFFAB4
00000C2B
FFFFFD33
FFFFF92B
00000F57
000003AE
00000858
FFFFFFF6
FFFFF0D6
FFFFFF3F
FFFFF3F8
FFFFF8F9
FFFFF5CE
FFFFFE2D
0000069A
0000070B
FFFFFE2D
0000025A
FFFFFBCC
00000742
FFFFFDBA
FFFFFE7A
FFFFFF59
FFFFF8DA
0000000C
FFFFFB49
000001C7
FFFFF751
00000C00
FFFFFEAD
FFFFF397
000000C3
0000022A
FFFFF531
000003C8
000011C2
000007C6
FFFFFB4A
0000028E
00000E84
FFFFF7FB
00000D20
000005D2
FFFFFD29
FFFFFD50
FFFFFD9E
00000C12
FFFFEF92
00001297
FFFFFAED
000004AF
FFFFFC72
00000DE4
FFFFF9B4
00000F4A
FFFFFADA
00000FBF
0000048B
FFFFF832
000003D3
FFFFF513
FFFFF54C
FFFFFB1F
FFFFFD04
FFFFF25A
FFFFF576
00000184
FFFFFEF0
FFFFFA2A
000000AF
00000517
000005C3
00000AC8
000003CE
FFFFFE19
00000501
000010E5
00000280
00000C69
FFFFFF39
FFFFF71C
FFFFF956
FFFFF797
FFFFFD75
00000458
FFFFF6B0
00000D10
FFFFFE50
00000478
FFFFFD82
FFFFF964
00000216
FFFFF702
FFFFEEF6
0000069B
FFFFFB0D
000005F4
FFFFF690
00000415
000004C0
FFFFE9CB
000004A4
00000455
FFFFF0C6
000005F7
00000AB8
000005F8
FFFFFC1D
FFFFF1EF
0000095D
000007F3
0000008B
00000681
FFFFFC11
0000075C
FFFFFC34
FFFFFFA7
00000EFA
FFFFF9C7
000003FE
FFFFF84C
00000313
0000103E
0000054A
FFFFFD6B
FFFFF11D
00000192
000003DA
000013B2
FFFFF41A
FFFFFEE8
00000718
00000D72
FFFFF33C
000005E9
FFFFF9AD
FFFFEEBC
0000016E
00000ED9
FFFFF8E4
FFFFFDD3
00000B5F
FFFFFD6E
FFFFF982
00000178
000006D6
00000B83
00000042
000003EC
FFFFFAD6
FFFFFE1D
0000078E
000002F6
FFFFFFAA
0000069E
FFFFF48E
00000D38
FFFFFEF4
FFFFF0CE
00000674
00000677
FFFFF567
FFFFF6C5
00000931
FFFFF374
000005CE
FFFFFD8E
000004A3
000004DF
00000656
FFFFFFA5
00000208
00000188
00000D21
000009DF
FFFFE4C5
000007EE
00000955
00000EB4
FFFFF884
000012EE
00000A7C
00000818
00000A92
FFFFF644
FFFFFF80
00000353
00001002
FFFFF7A7
0000075B
FFFFFC61
00000020
FFFFFA73
FFFFFADD
FFFFFE13
FFFFFEF0
000004B5
00000683
00000514
FFFFF628
FFFFE4CD
FFFFFA68
FFFFF7F2
FFFFFF63
FFFFFD5B
FFFFFECC
00000615
0000087D
FFFFFB03
00000237
FFFFF8C7
FFFFFCF0
FFFFFC48
000007A1
000003A6
FFFFFF32
FFFFF8F5
000001FD
FFFFF9ED
FFFFFB95
FFFFF72C
FFFFF7CA
FFFFF89C
00000317
00000590
FFFFFE5D
FFFFF823
00000329
FFFFF9EA
00000348
000001F7
FFFFFF8D
0000031A
FFFFFAFB
FFFFFE2A
FFFFFCF2
00000452
FFFFF836
FFFFF775
000000F8
FFFFFCA9
0000061D
000001B8
00000482
FFFFFE13
000002D4
000005AE
0000006D
00000192
FFFFF7D2
0000073F
FFFFFA9B
FFFFF662
000004C0
FFFFFD97
FFFFFA0E
00000200
FFFFFF14
FFFFFDE8
00000152
00000143
FFFFFB77
FFFFFDDD
FFFFFC69
000001A4
FFFFF961
000000AB
0000068F
00000328
00000514
FFFFF6AD
00000203
0000026A
FFFFFF66
0000017B
FFFFFF12
00000339
00000341
FFFFF91F
000002DE
0000045E
00000024
FFFFFF5B
0000036F
FFFFFBFF
FFFFFD6B
FFFFF5FE
000007E6
FFFFFAEC
FFFFF569
00000035
000001B5
000007DD
FFFFF6E7
FFFFFF22
0000028F
000000EE
FFFFF630
00000298
000003DB
FFFFF6C3
000002EE
FFFFF7B0
FFFFF7FC
000000BC
FFFFF90E
FFFFFAAB
FFFFFEF2
FFFFFCD5
0000023C
FFFFF864
00000632
0000009D
0000022F
000002CA
000004B6
00000268
FFFFFC83
FFFFFC7C
FFFFFC19
000001C7
FFFFF96D
FFFFF963
FFFFFE7B
FFFFFF0C
FFFFF8BA
0000066A
000000C6
FFFFFC76
FFFFF9A3
FFFFF8C2
FFFFFEB7
FFFFFBAB
FFFFF8A3
000000A5
FFFFF4AA
000002D1
FFFFF854
00000503
FFFFFE17
FFFFFA4F
000002F8
FFFFF881
0000085A
0000038A
FFFFF8A2
FFFFFA01
00000867
FFFFF442
FFFFF4B9
FFFFF0A4
FFFFFB21
00000612
FFFFFA55
FFFFF22D
FFFFFC63
FFFFFFC6
FFFFFC53
FFFFFC17
FFFFFEF9
FFFFFB7F
FFFFF5AA
00000C18
FFFFF82B
FFFFF8C1
FFFFFEE5
000007C2
FFFFFE21
0000131F
000008FD
FFFFF2CB
FFFFFBFC
0000053D
FFFFF95C
000001C7
FFFFFBD5
FFFFFACF
000007CE
00001920
00000566
00001981
FFFFECEE
0000011D
00000531
000011F2
FFFFE7E5
FFFFFC2D
000005D0
0000088B
00000D77
FFFFFF8C
FFFFF87F
0000121A
000001BB
00001AA9
00000834
FFFFFA4F
00000DE2
00001069
FFFFF689
FFFFF9F4
FFFFFE9D
000017F3
0000080C
FFFFFE6D
0000013E
FFFFFFBC
FFFFF990
000000FD
00000619
FFFFFD4E
000008F2
00000DD0
000010A3
00000EE3
FFFFFF1F
FFFFFF18
000001AA
000006C6
FFFFF706
FFFFFC73
000010DE
0000062F
FFFFF42B
FFFFFDB1
0000080E
00001318
FFFFF8C3
FFFFFCC0
000008C1
FFFFF80E
0000157C
FFFFF246
FFFFF852
0000010E
000002F1
FFFFFA92
00000480
FFFFF44C
FFFFFBF2
00000F3B
0000093A
FFFFF731
FFFFFB1F
FFFFF638
0000142C
FFFFFFCE
000002A0
FFFFF0D9
00001218
0000091C
FFFFFDC6
000003D1
FFFFF433
FFFFF8DE
00000972
000000C8
000008B4
FFFFF72B
00000689
000008E2
FFFFFE98
FFFFFFAE
FFFFFDEE
000014A5
FFFFFB30
00001194
00000F6D
FFFFFCC2
000004F1
FFFFFBC7
00000954
FFFFFCD7
FFFFFBB1
FFFFFB08
FFFFFE5A
000008A7
00000AD8
FFFFF2E0
FFFFF965
000000F2
00000C91
00000075
00000196
000019DD
00000A99
000005C6
00000D29
FFFFEEC8
FFFFF49B
000005D1
FFFFFD17
00000354
00000043
00000C3D
0000131D
00000B37
0000023F
000006FE
000004BF
FFFFFFB0
00000010
00000EB4
0000062A
00000548
FFFFFD16
FFFFF9E7
FFFFFCF2
FFFFF6C4
000004A0
FFFFFCA0
000004EA
FFFFD894
0000130E
FFFFF78C
0000032B
00000361
00000356
00000230
00000B76
FFFFFECF
FFFFFC2C
FFFFFC76
000002E0
FFFFF75D
000000A2
00000DEE
FFFFFE1D
FFFFF95B
000003AB
FFFFFAFE
000002A8
000002B5
00000897
0000040E
FFFFFAC2
FFFFF65D
00000471
000004F3
FFFFFF15
00000825
FFFFF1EF
FFFFF4B9
FFFFFEC9
FFFFFE59
FFFFED3B
00000362
FFFFFECB
FFFFF4F6
00000BE8
00000737
000003EF
0000017A
0000037D
FFFFF4E0
FFFFFB97
00000050
00001101
000001D8
FFFFEF5E
00000D22
00000705
FFFFF851
00000688
000007A1
0000095E
000006E0
00000838
FFFFFB43
FFFFFB70
0000020C
000002A8
FFFFFD11
000002DD
FFFFFD96
FFFFFDC7
FFFFFDDC
FFFFE325
0000019B
FFFFFCE0
000008BD
FFFFF069
000003B8
FFFFF892
FFFFE7FC
FFFFFA8F
FFFFFB75
00000478
0000036B
0000059C
00000C10
00000625
00000BEF
0000055C
00000BAF
00000BF4
FFFFFF10
FFFFFFAC
000005AF
FFFFF98F
000007C0
FFFFFA54
FFFFFBA8
FFFFF8DC
00000441
FFFFF9F4
FFFFF967
000006FB
FFFFFFB8
FFFFFBD7
00000575
0000064E
FFFFFFDE
FFFFF84A
FFFFFA89
FFFFFC86
FFFFF996
FFFFFB74
FFFFFCFE
FFFFFD7B
000001E6
0000008F
FFFFFF87
FFFFF83A
FFFFF8E1
0000054E
000005EE
000005C7
00000252
FFFFFC00
FFFFFD69
000006F2
FFFFFABF
FFFFF992
FFFFFA65
000002E8
FFFFFB2B
00000637
FFFFFBD3
FFFFF991
FFFFFEFE
FFFFFAAC
FFFFFF38
FFFFF74B
FFFFFD5C
FFFFFAF5
00000374
FFFFFB36
FFFFF924
FFFFFFD7
FFFFF946
000002B6
FFFFFA96
00000168
00000274
FFFFF8E9
FFFFFE64
00000389
FFFFFD5A
00000520
00000492
FFFFFE60
FFFFF7D9
00000048
00000386
00000B2C
0000013C
FFFFF9C1
FFFFF41F
00000FCD
00000192
0000056C
0000000C
000010C6
00001481
FFFFF9E3
0000009D
FFFFF7F4
FFFFFB1E
0000105F
00000D92
000003A7
000004EF
FFFFFFA8
FFFFF49C
FFFFF052
000004E8
0000105F
00000106
000005F4
00001009
00000790
000009EE
00001515
00000DD3
FFFFFAB4
FFFFF2C5
000007A3
FFFFF49B
00000F58
00000BFA
FFFFFC96
00000155
0000064A
FFFFF486
00001783
FFFFFB37
FFFFFDD2
FFFFF832
000014FF
FFFFFA4F
FFFFF9DF
FFFFFBDB
0000021D
000002DA
FFFFFCAF
000005B1
FFFFF7D7
000000E6
000005A2
FFFFEFF0
FFFFFCA0
FFFFEF9D
FFFFF007
000006B2
FFFFFC53
FFFFF9F5
FFFFF97B
FFFFFA33
0000010E
FFFFFF17
FFFFFFF9
FFFFEE73
FFFFF6AB
0000089D
FFFFFB64
00000497
00001193
FFFFE82E
0000034A
FFFFF3DC
FFFFFA74
FFFFFDC0
FFFFFE3F
FFFFF70D
00000C7E
00001B48
00000574
00001380
00000434
000009E5
0000126C
FFFFF512
FFFFFE7D
00000301
0000027B
000000B4
00000744
FFFFFF4A
FFFFEB69
00000B2E
FFFFF4BE
0000013D
FFFFF00E
FFFFFA84
FFFFE636
FFFFFD48
FFFFFEDE
00000FD7
000000BC
0000088A
FFFFFDC3
00000094
FFFFFD23
FFFFFDD2
00001284
0000179B
FFFFF386
000014B6
FFFFFE9C
000005F7
00000B3C
FFFFFEBF
FFFFFCEF
FFFFFEC1
00000387
000011DC
00000FD4
FFFFFC5C
00000186
FFFFFA19
FFFFFC39
00000614
00000041
00000192
00000046
000011FB
000007CA
FFFFF8A5
00000826
00000661
FFFFF709
00000673
00000C5E
FFFFF28F
FFFFFA8C
FFFFFD86
00000DE3
FFFFFD2A
00000681
FFFFEEE6
FFFFFB69
FFFFF4B2
FFFFFD29
000001D1
FFFFFCA6
000005EE
FFFFFBF5
FFFFFD8A
FFFFF8DE
00000BAF
FFFFF554
0000141A
000009BD
FFFFF895
000002B6
FFFFFCA9
00000B41
00000ABB
FFFFF6E6
0000048D
000000BE
00000106
FFFFED05
0000101B
00000603
FFFFF4DF
000005EC
FFFFF914
FFFFF8DA
000004F5
000011DE
0000049D
FFFFFA73
0000100F
FFFFFC7D
00000593
00000097
00000687
0000069D
00000054
FFFFF981
0000009E
000001C4
00000E95
00000566
00000271
00000ED1
FFFFFE5D
00000535
000005E1
FFFFFF98
FFFFF44C
0000036B
FFFFFB60
FFFFFCCA
000012BC
000011CD
FFFFFCF7
FFFFF5C1
FFFFFC2A
FFFFFD37
FFFFF8DB
000009BA
FFFFEC25
FFFFFE7B
FFFFEAFB
00000B5B
FFFFFE59
FFFFFD59
0000011B
00000279
00000849
0000012B
FFFFFAF6
0000080C
000019DC
00000520
FFFFFB56
00000CA4
FFFFF98F
00000960
00000073
00000073
FFFFF92D
00000F15
FFFFF2A7
FFFFE8CF
000011D9
00000D23
FFFFF24B
0000060B
000001A1
FFFFFA1A
FFFFFA08
000004C2
00001284
00000462
00000D0B
FFFFF516
000008B0
000005BD
0000067A
FFFFF8E9
00000531
FFFFF063
00000240
FFFFFFEF
00000560
FFFFFAC9
0000032F
000006A3
0000057D
0000082D
FFFFF33C
00000434
000004A1
FFFFF773
FFFFFB84
FFFFF87D
0000148A
00000809
000004D6
00000F58
FFFFFC2D
FFFFF088
000004DD
00000861
00001011
FFFFFBF9
FFFFF621
00000D82
00000782
000011FB
00000A1F
FFFFFCF4
0000063B
00000057
FFFFEF9D
00000386
FFFFF9DB
FFFFF67D
00000274
FFFFFE79
0000071D
FFFFF9FC
FFFFF5ED
FFFFFC97
0000049B
FFFFF663
FFFFF51F
00000BE1
00000542
00001079
00000025
FFFFF4BD
FFFFFCD0
0000006C
FFFFF092
000002DB
FFFFF5AA
000001E4
00000743
FFFFFE1D
00000065
FFFFF0E7
00001423
000000D2
000003D2
000001B8
00000174
FFFFFFDE
000001E2
00000AED
00000A5D
FFFFF668
00000D23
00000352
FFFFF8FC
00000A15
000010AD
FFFFF601
FFFFFED3
00000329
00000693
00000225
00000C77
FFFFFF7D
FFFFFFE4
FFFFF75D
00000551
0000045B
000000C9
FFFFFE18
FFFFF9A0
0000081B
FFFFFFCB
00000A69
FFFFF459
FFFFF780
000002DF
00000552
00000DA7
00000894
00000231
