FFFFFC40
FFFFF801
FFFFF9AF
000006C1
FFFFE905
FFFFF803
000001D6
FFFFF952
FFFFFD40
00000879
000005AB
00000471
FFFFF5F9
FFFFFE16
0000073D
00000AE3
00000410
FFFFF869
00000098
000005A6
FFFFF880
FFFFFE93
FFFFFC34
FFFFFCE3
FFFFF7CA
FFFFFFB2
000006D5
0000063E
0000068B
00000661
000001FD
FFFFFADE
FFFFF438
00000B4D
00000974
FFFFE60E
00000B4F
FFFFF97F
0000143B
00000A32
FFFFF8D8
000005FA
FFFFEF2E
0000059F
00001A3D
FFFFECDF
000004DD
FFFFFE8A
00000978
FFFFF6E4
000007C3
000006EF
0000066B
FFFFF670
00000AB6
00000488
00000192
00000C61
00000E18
FFFFFAD0
FFFFF50C
00000BB1
FFFFF813
00001128
FFFFFE2D
FFFFF964
00000C53
000004D3
FFFFFDA0
FFFFFB1A
000002B3
FFFFF364
FFFFFF45
FFFFF405
000004D4
00000906
000001EF
FFFFF2C9
FFFFFF1C
0000000B
00000663
00000137
00000168
0000025F
00000626
FFFFFD2E
000004EB
0000034D
FFFFF93A
0000122B
000008EE
000010A0
FFFFF94F
00000C66
000003D0
FFFFFC92
FFFFFC7E
000004FB
00000366
00000F44
0000090C
0000096D
000006B8
000003E5
00000D5A
FFFFFA45
FFFFFE9A
000009B1
00000024
0000119F
00000862
00000784
FFFFFCA4
FFFFE5EB
0000059A
0000063C
FFFFFF88
000001D4
00000799
00000240
000001BB
FFFFE5BA
000005E9
00000649
FFFFFE16
0000010B
000002CE
FFFFF319
