FFFFFEE6
00000201
00000245
FFFFFE96
FFFFFF0C
FFFFFEAC
FFFFFEE3
FFFFFF35
FFFFFF5F
000001B3
FFFFFFA1
FFFFFE19
0000042E
000004B0
00000C3D
000005B5
FFFFFE01
0000003D
FFFFFE59
FFFFFF07
FFFFFE45
FFFFFF28
00000094
000000AF
FFFFFE25
000000AE
FFFFFE74
FFFFFDDA
00000095
FFFFFF03
00000194
FFFFFE40
000001EE
FFFFFF02
00000480
0000014D
00000432
000005D3
0000027E
0000010F
0000023E
0000026F
FFFFF64E
FFFFF6BE
00000247
0000038E
000007BB
00000358
000003E2
000001C0
000001BE
00000451
00000035
FFFFFE92
FFFFFDFB
000000B7
00000053
0000020B
FFFFFEDF
000001B5
FFFFFDFC
0000013A
00000C84
00000BB1
0000131E
000010BE
00000F87
00000F7E
00000B6D
FFFFFE0D
000002BD
00000542
000006C7
00000897
00000CA4
000000E4
000003ED
000001F4
0000017C
0000071B
0000082E
000004CE
FFFFFF62
FFFFFE84
0000022C
000001D6
FFFFF52F
FFFFFF49
0000054E
000007EE
00000FF6
00001000
00000EC5
00000477
0000043F
FFFFFE2C
000004A9
000001A2
000002EE
00000589
000003F1
00000295
00000900
000007F5
00000102
00000000
0000027A
000002E0
000006F9
FFFFFE88
FFFFF97A
0000006F
0000022C
FFFFFF0B
FFFFF7C5
FFFFF9C8
FFFFFB95
00000B50
000000E2
000000BE
000005AB
FFFFFC8C
FFFFFD7F
FFFFFDE3
0000011F
00000242
00000858
000007F7
00000A43
000004C7
000005E6
00000EF0
0000074F
0000039C
FFFFFE46
FFFFFF01
000000BE
0000043C
00000100
FFFFF7CC
FFFFFE98
FFFFFED5
000002BF
00000913
00000C0C
00000605
000005CE
FFFFFFF3
FFFFF4AA
FFFFF1DB
FFFFF776
FFFFF67B
000003C5
00000120
000005C6
00000150
00000509
00000538
0000027D
000005DE
00000497
FFFFFF9B
FFFFFCAE
FFFFFCB6
FFFFF49E
FFFFFB5E
000007E9
FFFFFBD9
FFFFFF90
0000044E
FFFFFEBD
00000B56
0000085D
00000654
000009A5
FFFFFFD3
FFFFFA57
FFFFF9E2
FFFFF7D8
FFFFFA86
00000319
FFFFFD9D
FFFFFFEA
000002B8
00000071
FFFFFD3E
00000157
FFFFFE84
FFFFFC13
FFFFF8BA
FFFFF893
FFFFFA67
FFFFF950
FFFFFC88
000008A5
FFFFFC80
00000139
000007E8
FFFFFAE3
0000029D
00000CE5
0000099A
FFFFFECB
FFFFFB62
FFFFFF0A
FFFFFB87
FFFFFACE
000000B3
0000024C
FFFFFA06
FFFFFE20
FFFFFBB5
FFFFFCBF
FFFFFE42
FFFFFBA3
FFFFFB92
FFFFFE26
FFFFFD35
FFFFF8E6
FFFFF670
FFFFF65D
00000360
00000A17
FFFFFBA5
00000374
00000082
FFFFF91D
0000025A
0000057C
FFFFFE15
FFFFFAF5
FFFFFDB4
FFFFFBE4
00000028
FFFFFE64
00000155
FFFFFD6E
FFFFF7ED
FFFFF648
FFFFF95D
FFFFFA54
FFFFFA82
FFFFFBF4
00000388
0000067A
000001D9
000000C4
FFFFFCE1
FFFFF4DA
0000095B
00000C99
00000193
FFFFFF31
FFFFFE95
00000561
000000AD
FFFFFDB2
FFFFFBD6
FFFFFF82
0000019F
0000002C
FFFFFB98
FFFFFA88
FFFFFC0B
FFFFFD92
FFFFFCE0
FFFFFA08
FFFFFB00
FFFFFCF7
FFFFFCAD
000000EF
00000951
000007E2
0000015B
00000410
FFFFF792
FFFFFB1F
00000D7C
00000BE8
FFFFF675
FFFFFF28
0000004F
00000049
00000AD4
FFFFFD30
0000027B
00000204
FFFFFFA5
FFFFFEBE
FFFFFAA7
FFFFFA7E
FFFFFC26
FFFFFFB0
000000AA
FFFFFCE0
FFFFFD64
FFFFFECA
000000A0
0000050A
000007AD
0000071D
000003A7
FFFFFFD5
000003C9
00000678
00000C82
00000DFF
FFFFF31E
FFFFFB4E
FFFFFCE7
FFFFF48C
0000048A
00000638
FFFFFB72
FFFFFDDD
FFFFFA77
FFFFFC2C
FFFFF9D4
FFFFFB35
000000D2
FFFFFB9F
FFFFFD85
FFFFFB14
00000489
0000061F
FFFFFE5F
FFFFFEE9
00000226
FFFFFE2F
FFFFFA0F
FFFFFB5C
0000036F
000006BC
000014B5
000012C1
FFFFF577
FFFFFA61
FFFFFEAB
FFFFF9AB
00000110
FFFFFF31
FFFFF764
FFFFFA7D
FFFFFA88
FFFFF305
FFFFF597
FFFFFF82
FFFFFBD5
00000119
0000065D
00000CA8
000007EC
00000417
FFFFFE01
FFFFFEAC
FFFFFA1A
FFFFF6E2
FFFFF176
FFFFF472
FFFFF3F7
FFFFFAB1
00000216
0000073A
FFFFF7C8
00000863
00000190
FFFFF63C
00000324
FFFFF3DC
FFFFFC63
FFFFFD86
FFFFF885
FFFFFACF
FFFFF9A8
FFFFFB23
0000032E
0000094A
00000E43
00000816
00000A3A
00000506
FFFFFBE6
FFFFFD7B
FFFFFCB5
FFFFFD03
FFFFF66A
FFFFF1FE
FFFFFB06
FFFFFDC4
FFFFFED9
00001185
00000A36
00000104
0000038C
FFFFFA76
0000025F
FFFFFF90
000002EC
000000DF
FFFFF8C0
FFFFFFEF
000004E0
0000062B
0000074F
00000726
000006ED
00000ACB
000008E8
000005AD
FFFFFF38
FFFFFCAF
FFFFFC41
00000084
FFFFFE41
FFFFF7FC
FFFFFDB1
FFFFFDEC
0000039F
000013B6
000000F7
00000194
00000557
00000CF0
00000267
000002CB
0000081B
000004B2
000003A7
000003F5
0000064C
000006E1
000005B3
00000007
00000641
00000B3C
0000020F
00000695
FFFFFF78
000002D5
00000472
00000195
000006FB
FFFFFB0C
FFFFFD75
00000011
00000B3F
00001314
00000D0B
FFFFFFB6
000004D8
000006AD
00000A1B
000000FC
000000B3
000009C7
0000096D
000001C6
000006B9
00000521
000003B1
0000042E
000007CA
000003C4
0000034F
FFFFFF92
00000302
0000058E
00000809
0000029E
00000BC0
00000917
000006E3
00000C51
000011EB
00000F7D
00000884
00000173
00000557
00000655
0000089D
00000491
00000471
00000B5C
00000742
00000105
00000361
FFFFFE0E
FFFFFE50
FFFFF94D
FFFFFBF8
FFFFF723
FFFFFA86
00000361
00000837
0000034B
00000425
000001DF
00000CA1
00000970
000007FE
00000087
00000451
00000264
FFFFFC75
FFFFFC64
00000244
000006CA
00001098
00000398
0000093F
00000779
00000B5D
000003FE
00000404
00000679
FFFFFFD6
FFFFFCF3
FFFFF50A
FFFFF1F8
FFFFFB16
00000682
000007CC
0000026C
000001CA
000003A6
0000078C
000005A5
00000890
00000BA3
0000084E
FFFFF1B9
000007B7
00000079
FFFFF630
000004A5
000007E1
00000ADD
000008F3
00000075
000004DD
FFFFFCA3
0000042D
0000047C
000000A6
FFFFF2FF
FFFFF7B0
FFFFF752
FFFFFED1
00000701
000008C2
000003EC
FFFFF9D8
0000042D
00000536
000000FF
00000B05
00000848
00000F7A
000009A7
00000344
FFFFFE6E
FFFFF84D
FFFFFE7D
00000523
00000BE3
000002B9
00000463
00000268
FFFFFE8C
FFFFF9A0
FFFFF61B
FFFFF753
FFFFF247
FFFFF6F8
FFFFFA85
FFFFFF47
00000553
000001D9
FFFFFFEA
FFFFFB54
000002B4
000003DD
00000352
000006E2
FFFFFDCE
00000654
000001EF
0000035C
000002FD
00000605
00000652
000004C1
0000038E
FFFFFB7E
000000D0
0000052A
FFFFFADB
FFFFF2A6
FFFFF74A
FFFFFB29
FFFFFDA7
FFFFFEE9
000000F7
0000007D
FFFFFCCB
FFFFFF28
FFFFFDD9
FFFFFFC0
00000557
FFFFFC52
FFFFFED1
FFFFFFDE
0000006E
00000752
000007D0
00000085
0000011D
00000353
0000026D
00000557
FFFFFD2C
FFFFFA3B
FFFFFCD0
00000087
0000000B
FFFFFCA6
FFFFF83C
FFFFFDEA
FFFFFC67
000003A4
FFFFFC6E
FFFFFBB7
FFFFFA85
FFFFFCE9
FFFFFAB1
00000653
000006CA
00000257
FFFFFE52
0000022A
000000EF
000002D9
000005E4
FFFFFCE1
00000087
000001A6
00000C37
0000148D
00000AE8
FFFFFD99
FFFFF71E
FFFFFD36
00000088
00000096
FFFFFDF6
000000A6
FFFFFF5B
FFFFFFA9
FFFFFD60
FFFFFC65
FFFFF8F8
FFFFFDC5
00000332
00000010
0000031A
00000045
00000065
FFFFFE6D
FFFFF776
000001DD
000005C0
000001A6
FFFFFDD9
00000148
0000020F
00000C4A
00000137
FFFFF5A7
000000E6
FFFFFECE
FFFFFC9C
FFFFFE1D
FFFFFCCC
000001BE
00000222
FFFFFB69
FFFFFF3D
FFFFF8DF
FFFFFF87
FFFFFF7A
FFFFFF8A
FFFFFBA0
FFFFFBF2
00000294
000001E1
FFFFFDAF
FFFFFF13
000003C8
FFFFFECD
FFFFFF48
00000078
0000002D
00000258
FFFFFA73
FFFFF9FB
FFFFF8EC
00000161
FFFFFD66
000002F4
00000A75
0000099B
00000407
00000915
00000874
000002AC
00000162
FFFFFD64
FFFFF9FF
FFFFF941
FFFFF3ED
FFFFF590
FFFFF8B0
FFFFFCAF
00000ABD
0000097C
FFFFFE4F
00000217
FFFFFF13
000001BE
FFFFFDD2
FFFFFE9B
00000093
FFFFF8D7
FFFFF270
FFFFF18B
FFFFF669
FFFFF64A
FFFFF7A0
FFFFF3CE
FFFFF7FB
FFFFFDF3
FFFFFE4C
FFFFF319
FFFFFAEC
FFFFFB9B
000001B2
FFFFFE6C
FFFFF8B1
FFFFF8F6
FFFFF0B4
FFFFF446
FFFFF845
FFFFF8EF
FFFFFDDA
FFFFFE08
0000017E
000001BC
FFFFFF20
000000AE
FFFFFFFE
FFFFFE9E
FFFFFF25
FFFFFA96
FFFFFC9F
FFFFFC7B
FFFFFCB3
FFFFF944
0000011E
FFFFFFEE
FFFFFEFE
FFFFEBE3
FFFFF930
FFFFF7B8
FFFFEC59
FFFFEED1
FFFFF40B
FFFFFEA5
FFFFFEBA
FFFFF783
FFFFFABD
0000016C
00000135
FFFFFECC
00000030
