00000162
0000002A
000000E9
0000013E
FFFFFFB2
0000005B
FFFFFE2F
000000A8
FFFFFF80
00000077
000001B6
FFFFFE5E
00000340
000004EF
00000A06
00000645
FFFFFFDA
FFFFFE8A
000001FB
000001AE
FFFFFF4B
FFFFFE43
FFFFFF9B
FFFFFEB5
000001E4
FFFFFF07
FFFFFDC3
00000163
000001AB
00000043
FFFFFE37
0000021F
0000009A
000000C5
000007E1
00000604
0000062E
00000325
000000BD
00000739
000006DB
00000E34
FFFFF3B6
FFFFFB9C
00000BA2
000009EA
00000064
000005F6
000007A8
00000426
0000018F
000002E9
FFFFFF76
00000133
FFFFFE49
FFFFFF83
FFFFFFB4
00000203
FFFFFFD7
00000D28
00000E45
000001DF
FFFFFF72
00000BE3
00000A2A
0000027D
00000481
0000029F
FFFFFF1A
FFFFF427
000009FE
00000ED6
00000DD3
00000677
00000C4B
00000317
000004B7
0000072E
00000BB8
00000DA1
FFFFFDBB
FFFFFC99
000000F2
0000011B
FFFFFE0C
FFFFFEC2
FFFFF559
00000C3B
000011A2
00000B22
000009BE
00000650
00000CFC
FFFFFD81
FFFFFFFD
0000009C
FFFFFB41
FFFFF74C
000001FE
00000D6C
0000120A
000008E2
00000895
00000C17
00000DA2
00000CCC
000004AD
000001F2
0000063F
0000092E
000007CC
00000240
00000167
FFFFFFAF
FFFFF409
000001F9
FFFFFE73
000001DE
FFFFFD47
FFFFFC42
FFFFF55E
FFFFEF2F
FFFFF1B9
FFFFF670
FFFFF0C6
FFFFF9E7
FFFFFD9B
0000092D
0000095B
0000064D
000001BE
0000082B
0000045D
000008CA
00000433
00000337
000006AD
000006FE
00000981
00000581
FFFFFDCB
FFFFFFC0
FFFFF70D
000005DC
000004EF
000003FE
FFFFFAF9
FFFFFA8B
FFFFFA81
FFFFF3B8
FFFFED6A
FFFFED63
FFFFE913
FFFFF37A
FFFFF5D8
FFFFF860
FFFFFCED
FFFFF86E
FFFFF6FE
FFFFF89A
FFFFFF25
00000216
00000425
0000045F
000000D1
FFFFFD9B
00000956
00000840
00000008
00000464
0000065D
0000069E
000006CE
000006A6
000004F7
FFFFFDE3
FFFFFA78
FFFFFAD6
FFFFF584
FFFFF581
FFFFF173
FFFFF66B
FFFFF182
FFFFF32A
FFFFFCF9
FFFFFD38
FFFFFB2C
FFFFFEA1
00000097
00000426
0000096A
FFFFFE8D
00000802
0000009B
00000888
00000392
FFFFFFD5
0000082A
00000D66
00000BEC
FFFFFE10
0000013A
0000065F
00000685
00000BA7
00000109
00000133
00000151
FFFFFFD0
FFFFFE51
FFFFFB42
FFFFFC45
00000354
0000071D
00000299
FFFFF9E7
FFFFFE66
000003CF
0000097A
000006AE
00000261
FFFFFACB
0000050F
0000039D
FFFFFCD9
000006C5
00000383
00000194
FFFFFBC4
00000096
FFFFFFFA
0000033E
00000367
FFFFF8F5
0000009D
00000874
0000095D
00000052
0000029C
00000440
000009CF
00000A24
000000FD
FFFFF9E9
00000795
0000067D
00000983
000005E7
FFFFFBAC
FFFFFB08
FFFFFF8A
00000213
000003D5
000009E7
000000D3
00000226
0000032A
00000375
000000E4
00000037
000002EA
FFFFFDA8
000007C2
00000DC4
00000BB4
00000A6A
00000A9C
000005A9
00000241
000003BB
FFFFFB4F
FFFFFDB4
00000209
FFFFFC46
000002AC
FFFFFEE4
FFFFFEAD
FFFFFCC7
FFFFF06F
00000C6A
00000360
000002EB
FFFFFF8A
00000324
0000003A
0000014F
00000074
000002EB
0000014C
000004DE
000004BD
00000E68
000008C5
0000136B
0000088A
0000018B
000000E7
FFFFF905
FFFFF867
FFFFF775
FFFFFABA
FFFFF62C
FFFFF3FC
FFFFFABA
FFFFFE7A
FFFFFC75
00000127
000006B3
000002EB
00000F40
00000429
000003DA
000000F5
000000DA
000001F9
00000072
FFFFFF35
FFFFFEF3
FFFFFF67
00000B22
0000042B
00000297
00000293
000000AD
FFFFF845
FFFFF77E
FFFFFCF1
FFFFF7CC
FFFFF834
FFFFEECB
FFFFF3C5
FFFFFB17
FFFFF900
FFFFFE4D
000001D2
FFFFFDCE
000001DC
0000027E
FFFFFFFB
0000018E
FFFFFB90
FFFFFD1D
FFFFFC83
000002A8
FFFFF878
FFFFF935
FFFFFEA1
00000022
FFFFFB3F
FFFFF8CF
0000000E
00000514
FFFFFEE4
FFFFFFB1
FFFFFD7E
FFFFFA67
FFFFF18C
FFFFE741
FFFFF8FD
FFFFFA3B
FFFFF8F3
FFFFFB47
00000125
000000AC
FFFFFAEB
000000D2
00000901
FFFFFDDB
FFFFF36B
FFFFFFE8
FFFFFEFC
FFFFFE85
FFFFFAC8
FFFFF2E9
FFFFFEBE
FFFFFD23
FFFFFF2B
FFFFFC74
000003E1
0000009F
0000040E
000002F0
0000008A
FFFFFA93
FFFFF418
FFFFF660
FFFFFAEB
000000DF
00000A2F
0000010C
FFFFF80A
FFFFFEB5
000004A9
00000415
00000859
FFFFFB92
FFFFEF71
FFFFFA0C
FFFFFADD
FFFFFA66
FFFFF74C
FFFFFB2B
000002AD
00000277
00000282
FFFFFF70
FFFFFE9D
0000087D
000003AE
00000672
00000667
00000218
FFFFFEA6
FFFFFDA5
0000047E
00000B28
00000873
FFFFF6D7
FFFFFCCE
000000C9
000001F4
0000012E
FFFFFD19
FFFFF9D4
FFFFF3D2
FFFFFE31
000000CF
000002B7
FFFFF9A3
FFFFFB8A
0000022C
FFFFFC5E
FFFFFEB6
FFFFFA66
FFFFFDF3
000005CE
000003A6
000009E4
000006D2
00000387
FFFFFC7B
FFFFFECA
000006A0
000007A3
0000089D
FFFFF8A8
FFFFF7E6
0000005A
000000AB
FFFFFF05
FFFFFC1D
FFFFFB94
FFFFF1BD
FFFFFBC1
FFFFFEC0
000003A3
FFFFFF8D
FFFFFA22
000000B1
0000021A
FFFFFF35
FFFFF7E0
FFFFFB21
00000009
0000012B
000007F4
FFFFFEA5
000000B9
000000CA
0000005B
0000015F
FFFFF466
FFFFF37C
FFFFFA24
00000570
0000056E
00000234
000002E6
0000025D
0000027C
FFFFFB89
000004AE
FFFFFE8A
00000047
0000055E
000002C8
00000355
FFFFFFAD
FFFFFCD8
FFFFF784
FFFFF7CF
00000165
00000308
00000AA5
FFFFFE37
FFFFFC90
FFFFFC53
FFFFFCFD
FFFFFBDD
FFFFF4BE
FFFFF91A
00000C98
000001C6
000006D4
00000A22
FFFFFF8F
000009B0
FFFFFE45
000004C6
00000B91
FFFFFDCB
FFFFFF6A
00000566
0000019F
000005E4
0000028C
FFFFFD46
FFFFFB6B
00000214
00000370
0000046D
00000854
FFFFFD8A
FFFFF9C4
FFFFF55A
FFFFF888
FFFFFF12
FFFFFC9A
FFFFF0FE
FFFFF8BD
00000972
FFFFFDD8
FFFFFAF1
0000131C
00000CA7
FFFFFB39
0000042D
00000503
FFFFFCDC
FFFFF95E
000001CC
FFFFFE07
FFFFFE67
00000038
000007FA
0000016B
00000AC9
00000492
FFFFFB76
FFFFFB07
FFFFFE73
FFFFF992
FFFFF496
FFFFF4C1
FFFFFE8C
FFFFFC3E
FFFFF455
FFFFF79E
FFFFFFAD
FFFFF840
FFFFFE69
00000591
00000B36
00000A85
0000006D
FFFFFE26
FFFFF7E1
000001F4
0000009A
00000048
000003E0
00000643
000004D8
00000ABB
00000A08
FFFFFEA7
FFFFF5C7
FFFFF0F3
FFFFF837
FFFFF437
FFFFF144
FFFFF817
00000194
000007FC
FFFFFD6F
000003CE
FFFFFEC2
000001DE
FFFFFDAA
FFFFFB7A
00000450
FFFFFB62
FFFFFA37
00000178
FFFFFC5E
FFFFFF39
FFFFFE5D
FFFFFDCE
0000011C
000001F5
00000616
000008A1
000000AD
FFFFF6D0
FFFFF70D
FFFFF77A
FFFFFF5D
FFFFF8B8
FFFFF86A
FFFFFC39
00000413
000004E6
FFFFFF24
0000053E
00000C30
000000E4
FFFFFB8C
FFFFFA76
00000498
FFFFFE84
FFFFFCD1
00000167
000002F4
FFFFFE3D
FFFFFD2A
000004C9
000003C9
FFFFFF00
0000033D
FFFFFD57
FFFFFA41
FFFFF589
FFFFFFA4
0000010F
FFFFFB97
FFFFF67C
FFFFF983
FFFFF6E4
FFFFFDCE
FFFFFFE5
000005F9
000006FB
00000504
000000DD
FFFFFDEA
FFFFFE84
000000E9
00000505
00000E2C
000003AB
000000F8
0000022A
FFFFF6F0
FFFFFD7A
0000022A
FFFFFDD1
FFFFFBF8
FFFFF939
FFFFF732
FFFFF5AB
FFFFFAA0
FFFFFB5F
FFFFF764
FFFFF50D
FFFFF816
FFFFF90E
000001A4
0000072F
00000F45
00000394
FFFFF9E3
0000016C
FFFFFDCB
FFFFFE75
000004C0
00000CFB
00000D7E
00001699
FFFFFE5F
FFFFF95D
FFFFF916
FFFFFEA0
00000242
FFFFFC0A
FFFFFECF
FFFFFCE5
FFFFF490
FFFFF3BE
FFFFFB54
000000B0
FFFFF93E
FFFFF96B
FFFFFD0A
FFFFFBE6
FFFFFD33
0000037E
000007A5
FFFFFE64
FFFFFDC8
0000001A
0000019F
000001AF
FFFFFC0D
00000B92
FFFFFF5C
FFFFFBD1
FFFFFEC3
000006E1
00000447
000006FB
0000077D
00000631
00000B7E
00000169
FFFFF983
00000121
00001066
00000FF6
0000021A
000009F4
FFFFF9F7
00000060
000004B0
00000702
00001239
FFFFFB6B
FFFFFC9E
FFFFFFBB
00000068
0000009C
FFFFFF55
0000072C
FFFFEB82
FFFFF118
FFFFF5E1
0000037E
00000C83
0000095A
00000E9B
000007C4
00001115
000017A3
00000AE9
0000092B
00000700
000002EC
0000058B
00000CD6
000005A3
000003CB
00000354
FFFFF9FF
FFFFF977
000002EC
00000116
FFFFFE09
00000101
0000022A
0000000E
FFFFFFCE
0000039C
0000053B
000000FE
000002CF
00000257
00000322
00000D97
00000878
0000045F
000011DE
00000FDC
FFFFFC93
000000B4
00000F20
00000BCF
000006D0
00000324
00000927
000007B2
00000611
0000011D
FFFFFE3F
FFFFFFCB
0000008C
