0000011F
FFFFF2CC
FFFFE6EF
0000027F
00000040
FFFFF73E
FFFFE65D
FFFFF5A9
00000940
FFFFFEE5
000007F4
FFFFDB61
000008FF
000007C2
0000089B
000001CF
FFFFF9A8
FFFFE3D1
000002B6
000005E4
FFFFFAE4
000005C5
000003EC
00000570
FFFFF2B1
0000040B
FFFFFFC0
FFFFFA54
FFFFFDC6
00000121
00000803
FFFFF5D7
00001093
0000029A
FFFFFF54
0000138B
FFFFFC6C
FFFFFBE0
00001D2C
FFFFE355
00000057
00000F71
FFFFF7EF
FFFFFC85
FFFFFEBC
FFFFF73F
000008A6
0000034E
FFFFF7AE
FFFFFF40
00001802
000008CB
00000A5C
00000C10
FFFFFF24
FFFFFF82
FFFFFFD4
00001EA2
00000161
000008CD
FFFFF127
00000233
FFFFF9AD
FFFFDE06
FFFFFC28
0000085F
FFFFFD31
00000975
FFFFFF54
00000C41
FFFFF1BE
FFFFEB34
00000761
FFFFE364
000001D3
FFFFFB62
FFFFF5CD
FFFFE056
FFFFE7C6
FFFFFCF6
FFFFE63D
0000068E
FFFFFEDB
FFFFEA67
FFFFFAF4
000003D1
00000AC4
0000081A
FFFFEEBA
00001E30
00000994
FFFFE744
FFFFF75E
000006D9
FFFFF1E7
FFFFF0AD
000005C4
00000331
000001BD
000000D3
FFFFEEB6
000006FE
0000055E
00000121
000008F3
FFFFF133
0000040A
00000D9A
000005F6
000010C1
FFFFEBDC
000001BD
00001D7A
00000F33
FFFFFFC4
FFFFF896
0000023D
0000035E
FFFFF2D5
FFFFFD52
00000034
00000E73
00000DE1
000005DE
FFFFDE52
000001D5
FFFFFD17
000009C3
