01B7
FACA
F7F3
FCE5
FF58
07EA
FD13
015F
04FF
0277
FB14
FD9A
FB57
00A9
009C
FAD7
F99C
0183
0345
00C3
00B5
0354
079D
FA31
FBD9
F8BA
03F3
FABE
032D
FDBB
FDBA
F8AE
010A
006B
01FF
FD73
01CC
05B8
F87F
FB7B
0309
FB9F
025E
00D6
02ED
03DA
FED1
07B7
01CD
FE2F
F95A
049B
FD66
F910
FCE3
FF18
FEB7
F94B
06AF
061D
02DB
FE93
01F5
FB11
047B
F958
0435
F159
FBEC
FC7B
0138
083B
FB9B
FA23
030B
FE36
F5E0
FCC5
02D1
01E1
FD54
02CC
00FC
06A0
FF65
F67A
FDA4
FE97
0397
FCD0
F9EB
0270
FACE
FC63
0883
FEF9
0086
FCC4
0013
FDDC
0191
04D3
01CD
039F
FB83
FF2E
F3E4
F49D
0274
000C
0749
05B1
0930
F63D
FA36
FEFC
FD9F
FD88
018E
FD13
FB6A
0533
FF40
0226
06BF
FF66
F707
FD48
0245
045A
FA90
F9D7
00BC
FA93
FDAC
040A
029A
FE72
0383
F82D
012C
FF96
03BC
F72C
FDC2
04F0
01F5
FE7B
014B
FD71
FFE6
01E6
F7A9
0529
0384
FF7C
FA30
0334
FFDB
FC01
FAEA
0332
FEBF
FEE5
FD96
0A02
FB2D
03C1
F9FE
F7FB
